#version: 0.2
e n
e r
Ġ d
a n
i n
Ġ t
o n
e s
h e
Ġ Ð
Ġ a
o r
a r
Ġ s
Ġd e
Ð ¾
c h
i s
e l
Ġ w
a t
i t
Ġ v
Ð °
Ð µ
Ġ l
a l
Ġ p
Ġ o
r e
Ð ¸
A R
Ġ b
Ġ in
Ġ m
e d
Ġ c
a s
u n
Ġt he
Ð¾ Ð
i e
Ġ e
Ñ Ģ
Ñ Ĥ
Ñ ģ
an d
N E
Ð ½
Ġ f
r o
AR T
t e
u r
Ġ h
i j
Ġ 1
in g
Ġ g
Ġ S
i l
S T
ST ART
Ġ en
e t
Ã ©
Ġ n
s t
i on
en t
i c
Ð »
a m
Ġo f
d e
Ġ A
l e
o m
o l
u s
i g
Ġ he
Ġ M
Ġ z
Ġ B
Ġt o
Ġ C
Ġ D
r a
Ġv an
Ġ and
Ġ T
L I
LI NE
NE W
NEW LINE
o s
a d
er s
Ġ H
Ð º
Ġ un
es t
Ġ 2
i d
Ġ P
Ñ ĥ
Ġ (
u t
Ġ1 9
i m
q u
Ġ L
. _
i ch
Ġ k
Ġ I
o or
e m
Ġl a
t er
Ġ E
Ð ²
c t
Ġ R
Ġhe t
Ġa l
Ġ G
A P
A G
Ġb e
P AR
R AP
RAP H
AG RAPH
PAR AGRAPH
Ñ ı
a ar
Ġ F
g e
Ġe en
i v
i r
Ñ ĭ
Ð ¼
Ġ re
u l
d en
Ġ on
Ġ r
o t
Ġ N
Ġ is
â Ģ
l a
E C
O N
Ġw as
T I
S EC
TI ON
SEC TION
Ġ2 0
Ð ´
Ñģ ÑĤ
Ġs t
Ġ W
u m
ĠÐ ¿
at ion
d er
Ġ K
g en
ĠÐ ²
Ġ J
is t
Ġd er
Ġc on
an t
Ġs e
Ġw er
v er
Ġo p
Ġt h
Ġd ie
Ġg e
Ñ Į
c i
c e
Ġ V
Ġl e
Ġv er
Ã ¼
r i
b er
Ġ O
Ñ ĩ
o u
Â ł
Ðµ Ð½
ÑĢ Ð°
t en
o g
i er
Ġ Ñģ
s e
o p
a b
Ġf or
Ð¾Ð ²
Ã ¤
Ġd es
Ġt e
Ã ³
Ġp ro
Ġ qu
Ġun d
ĠI n
Ġc om
Ġ j
Ġ el
o w
a g
Ð ·
a k
ĠÐ ¸
Ġ er
Ġ an
a p
Ñ ħ
ij n
Ġ y
u it
ar t
l y
c he
or t
w e
Ġa s
Ġal s
in e
Ð ¿
ij k
Ð ¹
ĠÐ ½
ĠD e
c k
Ġv oor
Ġ Ã
Ġm et
ĠÐ ¾
it h
r u
Ð¾Ð ´
i en
i a
v e
p e
Ġ U
i k
a ch
Ðµ ÑĢ
o d
an s
Ð ³
Ð ±
r es
Ð° Ð½
o ur
Ġa u
a u
Ġe t
0 0
el l
un g
u b
ĠT he
s ch
Ġw h
a y
ĠS t
i f
Ġ20 1
i es
en d
h r
il l
er e
t h
n e
o k
I C
Ñģ Ðº
L E
Ġ <
Ġ< /
ART IC
ARTIC LE
e g
ĠÐ º
an g
Ġz ijn
Ġw ith
u d
Ð¾ ÑĢ
f t
Ð¾Ð ¼
Ð¾Ð »
v en
Ð° Ð»
al l
Ġe in
or d
' s
i o
Ġa t
Ã ¨
Ġ Z
Ġ20 0
Ġwer d
Ġs u
Ġa an
Ã Ń
on d
a in
Ġ1 8
Ġ "
e er
as t
ro m
i re
ÑĢ Ðµ
z e
ar d
a c
i p
un d
as s
Ġh ij
Ġb y
Ñ İ
Ġp ar
ĠÐ ³
u g
ĠÃ ł
Ġ est
u e
Ġ im
f f
Ð¾Ð ³
Ñ Ĩ
Ġqu e
ĠÐ ´
Ġ uit
en s
e k
Ġe x
es s
Ã ¶
t s
Ðµ Ð»
is ch
l o
el e
Ð¾Ð ¹
Ð½ Ñĭ
Ġth at
m e
el d
i ed
at e
in d
m ent
Ã³ n
i z
an n
ĠÐ½ Ð°
o c
Ġ ch
Ñ Ī
Ġv on
Ð¾Ð ½
Ġ or
l and
Ð ¶
r an
Ġd oor
Ðµ ÑĤ
o st
Ġd at
) ,
Ġd u
el ijk
k en
on t
d u
m er
o v
ch t
e it
Ð¸ Ð½
Ġp r
Ġd en
e w
ĠÐ ±
on g
it y
Ð¸ ÑĤ
Ġ 3
ie t
I n
u p
or m
al e
ĠC h
Ġf rom
Ġ it
Ġh is
Ġ Ã©
e p
Ã ¡
ĠÐ ¼
s te
at er
r it
a v
ĠA n
Ġo ver
u st
Ġa r
i b
Ð° ÑĤ
Ġ ÑĤ
ĠU n
i an
ĠA l
a h
Ġs ch
ig h
Ġl es
ich t
p r
Ġ âĢ
) .
Ð¸ Ð»
u re
Ġo m
s en
is che
iv e
Ġw or
Ġ es
Ð¸ Ñı
ĠÐ¿ ÑĢ
qu e
t o
Ġg ro
Ġw ar
Ġto t
Ġp la
Ð¾ ÑĤ
Ġs p
Ġcom p
Ġm a
Ġh ad
Ġs o
Ġde l
es ch
Ġ19 9
Ġa f
Ġ Â
Ð¸ Ðµ
p er
Â »
e ct
h er
Ġm e
ĠS ch
ig e
Ñ Ħ
m en
ĠE n
Ġp er
i de
am p
am e
em ent
Ð½ Ð¾
Ð¾Ð³ Ð¾
c l
ĠL e
Ġl os
Ġcon t
Ġp l
Ġb ij
ĠÂ «
Ġp art
Ġw ur
Ð° ÑĢ
Ã¼ r
or e
Ġm it
Ġw aar
p p
is s
c c
ĠH e
Ã© s
Ġde m
u w
er en
b e
l ich
a al
Ġ ro
ĠM ar
Ġt ra
ion s
at ed
1 9
r ie
Ġn e
Ġa b
Ð¾ Ñģ
l ic
ĠÐ ·
ul t
i el
Ð¸ Ð¸
ing en
Ã Ł
âĢ Ļ
ĠA r
us e
r ic
Ġge b
o ut
o b
Ġa re
er v
Ð¸ Ðº
m p
Ġ 4
a f
g er
ci Ã³n
r ij
Ñ ī
Ġwer e
n en
Ġz u
Ġ Ñĥ
T he
ig n
er k
ĠÐ³ Ð¾Ð´
er t
ÑģÑĤ Ð²
a ge
Ġon der
D e
o h
b en
er n
Ñģ Ñı
ar y
Ġm o
Ġz e
Ġn aar
r en
ig en
i al
Ġc l
t re
a an
Ð° Ðº
Ġr es
ĠT h
Ġt er
Ġc o
Ð» Ð°
el s
Ã© e
in t
Ġa m
Ð¸ Ð¼
p t
or s
Ġwur de
in s
iv ers
is h
Ðµ Ð¼
Ġ ra
e ar
Ġ19 8
Ġ 5
l es
Ġo ok
ĠÐ °
Ġh er
Ġv ers
isch en
Ġau f
Ñ ĳ
Ġh o
at s
k e
Ġwh ich
Ð¸ Ð¹
un t
r y
al s
ct ion
ad o
it e
Ġa d
Ġ Ñĩ
m an
on s
c es
Ã «
i ent
ol l
Ġd Ã©
am en
Ġs h
Ġm an
o f
ĠÐ Ĵ
Ġ Y
Ġd as
ic al
ĠR e
Ġp or
p ort
Ðµ Ð´
Ġ19 7
it ion
b re
Ġh a
Ġn o
om e
Ð° Ð¼
ic e
p h
g r
Ġin ter
Ġd ur
Ġ ÑĢÐ°
Ðµ Ð¹
Ġn ot
Ġp re
Ġg en
ÃŃ a
k t
ed er
âĢ ĭ
ation s
Ġb o
us s
is e
Ġd ans
Ġbe g
Ġt r
Ð¸ Ñĩ
er d
ĠE r
at ie
ĠH et
Ġ19 4
ÑĢ Ñĥ
Ġn iet
Ġs ur
v o
t a
Ġ1 7
Ġm aar
Ð¸ Ð²
a at
Ġn a
ĠÐ ¡
o ol
v ol
e b
n a
Ġw ord
Ġ 6
Ñ į
ing s
ĠF ran
om m
Ġ19 6
ers te
Ġd o
il le
il d
Ġf in
Ġc ar
Ã ±
p en
Ġon t
ation al
g el
Ġwer den
Ð° Ð²
u al
Ð¾ ÑģÑĤ
Ġf ir
il m
w o
em ber
Ġals o
Ġun e
Ġm ar
en de
Ð¸ Ñģ
ur s
a hr
at h
k s
igh t
Ġf Ã¼r
Ðµ Ð²
il e
Ġre c
ĠB e
Ġword t
ĠÐ± Ñĭ
Ġwor den
ol d
Ġ Ġ
in a
i que
v el
Ġis t
ed e
u ro
u ch
Ġs on
Ġs ich
Ã© n
m a
Ġs pe
ol og
u is
el f
on e
ĠL a
an ce
a ct
Ġa us
im e
Ðµ Ðº
Ã¨ re
ĠP ar
Ġh as
f orm
Ġl as
Ġal l
Ġp our
u ur
Ġz o
Ġw e
ch ter
Ð¾Ð ±
Ġcom m
Ġg o
Ġ _
ul d
Ð° Ñı
l d
og ra
e ft
âĢ Ķ
ad a
ĠÐ¾ ÑĤ
ĠR o
ĠE l
Ġa g
ĠS p
Ġz ich
Ġa ct
ur g
Ġ1 5
Ð¸ Ñħ
Ġ1 6
th er
z en
Ġd is
c o
Ġe ine
s s
Ġfir st
ij d
c a
ar e
om en
Ġg r
ar i
Ġun a
Ġ ÑģÑĤ
l ie
ou w
âĢ ĵ
Ð» Ñı
Ġ 7
Ġ19 5
r on
or y
Ġof f
ĠÐ ļ
Ġp ol
Ġv ol
ic a
id ent
es e
ĠÐ Ł
ci al
ow n
Ġt we
p l
er a
Ġb et
Ã¤ n
e f
ge b
g an
ÐµÐ» ÑĮ
Ġw o
Ġthe ir
u x
em e
Ð¾Ð º
or n
v ent
Ġ19 3
ĠI t
g h
t on
Ġs a
Ġcon s
Ġb ut
c ed
Ġ 8
ĠD ie
00 0
a z
ĠÐ¾ Ð±
Ġb est
ab le
ĠH ij
v an
ĠP ro
Ð» Ð¸
Ġ il
r al
s p
a us
Ġre g
Ġr el
Ġse in
Ġ i
te m
el t
res s
un e
u f
Ġit s
ĠV er
Ġqu i
Ġin cl
ĠS e
m in
id en
Ð½ Ð¾Ð¹
Ġde ze
r at
a ck
Ġy ear
Ġp ub
Ġc ol
n er
u er
2 0
am il
Ð¾Ð ·
. âĢĭ
ĠÐ »
Ġ us
Ġwh o
Ġm in
he id
Ġ -
el le
Ġl o
Ġpro du
p os
at t
Ġb is
i Ã«
as e
Ã¼ n
u te
1 8
oor d
Ð¾Ð» ÑĮ
j e
ĠÐ½ Ðµ
Ġr Ã©
Ġv o
Ġn ach
Ð¸ Ð·
Ġt ro
de m
Ġb es
at en
Ġ 9
Ġp e
or en
ers on
at es
a ft
Ð³ Ð¾
ĠÐ¸ Ð·
Ġf a
ĠÐ¿ Ð¾
et t
ic k
it t
Ġv e
Ġon e
Ġ Ñį
Ġl and
ter n
an k
Ġe erste
ĠC o
h o
en n
ĠÐ³Ð¾Ð´ Ð°
Ġ1 0
i x
re e
m o
ar en
Ġl ater
Ġha ve
Ġo b
Ġs er
Ã¼ ber
Ġc ent
ĠN ew
am b
ur n
Ġa ut
Ġh aar
Ġhe eft
g l
st en
Ð½Ñĭ Ñħ
ĠT e
ĠÐ ľ
Ġth is
it s
ĠA m
it ed
p ro
y s
ĠUn ivers
Ġm eer
Ġa pp
ĠÐ µ
ri b
Ġj aar
Ġpar a
Ð¾Ð ¶
Ġse c
Ġb el
w n
Ġf o
Ġk on
Ġbe en
Ġp res
oh n
âĢ ľ
Ġd aar
ÐµÐ½ Ð¸Ñı
ĠM a
Ġs c
u de
an te
Ġen t
al es
Ð¸ ÑĢ
re d
Ġf ilm
Ġal le
id o
Ġwar en
Ġt wo
elijk e
sch ap
er de
Ġd an
t Ã©
ĠO r
Ġp os
Ġ ÑĦ
Ð°Ð» ÑĮ
Ġ1 2
f er
Ġs ie
un gen
Ġst ud
Ð½ Ð¾Ð³Ð¾
p ar
il it
l l
l ijk
ĠÐ Ĳ
g es
et er
st it
E n
v a
Ð Ĵ
h al
qu es
ÑĤ Ð¾
w ard
on der
ĠÐ² Ñĭ
Ġs y
en te
a ciÃ³n
Ġ '
L e
Ġa c
Ã ª
in n
Ð ¡
or k
Ġcom o
os e
em b
ĠS h
Ðµ ÑģÐº
el y
Ġn og
p la
Ã© r
ve c
ir d
Ġre t
o en
Ã¨ s
eder land
Ġau ch
el en
Ġpla y
Ðº Ð°
Ġ1 4
ĠB r
in k
Ñĥ Ñİ
Ġo ut
Ġm ed
ug h
Ġ Ã¼ber
Ġl oc
ĠE uro
c on
h en
d o
ĠÐ¿ ÐµÑĢ
Ġ X
Ġ up
ru ik
ÐµÐ½ Ð¸Ðµ
Ġ19 2
i Ã³n
et te
Ġaf ter
ĠâĢ ŀ
ĠJ ahr
ĠA b
ĠA mer
ÑĢÐµ Ð´
a ir
ĠÐ· Ð°
Ð¾Ð ¿
ci a
is ter
Ġs erv
Ðµ ÑģÑĤ
Ġfor m
Ġk w
ic t
Ġg ra
Ġpl us
Ġs te
Ġp o
l er
Ġand ere
i um
ic o
Ġa p
he d
id ad
ie k
Ġ Q
Ñģ Ð¿
ie f
Ġc an
ĠG r
Ġd ire
b o
ion al
ĠC ar
ent s
ach t
Ġ1 3
om p
Ġthe y
ĠG e
ot h
us sen
b um
Ð½ Ð°
ij den
Ġte gen
Ġs he
v is
Ġa cc
et z
Ã º
z o
ĠN ederland
ĠâĢ ĵ
ul ar
Ġm on
Ġbe i
Ġa vec
er o
st ell
w er
sch aft
Ġm en
Ã¤ t
l u
and o
Ġge w
ĠO n
Ġn ew
Ġbe c
Ã¡ s
Ã¶ r
a ak
Ġwor k
ed en
h ip
Ġd it
ie u
as ed
g t
a is
ĠC on
ĠM e
ĠÐ ĳ
Ġbe k
Ġtr ans
ĠB o
it Ã©
ou gh
Ġd ies
ĠÐ±Ñĭ Ð»
Ġo ther
Ġtwe e
g est
Ð´ Ð°
el de
Ġ ÑĢÐµ
Ġz um
Ġs ub
st and
r ijk
if ic
an u
Ġas s
a ut
l in
ĠC ol
Ġb u
Ġde c
Ġar t
Ġf e
v ers
a j
Ġs ind
ch en
ĠÐ³Ð¾Ð´ Ñĥ
Ġn um
ĠÐ ¶
al t
u k
at ur
w ay
Ġin to
j ect
er al
ion es
ĠH o
r as
gen s
and e
v in
Ġein er
Ð¸Ñĩ ÐµÑģÐº
n o
Ġgeb ruik
ĠI l
Ð½Ñĭ Ð¹
Ġm us
en ce
t ro
st er
u c
ung s
ant s
Ġcl ub
Ġh im
u z
ĠÐ Ŀ
em p
or p
ÑĤ Ð°
re t
il la
b urg
Ġp as
Ġg es
Ð¾Ð² Ð°Ð½
gr am
Ġdur ch
Ġt ime
ĠB er
ist or
ĠI I
ra cht
Ġ1 1
ĠÐ ł
st ru
et s
Ġz ur
Ġf amil
Ð¸ ÑģÑĤ
Ðµ Ñģ
Ġn om
Ġl ang
Ã© es
a ire
Ð½Ð¾ ÑģÑĤ
Ð» ÑĮ
Ġp op
Ġh ab
Ġ um
if e
Ġn am
Ġpla ats
g o
Ġb ro
Ġincl ud
Ð½Ñĭ Ð¼
ak e
ber t
Ġ19 1
Ð½Ñĭ Ðµ
in al
Ġbe f
ÑĢÐ° Ð½
ĠÑģ Ð²
Ð½ Ð¸Ðº
Ġv or
Ġ ed
Ñĥ ÑĢ
ĠP r
ber g
Ð° Ñģ
Ġz ou
Ð¸ ÑĨ
Ġc ap
ort h
la g
ct or
z a
Ġpol it
in o
Ġh at
Ġz w
Ġen tre
Ġun der
et en
ĠA f
id d
Ġc re
ĠÐ Ķ
ied en
y n
ver n
Ð Ł
Ġor gan
ĠÐ ŀ
t ra
ĠO p
ch n
H et
Ġwer k
Ġt en
ur ch
Ġin d
Ġwo uld
ĠZ e
Ġd ist
e uw
l an
Ġh un
ak en
ĠI s
Ġf ue
ar b
ĠÐ ĵ
if f
Ġvers ch
L a
ĠH er
l en
ers ch
ĠV an
Ð¸ Ð´
Ġwh en
i os
m b
Ġp erson
ĠA d
Ġw on
Ġte am
ich te
um ent
ÑģÐº Ð¾Ð³Ð¾
Ġk un
Ġw el
Ð» Ðµ
ar s
i am
ĠP h
Ġ201 0
Ġver b
ĠÐ¿ Ð¾Ð»
Ġin c
Ġo u
tem ber
on den
id a
Ã §
) ._
ain t
Ġyear s
Ġm ore
Ġre m
ÑģÐº Ð¾Ð¹
Ġk an
d ition
or g
i Ã¨
Ġk le
ĠA s
Ġi h
Ð¾ÑĤ Ð¾ÑĢ
Ġag ain
ĠW est
as on
ier t
Ġb esch
s on
Ġbe h
ad os
Ã¡ n
an y
l os
l og
Ġde f
Ðµ Ð·
is m
Ġ19 0
ogra f
Ã¤ r
Ġver k
ic an
Ð° Ð´
ut ion
ÐµÐ½ ÑĤ
" .
Ġwh ere
Ġd on
i or
ar k
ÑĢÐ° Ð²
Ġk n
ro ugh
Ġsch ool
it eit
h a
s k
ĠC l
ĠC hr
ĠÐ ¢
Ġh and
o us
Ġpart ic
ĠUn ited
i Ã³
w a
Ġde el
Ġun ter
Ġhe m
ra g
Ġpre m
id er
" ,
io us
ĠJ ohn
Ġh ier
o ci
Ġ201 1
Ġk e
a ce
ĠG ro
pr il
r Ã©
Ð° ÑģÑĤ
. .
ic s
is on
Ã¼ ck
ijden s
Ġpro f
id ing
ĠF l
ogra ph
am es
Ðµ ÑģÑĤÐ²
Ġin v
le y
Ġein em
Ġn icht
Ġpub lic
Ġt it
ĠS te
ĠN e
Ġcon f
we en
ied er
Ġpr im
c ent
Ġex p
is hed
ra d
ar m
Ġ201 2
ĠB el
w erk
d at
Ġ200 9
Ġr est
an ge
vel op
Ġ200 6
Ġs ont
i eld
ĠÐ¿ Ð¾Ð´
is te
Ġ200 8
ou d
in nen
u le
Ġl ar
iv er
ri ed
l et
Ñı ÑĤ
Ġt ussen
Ã ¯
w ij
Ñĥ Ð´
Ñĥ ÑĤ
Ġre p
ar ly
it z
ĠJ ul
Ġf l
ov ember
Ã¼ hr
Ġb ed
lich en
Ð¸ Ñİ
Ð° ÐµÑĤ
ar a
Ġg esch
ĠIn d
as h
ur y
D ie
Ġ ant
Ã© t
Ġb r
b le
Ð°ÑĤ ÑĮ
Ðµ ÑĢÐ°
ig t
Ġb as
. "
in es
Ġt ijd
Ġsu cc
Ġs ign
Ġdur ing
au x
Ġm ost
Ġ201 4
ĠB rit
Ġ2 5
Ġs amen
le x
Ñħ Ð¾Ð´
u id
Ñĥ Ñĩ
ad er
Ġv ier
Ġ201 3
al en
A n
Ġp h
Ġ200 7
Ð¾ Ñĩ
Ġen d
i Ã¨re
Ġm at
ĠUnivers ity
Ġon ly
Ðº Ð¸
k er
om b
ce pt
ĠW e
at ive
o ch
A l
Ġs us
Ġ18 9
am m
Ġb and
ĠP ol
ĠG er
Ġe igen
Ġal bum
e ver
u i
pe ct
Ġma de
Ġop en
Ġ ÑĢ
Ġth ere
Ġinter n
ĠÑĢÐ° Ð·
at or
ĠD er
Ġhe b
it er
ĠÐº Ð¾ÑĤÐ¾ÑĢ
ĠF or
c er
Ġf r
ot en
Ġth en
Ġve el
i ques
ĠA t
Ġin s
ur a
Ġ3 0
at ing
ar on
Ġge h
le g
en e
Ġin f
oll ow
Ġoff ic
ro s
Ð» ÐµÐ½
Ġde b
ĠI m
Ġa ant
Ġter ug
u y
ist en
an a
i ers
aar d
ĠL and
Ġb l
ut sch
ĠR eg
Ġc e
iv is
Ġ201 5
ten d
an e
Ġj aren
Ġthe m
Ġv ro
Ġth rough
Ġm ay
v oor
Ð¶ Ðµ
Ġen c
ay s
ĠP a
ĠA ug
Ġs ol
ĠÐ ĺ
v ing
p o
ĠÐ¿ÑĢ Ð¾
our s
ĠS he
v al
ier en
or es
Ġst ad
out h
Ġbet ween
Ġheb ben
Ġpr in
k m
l t
2 00
est er
Ġsu pp
Ġw ird
ad t
ieu we
ÑĢÐµ Ð¼
ci p
or te
1 7
Ġg el
l as
Ġj e
ste m
Ã¶ n
Ġh igh
ot t
Ġde p
Ġm Ã¡s
Ġab out
en g
Ġma ak
Ġein en
Ġe ff
eb ru
Ð¸ Ð¾Ð½
Ġsec ond
Ġsu ch
ie uw
ow er
Ã ´
Â» ,
el ing
Ñİ ÑĤ
i us
Ġbec ame
ik e
ra ct
I I
1 0
Ġor ig
c y
Ġ20 00
ro und
Ġg ed
ĠG re
Ġz ij
E l
ĠÐ Ľ
Ġm ov
ed s
ĠĠ ĠĠ
Ġth ree
ĠTh is
ar n
it ie
ĠN a
Ġkw am
Ġ 0
ig er
Ġcont in
iv ed
in der
u es
Ġus ed
it al
u el
at her
Ġz we
ĠC omm
Ġun t
b ij
r um
iss ion
Ð¸ Ð³
O n
Ð ļ
Ð°Ð¼ Ð¸
Ġp ass
Ġ201 6
Ġch ar
Ġel ect
iv al
Ġe chter
Ġcomm un
o ff
Ġpro gram
it ies
eer d
Ð° Ð·
Ġver l
ib le
Ġm od
a de
y p
Ðº ÑĤ
ĠS o
Ġr ele
ĠY ork
al d
ĠM o
il t
Ġg eme
Ġw ater
ĠM it
Ġs ome
ur es
an z
ig de
c ul
all en
il s
ar r
Ð¾ Ðµ
ĠAug ust
ĠE in
he m
ell en
Ġa Ã±
p a
Ġk re
Ġaant al
ie w
Ġge en
Ñĥ Ð±
Ġl ong
op le
Ġth an
ĠW or
Ġfo und
ĠC ent
Ġm ot
Ġt re
Ġb en
eer de
ĠÑĩ ÑĤÐ¾
Ã ¢
Ġv is
Ġ18 8
Ġau x
r ent
ĠU S
5 0
ĠÐ¿ Ð¾Ñģ
er g
we g
at z
ĠG en
ĠSt ates
ek t
ĠM an
er st
Ġs it
ier te
Ġst art
men te
Ġc all
ĠÐº Ð¾Ð¼
ch ts
Ð° Ñħ
Ġn ieuwe
ÑĨ Ð¸Ð¸
k a
Ġw ell
Ġ Ñħ
and er
Ġw ie
Ð½ Ðµ
and en
Ã© d
ĠDe ze
ĠC an
le ct
in ce
te ur
Ġna am
le ment
ĠÑĤ Ð°Ðº
Ġs ing
Ġgro ot
p re
ro l
Ð½ Ð¾Ð¼
ĠM us
of d
j or
Ġo der
ĠD it
S t
Ġwur den
ĠE x
Ġbe v
Ġl ie
Ð°Ð½ Ð´
ĠW ar
Ġg ing
Ð¶ Ð´
Ġrec ord
au f
Ġ Ñı
U n
Ġz elf
á µ
ag n
Ġj un
Ġto en
Ġg em
o em
Â» .
Ġ200 5
Ġre f
al ly
Ġbe ing
Ð¸ÑĤ ÐµÐ»ÑĮ
ag es
l ing
Ã¤ hr
Ð½ Ð°Ñı
b all
1 6
Ġe euw
c ess
x t
ĠN ach
Ġm ilit
Ðº Ð¾Ð²
ÑģÐº Ð¸Ð¹
im ent
Ġ18 7
Ġ201 7
der n
r am
ĠAn d
ĠÃ© tÃ©
ag ue
ĠA ust
iv es
ĠP l
ĠS an
he l
ĠChr ist
Ġc u
Ġ2 4
ch ten
Ġd ass
ĠJ e
Ġw at
ist ory
Ġ18 6
Ġge z
Ġes c
ĠS ep
l ed
r ans
n el
1 5
Ġ ÑĪ
Ġe ven
Ġse ason
Ġd rie
Ġagain st
Ġw eer
Ġe mp
b r
ĠG o
Ġgro te
at ure
Ġs es
ĠM on
lic he
Ñĭ Ð²
Ñĭ Ñħ
Ġf our
on es
Ġzo als
ar l
ĠR a
ow ever
ĠA us
Â ²
in ed
Ġar r
Ġf ollow
r ich
Ġm is
l am
Ġan n
h n
Ġver d
ra b
ĠN ational
o ver
Ġde ux
ĠB ro
ĠM ay
ĠM in
ĠÐ¸ Ð¼
ĠE en
Ġs im
ru g
a x
Ġsh ow
Ġcom me
Ġin st
aan se
ĠE s
ĠD uit
Ġto e
o on
Ð Ĳ
Ġc amp
Ñĭ Ðµ
v ed
ĠSch ool
Ġk om
ĠG u
ĠFran k
Ġw ill
ĠÐ¿ ÑĢÐµÐ´
or f
Ġb re
a i
ain s
Ġh istor
le ge
Ġop er
ĠÐ¾ Ð½
ĠdÃ© c
s h
Ġman y
ÑĢ Ð¾
ĠE d
Ġ ÑĨ
Ġinclud ing
iz oen
Ġt emp
Ñĥ Ð¿
Ġap pe
ĠWor ld
k ken
Ġhe l
Ð ł
ĠF re
che d
ĠS c
con om
e c
Ġbef ore
Ġm il
Ġdes c
g et
Ġla at
Ð° Ð¹
k te
ĠK on
Ġpop ul
áµ ī
Ġa v
Ġ &
s el
Ġc ult
Ġb le
ĠBel g
Ġge v
k om
ograf ie
o y
ĠM et
ĠÑį ÑĤ
a it
s y
Ġg est
1 2
ĠJ anu
Ðµ Ñĩ
ĠW ill
ĠSep tember
a ff
Ñĭ Ð¹
m ann
Ġc or
Ġb ere
Ġcon stru
Ġle g
Ġ200 4
ir t
Ġre al
an o
io en
Ġgro up
re ich
Ġwh ile
Ġa chter
ct ed
Ð°Ð» Ð°
ĠIt al
j es
ĠE st
un der
Ġg et
a ve
ist s
u en
Ġf ran
ĠO ok
_ _
Ð» ÐµÐ´
rij d
ĠL es
Ġ201 8
Ġd a
ĠÐ¾ Ñģ
Ġr en
Ġn ame
Ġbek end
ul l
f ol
on y
ĠD aar
Ġv orm
ab l
ven s
Ġkun nen
Ġk m
Ġst and
k ing
ÑĢ Ð¾Ð²
ĠÐº Ð¾Ð½
ig d
ah l
Ġ2 2
a ur
d oor
Ġprin cip
ĠÐµ Ð³Ð¾
Ġs ow
ÑĢ Ñı
ou den
ĠA pril
ri Ã¨re
ĠC al
Ġp at
Ġ2 1
Ġin t
ĠS y
amen te
Ð°Ð» Ð¸
b or
es te
Ġj o
in ter
Ġde velop
f ic
Ġim p
m et
oor t
Ġen k
Ġunt il
Ġe vent
uit en
Ġein d
ab a
c le
am er
Ġm ill
Ġim port
ĠÐ¾ Ð´
Ġw eit
Ġcon c
e x
ur en
Ð½ Ð¾Ð²
Ġg re
Ġp ort
ĠB ar
ur ing
Ð¼ Ð¸
in en
ĠAmer ican
ĠQ u
ah n
Ġtwe ede
Ġc as
Ġi hr
Ġt ijdens
ol f
o ot
Ġs m
ation ale
ÃŁ en
Ġp ost
b al
er ing
Ġse izoen
Ð± Ð¾ÑĤ
ĠÐº Ð°Ðº
ĠÐ´ Ð»Ñı
Ġ2 3
ric t
f l
ĠH ol
Ġpub l
vern ment
ver t
Ġkre eg
ĠJ ap
el b
Ġb oth
im es
ĠIn tern
Ġw est
op h
k eit
ĠAl s
m ed
s che
Ġkn own
a w
ĠW h
Ġfin al
Ġd ra
ĠÑģ Ð¾
ĠÑģ Ð¾ÑģÑĤ
Ġs l
Ġ1 00
Ġf un
use um
ĠJ ah
k o
g esch
Ġact iv
Ġco unt
ch er
isch er
Ġo cc
ad or
ĠN ovember
ij f
k et
ĠÑĥ Ñĩ
Ġl ife
ist a
Ġh al
re g
on de
ct ie
Ã© c
Ġbe z
ĠR ep
o ck
Ġre ce
G e
ĠP art
on n
os s
ĠZ eit
Ġbel ang
Ð¾ Ñı
ĠÐ² Ð¾
ire d
is me
ÑĢÐ° Ð·
Ð¸ÑĤ ÑĮ
ĠÐ ¤
Ġper form
ieden is
Ð½ Ñı
our n
st ra
Ġloc al
du st
Ñĥ Ñģ
ĠM al
Ġr ond
Ġse ver
Ġho og
1 4
Ġc r
ĠS ie
ÑĤ Ð¾ÑĢ
h am
Ġd ien
m y
Ġpro v
Ġb ack
ĠA uf
gen de
Ġsein er
ĠPh il
ĠM ed
b y
Ġra d
ik k
Ġpla ce
Ñĳ Ð½
et h
G esch
ant en
ĠH ier
ost en
l ass
amp ioen
ĠV ol
ent en
ut h
j o
Ġc our
Ġpe ople
z elf
Ġmaak te
ĠCh ar
Ġf ut
Ġdes ign
to ber
Ð½Ð¾ Ðµ
Ġj u
Ġt ele
ĠA ss
ich a
Ġo wn
i Ã©n
Ã© l
ro ss
ch es
Ġbu ild
at o
ur t
Ġres ult
Ðµ Ðµ
olog ie
iz ed
ĠÐ´ Ð²
re i
m al
k tober
e y
Ġho ofd
ri end
ĠJ os
Ġpres ent
ot her
om an
1 3
Ð¸Ñģ ÑĮ
ĠJ o
ĠEuro pe
Ñĥ Ð½
w on
Ġst aat
Ġd est
x im
ĠâĢ Ķ
ĠC ity
ĠAl l
pr Ã¨s
re m
ain ed
Ġte chn
at a
Ð Ŀ
o de
O p
Ġret urn
g ed
Ð ŀ
ant es
Ġw rit
ed st
Ġ200 3
Ġver h
Ġ2 6
ar io
Ġgeb ouw
it ions
Ġbeg on
Ġm ain
o is
Ġ2 8
Ġversch ill
ĠG ra
Ġmus ic
Ġspe ci
v es
ĠAr t
ient o
Ð¾ÑĢ Ð¾Ð´
i as
ij s
Ñĥ Ð¶
is sen
Ġp u
ÑĢÐ° ÑĤ
res ent
ĠR uss
be eld
Ġcl ass
zo ek
iv id
ÑĢÑĥ Ð³
ad as
Ã ®
p art
Ġv rij
op t
ĠD es
Ġma is
Ġuit ge
T h
er m
Ġar ch
Ġsit u
ĠPa ul
Ġd if
A r
Ġle ad
i ra
Ġare a
ak ing
19 9
Ġse ine
ĠÐ¿ÑĢ Ð¸
âĢ Ŀ
gen d
ru ct
H e
Ġ2 7
Ġcall ed
me e
ie m
Ġgebruik t
Ġst ation
j et
Ġsupp ort
Ġvro uw
Ð ĳ
em en
ro p
er ie
t he
Ġno ch
Ġ $
Ġnum ber
te mp
b el
B i
f e
Ð¸Ð» ÑĮ
ĠD as
Ðº Ð¾
ĠM c
Ġv ia
ĠT ra
Ġwer eld
oem d
it en
ĠS al
ele gen
a Ã±
Ġs ter
ual ly
b l
ĠÐ £
g ra
on a
ĠÐ´ Ð¾
Ġpro p
Ġ199 0
ĠÃ© t
ĠF ebru
Ġont w
Ġb us
ÃŁ e
a ande
n am
in den
b eit
or a
Ġbeg an
ĠÑģ Ð¿
Ġser ies
Ġh um
Ġsy stem
f ul
ne y
iv en
3 0
om in
m ot
un ic
Ġd ar
Ġe qu
Ġp ers
Ġe arly
Ð»Ð° Ð²
Ġme hr
Ġsow ie
ĠAust ral
Ġ200 2
ie ke
Ġn ational
Ġappe ar
Ð ĺ
ĠSt adt
ri es
Ġspe elde
ĠEn g
Ġs ong
as ter
Ġd am
ct o
in er
ĠC om
iv ing
Ġs ame
ĠA ir
Ð½Ð¾ÑģÑĤ ÑĮ
ĠÐ¸ Ð½
e i
Ñģ Ðµ
ri p
Ġfa it
la ck
at sen
i ber
Ġn ur
olog y
Ġ200 1
Ġs om
es se
ic es
Ġhat te
Ã ł
ĠH ar
ĠD av
f or
Ġm ens
Ġse p
ĠC omp
der e
Ġd iff
Ġ18 4
ĠB l
Ġ5 0
Ġcom b
h t
ub lic
Ġver w
b aar
Ã¼ d
g ar
Ġv om
Ġorig inal
ap t
ÑĢ Ð¸
ĠFran ce
amb iÃ©n
u ed
est en
ĠP al
Ġr un
Ġv ar
Ð°Ð½ Ð¸Ðµ
m s
Ġs che
Ġde v
Ġsever al
ĠÐ² ÑĢÐµÐ¼
Ð½Ð¾ÑģÑĤ Ð¸
ri k
Ġto p
ĠS outh
ĠK ir
Ð ľ
te il
Ġch ild
ĠP er
Ġom dat
ĠH a
Ġen g
il ity
Ġge gen
Ġm emb
or ge
ri pt
o o
Ġ use
ĠP ort
Ġth ese
ĠCo unt
s c
i od
Ġcar eer
w oord
u a
Ġm uch
ĠJ u
Ġan y
ĠS aint
ĠL u
ĠâĢ ľ
ur al
Ġk erk
Ġb innen
ĠÐ½Ð° Ñĩ
ap p
ĠGer man
stell ing
Ġlaat ste
Ã¼ t
st r
Ġcomp et
Ġb lo
Ġc he
amp ions
Ġgen eral
g ro
Ġverschill ende
ĠJap an
ar ch
ĠL os
Ð¾ ÑĢÐ°
Ġfamil y
en se
ath ol
Ġv al
am men
Ġgr and
ĠM art
Ġnom bre
D er
ann t
ĠH is
Ġv ari
Ġd id
est ig
aak t
1 1
Ġel le
it te
am a
ĠA u
ze it
Ġa ber
u v
Ġorgan is
Ġv illa
Ġpro vin
Ġres p
ir c
Ġw il
Ġver t
Ġ199 9
Ġc ou
ĠL ond
Ġf ac
C h
Ð¸Ð» Ð¸
ement s
at ies
ĠSt re
ĠWill iam
ch te
ĠJah re
it ect
ĠAf ter
Ãª me
i qu
Ġs le
Ġsucc ess
Ġ18 5
at uur
ĠÐ¾ Ðº
ĠSt ud
it a
d a
Ġd ro
ut il
Ã¤ h
v iew
ag o
ip p
id es
Ð° Ð³
Ðµ Ð¿
ÑĢ Ñĭ
en a
Ġenk ele
ward s
Ġt ien
ac iones
Ð Ķ
in de
Ġc ity
Ġprof ess
ĠMar ch
Ġn ov
c is
he im
Ġrele ased
Ġa ff
aal de
Ġal g
Ġpl an
Ð°Ð½ Ð¸Ñı
ig a
Ġma jor
ivis ion
at iv
Ġdis c
ĠÑģÐ² Ð¾
Ġplay ed
Ġc ette
Ġs old
am ent
m ar
Ġon ge
g al
Ġc ur
e en
Ġ2 9
ĠM or
Ġsing le
Ð¾Ð½ Ð°
ĠÐ¿ ÑĢÐµ
ment s
ca dem
min ist
Ð½ ÑĥÑİ
Ġn et
Ġex per
ĠLe ague
i ol
st re
ĠThe y
Ġgo vernment
ĠÐ² Ð¾Ð·
Ñĥ Ð¼
Ġa ang
g ang
m es
ĠAn t
Ġpartic ip
ĠÑģ Ð»
u est
Ð°ÑĢ ÑĤ
Ð¸Ð½ Ð°
ĠDe c
Ġf ig
ĠJ une
Ġ198 0
ĠW il
her n
Ġbelang rijk
ĠH en
im m
lijk e
ĠN orth
est ival
i ze
ĠÐ¾ Ð¿
ĠV al
Ġtot al
Ã© m
y d
Ġcomp os
Ġbo ven
Ġpos s
ek s
ca use
ĠL ou
ut en
Ġin form
Ðµ Ð³
ass en
ĠW er
ut z
Ġc at
Â °
ot s
f ord
ĠS up
Ġsu per
Ġst ra
ĠB ra
y al
ĠÐ Ĺ
Ġel k
ĠD en
Ã ī
ĠÃ© ta
Ġr u
uit e
cto ber
Ġgro ep
Ġd r
Ġf re
iet y
Ġkom t
ing ton
Ñĥ Ð»ÑĮ
ÑģÑĤÐ² ÐµÐ½
Ġt w
z et
Ð¾Ð³ ÑĢÐ°
Ñİ Ñī
ĠT ur
Ġe ing
ak t
van gen
Ġst ate
un c
il y
Ġpro ject
ck s
Ã¤ ter
av ing
b and
ard s
p iel
ĠUn ter
Ã© ri
Ġco uld
Ã¤ ch
ĠÐ Ń
t y
ra ft
uz iek
Ðµ Ð±
ĠCol lege
ten s
Ġal ong
an ne
Ñģ Ñģ
ĠNederland se
le m
Ġun ivers
ĠK ing
Ġeff ect
Ġst at
ĠJanu ary
Ġl ui
op en
ze ich
Ġg ame
ĠÐ ¥
A f
ĠT er
r id
Ġse g
Ġpr iv
ac ter
ĠD an
ĠJul y
p end
Ð¸ÑĢ Ð¾Ð²
Ð°Ð½ Ð¾Ð²
Ð´ Ðµ
ĠAmer ik
Ġd i
r Ã¤
am s
gen omen
Ġzwe i
ĠM ad
ĠB ij
Ġs la
ĠO ctober
Ġle ven
Ġd ivers
ÐµÑĤ ÑģÑı
Ġhe ad
au gh
Ġc rit
h aus
ĠPar is
ell es
o ung
ĠBrit ish
Ġ197 0
ver y
du c
r icht
Ġn on
Ġ199 8
l ung
y l
ad en
Ġcons ider
te t
h or
Ġbo ok
stit ut
ĠJ oh
Ġto ok
um e
v ille
Ð½ Ð¸
ĠK ar
un de
il der
o ire
ien s
Ġa va
in ing
ĠS ant
Ġd os
b ar
ÑģÑĤ Ð°Ð²
ÐµÐº ÑĤ
.âĢĭ _
Ġs ig
Ð» Ñİ
ie ts
Ġm ag
Ġho use
n et
Ðµ ÑĨ
Ã¼ h
Ġn ou
ÑģÐº Ð¸Ñħ
id os
ent es
Ã© g
ĠB en
ge w
Ġ4 0
Ġsm all
aar t
ĠÐ° Ð²
ĠF ilm
Ã¼n d
ly mp
rie g
Ġ ide
Ã¤n d
Ġre port
lie ÃŁ
Ġd oc
all s
ĠP e
la gen
Ġj ust
al is
Ġs ince
ĠÑĢÐ° Ð±Ð¾ÑĤ
Ġto wn
re is
ical ly
Ġw ieder
ĠM ont
ĠG eb
ig ing
Ġ rom
j ar
Ġdire ct
ek en
d ien
h of
le ich
la y
qu ent
Ġtele vis
inn ing
ĠM en
etz t
N a
Ġpr Ã©
ÐµÐ½ Ð°
Ġm id
Ġop n
o od
Ñĥ Ñī
Ġj ul
ÑģÐº Ð¾Ð¼
Ġs al
og elijk
ĠJ un
ken de
ĠD ies
Ġh ome
Ġf em
Ġal t
ol a
er b
Ġm ater
el den
Ġm aken
Ġp ri
C ar
ĠT o
Ġein es
as te
ast a
Ð° Ð±
ind s
ure au
ve er
in ess
Ġin dust
n es
Ġper iod
ag er
Ġat ta
Ġrep resent
fer ent
Ġge he
Ġso cial
Ġre qu
om ent
ĠZ ijn
Ġl ast
Ð¾Ð»ÑĮ ÑĪ
Ġl ine
Ġv ast
ĠaÃ± os
f in
Ġb ouw
p le
Ġprem ier
om as
ĠÑģÐ¾ÑģÑĤ Ð°Ð²
ÑģÑĤÐ² Ð°
ĠÐ½Ð° Ð·
i ans
Ġs ix
Ġe p
eg d
Ã ¹
Ġm idd
Ġd own
c om
. ,
ar es
ric a
Ġrel ig
he den
Ðµ Ñħ
Ġest abl
ourn al
Ġfor mer
Ġlar ge
j a
ĠDec ember
y pe
ĠDe utsch
Ġcomp any
ir es
ĠZ w
k elijk
ĠR es
Ġnam ed
z ien
Ġgo ed
h and
ĠÑĩ Ð°ÑģÑĤ
Ġn ab
Ġe ach
ĠGen eral
l im
io de
ĠÐ ķ
ĠH igh
i at
re ven
r ist
Ġg er
19 8
op s
Ð¼ ÐµÑĢ
Ġpro ble
n is
f Ã¼hr
it ter
Ġpro t
op p
zelf de
ĠV or
y a
ĠLond on
Ġer a
ĠH owever
won ers
Ġ201 9
ĠW al
ro w
ĠPar k
vol g
ri ft
ĠE m
Ġhe ld
Ġb ar
Ġn eg
ĠSt ate
Ġn u
ĠR ich
ĠÃ ī
Ġto ur
b an
Ġ util
ap e
id ed
Ġa round
ier ung
Ġs et
Ġre d
ĠP res
t es
ĠÐ¿ÐµÑĢ Ð²
om a
ĠÐ° ÑĢ
it Ã¤t
Ġzw ischen
Ġe erst
Ġin it
ien do
it o
Ġon d
od y
ĠN o
Ġdies er
Ġalle en
al th
an c
Ġc ert
oor den
Ġrece ived
igh ts
ĠG eme
pe cial
Ġontw ikk
Ġcomp let
Ġc la
ĠÐ³ Ð¾ÑĢÐ¾Ð´
Ġj ed
Ð¸ÑĤ ÐµÐ»
Ġwor ld
ang er
Ġam b
Ð¸Ð» ÑģÑı
ens us
Ġl ib
Ð ĵ
ĠÃ© Ã©n
Ġw eg
ĠS w
ear ch
Ġvoor al
Ġ199 7
Ġsa id
Ġserv ice
Ñĭ Ð¼
g a
u cht
Ġg aan
Ġ196 0
ĠJahr en
ÃŃ t
Ġbes te
c ord
Ġn ow
um b
d ic
Ġ199 6
ĠP at
Ġe mb
os p
st erd
Ġa ge
ar de
Ġle ft
Ġwaar in
r ation
un st
Ġc al
Ð° Ð¿
Ðº Ðµ
Ñĥ Ð·
Ġf und
unic ip
ow s
Ġf ol
2 5
Ġe v
.. .
w ick
n ah
ill er
il om
Ġat t
Ġl igt
â Ĥ
Ð° ÑĨ
Ġmet er
or log
Ġ ÑĢÑĥ
in c
Ġso us
ĠÑĤÐ°Ðº Ð¶Ðµ
iel t
Ġvo et
o x
Ġfollow ing
o it
Ġwaar bij
iv il
ut es
Ġ199 5
Ġbe cause
Ġle ur
Ð» Ð¾
ig keit
ÃŃ n
gan is
ampions hip
Ġso ci
Ġnab ij
Ðº Ñĥ
ag ne
Ġ ident
Ġpopul ation
Ġm ach
if t
rij f
an ces
Ġapp ro
Ġb uiten
Ġont st
Ġmemb ers
ĠA lex
ĠR ad
Ġme e
ĠÐ±Ñĭ Ð»Ð°
m it
Ġge k
is en
ĠIntern ational
Ð½Ð° Ñĩ
Ġv aak
ĠÐ±Ñĭ Ð»Ð¸
ĠI r
u Ã©s
Ġl ed
Ġt ambiÃ©n
Ã¶ l
Ġdes p
Ġe conom
Ġver z
y le
Ġtra dition
ĠÑģ Ð¾Ð²
ĠF C
un ter
Ġd ue
Ð¾Ñģ ÑĮ
Ġg Ã©n
us ammen
E en
g ent
Ġ18 3
Ġme i
us es
eer t
Ã© rie
Ġl at
iz en
th ough
Ġla w
anu ari
Ġm oment
Ġb orn
ĠCount y
Ġserv ed
y m
Ġso bre
u ck
l or
el a
Ġo ud
Ġcent ury
Ð ¢
sterd am
4 0
Ġ199 4
or ed
Ġ3 1
Ġd ay
oor log
ÃŃ an
P ro
Ð¾ÑĢ Ð¼
l i
ĠÐ¸ ÑģÐ¿
Gesch iedenis
Ġbeg in
Ġme est
ĠK e
Ġan s
Ġbu ilt
b ouw
and id
Ġvan af
Ġv ijf
ĠÐ±ÑĭÐ» Ð¾
Ġind ivid
Ġj anuari
d om
Ð¸ Ð±
im a
Ġand er
at re
ins i
I m
Ġl im
Ġau g
Ġo Ã¹
al k
o ve
Ġde ath
Ġonge veer
Ġed uc
Ġ199 2
Ġgeb ied
in i
h under
o le
Ġgen er
ir on
an ci
ĠÐ¿ Ð¾ÑģÑĤ
Ġor der
Ġ194 5
i ele
land s
Ġk omen
Ġ [
ge ven
ĠS m
orp or
Ð´ ÐµÐ»
r im
ĠV oor
Ġst re
ger icht
ĠR ome
f en
ĠBer lin
il es
Ġper o
ĠC up
Ġp le
Ġgen oemd
ĠB au
Ð° ÑİÑĤ
Ġjun i
Ġm ember
ro ll
oci ation
end ant
Ġsp Ã¤ter
ampioen schap
Ã¤hr end
Ġl ors
u ge
Ñĥ Ð»
ĠN ord
Ġd ag
ĠG es
Ġf act
ic os
ĠÐ²ÑĢÐµÐ¼ Ñı
w est
or den
ord ing
Ġinc re
Ġis s
ĠD el
Ġf uer
ad es
Ġmat ch
Ġpro te
Ġse it
Ġst ill
u j
c ar
6 0
ĠFebru ary
ch o
Ãº n
Ġd ied
Ðµ Ð³Ð¾
ĠSt ra
ÑĢÑĥ Ð¿
ĠSe c
E r
Ġw edst
ĠrÃ© g
Ġh asta
ÐµÑĤ Ð°
he it
o int
i pe
Ð° ÑĢÐ°
19 7
ĠM ag
Ġzo on
Ġver m
ĠD em
Ġpres ident
D es
A m
i ud
c el
Ð°ÑĤ ÐµÐ»ÑĮ
Ġsep tember
s b
ĠG ar
Ñ Ĭ
Ð¸ Ð¿
Ġh om
Ġm ogelijk
ra gen
vol ution
ist ische
um mer
uss i
ĠÑģ Ð°Ð¼
Ġintern ational
Ġhel p
ĠÐ¿ ÑĢÐ°Ð²
ĠD on
Ġm Ãªme
ĠB as
I l
Ġjed och
schap p
if orn
ÑģÑĤ Ð¾ÑĢ
Ð½ÑĭÐ¼ Ð¸
Ġk rij
ĠJe an
l ijn
Ġp a
ict or
is c
z ig
Ġbe w
Ġbuild ing
Ġer h
Ġc a
Ġf ur
Ġs k
Ġin woners
lo y
ac ional
Ġpop ular
Ġin tro
m at
ff en
Ġk eer
ann en
ĠA g
Ġ199 1
ĠW elt
Ġl ate
ĠS en
rie b
ĠDav id
Ġste eds
Ð¸Ð¼ Ð¸
Ġcont ract
ĠGe orge
ide o
Ġqu al
Ġdon de
Ġd ont
Ð»Ð° ÑģÑĤ
Ġ18 0
Ġter m
g ing
e in
it or
Ġan no
ĠT or
Ð°ÐµÑĤ ÑģÑı
Ġm y
Ġl ike
c ciÃ³n
Ġb ra
us h
g eme
n te
is ed
Ġsind s
ÐµÐ½ ÑĮ
L es
Ġmov ed
Ġ199 3
at al
ĠÃ©ta it
ÑĢ Ð¸ÑĤ
ĠAm sterdam
ĠS k
Ġs em
Ð¾Ñģ Ñģ
ĠII I
Ġer sten
a am
: _
und es
Ġ( *
b ra
Ġgeme ente
Ġs nel
Ð°Ð½ Ð°
em bre
s erv
ÃŁ er
Ġaan ge
ĠÐ §
Ġpro b
Ġal ors
Ġc ual
ak es
ic as
om men
ind elijk
Ġp ower
Ġl ig
att le
ub l
Ġmo est
er c
Ġ17 9
ik t
we ise
ad at
ĠJ ames
ĠDuit s
las se
iel en
ĠT we
ÃŃ s
ĠCl ub
ne h
ĠaÃ± o
D as
ag ed
un k
au pt
ĠF in
Ġad d
Ġprodu ct
a ats
ÑģÑĤÐ² Ð¾
ĠV eren
ĠB re
ĠÐ¼ ÐµÑģÑĤ
Ġchild ren
or ie
ge ving
Ġn ue
th ers
on ne
Ġg aat
ol o
Ġf il
gest eld
g lich
iz ation
Ġpo int
Ġs ci
Ġo ktober
ren ch
u ent
Ġre pr
Ġes te
Ġver y
Ñĳ ÑĤ
Ġpar te
Ġelk aar
ĠB ay
Ġst r
ol en
ate ur
Ð¾Ð³ÑĢÐ° ÑĦ
Ð»Ð° Ð´
Ġa ir
ĠTe il
Ġdo od
Ð°Ñģ ÑĮ
en en
er der
ĠO m
ĠSch w
ĠG esch
in ts
h uis
s ide
Ġinclud ed
vo ir
ep h
Ð³ ÑĢÐ°
Ġan other
Ġv ader
ĠÃ© gal
Ġkle ine
m itt
ÐµÑĢ Ð²
Ð¸Ð» Ð°
ĠLou is
air es
Ġen ter
tend ed
ure d
ĠÐ² Ð¾Ð¹
ic he
Ġpr Ã©s
ĠEn gel
ĠF r
Ġ195 0
ust us
Ġble ef
ĠÐ´ ÑĢÑĥÐ³
Ġto d
ĠDuit se
ĠO lymp
el and
ĠJ an
ĠC or
Ġver der
z er
t t
oc iety
ĠEuro p
Ġhad den
Ġ198 9
ĠÐ¾ ÑĢ
ĠS u
Ġm uziek
ĠTh ere
p ut
Ġpubl ished
Ġg u
ograph ie
Ġs ite
Ġfor t
ĠÐ¿ÑĢ Ð¾ÑĤ
Ġdif ferent
ĠB es
ĠChar les
al a
Ð¸ÑĢ Ð¾Ð²Ð°Ð½
ĠÐ½ Ð¾
H istory
ĠP et
Ġth ose
ind t
ĠJoh ann
Ġwaar door
Ġf ive
Ġpro cess
ĠP ri
Ġk inder
ÑĥÐ»ÑĮ ÑĤ
ĠWer eld
u ut
af ten
aal d
ru k
Ġe m
ÑģÑĤ ÑĥÐ¿
ort s
Ġa ussi
ÐºÐ° Ð·
ill es
an ks
ĠÐ¿ÑĢ Ð¸Ð½
Ġp uis
b au
y r
Ġwith in
Ġw in
Ġl id
Ġb er
Ġt ri
ĠA ut
ent ion
ir k
Ġmaar t
ic iÃ³n
Ġhal f
ĠIn ter
Ġvilla ge
Ġter rit
Ð² Ð»Ñı
M ar
Ġ if
ÑģÐº Ð°Ñı
Ġmens en
ĠÃ©gal ement
ar te
Ġprim er
ad y
i ro
ĠSp an
Ġder de
ĠR iver
Ġjul i
ÑĢ Ð¾Ð¼
ie ve
if ied
ĠZ we
am t
ĠP eter
Ñĥ ÑģÑĤ
orp s
Ġt yp
Ġs ent
ip s
Ġa insi
ĠRo bert
ĠD r
Ġf am
ĠS im
Ġc aus
fol g
un den
Ġst ruct
op er
Ġde utsch
ff ent
ĠEuro pa
Ġen s
le v
Ġm ake
Ġa prÃ¨s
n em
R e
ol it
Å ĵ
Ġop ge
Ġinf lu
ial ly
wo od
ĠB ureau
Ġb ased
arb eit
Ð¿ ÑĢÐ°Ð²
l oten
Ġ6 0
ĠHo use
ĠM ac
Ġt est
Ġex ist
f ess
Ġgeb oren
Ġsein em
Ñĳ Ð»
ian o
n ess
Ġand eren
Ġkon ing
u pe
ĠAr ch
en den
Ġaug ustus
ul a
Ġch ang
Ġdec ember
in ation
ĠÑģ Ð¾Ð±
a ille
Ġf ather
Ġwe ek
Ġg uer
Ġzur Ã¼ck
Ġen v
la v
Ð°Ð» ÑģÑı
unc il
Ġa pril
S ch
ri er
8 0
Ġad dition
Ð¾ÑĢ ÑĤ
ĠC our
ep en
kt ion
ĠR ed
c ript
Ġloc ated
icha el
Ã¤ s
il ar
ĠJ ac
h ib
Ġgr ond
ĠJahr hunder
Ġp ap
ÐµÑĢ Ð½
Ġth ough
Ġk o
ian a
ĠS am
gl ied
Ġcont rol
Ġad v
ĠEn gl
ÐµÑĢ Ð¶
Ġl og
ot o
iz er
2 3
ĠF ra
icht ing
Ġprem iÃ¨re
Ġne ar
Ġer st
Ġtra d
Ð¾Ð»ÑĮ ÐºÐ¾
ĠM useum
ĠÐ ¨
ĠM os
i Ã©
o und
V er
ow el
ak er
id s
Ġs ide
ad s
ĠÐ² ÑģÐµ
ers che
2 1
Ġk am
ra ag
ÐµÐ½ Ð¸Ð¸
y er
Ġgem aakt
ĠU m
Ġtro is
v la
Ġz eer
Ġt urn
Ġd rei
lo ot
Ġf Ã¼hr
Ġres pect
Ð°Ð½ ÑĤ
Ġprodu ction
2 4
Ġs ele
Ġwh at
Ñĥ Ñħ
Ġs qu
is es
el n
Ġc in
ĠC ast
Ġhab it
un ced
Ġpl ant
id ge
Ġn atur
Ġc ame
V an
Ġm ult
Ġmon th
ik er
O r
ĠJ ack
ĠO l
Ġalle m
ĠZ o
Ġh istory
k l
ors pr
pro du
ĠCal iforn
Ġo tro
Ġsh ort
z ij
h an
ĠFran cis
pp en
Ñı Ð½
ĠEl le
ĠÃ ¡
is k
Ġm unicip
Ġcon se
ĠD u
Ġfo ot
om s
ro te
l ine
Ġmill ion
art h
iud ad
Ġh uis
il and
rib ut
Ġincl ude
Ġwer ken
op e
Ġsein en
Ġopn ieuw
Ã¶n ig
Ġn orth
ograph y
ĠB et
B ij
c ont
Ġpos ition
ĠÃ ľ
k omen
ĠTh omas
Ġin vol
ĠS er
ct ions
and a
ĠF rench
Ġper iode
ĠÐ¿Ð¾Ð» ÑĥÑĩ
ĠO ber
ĠR os
Ġs oll
Ð¼ Ð°
ĠA cadem
a gen
ĠT our
Ġw ent
ĠRo yal
Ġin de
ĠF orm
is se
ĠAn gel
Ġarch itect
Ġz ien
aj o
Ġth ird
z w
Ġcap t
ĠH all
Ġt em
Ġn ovember
Ã »
Ġ194 4
los s
Ġan im
le ction
ich ten
Ġof ten
Ð¾Ð· Ð´
ĠAn g
ĠK a
Ġad minist
ol es
Ð¾Ð» Ð¶
Ġo orlog
Ġ198 8
ive au
ĠB a
Ġbas is
ag ement
B C
de el
Ġstart ed
Ġ194 0
ÐµÑĢ Ñģ
sy ch
Ġam ong
ĠB y
ĠEng land
Ã« n
geb racht
ÐµÐ½ Ñĭ
Ġk l
la ge
2 2
Ġrad io
p s
ĠFran se
Ġet wa
Ġn ieuw
Ġser ie
Ġex pl
Ð¸Ðº Ð¸
ĠD ist
Ġcont ra
ĠM ann
v ious
Ġall ow
Ã© ral
ing er
Ġcomm and
Ġv oll
f ahr
Ġro l
ĠGr and
Ð» Ð¾Ð²
Ġdeb ut
Ġt al
ĠP f
ien te
n ing
Ġbe ide
ÑĤ Ð¸
Ġgra du
ar ed
iv o
f ield
Ġs ett
ĠS ur
od s
ĠÐº Ð¾ÑĢ
Ġcount ry
c ing
ÑĮ Ñİ
ost er
Ġp un
kom st
ĠDaar na
ĠS eit
Ġpro mot
Ġa cht
A s
Ġs en
Ġcom mer
ĠM at
Ġn orm
Ġmo dern
Ġcla im
Ġvol g
ĠC ensus
Ġcont re
Ġfin ale
ste in
un a
Ġmo et
b a
Ġbest aat
eren ce
Ġg ere
ĠCh ina
ut t
ress ion
Ġsucc es
g em
Ã¤ l
Ġpro pos
Ġwaar van
ĠL at
ĠdÃ© b
ĠH and
p un
Ġd ou
b es
Ġuit e
Ġab s
Ġpla atsen
ĠMe x
re ef
Ġd ir
wij l
Ġst ond
ip l
av y
ier on
it el
Ġj us
Ġdesc rib
Ġsp el
Ġfr ont
Ġh on
ĠCh urch
2 7
Ð° Ñĩ
Ñı Ð±
ij en
Ġspe cial
Ġbus iness
iÃ¨ cle
ess en
Ġp et
ĠIn stit
ĠF ried
Å į
Ġd us
Ġo ld
Ġ198 6
ĠÃ ª
o unt
Ġprincip al
Ġgebouw d
ĠStre et
ĠS port
ĠS a
Ġc ab
Ġdes de
p pe
ĠM il
we ge
Ġdoc ument
iÃ¨ me
Ġbe p
Ġc rÃ©
Ġy oung
ĠAr beit
Ġver g
Ġcon stit
Ġkun st
Ġonder zoek
al y
ut er
Ġro le
az z
ĠB ern
u ÃŁ
Ġw omen
ĠB eg
Ġk ill
al le
en z
ĠX V
lo op
ele id
Ð¾Ð»ÑĮ Ð·
Ġb ien
Ġ198 7
Â «
st ant
ĠB undes
h ol
ĠÃ º
Ġre cht
Ġj ou
Ð½ ÐµÐ¹
Ġbo ek
ew el
ier re
ell t
Ġcol lect
ĠF e
ĠM er
Ġo ude
ers e
ĠEngl ish
Ġbe im
Ġverk o
Ġt u
Ġkle in
re w
Ġfamil ie
S e
Ġso uth
ĠD ar
o e
Ġintro du
Ġequ ip
19 6
o z
ĠÐ¸ Ð»Ð¸
ĠAmerik aanse
ib t
Ġgeh Ã¶r
Ġjo ined
el la
Ġs oort
ĠD a
ĠF il
ĠB ru
w ork
Ġf av
ĠT r
ĠÑĢÐ° Ð¹
as se
Ð½ Ð°Ðº
Ð° ÑĪ
ĠC ong
Ġc ost
ĠÃª tre
Ġbec ome
Ð Ľ
Ġ198 5
Ð» ÐµÐº
Ðµ Ð¶
ie urs
iv a
rij den
Ġdaar na
at ely
2 8
n ung
Ġanno unced
ĠSp iel
ĠQ ue
Ð¾Ð» Ð¾Ð³
om er
Ġih re
Ã¶ s
ĠD oor
Ġg ran
ĠÐº Ð¾Ð»
Ġl iter
Ð¾Ð³ Ð´Ð°
Ġestabl ished
ĠÑĢÐ° ÑģÐ¿
2 6
Ġde cl
y ing
Ġe uro
Ġle eft
ĠÐ¶ Ðµ
Ġdies e
Ġreturn ed
Ġih m
Ġe very
ĠO ne
ĠT rans
Ñı Ð·
ĠÐºÐ¾Ð¼ Ð°Ð½Ð´
il ed
Ġch urch
ĠS int
ĠF amil
Ġwork ed
te ment
ind et
Ġre pla
ĠÐ¿Ð¾Ñģ Ð»Ðµ
ĠCh ampionship
Ġsy n
Ġco ver
ĠA ct
r and
Ġs in
ĠInd ia
b ed
' t
Ġw ay
b ro
it es
Ġk ann
Ġ193 0
re cht
Ġ198 4
I t
ĠN oord
ĠCan ada
Ġv iol
geb ied
oor de
ĠÐ¿ÑĢ Ð¾Ð²
Ġrec on
on ie
in os
ĠE ast
ĠT ro
Ġar m
ar ia
Ġne xt
ĠU r
ĠB or
av al
or ganis
ig heid
2 9
Ġw ant
Ġen ige
b ach
irt schaft
Ġp ra
ĠA ward
c ast
ĠÃ ¶
ie z
ÑĢ Ð¾Ð½
Ġmay or
c teur
it Ã©s
Ġmar ried
Ġf ew
Ã¤ d
ol gens
ĠÃ© l
Ġest a
Ġ8 0
7 0
Ġnum mer
i ale
ebru ari
voor beeld
Ġdur ante
Ġimport ant
u ve
Ġvers ion
ien de
ĠRe cord
Ġchar acter
er ve
Ġl eng
Ðµ ÑĪ
ĠF ir
ar ing
iem bre
Ã© tÃ©
Af ter
in ig
Ġpart ie
Ð¾ÑĢ Ð¾Ð½
ijn en
Ð»Ñİ Ñĩ
Ġapp oint
Ð¸ Ð½Ñĭ
Ġes p
l ant
Ġo ct
en ces
ĠO b
Ġstud ents
ul p
oh l
ĠĠĠĠ ĠĠĠĠ
Ġf ebruari
ĠR oman
Ġfran Ã§
Ġop per
ÐµÐ» Ð¾Ð²
ĠV la
ĠO ff
ĠÐ¾Ð± ÑĢÐ°Ð·
ĠÐ· Ð°Ð²
Ġru im
ier e
Ð°Ð½ Ð¸Ð¸
ĠB and
et ter
et ten
w ijk
en ne
ric k
ist oire
im iento
m ing
Ġ .
ĠWereld oorlog
Ġt ake
Ġ19 20
iden ce
Ġc ast
Ġdo el
Ġd ort
ĠMar ia
ĠB lack
eg o
g in
Ġreg ion
Ġr Ã©s
ĠÐ· Ð°Ðº
Ġaut hor
r il
Ġex tra
i Ä
Ġcur rent
ĠÐ·Ð° Ð¿
Ġre v
Ġop pos
ĠM ichael
ri a
Ð¾Ð² Ð°Ð»
Ġfilm s
ĠEn de
Ð¾Ð´ Ð°
ĠComp any
Ġ197 5
aar s
f ect
ir l
ien ne
Ð¸Ðº Ð°
Ġh owever
ar is
e v
Ġl ange
Ġn ationale
Ġmod el
Ġ198 2
ur ger
Ð¾Ð½ Ñĩ
ĠF ern
Ġdevelop ment
Ġm ass
Ġop gericht
ch a
Ġwor ks
ĠEn t
m m
ĠÑį Ðº
il i
ab an
ij l
r is
l uit
c ie
N ach
ĠIs ra
ĠTwe ede
k end
Ġass ist
Ġz es
Ð³ Ð°Ð½
Ġhum an
Ð¸Ð· Ð²
ou ver
ell ing
Ġc es
ci Ã³
ĠMin ister
Ġ198 3
lo ed
ais on
itt le
Ġh uid
Ðµ Ð¶Ð´
b are
ĠÐ» ÐµÑĤ
r ing
ĠT od
Ġcar riÃ¨re
ĠMus ic
Ġann Ã©es
Ġgre at
Ġart ist
Â» ._
ĠM y
Ġz onder
ĠV ere
Ġde g
er ed
hal ten
Ġkon nte
Ġep is
ĠZ uid
Ġk Ã¶n
Ġ196 8
Ġbl ij
ĠT re
Ġm al
II I
Ġfe ature
Ġconstru ction
Ġ197 2
ĠD uring
ÐµÑģÑĤÐ² ÐµÐ½
Ġg elegen
Ñĥ ÑĪ
Ġg ames
l ig
ap pen
oc rat
ÃŃ as
Ġm ont
ĠS erv
w aar
Ġhab ÃŃa
ap en
ier ten
ot a
Ð» ÐµÐ½Ð¸Ñı
ĠL ater
Ð £
el ingen
Ġcl os
Ġme et
an gen
Ġpartic ular
us ed
ĠAn ton
Ñĳ Ð¼
i h
ĠÐ½ Ð¾Ð²
ci o
Ð¾Ð¼ Ñĥ
Ã¨ ne
Ġein de
ĠUn ion
pla ats
cl us
ĠÃ© c
Ġh aving
Ġz al
4 5
Ġsle chts
Ð¿ ÑĢ
Ġcons erv
ash ington
Ġ197 4
il ver
Ġim m
Ġw eten
Ġs el
Ġw rote
Ġz owel
m i
Ġ197 9
z el
Ġc er
Ġp ract
ĠC amp
ĠS ov
Ġ194 1
Ġdire ctor
ĠRich ard
ÑĥÑİ Ñī
ĠÑı Ð²Ð»Ñı
Ġtit el
Ġre gel
Ġvar ious
ĠD ire
ik en
Ġan g
Ġt ype
Ġz od
d am
Ġus ing
Ġr iv
ul s
Ð¾ ÑģÐº
Ġsign ific
ug d
rij ven
ĠC ons
ro uw
ĠW hen
ĠGe org
oor ten
ĠÐ± Ð¾Ð»ÑĮÑĪ
on nen
Ġc iudad
Ġtra v
Ġcontin ued
Ġ â
vol gens
Ġob t
Ġla g
Ð¸ Ð°Ð»ÑĮ
Ġk ilom
r est
Ġs n
D em
emb le
Ġo orspr
Ġv ond
ia an
jar ige
k i
ĠÃ ĸ
Ġ198 1
Ġ erste
ÑĢÐ° Ð¶
Ġle id
ĠM ot
Ġt ant
ĠSt aten
Ġgehe el
ĠH aupt
Ġa ward
ĠG al
st ad
ĠT om
Ġ197 8
Ġpre vious
vo erd
Ġmil j
ĠM ill
v ang
Ġv ideo
Ġtra b
rit t
Ð± Ð¾ÑĢ
Ġra ce
ĠÐ¾Ð± Ñī
z onder
s iÃ¨cle
ĠX I
st adt
ĠD ivision
Ġ197 6
ar se
3 5
Ġbed rijf
Ġ ur
Ġatta ck
" ._
em or
Ġ197 7
f r
ru ck
ĠÑģÑĤ Ð°Ð»
Ġvoet bal
ell er
ĠG od
Ð¸ Ð¶
Ġj ournal
m on
ĠH ill
ond s
Ġover le
ĠK Ã¶nig
anne er
ge h
Ġdist rict
Ð ¤
o ir
ĠÑģ Ðº
Ġ3 5
il way
Ġ197 3
ÑĢÐµ ÑĤ
Ġv ille
r ale
ĠPres ident
ÑĢÑĥÐ¿ Ð¿
wer p
Ġb ase
au er
ab les
ĠÐ½Ð° Ñģ
ĠB est
ra y
ĠAr my
el te
Ð¾Ð» ÐµÐµ
ĠÐ¿ Ð¾Ðº
elb st
Ġg iven
ĠÐ¼ Ð°ÑĤ
Ġf riend
h ab
al ing
Ġcommun ity
ĠK n
Ġ197 1
ĠZ ij
Ġinter est
ĠCaliforn ia
ÐµÐ½Ð¸Ðµ Ð¼
ĠMar y
Ġtit le
uit s
Ã¤ lt
Ġgroot ste
Ġmater ial
Ġb i
ĠV on
Ġdef e
Ġc am
Ġ7 0
Ġf ield
ĠV ir
pla at
Ġder n
Ġjus qu
Ġes pecial
v or
Ã¤r z
b ahn
ĠR ob
ĠS ci
ru is
Ġge f
o te
ĠJos eph
Ġb or
A S
Ġmin der
Ġom geving
Ġtemp or
ĠW ashington
Ð°ÑĤ ÐµÐ»
au d
Ġav ant
Ġle ger
in ese
Ġse x
Ġj on
v orm
Ġweit er
ĠÐ¸ Ñİ
og n
ri an
Ġpo ints
ck e
Ġcont act
F ran
Ġop t
Ġ196 9
Ã¯ n
ij st
c as
Ġ194 2
Ġh or
Ġm er
lich er
Ġpe ut
Ġvoor t
ĠJun i
Ġge we
ÐµÐ¼ Ð¿
ĠRe ich
ĠB ill
Ġh ost
ĠTh ese
Ġkinder en
ot el
ĠD o
Ġs Ã©
Ġcre ated
Ġ194 3
res p
ĠMart in
Ġih n
Ġat temp
m idd
Ġcomm on
ain ing
Ġl ist
Ġg af
ot te
Ġ193 9
Ð¼ ÐµÐ½
ĠÑģ ÑĢÐµÐ´
ch an
Ġp al
ell s
Ġ ord
Ġmin ister
Ġsim ilar
ik a
Ġuite indelijk
ĠAss ociation
B e
ou v
19 5
Ġv en
ĠEurope an
Ġdesp uÃ©s
ĠRo ck
Ġwerk te
ĠE g
b ek
Ġph ys
Ġresp ons
l ad
Ġres earch
Ġbe iden
und o
ĠÑģ ÐµÑĢ
ĠS pe
Ġ ill
ĠC la
Ñģ Ð°
amp ion
ĠÐ¿ Ð»
Ġpart ir
Ġse par
he t
ĠF ort
Ð Ĺ
cept ion
Ġsu ff
ĠE sp
on en
Ġwith out
Ð¸ ÑĢÐ°
ĠL as
sk i
ern oo
Ġver st
Ġlie gt
Ð² ÐµÑĤ
Ġ196 7
ro om
ĠN or
ĠÐºÐ¾Ð¼ Ð¿
ci as
ĠÐ¿ÑĢÐ¾ÑĤ Ð¸Ð²
Ġpolit ical
ÐµÐ½ Ð¸
is l
ck en
Ġvers che
ĠVeren igde
ab e
ĠM iss
Ġre mp
sch en
Ġb ron
Ġsu g
ĠChrist ian
all er
Ġz usammen
Ġge p
C hr
ĠS ol
Ġenc uent
ĠÐ½Ð°Ñĩ Ð°Ð»
Ġbr and
ĠMar k
ĠPart y
Ġ9 0
b ens
Ġv iel
c te
ĠM Ã¼n
ĠMit glied
idad es
Ġter min
Ġd ann
cc ording
ĠR ot
Ġpe u
Al s
Ġbere its
Ġs our
ic i
ĠÑĩ ÐµÐ»Ð¾Ð²
ĠCo uncil
Ġcon v
osp ital
Ġl ive
w ing
hal b
ge ben
ÐµÐ½ Ð¸Ð¹
Ġmo der
ĠSup er
atie f
ĠFrank rijk
." _
Ġhab en
. )
Ġbe te
Ġro und
w are
ĠÐ¿ÑĢ Ð¾Ð´
ĠÐ³ Ð´Ðµ
Ġl leg
z ie
ĠV ictor
Ð¾Ñģ Ð»Ðµ
Ġd ays
ĠC ap
c u
Ġin sp
Ġtoe ge
Ð» Ð¸Ñĩ
Ġs ou
amp le
Ð· Ð°
a ign
r or
te en
ed ig
ĠMa i
ĠO per
Ġopper vla
Ġ196 5
c Ã©
Ġtr Ã¨s
w h
Ġleeft ijd
ÑģÐº Ð¸Ðµ
Ġihr er
Ġp ot
ific ation
Ġsh o
Ġn atuur
Ġdef in
ĠGeme inde
ĠP rem
lu cht
Ġbet re
ĠF eder
at ic
ak te
wer pen
Ġn ord
Ð² ÐµÑĢ
Ð°Ð² ÑĪ
ÑĮ Ñı
Ġf ab
ĠF estival
Ġg ab
p on
as k
ab ei
c os
ĠAmer ica
Ġs i
a ine
ÑĨ Ð°
ÑĨ Ð¸Ð¾Ð½
art s
ĠÐ¾ ÑģÑĤ
ic ial
ĠL eg
Ġreal iz
Ġlang u
az ine
ĠM ic
Ã¡ t
Ġc irc
ĠÐ° Ð½
Ġcon ne
ĠJ ust
ĠS ing
A mer
Ġ /
Ġsol o
Ġsign ed
Ð»Ð° Ñģ
ol le
Ð° ÑİÑī
ĠT ijdens
Ġdivers e
ude erde
ÑĢ Ð¾Ð¿
atur es
Ġfuer on
ĠS Ã¼d
ĠC he
Ġmilit ary
ĠG ru
Ġm es
Ġbij voorbeeld
ĠÐ· Ð°Ð½
Ġcu ando
ik an
la at
Ġn oord
Ġm iss
ĠL ab
ĠC re
w ar
ĠH al
Ġst aan
rie k
Ġvol gende
Ġtr at
ĠS ociety
ri ff
Ġp ast
f ten
Ġc ant
u h
Ġoffic ial
Ġc ir
ci es
Ġemp loy
ie g
s elf
z ent
Ġass oci
st on
Ġcent ral
un s
ĠÐ¸ Ñħ
ĠGr und
one y
g elegen
am iento
Ġt imes
od es
ĠIs land
Ġsch reef
C on
iv ely
ug ar
l ang
ĠN et
Ġter wijl
Ġrel ations
i est
is ion
w el
sch rift
Ñĥ Ðº
Ġsp ort
o i
Ġg ar
ent al
er os
Ġ196 4
ic le
Ġerh ielt
Ġd augh
ĠTe x
as c
ĠÐł Ð¾ÑģÑģ
ĠÑĥÑĩ Ð°ÑģÑĤ
Ġdis co
Ġl ost
b lic
Ġan ci
Ġto ut
Ġsch ilder
ĠHen ry
Ġmed ia
ĠÐµ Ñĳ
ro kken
ĠÐĲ Ð½
Ġf us
ĠÐĶ Ð¶
geb ouw
Ã¤ch st
ĠB ur
Ġopen ed
Ġy a
Ġ5 00
Ġro ute
ĠRecord s
Ġv ele
h i
Ġver volgens
eg t
Ġplus ieurs
ĠS om
e te
p el
g ress
Ġcom pr
Ġvol k
at ten
Ġf ull
Ġtrans port
ĠÐ¿ Ð¾Ð¼
ĠV ers
ich ts
Ð½Ð¸Ðº Ð¾Ð²
Ġrest aur
ad ores
le iding
d ay
mal ige
Ġst ar
Ġprim era
ith er
ist ersch
Ġpl at
ass er
Ġserv ices
Ġac qu
Ġl aten
ĠT V
Ġwaar onder
Ð¸ÑĤ ÑģÑı
Ġmid den
b ers
Ġfur ther
Ġob serv
Ġst ory
m ond
Ġsp re
ort hern
Ġeduc ation
Ġd omin
Ġ ir
Ġster k
ĠÐ´ Ðµ
Ġto get
9 0
Ġtoget her
p unt
Ġwork ing
z t
fer red
Ġ194 6
Ã± o
Ġzelf s
olog ical
ĠJ er
lie k
or ies
Ġ196 6
Ġt ie
Ð¼ ÐµÑģÑĤ
ĠO ktober
lo eg
ĠÐ¾Ñģ Ð½Ð¾Ð²
on k
Ġen erg
ig r
Ġer an
is ing
ĠâĢ ł
Ġvolg de
Ð¾Ð²Ð°Ð½ Ð¸Ñı
Ġho e
gen woord
7 5
Ġk en
ict ion
Ġs pr
ÑĢÐ° Ñģ
Ġprodu ced
ĠÐ¾Ð± Ð»Ð°ÑģÑĤ
d es
Ã© v
Ðµ Ñī
ĠK le
Ġw ife
Ġd om
Ġ Ñİ
3 3
Ġv ot
Ġfoot ball
Ġg eld
Ġc y
Ġc ivil
ĠD at
ĠL ib
Ġhe ute
Ġg elijk
Ġc ours
Ġv ie
der t
ers hip
Ġw Ã¤hrend
Ġa ver
H ij
Ġcon du
ÃŃ o
ĠR om
ab ly
Ġw eb
Ġf ond
h old
Ñĭ ÑĤ
ĠAustral ia
Ġv lie
ul es
ĠR en
ĠPro du
f eld
Ġ( "
ĠÐ¡ ÑĤ
Ġto urn
Ġfor ces
ĠC ont
Ġeng ine
Ġg ru
a e
an i
as tern
h in
or ter
at ro
ĠLa w
Ge ografie
ĠP re
iss ance
Ġc it
ĠâĢ ĺ
Ġp el
) ;
ÐµÑģ Ñģ
ĠTe chn
Ã¨ me
Ġcomp on
Ġzou den
ĠI V
rie f
h ard
am ment
Ã¤n g
is mo
ish ing
ĠBelg iÃ«
b ild
y ear
Ġappear ed
ÐµÐ´ Ð¸Ð½
Le ben
Ġ17 8
Ġdep uis
ur z
Ġte ach
Ġp il
ÃŃ cul
Ġc op
gr und
Ġappoint ed
Ġhim self
Ġwedst rijd
Ġar g
Ã´ t
u ff
ĠA p
Ġre ger
ad re
im o
ĠCh ic
k ant
sch aften
f te
Ġv iew
ĠL in
Ð¼ Ñĥ
Ġdien st
Ġso ut
ĠÑĩÐµÐ»Ð¾Ð² ÐµÐº
Ð½Ð¸Ðº Ð°
Ġpro per
Ð¸Ð½ Ð³
Ð¾Ð³ÑĢÐ°ÑĦ Ð¸Ñı
A t
ĠÑģ ÐµÐ¼
g round
u ciÃ³n
en k
Ġob ject
Ġ196 3
ĠW erk
Ġ4 5
Ġco ach
Ġm or
Ġro ck
f ilm
Ð» ÑĥÐ±
Ġorig in
ap el
Ð°ÑĢ Ñı
ĠCent er
Ġgro upe
Ġcol la
ent a
ĠÐ¸ Ð³
4 8
ĠC am
Å ¡
Ġra pp
ĠPro fess
ĠGro up
ĠPro vin
ĠY ou
Ġr ight
f ang
ÐµÑĢ ÐµÐ²
ĠKir che
iÄ ĩ
Ġy ou
ell ow
on ia
Ġhuid ige
Ġg an
Ð¾Ð» Ð½
Ð¾Ñģ ÑĥÐ´
Ġ194 8
Ġl lam
A C
Ġp ob
Ġp unt
Ġvro eg
ĠEurop ese
Ġbest aande
ĠW ith
Ġest Ã¡
ĠÐ³ ÑĢÑĥÐ¿Ð¿
f alls
ĠA an
Ġ196 2
Ġst yle
iÃ¨ res
ĠJul i
ĠÐ¸ÑģÐ¿ Ð¾Ð»ÑĮÐ·
ÑĢ Ð¾Ñģ
Ġer folg
Ġcon d
Ġl ess
Ġh it
ĠOr t
is ation
ĠÃ© p
it ten
Å Ĥ
ain es
ĠS in
ĠÐºÐ¾ÑĤÐ¾ÑĢ ÑĭÐ¹
ĠInstit ute
Ġin te
ĠK unst
Ð¸ ÑĪ
ĠFl or
ÐµÐ¹ ÑģÑĤÐ²
et a
Ġpro m
ce p
m as
ĠCh inese
ĠÐ²Ñĭ Ð¿
Ġcomp lex
Ġm ort
ud es
Ġexper ien
ĠO t
vent ion
Ġs w
end ing
Ġconsider ed
ĠE mp
Ġpar k
ĠRo ad
Ġc le
ĠJanu ar
Ġv ij
Ñı Ð²
Ġ193 8
Ġfor ma
ĠM Ã¤rz
Ġkw amen
Ġt aken
Ġmus ical
Ġc andid
Ġs ans
Ġv ict
ig u
Ġeind igde
iel te
our g
Ñĭ ÑĪ
Ġn Ã©
Ġge volg
Ġnou ve
Ġm Ã©
Ð¾Ð¶ Ð´
ill o
as es
Ġinv estig
ĠÐ¿ Ð¾Ð²
Ġspeci es
Ġle vel
Ġsec ret
Ġdes sen
a ul
itte e
3 8
ĠD re
ÐµÐ½ Ð¸Ñİ
der en
ÑĢÑĥ Ð´
ĠF er
ĠO s
âĢ ¦
E uro
ro y
Ð¸Ðµ Ð¹
za am
Ġelect ion
Ġprot est
ĠMo unt
Ġ ess
ograf ÃŃa
Ġar beit
Ġotro s
l uss
ac y
ĠInd ian
3 6
ist es
Ġmis mo
Ã¶ ÃŁ
Ġmilj oen
re a
ĠS aison
Ġh en
h ank
ĠS on
Ġreport ed
Ġ195 8
ĠRep ublic
cript ion
Ġl iet
ch s
ĠS eg
ĠM itt
quent ly
s hip
ĠÐĿ Ð°
ĠÐ½Ð° ÑħÐ¾Ð´
ÐµÐ² ÐµÑĢ
Ġme este
ig ent
ÑĨ Ð¸Ñı
ot he
Ġcontin u
, âĢĭ
ĠH ans
Ġmar k
Ġs ort
ĠC e
ĠgÃ©n Ã©ral
ch sel
Ġperson al
Ġm aking
Ġfo is
Ġs at
ĠP an
Ġdescrib ed
Ġre b
Ġf er
ut sche
Ð¸ ÑģÐº
ĠV en
vis ion
ah m
Ġv inden
it ch
id elijk
im in
ĠDe part
Ġ196 1
Ãª te
Ġb ijn
ĠZ u
Ġ19 18
ĠF ol
ĠVol ks
Ġon ts
Ðº Ð¾Ð»
Ġtr as
Ġoff ice
Ð¾Ð² Ð°
and s
Ġdies em
it ive
Ġp od
ĠÑį ÑĤÐ¾
ĠÑĥ ÑģÑĤ
Ġtra va
ĠNederland s
ver d
ĠRad io
ric e
ett ing
r iv
ĠD is
ĠAngel es
Ð ¨
Ġp ays
z ember
w in
Ġel ekt
enn is
Ġfound ed
Ġrele ase
ÐµÐ½ Ð½Ð¾
ĠB ut
ĠÐ¾Ð± ÑĬ
Ñĳ ÑĢ
Ġg leich
Ġintern ationale
Ġf oc
ĠK arl
Ġaf ge
Ġh ard
t res
ĠG old
ĠP o
ind ing
Ġst op
z u
Ġj ud
c up
ĠÑĤ ÐµÑĢ
Ð° ÑĨÐ¸Ð¸
Ġal c
ab eth
ne ur
Ġb rit
ÑģÐº Ð¸Ð¼
Ġg ede
Ġst udeerde
ĠÐ²Ñĭ Ñģ
stell ung
un Ã¤chst
es p
Ġne ed
3 7
ec ut
og er
ĠGre en
Ġen f
Ġest ud
Ġde ed
de te
ĠÑģ Ð¾Ð·Ð´
Ġdo chter
N A
Ġs tem
Ġsp elen
Ġper m
wij s
Ġpol ic
Ġc el
ie ken
y e
ann ing
ĠWh ite
ĠSm ith
Ġpart y
) _
Ã¶ ffent
ĠC ro
ste em
os oph
ĠCar ol
ber e
Ð¾ÑģÑĥÐ´ Ð°ÑĢ
Ġo thers
Ġplay er
hel m
ĠDist rict
4 4
un n
Ġp sych
ĠK rieg
ÐµÐ½ Ð¾
Ġ195 6
ent ly
Ġare as
c ol
ĠDuits land
Ġ194 7
Ġk ant
Ġim pro
way s
Ġra p
e il
m als
Ġre du
ĠCour t
Ġle iding
st aande
um p
ou te
Ġmil es
Ġ193 3
Ġoppervla kte
Ġte il
Ġver n
aÃ± a
Ġwil de
3 9
v ier
h u
F A
Ġn emen
b t
ille m
Ġen ts
E arly
Ġb ank
Ġp aint
la cht
z i
ÑģÐº Ð¾Ðµ
Ġcap ital
Ġava it
Ġh old
ĠM ur
ĠChic ago
ĠC D
ĠCent ral
ĠAcadem y
Ġaut or
Ġsu iv
ĠCon f
ĠÐ² Ð¸Ð´
ĠkÃ¶n nen
Ġland en
Ġocc up
a ched
issen schaft
Ġform ed
ĠÐ¿ÑĢÐµÐ´ ÑģÑĤÐ°Ð²
iÃ« n
ĠS il
ĠG uer
6 6
che l
f ace
Ġs ud
Ġorgan iz
ĠBer g
Ġc ase
Ġcent re
Ġne ver
Ð°ÑĢ ÑĮ
Ð¾ ÑĪ
Ġf u
Ġgro und
Ġin g
it u
Ġh ow
ĠA th
ĠdÃ©b ut
Ã© ro
Ġvol gens
lo ck
Ġ195 9
Ġdep art
ist as
Ġc ele
Ġg ave
Ð½Ð°Ðº Ð¾
Ġsho uld
b it
Ġa and
ĠCan ad
Ġcor resp
4 7
ernoo i
Ġde ter
Ġr ijk
ĠÐ¼ Ð½
Ġge be
Ġfa ce
Ñı Ñī
ĠKon ink
Ġte k
Ġb ody
Ġf ight
Ġdo es
Ġmin ist
ĠÐ· Ð°Ð¼
Ð¸ÑĩÐµÑģÐº Ð¾Ð¹
Ġf ire
Ġcap ac
Ġc ross
ĠBe i
Ġmot her
Ġtra ining
ĠDeutsch land
Ã© qu
d ra
ĠÐ¿ Ð¾Ð¿
Ġemb ar
Ġer g
H istor
Gesch ichte
Ġm ur
Ġ194 9
ion en
ĠÑĢÐ° Ñģ
Ġcamp aign
Ġo l
ĠSt ar
Ġd orp
ĠP la
r ig
Ð¾Ð» Ð¾Ð¶
Ġex ample
C l
h ne
Ġver lie
ĠF rans
k n
Ġal though
Ġb urg
Ð² ÐµÑģÑĤ
ĠPl atz
ĠÑĢ Ð¾Ð´
k k
Ġve z
Ġdevelop ed
Ġbest aan
Ġbelangrijk e
Ġenv iron
ic us
ok e
Ġel ement
ĠC as
ĠUnivers itÃ¤t
Ġsuccess ful
ĠH aus
ĠD am
Ġo t
.âĢĭ âĢĭ
ĠPort ug
hal t
ĠUnivers iteit
ste ad
a il
Ġelect ed
duc ation
ĠH Ã¶
ra in
Ġge vangen
Ġpart ij
ov a
Ġs elbst
Ġb all
ichte t
Ġst rat
Ġtien e
Ġteam s
ari os
c omp
Ð² Ð¾Ð»
Ġstr ong
ĠF Ã¼r
Ġp ur
3 4
ĠA v
Ġa way
Ã¤n ger
m ost
iteit en
Ġw en
Ġa y
ĠO ver
Ġ195 7
ĠN ic
k w
Ġmeest al
gr ond
Ġmot or
id as
ough t
Ð» Ð¸Ð½
ĠS pr
Ġ193 6
Ð¸Ñģ Ñģ
Ġzod at
Ġ195 4
ÑĨ ÐµÐ²
ĠL o
Ġcont r
Ðº Ð¾Ð¼
ĠH ong
Ġindivid u
os a
ĠK ap
ĠL im
pe eld
Ġj ong
Ã© ra
Ġ19 19
Ð¾Ð²Ð°Ð½ Ð¸Ðµ
h oud
ĠT own
Ġreg ular
Ġmo eder
um an
ster reich
Ġd Ã©s
Ġaan we
Ġper man
ĠT ru
r s
Ġperform ance
Ġmonth s
ĠVan af
ÐµÑĢ ÑĤ
ĠV ert
Ġp ress
Ġb ren
Ðº Ð¾Ð¹
ĠL i
st al
ĠFrancis co
Ð¾ Ñħ
Ġmar ket
ation aal
ĠÐ¼ ÐµÐ¶Ð´
Ġaut om
Ġpol ice
Ġon ce
Ġava il
Ġver v
ĠG ew
om ing
Ð¸Ð² ÑĪ
Ð¡ Ðł
ĠM ass
Ã± a
d ie
Ġl ow
Ġab le
ĠHo ch
Ġb lack
Ġsur v
Ġact ief
z y
in et
3 1
ĠAr gent
ĠDe zember
ĠSant a
Ġe j
ĠT oen
ak a
Ġacc ess
ig ung
Ġl etz
Ġmaak t
Ġl eden
ĠM idd
Ġ195 5
ÑıÐ± ÑĢÑı
Ġre ci
el o
Ġma xim
Ã¶ glich
ĠA z
vel le
A d
ĠSt and
Ġmilit aire
Ġgro e
ĠÐ¿ÑĢÐ¾ Ð¸Ð·Ð²
ĠB os
ĠÃľ ber
ens ion
ĠJu an
den s
ĠB al
ĠÐ ¦
Ġf ree
Ġdaugh ter
Ġpro mo
Ġto ont
3 2
Ġc ro
Ġtro uw
au w
Ġag re
Ãº blic
id ers
J e
Ð¾Ð½ Ð¾Ð¼
schap pen
Ġbe eld
Ġdiff ic
Ġp ut
Ġrecord ed
Ġvan uit
ĠSc ott
ĠÑĩ Ð¸Ñģ
ĠB urg
ĠKa as
ra k
zeich net
4 6
e ens
Ġ Å
Ġdo en
Ġm uy
Ġ195 2
Ġwrit ten
Ġ195 3
Ġde zelfde
Ġcont ro
ĠH aar
ĠL ie
ĠÐ» Ñİ
T V
Ġto eg
Ġl iber
ÐµÐ¼Ð¿ Ð¸Ð¾Ð½
Ġcour t
Ġtro p
Ġd ipl
neh men
Ġrem ained
ĠÐ½Ð°Ð· Ð²
Ġla un
Ġvis it
ĠÐ ¯
sch lieÃŁ
Ġl ight
Ð¾Ð± Ñĭ
ĠA rab
Ġapp ar
Ġfollow ed
ism us
ĠK re
ĠÐ³ Ð»Ð°Ð²
Ġ193 7
Ð¿ Ð¸Ñģ
rib ution
iaan se
ur b
ĠÐ¿ Ð¾Ð·
ch ester
Ġd ivis
ĠS ar
Ġcol on
Ġal tern
Ġinst all
Ġac ross
ĠAl f
ĠMus ik
ĠTe am
Ġlang s
ĠT s
Ġtemp s
ĠGro ÃŁ
Ġs uite
s m
Ġplay ing
Ã¤ uf
ell schaft
Ġabs ol
Ġl iving
z itter
ĠBelg ische
Ġsy mb
Ġqu el
ĠB ank
Ġw ij
Ġconf lic
Ġs ens
Ġsp oor
ĠÑĢÐµ Ð·
Ġ15 0
end o
sch ijn
Ġh uw
Ġaver age
Ġmon de
Ġm useum
Ġph ot
ĠD ur
Ġex tens
p ret
Ġsug gest
re en
w ater
Ġact ual
Ġtie mp
Ġattemp t
ĠT al
Ġte xt
ĠM el
Ġcon oc
ĠDies e
Ġp en
Ãº s
Ġmo eten
Ġbel ie
Ġex pos
ign ed
V olgens
ĠÐ´ Ð¾Ð¼
ĠBrit se
Ġm ond
ĠAr ts
ĠK o
4 9
w alt
ib li
ter e
sch ule
ĠM ilit
Ġw ind
be i
Ġkon den
los sen
ĠB ere
Ã¨ res
Ġje ugd
ver en
ĠS ohn
k y
Ð³ Ð¾Ð´
ĠL ang
ÑĥÑī ÐµÑģÑĤÐ²
m ers
ation en
zij de
Ġont de
ĠÐ² Ñģ
Ġj ur
Ġqu est
ÑĢ ÐµÐ½
Ġb omb
w edst
Ġop genomen
ay a
Ġb racht
, "
ĠO ost
ĠF rom
Ġsu p
Ġbe vol
ÑĥÐ± Ð»
A b
Ġst att
ĠÑĢÐ°Ð· Ð²
ĠÑĥ Ð½
Ã¼r ger
Ġutil is
ĠÑĤ Ð¾Ð¼
ien st
i ar
Ġge ven
Ġun o
ell o
ed ing
ĠÐ¾ÑĢ Ð³Ð°Ð½
Ġversch ieden
ĠN ap
ĠÐ± Ð¾Ð»ÐµÐµ
Ã¤ ft
Ġvrouw en
ĠK inder
un es
Ġver tro
il a
ĠO pen
Ġ ersch
ĠÐ ®
Ġconc ern
Bi ografie
Ġe ast
te urs
Ð°ÑĢ Ð´
uel a
ĠJahrhunder t
Ġvan wege
Ð¾Ð½ Ðµ
k ampioenschap
ilit ies
z ug
Ġbek annt
Ġex t
Ġl ucht
Ġst uk
ch est
ĠAn n
6 5
b ew
Ñģ Ð¾Ð²
ĠLand es
ĠL y
ĠÐ´ ÐµÑĢÐµÐ²
ult ur
Ð½ Ð¸Ð¼
ul o
Ġposs ible
Ġmet h
Ġcom men
Ġtelevis ion
at te
le ven
Ġe erder
iden te
ist an
m ont
Ġz unÃ¤chst
Ġver and
Ð¸ Ð°Ð»
Ġgo od
we gen
Ġcomplet ed
Ġcomm une
Ġ6 5
Ġl in
Ġes pa
Ġversche en
Ð¾ÑģÑĤ Ð¸
Ġcult ure
la uf
Ġd re
ut ter
un que
Ġaut res
ĠP lay
l ess
ĠÑĤ Ð¾
Ġt ent
Ġpr ison
Ġfor ce
f Ã¼
Ġd ig
Ġin n
aste el
ĠÐ¸ ÑģÑĤÐ¾ÑĢ
Ġr icht
Ġze ven
Ġalt ijd
n st
ĠFried rich
Ġt ax
w ig
ren ce
Ġbro ad
r el
Ġj ug
Ġalg un
ie v
und a
Ġwaar na
Ġperform ed
l it
oc a
ĠÐºÐ¾Ð½ ÑĨ
Ã³ r
Ġt res
Ġm ust
Ġle urs
N e
Ġer w
au g
er den
dem Ã¡s
' .
Ġna ast
k rieg
Ġm acht
an en
Ġindust ri
Ġcomp le
Ġl ok
Ġgr ande
r Ã³
Ġnot amment
ĠAlex ander
ep t
Ġbeh aalde
ĠÐ´ Ð¾ÑģÑĤ
d ag
Ã©r ation
Ġgez ien
rie ben
Ġcon cent
e el
Ġan al
Ġdam it
Ġn adat
ĠB ul
Ġex c
em t
Ġgew orden
ĠGre at
Ġf eder
ben falls
at ors
ill et
ag on
Ġs omm
at ter
ich er
l ied
ke hr
Ġd ram
Ġf est
Ġgewe est
Ġk lass
ĠS ir
Ġpriv ate
Ġb al
Ġl ink
ĠSt aats
ĠÃº lt
ĠBr uss
ĠPol it
Ġm Ã©d
if s
ĠS and
ĠP ap
Ġevent ually
c iones
Ġtra ck
Ġg ibt
ĠDepart ment
Ð³ Ð»
u gen
ent ial
S C
b aan
ĠFir st
pend ent
iam ent
ÃŃ st
Ð°ÑĤ Ð°
est ed
ĠB ol
ÑĤ ÑĮ
Ġ191 4
al bum
Ġas ÃŃ
Ġab and
em pl
ĠT op
ier no
Ð· Ñĭ
Ġch a
ĠH end
Ã© ric
ĠD ay
ĠM id
ĠR am
he ad
Ä ģ
ĠVir gin
ĠH or
Ġfa ire
ĠA pp
r ar
ig te
Ġreger ing
Ã¤ hn
Ġbro ther
Ġcons ist
Ġro ad
z il
4 2
Ġda gen
Ã¤ ude
Ġt rib
um n
Ġse hr
Ġp ay
stra ÃŁe
Ġavail able
Ġac cept
Ġwaar mee
Ġvast gesteld
Ġa voir
ugh t
Ġbeg ann
Ġfav or
S A
Ð¸ÑĩÐµÑģÐº Ð¸Ñħ
Ġverl oren
Ġl icht
Ġmunicip al
Ġn av
Ġl ijn
ĠGerman y
at ives
ÐµÑĢ ÑĪ
Ġstud ies
Ġstud io
ĠN ot
Ġstud y
p an
i ant
ĠÐ² ÐµÐº
Ã¼n st
ĠÐ´ ÐµÐ»
Ġsh ip
E x
Ð² Ð°
ĠDaarna ast
u igen
Ġtem per
bo ard
Ġres ident
Ġfig uur
Ġn i
ĠK at
Ġ193 4
Ġ195 1
Ġihr en
Ġent stand
Ã» t
ero us
Ġ3 00
ĠÐ´ Ð¾Ð»Ð¶
qu el
ard o
Ġschool s
ĠÐ¿ Ð¾ÑĤ
ri que
ĠR ijk
gen den
ĠÃī t
Ð°Ð» Ð¸ÑģÑĮ
V oor
ru pt
Ġer r
e gen
er land
Ġ3 2
ri ka
iss ement
ĠÐ° ÐºÑĤ
ĠFebru ar
Ġb ero
Ġb ur
Ġ193 5
Ġa ch
ĠB us
Ġse en
ĠÃ Ģ
Ġinst r
ĠUS A
plaat st
c ut
ĠÐ¼ Ð¾Ð¶
Ġb lan
ĠÐ² Ð¾Ñģ
ĠN amen
ĠW illem
n Ã©
Ġm ission
ĠC a
h m
ĠC orn
ĠM od
Ġk ind
ar g
Ġno oit
Ġfin anci
5 5
Ġin j
ĠL uc
Ġs lag
ed y
ric an
ĠÑģÐ² ÑıÐ·
ĠAt lant
c ement
Ġdev ient
ĠH el
le ur
Ġd ate
Ġwe gen
Ã¤h lt
l iament
Ġqu ien
ÐµÑĢ Ð±
Ð Ń
Ð¸Ð½ Ð¸ÑģÑĤ
Ġre view
Ġf Ã¼n
Ġoverle ed
Ðº ÑĢÐ°
Ġle v
ik te
P l
Ġn od
ÑĦ Ð¾ÑĢÐ¼
ĠJ ew
7 8
ĠM as
Ġfin ished
Ġcat eg
Ġ192 9
Ġinstr ument
ĠCar l
ier ra
p f
ol on
es en
Ġthrough out
ĠÃ© qu
ĠD urch
âĢľ ,
ĠdÃ© f
Ġlo op
ab ility
Ġs ac
Ġch ange
ra al
ĠJos Ã©
ĠIsra el
Ġer re
ĠU K
u elle
P la
ĠHe in
it ude
Ġver te
ĠÐ¿ÐµÑĢ ÐµÐ´
Ġevent s
19 0
ĠRe al
Ð¾ Ñī
at ory
Ð» ÐµÐ½Ð¸Ðµ
Ġc ru
Ġf on
ĠR od
ĠAl bert
g te
Ġder en
Ġenc ore
Ġg as
ĠÐ¼ Ð°ÑĢ
r Ã¡
Ġn iveau
h l
ie ten
Bi ographie
ĠÑĤ Ð¾Ð³Ð¾
el k
ĠÐ° Ð¿
b ack
Ġ191 7
Ġnatur al
Ġs ido
Ġkrij gen
ĠTex as
Ġbijn a
ĠSt aat
Ġp aar
Ġv ic
ur ende
ĠL ord
on om
ar o
schijn lijk
Ġse ven
ie el
Ġinvol ved
Ġlangu age
d racht
Ġsub se
ĠL ake
ĠMa x
Ġvier de
ro t
ven ue
ze ug
ĠP ost
w ell
Ġbest uur
Ġk op
ĠD ou
ĠP as
u an
n d
Ġgr Ã¶ÃŁ
am ed
Ã« l
an ter
Ġke ine
Ġl ugar
ĠP enn
Ġs oorten
Ġsom s
m aal
ob re
ÑĢ Ð¾Ð´
Ġpers oon
5 00
c omm
ve y
ĠÐ¼ ÑĥÐ·
ĠWest ern
Ġs Ã¼d
Ġbelangrijk ste
ĠB ahn
ĠOn der
ÑĢÐµ ÑģÑĤ
4 1
Ġm ix
Ġd ise
" )
ĠB ob
ad ing
ĠH amb
Ġk orte
Ġ3 6
ĠfranÃ§ ais
Ġet c
Ġmon ument
Ġin ge
ĠJ im
ÑĢÐµ Ð±
u il
Ġver wij
ĠBro wn
Ġsignific ant
Ð¸ Ñī
em s
ĠG l
âĢľ .
Ġf ar
ÐµÑĢ Ð³
Ġond ersche
Ġ4 00
r ant
Ġph il
ĠJac ob
h ang
Ð»ÐµÐº Ñģ
ud d
Ġw ist
Ġe arl
ĠAr m
ĠÑĢÐµ ÑĪ
Ġa st
Ġe arn
Ġgeh ouden
Ġn un
Ġdesign ed
ich ter
ĠH istor
hank elijk
Ġvorm en
Ġst age
iez ingen
Ġb os
stell en
dien st
Ġlead ing
Ġto ch
Ġges peeld
Ġd iv
ad el
ij e
Ġ iets
ĠPar ijs
Ġaanwe zig
ĠT en
ĠT ot
Ġmeer dere
a ise
ient ras
Ġopen ing
vers e
ÑĥÑĢ Ð³
ci fic
ĠÐľ Ð¾ÑģÐº
Ġk ampioenschap
Ġd ivision
ult ure
ĠA le
z icht
Ġw apen
u ig
k ir
ĠP lan
av es
m us
ann te
Ð¸ ÑĢÑĥ
Ġover l
Ã¢ t
Ġverk l
Ġhoog te
Ġnouve au
Ġv oc
Ġex tre
Ġsig lo
ĠÐ¶ ÐµÐ½
ĠÐ°ÑĢ Ð¼
Ġso und
ap s
ĠP op
ĠÐ¼ ÐµÑĤ
ĠB uch
co le
Ġk ort
ĠdÃ© velop
ĠÑĪ ÐºÐ¾Ð»
ĠÑģ Ñĭ
pos e
ĠÐ¾ÑĤ Ð½Ð¾
ĠÑĥ Ð´
uur t
Ġkn ow
ÑĨ Ñĭ
Ġgo al
ĠM aar
g aan
ĠK al
Ġsa ison
ĠÑĤ Ð¾Ð»ÑĮÐºÐ¾
Ġwe inig
W h
Ġprofess ion
Ġdis p
B A
b ol
ĠAl t
Ġs um
4 3
c m
ens ive
pro gram
Ġjou e
ĠP erson
ck er
ĠV illa
Ġnabij gelegen
Ġaut o
ĠFran Ã§
air s
olog ische
Ġsub ject
Ġinform ation
7 6
ym n
Ġkill ed
Ð¸ ÑĦ
ĠX X
ĠÑĤ Ðµ
Ġind ic
oc o
' ,
Ġch ampion
Ã¤n de
ĠMex ico
ĠW ien
Ġweit ere
gl ise
t ime
Ġcrit ic
Ġtiemp o
Ġest im
Ð½ Ð¸Ðµ
Ð¸Ð· Ð½
ĠWh ile
Ġ193 2
Ġsa w
as ing
ĠH of
Ġt ard
Ġst ated
Ñĥ Ð³
or pen
ul ation
Ġfeature d
ĠWil helm
Ġembar go
ĠÐ¾ Ñĩ
Ġs era
ĠÑĩ ÐµÐ¼Ð¿Ð¸Ð¾Ð½
w end
Ġho ge
ĠÐ¿Ð¾Ñģ Ð»ÐµÐ´
ĠN orm
in st
ĠÐ½Ðµ ÑģÐº
en cia
h aal
it ar
ver b
atie ve
ĠÑĨ ÐµÐ½ÑĤ
a ction
re y
ub e
ĠAustral ian
im eter
Ġbef indet
P h
Ġr ug
Ġdel en
ĠS ong
Ġpartic ul
it ation
Ġtrab aj
ĠO st
Ð¼ Ð°Ð½
n y
Ġprov ided
ou vern
Ġpu ede
Ġup on
sch op
Ġ ,
Ġf eit
Ð½Ðµ Ðµ
Ð¾ ÑĦ
f ort
Ð¸Ð² ÐµÑĢÑģ
Ġl it
ĠS che
ÑıÑĤ ÑĮ
ra ch
vo er
Ġl ijk
Ġhe alth
tre cht
Ġb lijk
Ġle ague
Ġclub s
Ġe cht
la ciÃ³n
Ġant i
z Ã¶s
Ġpa ÃŃs
9 9
Ġlo ok
r er
Ġp ou
Ġv riend
Ġ =
ĠS us
s er
Ġp an
Ġe iland
end re
Ġall er
Ġdire cteur
ĠComm ission
Ã© p
z ial
Ġsqu are
pos ition
ĠA uch
v est
Ġ192 8
ĠS ub
Ġle arn
Ġdeg ree
Ġse ction
Ġguer re
Ġdec ided
Ġto us
ian ce
ĠFor ce
Ġbro er
ÐµÑĤ Ñĭ
Ġinter view
iÃ« le
M S
Ġse e
Ġn ight
gr Ã¼nd
stra at
Ġinv loed
k und
Ġt om
Ð¸Ð» Ð°ÑģÑĮ
ĠÐºÐ¾ÑĤÐ¾ÑĢ ÑĭÐµ
Ġprofess ional
Ġverh aal
Ġt ru
Ġse pt
Ġex hib
ĠSch we
Ġcommer cial
ÐµÑĢ Ñħ
C A
Ġrec ogn
Ġh ol
a ven
emp le
Ġsong s
am in
ĠÐ´ Ð°Ð½
ÑģÐº ÑĥÑİ
ĠProfess or
Ġbev indt
ĠMad rid
Ġte vens
ĠÐŀ Ð´
Ġcour se
Ġtra in
e ch
Ã¤ ÃŁ
ĠHe il
Ġcert ain
ĠÐ³ Ð¾Ð»
ĠÑģ ÐµÐ»
ĠÐ² ÑĤÐ¾ÑĢ
l iga
Ġn ahm
ĠÐ³ Ð¾ÑģÑĥÐ´Ð°ÑĢ
ate urs
Ġhe le
Ġge Ã¯n
ab el
ĠÑģ Ñĩ
Ġcl ose
r ang
ĠW ood
ĠPr in
ĠIn f
ab en
Ġconf ir
8 5
Ġsp ielte
Ġa ans
ĠR us
Ġad opt
ĠÐ± ÐµÐ·
Ġ192 1
ri z
Ġl ic
Ġ- _
Ñı Ð»
Ġcolla bor
be en
Ġver vangen
Ġshow s
Ġge ko
Ġutil iz
ĠB on
Ġaan v
g ers
ak ter
s pe
ob ierno
Ð°ÑĤÑĮ ÑģÑı
Ġhe el
Ġstruct ure
ĠÐ² Ð¾Ð´
Ġsci ent
ĠH il
Ê ³
Ġat tended
Ð¸ÑĩÐµÑģÐº Ð¾Ð³Ð¾
ĠN atur
Ġt or
Ġgesch iedenis
Ġs ay
ĠR el
Ġbeg ra
nam elijk
Ġv iv
ul f
Ġl u
ÑĢÐ° Ð¼
Ġprogram ma
ĠÑıÐ²Ð»Ñı ÐµÑĤÑģÑı
Ġpro ces
ĠF ahr
ĠS ud
ĠÐ¾ÑĤ Ðº
ĠrÃ© alis
ÐµÐ» Ð¸
me ister
Ġgroup s
Ġ19 00
Ð¾Ð² Ð¾ÑĢ
ĠSy stem
Ðĺ ÑģÑĤÐ¾ÑĢ
Ã® t
ĠT ri
Ñĭ Ñģ
Ġcommun ic
ic les
Ġwh ite
Ġfun ction
Ġe benfalls
Ġa ction
Ġe hem
ver k
ĠT w
Ġv le
Ã¼ b
Ġc hem
ĠP ierre
Ġke izer
is piel
Ã´ le
Ġ192 4
Ġf le
ĠR ay
ĠM ain
Ġdisc uss
re in
cl ub
Ġ Î
Ġl ieu
ĠR h
ÐµÑĢ ÐµÐ·
Ġl ÃŃ
ĠVer b
l ow
Ġencuent ra
i i
n ow
og el
b est
Ġv est
ĠÑģÐ¾ÑģÑĤ Ð¾Ñı
Ġto do
Ġl icha
S S
r ary
Ġgev onden
Ġh ouden
Ġk athol
Ã©s ent
Ġ uur
ÑĤ ÐµÑĢ
or ing
ĠH u
Ðĳ Ð¸
ĠL ud
Ġw id
ol den
Ġander em
Ġb att
Ã¤s ident
Ġm agn
Ġf arm
Ġh an
us o
mp h
Ãª tre
vern or
Ġstra al
Ã©l Ã©
Ġdir ig
ĠMar ie
ĠÐ¸ ÑģÐº
wer ken
c ion
z as
Ãī t
f ore
Ð¸Ð» Ð¸ÑģÑĮ
ĠÃ Ħ
. âĢľ
âĢ ²
7 7
9 5
ist ic
Ġe ight
Ġstat us
T A
hr en
Ã¡n d
j aar
Ġmar s
Ġver mo
gest ellt
Ġrepla ced
Ġcol lege
Ġil s
il o
ĠR Ã¼ck
ÑĢÐ¸ÑĤ Ð¾ÑĢ
ol s
Ġbes laat
Ð°ÑĤ Ðµ
Ġstud ent
Ġonder deel
land se
ed d
ĠÐ¿ Ð¾Ð±
Ġ193 1
Ġp endant
ri ere
Ñı Ð´
Ġblij ven
Ġt aal
ĠÐ½Ð° Ð´
m ans
ĠW olf
werk ing
par tement
Åĵ uv
Ã ¸
Ġb ill
pla y
or ig
temp or
Ġl etter
Ġ192 2
ĠB ig
ĠSt ad
la k
Ġepis ode
our ne
Ġ192 7
ĠD i
Ðµ ÑģÐ¿
Ġsig u
ĠÐŁ Ð¾
ÑĮ Ðµ
ĠW ind
Ġp ie
ÐµÑģÑĤÐ² Ð¾
ĠÐ¾ Ð½Ð°
ach sen
p Ã©
ĠÐ¾ÑĢÐ³Ð°Ð½ Ð¸Ð·
ÐµÐ¼ Ñĥ
geb iet
Ġ192 5
F C
Ġequip o
fÃ¼hr t
Ġca use
Ġadd ed
ak s
Ã¼t z
g ere
m ark
hal en
ĠK l
st Ã¤nd
ĠSt an
Ġa cadem
Ġm ic
6 8
Ġw he
Ġma anden
Ġe ither
ĠE erste
S h
Ð°ÑĤ ÐµÐ¼
Ġn ar
Ġbro ught
th ur
te au
ĠÑįÑĤ Ð¾Ð³Ð¾
ie ur
Ġr onde
Ã¤n der
Ġr ange
Ġg lo
ier f
b on
Ġm aint
m os
ĠÐ¸Ð¼ Ðµ
ĠBra zil
Ã £
ĠLe e
Ð°Ð» Ð¾ÑģÑĮ
ĠB ad
ĠÐ²Ñĭ ÑģÑĤÑĥÐ¿
ĠN acional
c an
Ġver over
at i
Ġover w
Ġsch rij
Ġprodu ce
Ġaf komst
ĠS qu
Ġle er
ut s
ÐµÐ» Ð¸Ðº
n ame
ĠIn dust
b et
Ġju in
Ġb la
ĠC at
Ġpol ÃŃt
Ġ191 0
Ġcon cept
Ġa irc
go ed
Ġdeutsch en
Ġinit i
ĠK omm
D uring
aut res
iz o
em a
ĠComm un
v eld
Ġhuw elijk
Ġdaar op
ann el
Ġdiffic ult
Ġfe atures
Ġben oemd
ĠT im
Ġaward ed
ur as
Ġg ot
il ly
Ð² Ð¾ÑĢ
Ġit al
Ð± Ñĭ
ĠÐ² Ð¿
Ġcons id
ĠS inds
Dem ografie
Ġgesch reven
Ġoriginal ly
Ġdes ar
Ġ192 6
Ġlos s
f ass
ĠAr n
e ign
ach ten
m ir
ĠSch ul
Ã« le
Ġvoor namelijk
Ã¼ s
Ġtot aal
Ġ192 3
Ġdat a
Ġtit re
Ġjun to
le i
Ġvolk stelling
ig an
ĠÐ´ ÐµÐº
ĠK enn
ĠÐ²Ð¾Ð¹ Ð½Ñĭ
ra ad
Ġp es
u we
Ġnabij e
Ġb rief
Ġre chts
Ġcol lection
L os
Ġexper iment
Ġver Ã¶ffent
on se
ish op
ĠÐ¸Ð· Ð²ÐµÑģÑĤ
Ġf ind
Ġdu idelijk
ress ed
Ġde dic
Ġwedst rijden
Ġde ta
Ġbo ard
Ġmag azine
w an
Ġm ann
Ġb em
Ð¾Ð² Ð¾Ð¹
tem bre
Ġlar gest
Ġprov ide
ÐĳÐ¸ Ð¾Ð³ÑĢÐ°ÑĦÐ¸Ñı
7 9
ess ion
ĠÐ¿ÑĢ Ð¸Ð²
ĠÑģ Ð¼
ĠÐºÐ¾Ð½ ÑĤ
est igd
ing t
pun kt
Ġin stit
Ð½ Ð¸ÑĨ
Ġ3 8
Ġest aba
ĠAf rican
ĠE ins
ĠL ong
H er
Ġpre par
ĠS ome
T e
Ð¸Ð²ÐµÑĢÑģ Ð¸ÑĤ
c s
Ġbesch ouw
Ġver en
ĠE le
ĠB u
ÑĢ Ð¾Ðº
Ġrel ativ
Ġp urch
Ġmo unt
ĠB ild
Ġge eft
ĠO osten
ĠBruss el
as ons
Ġinter pret
Ð¸Ð½ Ðµ
form ation
um s
ul ts
gen cy
7 2
ĠB la
Ð¡ Ð¡Ðł
vo egd
Ġm ention
Ġso on
Ġh in
Ġcomm ission
Ã© rica
ĠC athol
ĠF ar
Ġr ights
ag a
un ivers
Ġjon ge
u vo
6 4
ar ter
in se
ĠgehÃ¶r te
yn am
1 00
b orn
in as
âĢ ŀ
Ñĥ ÑĢÐ°
ĠK an
Ġg uit
Ġbegon nen
ÐĺÑģÑĤÐ¾ÑĢ Ð¸Ñı
Ġzo gen
ck ey
ĠÐĲ ÑĢ
Ġsch ip
nah me
Ġeven eens
ho od
ĠC op
Ġp Ã©ri
ĠÐ¾Ð½ Ð¸
c ou
aj a
E st
ĠÐº Ð°
Ġf ra
Ġcon vert
Ġontst aan
ig ne
ÑĤÐ¾ ÑĢÐ°
f ab
Ġre ve
Ð ¥
ho use
ĠÃ ģ
Ã¤ us
ĠJapan ese
ĠDan iel
Ð´ Ð¸
erd ings
ĠCons erv
Ġr ank
Ġpri or
ĠÐ½Ð°Ñģ ÐµÐ»
ft al
ĠCol umb
Ð¾ÑĤ Ð¾Ð²
k el
Ġre ach
Ġst rijd
ren te
Ġgew ann
Ġb a
ĠÐ´ ÐµÐ¹ÑģÑĤÐ²
ĠThe ater
Ġb an
ĠJ ud
ol is
Ġairc raft
E s
ir it
Pla atsen
% ).
ĠC amb
ĠB arb
Ġj an
it zen
Un ivers
Ġden en
Ġne uen
ĠH am
il ing
ren g
Ġe ver
Ġst ations
rad a
v re
Ġcol or
Ġverz am
C om
Ġf ast
Ġl iv
as ion
ĠFre der
ÑıÑĤ ÐµÐ»ÑĮ
Ñĥ ÐµÑĤ
Ġpun ten
re ib
Ġonder staande
D R
ĠM ah
w al
ĠY ear
ur ity
Ġe mer
Ġsep tembre
Ġbest ond
uf act
Ġma i
Ġintrodu ced
y pt
in f
av a
pen den
ĠÑĤ ÐµÐ»
Ġdem on
ue b
Ġus ually
Ġdire ction
ra ak
Ġcl im
ÑİÑĤ ÑģÑı
ĠfÃ¼n f
Ġreg ard
Ġble ek
Ġplay ers
ĠAl le
Ġd abei
Ġbeh ind
Ġr an
Ġso it
Ġz ul
cl es
Ġpla ced
ĠF oot
Ġgeb racht
ĠU trecht
Ð½Ð¾Ð¼ Ñĥ
v i
Ġehem al
ce ed
van kelijk
Ġk asteel
ĠDes p
Ġsp ace
mat ig
ĠÑĦ Ð¸Ð»ÑĮ
sch luss
is er
Ġat tra
Ġch o
ÑĢÐµ Ñĩ
Ġg ingen
Ġm ob
Ġgo ede
ĠÐ¾Ðº Ð¾Ð½Ñĩ
Ġ u
Ð´ Ð¸Ð½
Ġla bor
ĠA ccording
Ġdeb uut
Ġgro w
ĠFamil ie
Ġcount ries
Ġconc ert
yd ro
ens te
an cial
ĠT itel
na am
Ġhon or
Ġfamil ies
ĠHa ag
ic io
Ġk lo
Ġh ac
Ġes e
Ġr ather
ĠÐ· Ð´
Ð³ ÑĥÑģÑĤ
k erk
Ġm and
st aat
Ġzu id
ro ad
Ġpla at
om ot
ed a
ir th
ĠÐº Ð»ÑĥÐ±
ĠÐ· Ð²
b as
Ġm ie
uch te
Ġst ates
ur rent
ĠW ater
Ġn oorden
ĠP or
Ġo hne
le ver
Ġim mer
Ġr ang
Ġnov el
Ġocc ur
us ing
pp ed
ĠK r
Ġprodu ctie
Ãª t
gro ep
Ġpob laciÃ³n
Ġpre d
ĠÐłÐ¾ÑģÑģ Ð¸Ð¸
ollow ing
Ð°Ð» Ð¾
i y
l icht
Ġspe elt
Ġot ras
ĠSo cial
Ã© ta
ĠTur k
ĠG ran
Ġ191 2
pl ant
ĠÑįÑĤ Ð¾Ð¼
Ġvoor zien
ĠEngel and
Ġaus ge
Ġpolit ieke
ĠÐ¿ÑĢ Ð¸Ð¼
ĠT imes
ĠÑĥ Ñģ
Ġd ub
ĠK ong
ĠJohann es
Ġverko cht
An d
A F
Ġmult ip
min ister
ol as
ĠÐ² Ð·
Ġv ent
Ġla bel
Ġnom in
ĠPr im
s ur
ÑĢÐ° Ñī
ÑĤ Ð¾Ð¼
ĠÐ¼ Ð¾Ð³
ch ange
s w
ost on
ĠB all
Ġte ken
Ġre ached
Ġgru po
ĠMÃ¼n chen
gen er
Ġd iss
ĠR u
d orf
ter dam
int ig
ĠrÃ©g ion
F or
I S
ĠH an
Ð½ Ñĥ
he b
Ġb ran
Ġsch on
Ġtre at
Ġjan vier
ont o
ĠÐ¾Ð±Ð»Ð°ÑģÑĤ Ð¸
or gen
Ġsc ored
Ġkrij gt
Ġest ado
ĠC ette
ĠHer r
ĠAl bum
ĠÑĤÐµÑĢ ÑĢÐ¸ÑĤÐ¾ÑĢ
Ġact ive
ouvern ement
Ġle ast
Ġl ittle
ĠÐ± ÑĥÐ´
al ed
Ġc art
i ÃŁ
ov end
Ġinclud es
Ġde al
ĠÑģÐ» ÑĥÐ¶
Ġindivid ual
Ġab ove
S p
Ġin stead
yn ast
il en
ÐµÑĢÐ° ÑĤ
st of
Th ere
Ã¶r d
Ġn omm
Ġf all
van ia
ĠJ ones
Ġgew onnen
ia al
Ġvers ie
9 8
Ġpar ents
Ġmo ins
Ġre act
Ġfam ille
ĠJ on
Ġbe kende
ĠL iber
ÑĨ ÐµÐ½
weg ing
Ġal most
ĠEst ados
Ġex ecut
im s
isch es
ek er
Ġcel ui
ĠÐ´ ÐµÑĤ
im al
Ġper met
on te
ag d
rit ten
Ġse a
ac c
ĠD ans
ĠI ll
sy l
ov ers
Ġk lasse
Ġrom an
po que
ĠComm ittee
ĠSec ret
Ġnue vo
Ġdo ctor
Ġrelations hip
Ġterrit or
Ġc amb
k ent
Ġn amen
Ð¸Ðº Ð¾Ð²
ig o
s ite
Ġk ar
Ġfor me
Ġbes loot
Ġapp lic
ĠG ent
ĠG ren
Ġto o
Ġwaar op
Ð¾ÑĢ Ð¾Ð²
ĠAf rica
Ñī Ñĳ
Ġbevol king
we zen
ĠI g
5 8
el er
he er
ĠM ich
Ġb ajo
Ġk eerde
ĠÐ¢ Ð°Ðº
ĠL ove
Ġv a
ĠÐľ Ð°ÑĢ
Ġleid de
ĠS out
Ġne ue
ac a
Ġke ep
ud o
az u
ig ers
ĠÑı Ð·Ñĭ
Ġnou velle
ĠUn idos
Ġver tre
ĠSh ow
Ð¾ÑĢ Ðµ
il er
Ġst ell
ÑĤ Ð¾Ð±Ñĭ
Ġg ele
Ã¨ tres
ÐµÑģÑĤÐ² Ð°
ĠL eit
Ġchang ed
ĠprÃ© sen
ĠJ es
us ion
ĠDe f
k reis
ÃŁer dem
Ġenc ont
Ġhouse hold
Ġhand en
5 6
ĠEd ward
Ġju illet
Ġcompet itie
Ġme as
ra do
ge v
Ġl ief
Ġpart s
ĠD or
reich en
Ġ3 3
f ois
ĠÑģ Ð»ÐµÐ´
B S
Car riÃ¨re
ĠMar c
ĠEn d
ĠK ore
ÑĢÐ° Ð±Ð¾ÑĤ
Ġm annen
istersch aft
Ġg old
Ġcomp an
Ġqual if
ft ware
Ġhoog ste
car riÃ¨re
Ð°Ð» Ð°ÑģÑĮ
Ġs ize
Ġrepr Ã©sent
ĠY oung
Ġbren gen
ĠÐ¼ Ð¾Ð½
sch n
ĠH ann
ĠÑģ ÐµÐ»ÑĮ
et ro
7 4
Ġsein es
b os
Ġa mp
Ġaband on
ĠLe bens
amp f
Ġwe chsel
Ġl lev
ien e
Ġh out
Ġprofess or
ĠWilliam s
Ġfir m
Ġout side
ĠÐ³ ÑĢÐ°
ĠV erd
ann ten
eme en
Ġad apt
ĠUnivers idad
Ã¨ rent
Ġdar auf
I s
ÑĢÑĥ Ð¶
Ġver ant
Ġzu iden
Th is
Ġre den
ĠPhil ip
Ġindust ry
s pr
ra it
ĠRuss ian
it Ã¤
ĠH ow
ĠÑģ Ð±Ð¾ÑĢ
lie b
Ġk ap
k an
Ġinte gr
Ġl ower
Ġtra vel
Ġallow ed
Ã± os
Ġman ager
Ð¸ÑģÑĤ ÐµÐ¼
Ð¸ÑĤ Ñĥ
ĠÐ³Ð¾ÑĢÐ¾Ð´ Ð°
y an
am se
Ġfun ctie
ĠG a
Ġop dracht
uer to
st uk
Ġse i
ab b
ĠW at
ter ior
ig es
Ġcont ribut
Ġdon c
Ġs ummer
Ġfem ale
ig ade
ĠÐŁ Ð¾ÑģÐ»Ðµ
7 1
Ġcom ment
Ã£ o
Ġpos itie
6 2
Ġh erv
ĠB ell
ĠF ound
Ġersch ien
Ġwh ose
Ġverh uis
Ġer f
Ð¸Ðº Ð°Ð½
ri age
ri ften
Ġmov ement
Ġd ruk
ĠG ef
ak ers
ĠPro gram
ient os
ĠMa ur
ĠÐ¿ Ð°ÑĢÑĤ
ĠÐķ Ð²
Ġg al
ĠSt ation
pr ise
Ġj our
Ġwrit ing
Ġquel ques
ĠM Ã©
Ġl ied
Ġen th
Ġerst mals
Ġb zw
one el
Ġ16 0
ĠItal ian
Ġqu atre
Ġb ot
Ġstud ierte
Ð» ÐµÑĤ
eren de
g s
ĠK am
Ġop tre
Ġpro min
ĠIn de
Ġf estival
Ġmidd el
Ġth Ã©
Ġmin or
t z
augh t
ĠPhil ipp
Ġv ida
ĠO ld
Ġ ult
Ġontst ond
isch of
ut ch
h re
ĠÐ² Ðº
Ġw anneer
Ġche f
ĠÐ¿ Ð°ÑĢ
Ġme chan
ke y
Ġmoder ne
etz ung
ar ies
ĠM att
ĠÐ¼Ð°ÑĤ Ñĩ
Ġes pe
ÑĢÐ° Ð»ÑĮ
Ġsom et
Ġk ing
ĠOosten rijk
in te
ĠB oston
ĠD ub
Ġcom e
ĠHer z
ĠZ ent
Ġme an
Ġl ik
Ġfut ure
Ġarbeit ete
Ġenk el
Ġ7 5
Ġdaar om
Ġkw al
ĠF el
Ġprovin cie
V D
ĠT ele
Ð» ÐµÐºÑĤ
Ġz ahl
Ġ191 3
ĠÐ¼ ÐµÐ´
ĠB at
an cia
G en
ÑĢÑĭ ÑĤ
y th
ĠL onden
end et
ÑĢ Ð¾Ð¹
our d
o Ã»t
ĠPri x
ran ge
8 8
E R
Ġsp ent
ĠVirgin ia
ĠH it
Ġsch w
ĠĠ Ġ
ĠZ usammen
o gen
ĠMen schen
ĠAn na
Ġw et
ĠEx p
Ġbuild ings
ĠA st
Ġkilom eter
Ġcent er
Ġat tend
haus en
Ġwh om
ĠÑĤ ÐµÑħ
r atie
ĠÐ ĸ
ĠSpan ish
Ġz org
ĠSci ence
o of
ct ive
ĠH on
ĠK h
ÐµÐ½ Ð½ÑĭÑħ
Ġits elf
est s
re ady
6 7
ÐºÐ¾Ð² Ð¾Ð´
Ġh Ã¶
ĠÃīt ats
k unde
nah m
ra ge
Ġas pect
ĠSec ond
g re
ĠP ed
Ð¸ÑĤÐµÐ» ÐµÐ¹
Ġar my
ĠdÃ©c embre
Ġbeg inning
schapp elijke
Ġm oney
Ġk ampioen
ĠB lo
ok s
Ġun its
ĠT el
ph en
ĠV I
ĠÐ½ ÐµÐ¼
Ġh ert
ĠXI X
g ru
Ġt aking
Ð´ Ð¶
6 9
ÐµÑģÑĤÐ² Ðµ
Ġr iver
ill on
ĠServ ice
ĠMc C
ĠA k
ul pt
ar ily
em d
ĠG el
us te
ru kt
Ġgrand es
Ġrem ov
Ġvoll edig
ĠBo ard
ĠRot terdam
ĠE ine
Ġal les
ĠÐ½ ÐµÐº
Ġg irl
mer ken
st off
ĠÐ¼ÐµÐ¶Ð´ Ñĥ
Ð½Ð¸Ðº Ð¸
ter en
Ġadminist rat
ow ers
ĠK en
t ain
uc le
st el
Ġor ient
Ġre form
is a
J ohn
Ġvoor malige
ĠK ais
Ð¾ ÐµÐ²
ĠH arr
ĠFran z
Ġcon n
at us
5 9
Ġson dern
Ð°Ñģ Ñģ
ÑĥÑĢ Ñĭ
Ġk rit
ĠÐº Ð¾Ð³Ð´Ð°
Ġst ri
orpor ation
Ġc red
ers p
ĠU l
ijd s
rid ge
ab or
ins on
ll en
Ġsch ol
ede ut
ĠRa ilway
rij ving
ĠD om
Ġpro gress
ran k
Ġs iendo
al ter
Ġwaar schijnlijk
ag t
ĠCanad ian
Ġconflic t
ĠSe ine
ĠO x
ĠCl ass
ĠDem ocrat
O S
Ã¼ ss
ĠIn stitut
in ner
ĠÐ¿Ð¾ Ñĩ
% )
ĠPar te
Ġoper ations
et o
Ã©r Ã©
M e
ĠÑģÑĤ Ð°ÑĢ
Ġren cont
Ġtod os
ĠDeutsch en
ĠÑģ ÐµÐ½ÑĤ
Ġag ric
áµī Ê³
Ġstud ied
ĠCent re
ĠE p
ĠfÃ¼hr te
Ġreg ul
olog ÃŃa
ĠN avy
ĠV erk
ĠBar cel
Ġgra af
Car eer
Ġ191 5
y es
j i
Ġpr Ã©c
Ġha cia
Ġth re
Ġ ig
ĠÑĦ Ð¾ÑĢÐ¼
Ð°ÑİÑĤ ÑģÑı
or ks
Ġ191 1
Ġprodu c
Ġbij zonder
ĠD ort
Ð´ ÐµÑĢÐ¶
Ġoct obre
ĠCong ress
ĠÑı Ð½
Ġr ichting
ĠFlor ida
Ġmed ian
ĠH art
Ġperson n
Ġvoor zitter
Ġrequ ired
ĠKing dom
Ġsur face
Ġdaar mee
pl atz
Ġto wards
au te
, _
sp ap
Ġ x
ak ken
lich keit
um ents
Ġleg al
ur de
Ġbook s
g u
Ð½ Ð¸Ð¹
en der
ĠW ales
Ġespecial ly
Ġd io
Ã¶l ker
Des cription
ĠJ ournal
ica ciÃ³n
on kelijk
ÑĢÐµ Ð²
Ġv eld
ly ing
Ġent wick
Ġb ig
7 3
ĠÑģ ÐµÐ·
Ġm ientras
ut ie
ĠÐ¿ÑĢ Ð¸Ñģ
Ġaff ect
ah men
Le vens
Ġens uite
ot land
Ġp ens
ĠÐ°Ð² Ð³ÑĥÑģÑĤ
ĠK ur
ĠS un
he in
Ġge grÃ¼nd
al and
ĠCathol ic
Ġn Ãº
ĠE t
Ġend ed
art ier
ie p
Ġsci ence
Ð½Ð¾ÑģÑĤÑĮ Ñİ
ell i
ino is
Ñĭ Ð¼Ð¸
Ð §
b ury
Ġs an
ovend ien
Ġn ature
Ġgen e
ĠÐ¾ ÐºÑĤ
Ġc elle
m acht
Ñĥ ÑģÐº
Ġd ieren
ell ed
H istoire
Ã¶ st
eme ester
ĠÑģÑĤ Ð¾ÑĢÐ¾Ð½
r ische
D ist
Ġcele br
Ä į
Ġbep aalde
Ġt el
ĠM r
ÑĢÐ° ÐºÑĤ
Ġa unque
Ġd ic
Ġ191 6
ĠMitt el
ĠÐ² Ð¼ÐµÑģÑĤ
c re
aam d
em de
Ġlo ve
ĠF inal
ĠÑĨ ÐµÑĢ
ĠW eit
ĠO ut
Ġpel ÃŃcul
ĠÐ³Ð¾Ð´Ð° Ñħ
Ġond erste
Ġon af
Ð» ÐµÐ¼
ol k
âĢ ³
ĠprÃ©s ent
ve el
ient es
A u
ci de
Ġt ar
Ġto ute
burg h
Ġnod ig
Ġret ro
la h
Ġkre gen
h ire
os en
6 3
Ġve h
ĠUn t
Ġd ens
Ġne ben
ĠÐĲ Ð»ÐµÐºÑģ
ĠLe hr
Ġz et
In d
Ġne igh
Ġs Ã©rie
Ġw it
Ġ190 5
Ġman ier
gen ommen
end ed
oll en
ĠÑĥ Ð¿
Ġfr Ã¼
Ġpolit ique
M an
ill s
onder e
ep endant
ÐºÐ° Ñħ
Ġper d
Ã© ment
ĠÐ¾Ð´ Ð¸Ð½
ĠÑĥÐ½ Ð¸Ð²ÐµÑĢÑģÐ¸ÑĤ
r us
Ġh u
Ġtradition al
Ð¸ÑĩÐµÑģÐº Ð¸Ðµ
Ġtant o
P ar
p ass
r in
etz te
Ñı Ð¼
ĠÑĩ ÑĤÐ¾Ð±Ñĭ
ĠJack son
v oud
ĠLe on
Ġsche pen
Ġbe zoek
Ġle ader
Ġein ige
ĠS av
ĠL iga
v aart
Ġill ust
ibli othe
Ġcomple te
Ã¢ teau
Ġis land
Ã¶ m
Ġstand ard
Ġcorresp ond
ber n
Ġw oord
b ank
d ire
ab il
ĠUn der
Ġv lucht
Ġv it
Ġco ast
5 2
Ġdefe ated
ĠT ok
ĠAl though
Ġgesch at
ou der
Ð¼ Ðµ
Ġnov embre
ic ia
Ġbes l
ĠVal ley
Ð¸ÑĩÐµÑģÐº Ð¸Ð¹
ĠRes earch
o den
u in
Ġh ulp
Ġlig gen
qu ier
stru ction
Ġform ation
Ġb attle
Ġle ef
op end
Ġiss ues
Ġc ada
Ġgen omen
Ġt ip
Ġcontin ue
ĠÐŀ ÑĤ
Ġorgan ization
Ñĥ Ð»Ñı
Ð»ÑĮ Ð±
Ġant es
Ġw inning
al o
emb ly
ĠAnton io
syl vania
Ġj ob
Ġper cent
uur d
Ġr end
ge f
ĠK amer
Ġ17 0
Ġl y
Ġne u
I A
Ġexp and
om et
iz a
Ġst ijl
ĠÐŀ Ð½
Ġfe et
Ġcom enz
ubl ik
ci er
Ġ3 4
ĠS S
e e
ĠÑĩ Ð»ÐµÐ½
b s
Ġkle ur
ĠG lo
ĠÑģ ÐµÐ±
im ents
ĠPrem ier
Ġw inter
ĠB ou
ijn se
ĠSt ock
Ġkun sten
ib ility
v ar
Ġz ug
Ð¼ Ð¾Ð¶
Ġverl oor
Ġt Ã¤t
l ike
6 1
ĠÐ· ÐµÐ¼
ĠC le
Ġdeutsch er
Ġzw aar
ult ural
Ð» Ð¸Ð²
re al
Ġpro d
Ġl ived
T ijdens
Ġge val
Ð¸Ð» Ð¾
ry ing
y ect
Ġide a
ÑĢÐµ Ð¹
Ġmin utes
Ġsc ore
ĠC y
Ã Ģ
Ġcon cl
Ġthe ater
Ġmit t
Ġbet rokken
ĠH ay
ĠWelt krieg
P erson
Ġcond itions
Ġih rem
te chn
ap pe
ĠP ers
ĠÐ·Ð°Ð½ Ð¸Ð¼
Ġcar act
Ġ #
Ġmo ve
w and
Ġman ufact
Ġdisco ver
Ġg l
ÑĪ Ð¸Ñħ
Ġblijk t
ar ÃŃa
Ver haal
ĠG h
iss ie
ac es
zo cht
Ã¤t z
Ġst ellen
ĠHein rich
Ġer ne
ĠN ieuw
ist ry
Ġar ts
Ġv indt
Ã¤ ss
Ġaut re
Ġf if
ĠTh at
Ġsour ce
f urt
st ers
Ġfran zÃ¶s
Ġal ready
Ġnet work
ĠÐ¶ ÐµÐ»
Ġspeci f
wedst rijd
Ġc ust
uj er
Ġalg emeen
S he
c rit
Ð°Ðº ÑĤ
R o
Ġpract ice
Ġ4 8
per t
ĠFoot ball
ĠÃ© v
ĠGesch ichte
ĠReg ion
ĠHamb urg
Ġke y
and eren
ĠÐ¼ Ð¾Ð»
Ġspe ct
Ã³ m
Ġd icht
Ġas k
W est
ĠÑĢÐµÐ· ÑĥÐ»ÑĮÑĤ
j un
par k
Ġhigh er
ĠEngel se
z ing
Ġcomb at
Ġf ils
Ġinv est
Ġa oÃ»t
Ġc ell
5 4
ad d
ĠA wards
Ġontwikk eling
Ġfour th
at ri
heid s
Ġs elf
Ġb ass
Ġdeter min
Ġtro epen
ĠCar los
b ased
Ġbroad cast
ra um
Ġbev or
Ã¶ ff
ĠC ru
Ġbe per
Ġge plaatst
Ð¾Ð» Ð¾
ĠÐ´ÐµÐº Ð°Ð±
ĠP ublic
ĠT a
er in
Ġcompet ition
Ġob ten
ĠEn ter
ĠGo vernment
ĠJahrhunder ts
Ġ190 8
ik el
r Ã©e
ag ing
Ġtempor ada
Ġlo opt
ĠD orf
Ġg ouvernement
ĠR ang
Ġhet zelfde
ann ed
ĠÑĥ Ð¶Ðµ
ĠÐ· Ð½Ð°Ñĩ
w ill
ĠN ieder
ly wood
r ero
Ġz us
ĠÐ¡ Ð¾Ð²
ĠÐ¡ Ð¡Ð¡Ðł
ĠT wo
Ġk omm
ĠS em
ton ces
ĠprÃ©s ident
Ġtro k
Ġch rist
Ġh ospital
Ġre jo
Ð°ÑĢ Ð¾Ð´
Ġsen ior
b us
Ġed itor
ĠP ass
ÐµÐ· Ð´
Ġsystem s
Ð¸Ðµ Ð¼
Ġbesch ik
Ġdiff Ã©r
p ol
ĠIn n
Ġapp el
ÐµÐ½ ÑĤÐ°
Ġman agement
ĠOr ts
Ġth us
ich en
Ġmo esten
Ġstud ie
ĠM ol
lieÃŁ lich
â ģ
es is
us band
or me
ind ust
ĠKir chen
Ġthough t
M A
ie gel
ers ey
Ġstrat eg
Ġprim ary
ĠVer der
Ġst aff
ĠT ag
Ġdest roy
if est
Ġactiv ities
Ġav ril
it i
iet nam
9 6
ud a
la w
oll ar
5 3
ard in
Ã¡ r
Ġben ef
Ġin tens
ĠIr eland
Ġ( Â«
Ġj azz
Ġimport ante
Ġbed o
Ġinc orpor
ĠB ow
wick lung
Ġzwe iten
Ġgo als
Ġsel on
Ġn ation
ĠVol gens
ĠÑĥ Ð±
j Ã¤hr
Ġleng th
9 2
Ð½Ð¸Ðº Ð¾Ð¼
Ġrun s
Ġw ir
Ã¨ de
ĠL ar
program ma
f all
ĠS oci
ĠQue en
Ġd ÃŃa
Ġdern ier
Ġbeh and
ÐµÑĢ Ðµ
Ġg obierno
Ġc m
wa gen
Ġtro uve
ĠB Ã¼rger
Ġin ner
Ġv raag
end s
Ġsp Ã©
Ġmar ch
Ġsc en
pe z
ub liek
e hr
Ġle ver
Ġch ap
Ġacc ording
Ã¤n ge
Ġloc ation
Ġra ilway
ĠK lo
Ġv re
Ġgeko zen
Ġro i
Ġ4 4
ĠÑĢÐ°ÑģÐ¿ Ð¾Ð»Ð¾Ð¶
Ġespa Ã±
ĠÑģ Ð¸ÑģÑĤÐµÐ¼
ĠÑģÐ¾ÑģÑĤÐ°Ð² Ðµ
Ġproper ty
Ġpar lement
bl ad
as y
ĠK om
ĠW o
aff en
Ġmo cht
ĠW omen
v all
ĠÑģÐ¾Ð² ÐµÑĤ
Ġcurrent ly
Ġlicha am
ient s
Ġw oman
ĠB an
Ġdies es
Ð° Ð¶
ĠEsp aÃ±a
ĠG ab
iz abeth
ĠL iter
Ġm as
ÐµÑĢ Ð¾Ð¼
Ġ1 20
- -
Ġsur round
Ġhe ut
Ġadv oc
Ġn eer
ĠC ou
ĠÐ³Ð¾Ð´ Ñĭ
ang el
Ð»Ð¸ Ð·
ĠR ud
ĠJu gend
Ġdec or
g ele
5 1
Ġquest ion
Ð»Ð° Ð³
dem ie
ten de
ub re
Ġalbum s
ĠG i
Ġincre ased
ÑĢÐ° ÑģÑĤ
ĠÐ°Ð¿ ÑĢÐµ
Ġearl ier
iv os
ĠÂ £
Ġiss ue
- ,
e ff
Ġz omer
Ġcou p
ĠÐº Ð°Ñĩ
ĠL ig
Ġein z
Ġ190 7
o ok
Ġ id
re iche
ĠÑĢÐ°Ð¹ Ð¾Ð½
ĠB attle
und s
Ġent ire
ĠÐ¸Ð¼ Ð¿
Ġo ost
ĠP ak
Ġdist in
ĠRuss ische
erk t
Ġpar all
iz aciÃ³n
Ġth uis
Ġenter ed
un nel
ib les
Ð½ ÑĥÑĤ
Un is
ant ie
Ġau d
hem at
Ġ190 6
Ã¼ck e
Ġappro xim
ĠB BC
gen oot
Ġb il
Ġn ine
aur us
ge ord
ÑģÑĤÐ² Ð¾Ð¼
ĠÐµ ÑīÑĳ
us se
ĠC ra
ĠG ott
Ð°ÑĨ Ð¸Ð¾Ð½
Ġun s
ĠMic hel
oh ner
bild ung
f ach
ĠW ahl
ĠÐºÐ¾ÑĤÐ¾ÑĢ ÑĭÑħ
ĠH y
ĠSov iet
Ġin tÃ©
Ġchar ge
ÑģÑģ Ð»ÐµÐ´
w esten
Ġre Ã§
Ã³ g
sch ool
ĠV o
pro ken
Ġa qu
ĠCarol ina
ÑĢÐ° Ð»
Ġb ord
Ġmo is
ĠC es
Ġsim p
ĠÑĢÑĥ ÐºÐ¾Ð²Ð¾Ð´
N ew
Ġsomm ige
ĠP en
em an
Ð¸Ð½ Ñĥ
ĠVictor ia
ĠO h
Ġnew spap
9 7
oh en
ĠB ir
Ġme ans
Ġcompan ies
oor n
ÑĪ Ð¸Ð¹
Ġg ast
ĠIn t
ett ers
ĠThe atre
ink el
Ġfo od
Ġhat ten
ak i
ĠÐ¼Ð½ Ð¾Ð³
Ġmach ine
Ġse ule
ÑĦ Ð¸ÑĨ
Ġfor ced
Ġaf stand
ĠK reis
Ġim med
M et
Ġlig ne
aam de
ust er
ĠÐ¸Ð½ ÑģÑĤ
ĠL ew
Ġruim te
Levens loop
Ġ1 000
Ġun it
Ð° ÐµÐ¼
ĠÑģÑĤ ÑĢÐ¾
Ġto ernooi
un ts
ĠN ik
ĠL uis
Ġel ke
Ð ķ
ĠR oss
Ġz eg
iel le
Ġsim ple
ouver neur
Ġs af
i ate
ro g
Ġacc omp
r era
Ġob jet
or al
ĠFound ation
ar ian
ĠL ife
ĠRe chts
Ġgr ant
u Ã©
R A
Ġrapp ort
ĠN ov
ĠHe im
Ġje we
ĠG ron
ĠÑģ ÐµÐ²ÐµÑĢ
ce erd
b ru
Ġexp ed
Ġ25 0
Ġnombre ux
Ġorganis atie
Ġsoll te
Ġinflu ence
Ġt ur
ÐµÐ½ ÐµÑĢÐ°
ĠItal iÃ«
Ð¸ÑĤÐµÐ»ÑĮ Ð½Ð¾
ho ven
ĠdÃ© m
Ġgr ens
ag s
sp iel
Ġnam elijk
in and
ĠJohn son
j ekt
ĠÐº Ð¾ÑĤ
uten ant
or de
Ġgeb as
ire ment
Ġdec ision
ĠT ar
Ð½ Ð¸Ð³
Ġenviron ment
ĠFra u
Ġpre vent
Ġst aats
aar de
Ġz one
ph y
ne te
us et
ul en
schapp ij
ut her
p ers
Ġ3 7
R eg
is is
ĠÐ´Ð² Ð°
an os
or b
ĠdÃ© cl
Ã©v rier
et ers
Ð¾ÑģÑĤ ÑĮ
Ð¾Ð· Ñı
Ġprevious ly
emor ial
Ġd iam
ven ir
Ġlaun ched
ĠÑģ ÑĥÐ´
ct ies
Ġdem and
l ers
Ġclos ed
ĠtÃ¤t ig
i ation
ĠPro t
am ing
aus piel
f ica
Ġriv ier
Ã¤ u
ĠBl ue
ĠSim on
ĠÐ°ÑĢ Ñħ
5 7
ĠW el
Ġer halten
ÑĥÑĢ Ð½
Ġtrans l
Ġg ren
ĠÐĿ Ð¸Ðº
Ġvoor komen
ÐĿ Ð°
ĠPortug al
Ġpe que
Ġcomb in
Ġpr ijs
Ġverb onden
Ġr und
Ġint ent
Ġinde pendent
ĠPr ince
Ġpass ed
Ġre chten
Ġap are
uz ik
ĠÑĢÐµ Ð³
midd els
ed o
f ern
ĠU p
be z
Ð°Ð»ÑĮ Ð½Ð¾Ð¹
Ġgo ing
Ġdou ble
se e
Ġlat ere
Ġguit ar
Ġinit ial
ent re
Ġgro ÃŁen
ĠÑģÐ¿ ÐµÑĨ
ĠS Ã¼
Ġre is
ĠK erk
Ġl anz
ĠSe in
Ġinsp ir
Ġf and
sh ire
ĠW ohn
zo gen
Ġs av
uer te
Ġro t
Ġm ut
Ġperson as
ĠBarcel ona
Ġer van
Ġpl ans
ĠHol land
Ġoud ste
Ġgeme ins
ĠV ater
ĠBro ad
Ġbo x
Ġsout hern
schlieÃŁ end
Ġev idence
Ġtu vo
Ñı Ð¼Ð¸
og ue
Ġsh ot
ĠO ther
b u
ĠT it
Ð°Ð½ Ñĭ
p ast
om es
Ġr ul
ĠÐ¿Ð¾Ð» Ð¸ÑĤ
Ġrec ent
iv el
Ġap art
Ġn orthern
Ġme jor
Ġh usband
pect ed
Ġd rug
ĠÐ¿Ð¾Ð»ÑĥÑĩ Ð¸Ð»
ul te
ĠS el
Ġcaus ed
ĠPenn sylvania
Ġse ctor
Ġzich zelf
Ġg ive
ĠE isen
Ġd rum
ĠÐ¼ÑĥÐ· Ñĭ
Ð¨ ÐĲ
k king
ĠB ron
Ġ189 0
ĠÐ´ Ð¾Ðº
re z
Ġfeder al
ĠÐ²Ð¾Ð¹ ÑģÐº
ĠA c
i ot
ĠC orps
ĠF uÃŁ
ĠÑģÑĤ ÑĢÐ°
ÐµÐ½ Ð´
r ÃŃa
W e
ĠÑĢÑĥ Ñģ
ĠC oll
Ġc Ã´
ĠC ivil
ĠG il
a je
ĠSte in
Ġbet ter
Ġol der
Ġnum erous
ĠIn c
9 4
Ð¸Ðº Ðµ
O ver
Ġw icht
Ġsy st
Ġont mo
9 3
Ã¤ che
Ġg la
ÐµÐ½ Ð½Ð¾Ð¹
Ġbec oming
Ġnot ed
ã ĥ
ĠW all
Ġhe il
Ã¼n dete
m el
qu er
Ġreg ist
Ġw enn
Ð¾Ñģ Ð¾Ð±
ur er
r d
h ar
ĠB ab
J os
8 6
be c
Ð» Ð¾Ð¶
ĠWal ter
Ġla ck
Ġmehr ere
ĠAr thur
se x
Ð² ÐµÐ´
n ten
Ġs uit
Ġc oll
Ġfin ish
ĠM ost
ĠÐ¿ÐµÑĢ Ð¸
Ġgeneral ly
ator ium
Ġin stitut
vin den
k on
Ġen tonces
Ġk ans
ed t
Ġbl ad
m aat
Ġleg isl
Ñį ÑĤ
ĠC ub
ĠÑĩ ÐµÑĢÐµÐ·
Ġacc ount
a ans
ges amt
Ġh ar
Ġvict ory
Ġst eden
cc iones
Ġro om
ol i
Ġcre ate
Ġcons um
Ġqu ick
Ġz it
ĠH ot
ĠT ay
Ġ190 9
Ġdire cted
Ġpro c
Ġco al
ck t
ens o
velop ment
ĠÐ½ÐµÑģÐº Ð¾Ð»ÑĮÐºÐ¾
ies en
ĠPa cific
Ġbel eg
ĠÐ¿ Ð¾ÑĢ
ĠÃ©ta ient
ied ere
Ġrun ning
ymn as
Ġsoci ale
Ġt rip
Ð¾ Ñİ
Ġwechsel te
Ġ190 4
Ġp Ã¨re
at ique
Ġen em
Ġbesch erm
Ġtra de
ĠAn fang
Ġhel ft
Ġge geven
Ġp iano
in ary
ĠW asser
ĠJo e
Ġa kt
ÑĥÐ´ Ð¾Ð¶
ig ur
Ġmie mb
Ġd ent
Ġre eds
ĠGre g
tain ment
ĠSer ies
ĠL ine
w irtschaft
Ġdies en
ac ion
ĠJah res
Ġmeet ing
w as
w art
act ers
ĠO f
enn es
ist isch
Ġdipl om
De ze
Ð¾Ñı Ð±
Ġo og
ĠHend rik
ut lich
Ġappear ance
Ġpost er
Ð¾ÑĤ Ð°
Ġhelp ed
ere cht
ĠÃ©c rit
ess er
Ġv lak
ĠC ab
Ġcomp uter
ĠK ont
Ġclaim ed
ct s
Ġaf in
Ġcult ural
Ġreci b
Ġf Ã©vrier
om st
ĠÐ½Ð°Ð· Ð½Ð°Ñĩ
ĠD ra
ĠGeb Ã¤ude
um en
ĠHar ry
Ð² Ðµ
ĠÐ¼ ÑĥÐ¶
Ġfin ancial
Ġbre ak
Ð· Ð¸Ð´
r ight
Ġall erdings
f amil
Ġhistor ia
ig heden
ĠDire ctor
Ġan te
ĠÑĤ ÐµÐ¼
A T
Ġhe er
ber to
ĠÐ½ Ð¾ÑıÐ±
or i
Ġo ur
ÐµÑĢ Ð¼
ro ken
ci pl
l bum
Ð¾Ð³ Ð»Ð°Ñģ
ĠrÃ© p
ĠEmp ire
u ay
n ent
Ġsub s
Ġcon tempor
oem de
mitt ed
id t
Ð´ ÐµÐ¼
Ġvol ks
stand ing
Ġ187 0
ĠN S
Ġin aug
ond ers
Ġ6 4
S te
ĠÐ¿ÑĢÐ¾Ð¸Ð·Ð² Ð¾Ð´
ic ks
est o
Ġh y
ĠG rie
ist ance
Ġbo eken
Ġweb site
Ġestabl ish
ad ron
ci f
ÑĢÐµÐ´ ÐµÐ»
ĠSch iff
mp t
P S
Ġre cher
Ġvers pre
Ġeconom ic
Ġl i
ic ian
Ġch ampionship
ĠnÃº mer
Ġre fer
Ġex clus
Ġst elde
ĠE lect
ĠÐ²Ðº Ð»ÑİÑĩ
ĠSp aanse
Ġh ield
Ġm ujer
Ġst ay
Ġlok ale
ĠN adat
pl an
ĠKar el
Ġinit ially
Ġre ad
ex p
Ġsucces vol
Ġtro ops
Ð± Ð°
Ġt and
Ġlim it
Ġn ob
Ð°ÑĢ Ð¸
uch ten
Ġsu c
Ġgeb ieden
ĠCre ek
ÐµÐ½ Ð½ÑĭÐ¹
ÑĨ Ð¸Ñİ
Ġ4 2
Ġown ed
Ġk ruis
Ġmo y
Ð¾Ð± Ñī
ĠÐ² ÑģÑĤ
Ġgro ÃŁe
Ġvij ft
ĠF un
che m
kn own
Ġverhuis de
ÑĢÐµ Ð¿
ĠÑĦ Ð¸Ð½
ĠÐºÐ¾ÑĤÐ¾ÑĢ Ð¾Ð¹
Ġburg emeester
Ġuitge bre
od o
Ġsupport ed
Ġgebruik en
Ġgebas eerd
ans as
ĠAlex and
Ġw ide
od ox
r ont
ĠÐĺ Ð½
Ġuit gebracht
itt ing
w ald
Ã© rit
l id
Ġged aan
Ã¨ te
Ġn ad
Ġphil osoph
ĠW K
Ġart ists
ĠF est
ĠÐ¡ Ð¨ÐĲ
Ġdien s
richt ing
ĠÐ²Ñĭ ÑĪ
Ġverte genwoord
ĠBr and
ÐµÑĤ Ðµ
Ġpr end
ĠEin w
Ġche z
9 1
y o
Ġmed aille
Ġg ang
Ġcent rum
ĠÑĩÐ°ÑģÑĤ Ð¸
Ġtek st
Ġf lu
os of
Ġr ij
Ġrem ains
la b
Ġelect ric
ĠSy d
ĠLud wig
ĠT est
Ã¨ ve
Ã©qu ipe
ĠLu ft
d own
ĠÐ´ Ð¸
ĠCon se
Ġm aster
Ġsitu ation
ÑģÑĤÐ² Ðµ
Ġgeme enten
Ġw ijk
iem and
Ġappro ach
ÑĢ Ð¸ÑģÑĤ
Ġerfolg te
Ġs il
Ġplat form
ĠZe aland
Ġcar e
Ġsomet imes
20 10
ĠCh arl
Ġincl uy
ct ic
ĠM oor
ĠW ild
ĠL am
Ġpo et
Ġl uch
Ġhert og
Ġra ised
ĠEl izabeth
ilit Ã©
ĠP un
E in
Ã¤ mp
per ial
Ġd ivid
Ġn auw
ĠPar liament
Ġre eks
Ġfam ous
ans ion
ann Ã©e
ĠNew s
ÐµÑĢ Ð¾Ð²
ĠÐ²ÐµÐº Ð°
Ġsc ulpt
Ġv ielen
Ġgeme ent
sel ves
ĠE ducation
Ġtrouw de
ÑģÑĤ Ð¾Ñı
ĠColumb ia
ĠH ospital
au p
ÑħÐ¾Ð´ Ð¸ÑĤ
Ġtod ay
Ġverd w
Ð¼ Ñĭ
ĠÑģÐ¾ÑģÑĤÐ°Ð² Ð»Ñı
Ġpo der
Ġj ap
Ð¾ÑĢ Ð³
Ġb ad
ĠS amen
Ñı Ð¶
Ġchang es
Ġaddition al
air man
Ġgev estigd
au st
ir at
Ġle aving
ĠÐ¿ÑĢÐ¾Ð´ Ð¾Ð»Ð¶
a um
C C
Ġbelie ved
Ġla ag
z ahl
Ġpr Ã¨s
ĠCh ief
Ġthem selves
Ġproble men
im p
stell ingen
ĠN ight
Ã¨ le
chest ra
ep s
Ġpra kt
ĠK el
ĠB rug
e z
Ġr at
ĠS ab
A ll
ĠN ue
Ã® tre
ene z
Ġvari os
Ġuitge voerd
Ġh og
re as
Ð¸Ð² Ð¸Ð·
8 9
hal ve
Ġbre ed
Ġf ot
ĠV in
ĠW ald
la an
ĠIs lam
ĠÑģÐ²Ð¾ ÐµÐ¹
Ð°ÑĨ Ð¸Ñı
Ġbez it
ĠM un
ĠÐ¿ÐµÑĢ Ðµ
it et
ĠE ind
Ġmed io
ĠI ts
l ies
Ġbe zeichnet
Ġf ix
Ġrelig ious
ĠÐ¿ÑĢÐ¾ ÑĦ
Ġd im
ĠK er
Ġparticular ly
ĠJ azz
ĠOlymp ische
Ġassoci ated
Ġve il
Ġstad s
Ġoper ation
Ġsubse quently
ĠSout hern
Ġletz ten
ĠÐŁ ÑĢ
Ġres te
Ġtw intig
D ans
ĠÐ´Ð² ÑĥÑħ
ĠW ol
Ġimp act
ĠG all
uch s
Ġspeci fic
Ġgen aamd
ĠÑģ Ð¸Ð»
at ers
Ġcon cer
ĠÐ½ ÐµÐ´
Ġder t
Ã¼nst ler
Ð°Ð» Ðµ
Ġ ub
ĠÃ¡ lbum
Ġk racht
ĠCh ile
Ġincre ase
ĠK ent
Ġtrans form
Ġchar acters
Ġ188 0
ing u
ĠF le
ĠS lo
ath on
n ers
Ġh ours
Ġcent rale
is iÃ³n
ĠC ross
Ġb lieb
ĠW Ã¤hrend
h as
ĠM ir
ĠGro te
ĠÐ¿Ð¾Ð¼ Ð¾Ñī
at is
Ġl et
Ġbev at
Ġob ra
ĠÑĦ ÐµÐ²
Ġgra f
ĠU ne
Ġle vens
Ġbe au
Ġterug k
Ġch ief
ĠÐ¿ÐµÑĢ ÐµÐ²
w aard
Ġvlie gt
ĠDe b
Ġalgun os
ke ur
ge z
Ġm m
ĠIl s
Ġrel ated
Ġrem ain
ĠJ ersey
ÐµÑģ ÑĮ
ĠR and
Ġcontro vers
it ud
ĠSpan je
ĠÐ¼ÐµÑģÑĤ Ð¾
iv ement
ÐµÐ½ Ð½Ð¾Ð³Ð¾
Ġzogen aamde
Ġp Ãºblic
Ġafkomst ig
vo ering
ĠÐ¿ ÑĥÑĤ
ĠFranÃ§ ois
Ġra ces
og rÃ¡
Ġres erv
ilom eter
ĠIr ish
ĠÐµ Ð¼Ñĥ
teil ung
um a
ĠÐ· Ð°ÑĤÐµÐ¼
Ġvertro k
Ġtyp es
ĠAl b
ĠW inter
ĠItal y
Ġest able
ĠfranÃ§ aise
Ġoff ered
Ġh oud
Ġreg ional
Ġmed ic
ĠÐĲÐ»ÐµÐºÑģ Ð°Ð½Ð´
Ġide e
Ġmajor ity
Ġbeste ht
Ġa x
o om
Ġcap it
P D
j an
elijk s
Ð² Ð¸
ĠÐ½ÐµÐº Ð¾ÑĤÐ¾ÑĢ
ĠE ste
Ġv ir
du ction
Ġste ht
ĠS her
Ð¾ÑĢÐ° Ñı
ĠEg ypt
ĠOm dat
Ġbete kent
h istor
Ġfamil ia
iz ing
l ingen
Ġre chter
Ġwest ern
Ġt on
or ia
ĠZwe iten
Ð½ Ð¸Ñħ
Ġverd ed
Ġbet er
ist ischen
eg a
ĠÐļ Ð¾Ð½
ĠAnt werpen
ĠG ed
ĠAn ne
ĠOt to
Ġre vol
Ġob lig
Ð°Ð½ Ð¾
an cy
l ungen
Ġmus ste
Ġprof es
Ġs ched
Ġlong er
Ġvo te
Ġnue v
o ul
b ell
F L
ĠO k
ac o
ul ly
I D
fahr en
Ġh otel
8 3
ere i
Ġprovin ce
Ġtegen woord
ri el
Ġsele cted
g n
acht ig
Ġ190 2
ĠV ietnam
Ġwel ke
ĠÃ¼ber nahm
ĠGre ek
Ġlim ited
8 2
Ġregel matig
isse ur
ĠJe ff
iste ma
Ġarr ang
ĠCon stant
ĠFra uen
ut y
ĠH eer
p ool
ĠC orporation
icht ung
Ġr ing
Ð»Ð° ÑģÑģ
Ãīt at
Ġfa iled
Ġmin im
Ġcor re
Ġg un
ĠPol en
al la
ĠVla amse
Ġf rag
ĠHo ewel
Person al
Ġinc ome
ĠM aster
Ġcar ried
ieu ze
Ġhigh est
Ġ iedere
d ers
w ie
ie ux
Ġro de
Ġv aste
Ġde t
Ġand ers
Ġc ard
kir che
2 000
d el
ĠP ra
qu is
ĠLe ben
Ġprogram s
Ġz ilver
ĠN orthern
Ġdaar van
Ġer n
Ġa ard
Ġres ol
Ġter ms
we it
Ġh omm
ÑĢ ÑĭÐ²
Ġh arm
art ers
ĠT ambiÃ©n
orm ente
Ġv ice
Ġge organis
8 4
M us
V ers
ĠW ay
ann a
Ġdeux iÃ¨me
ÐµÐ² Ð¸Ñĩ
onk elijke
ast ic
ĠDe v
Ġann Ã©e
Ġcon te
ĠI mp
ĠM anu
ĠB art
ct ing
ĠÑįÐº ÑģÐ¿
ach er
ĠD ivis
ach te
Ġf lo
Ġop leiding
Ð¾Ð·Ñı Ð¹
Ġst rip
Ġdo it
in us
ĠTo chter
ci pe
ĠMar ine
il de
Ġgradu ated
Ġsch lieÃŁlich
ĠÐ¸Ð· Ð´
Ñı Ñģ
e ge
ĠÐĺ Ð·
ĠHol lywood
Ġont werp
ĠH ab
Ġte kende
ĠJac ques
M it
k ra
eil ijk
Ġop era
ket ball
Ġpub liek
ath an
Ġa pro
Ġpolit ie
Ð¸ÑĨ Ð¸Ð¸
Ġgroe ide
es c
Ġfin ally
ĠÐºÐ¾ÑĤ Ð¾ÑĢÐ°Ñı
ind ung
Ġ190 3
ĠÐ½Ð°Ð·Ð² Ð°Ð½Ð¸Ðµ
ĠÑĦÐµÐ² ÑĢÐ°
to ire
ĠÑĥÑģÑĤ Ð°Ð½Ð¾Ð²
agn ie
ĠW eb
Ġp oor
ĠA prÃ¨s
ĠÐ¾ Ð³
ĠRe volution
Ġpor te
ĠN am
ĠV is
as st
pun ten
Ġpolic y
Ġb ru
ĠE v
ĠP S
ne o
Ġex empl
ĠF our
ÑĢ Ð¾ÑģÑĤ
Ġal ways
Ġverg elijk
und ial
Ġlu ego
Ġl ot
D on
h istoire
ite indelijk
Ġarr ived
Ġro b
Ġwe eks
Ġdeb ido
el ier
ĠS ince
ĠAnd rew
l op
Ġm ede
Ġfl oor
ĠFol ge
Ħ ĸ
Ġm ight
Ġco de
ĠF ord
Ġnew s
ho de
Ġpolit iek
ĠM ike
. -
end a
ĠV ier
or o
ĠÃ© lect
Ġb rug
H ol
g as
che iden
j ahr
ĠJ ane
ran ce
Ġl Ã©g
Ġlar ger
ect ion
pr Ã¼n
U S
ĠFr ont
Ġt akes
her r
euw se
ĠMann schaft
ĠSyd ney
k lasse
Ð¿ Ð¾Ð´
ĠLe ip
Ġann ual
Ġlie p
Ġmic ro
Ġpro jet
ci ale
A N
Ġleng te
ĠS at
ĠÐ¶ Ð¸Ð²
z aak
Ġpart ido
ĠÐº ÑĥÐ»ÑĮÑĤ
Ġz etten
ĠEs c
or gan
w ide
Ġver len
Ð¸Ð» Ð¾ÑģÑĮ
Ġher aus
Ġra akte
Ġoorspr onkelijke
Ġmed ical
Ġexperien ce
ost o
par te
Ġh ers
Ġb uurt
Ġb irth
ĠÐ´ Ð¾Ð»
ĠÐ° Ð´
re p
Ġlijk t
he ast
Ġsou vent
ĠF ab
ber ger
Ñį Ð½
ĠÐ½Ð° Ð¿ÑĢÐ°Ð²
ĠF ox
ĠK ol
ÐµÑĢ Ñĭ
ĠÐ½ Ð¸Ñħ
Ġearn ed
d eling
act iv
Ġimp lement
Ġh izo
Ġs ociety
Ġturn ed
Ġd av
Ġm undo
ĠdÃ©velop p
al em
Ġv ac
Ġv iele
ĠM and
ĠHier door
ur m
8 1
Ġbr ing
ĠLa ur
Ġmo eilijk
Ġc orps
Ġk ust
Ġvijf de
ĠJew ish
Ġacqu ired
H o
ĠT ib
he w
n at
ĠÑĩÐ°ÑģÑĤ ÑĮ
Ġbeg int
Ġd one
pe on
Ġcu atro
Ġge opend
Ġverm eld
ĠÐ³ Ð¾ÑĢ
In ter
ĠAs h
Ġl ines
Ġoffic er
ĠI d
eer den
Ġ190 1
on z
ĠMon te
ir s
our ces
Ġme ist
Ġim pos
ne a
E d
Ġcom un
Ġma at
8 7
ĠV ill
Ã©r c
b eg
l ong
Ġeen s
Ġtr am
Ġmat ches
indust rie
Ġapproxim ately
ĠR est
ĠD omin
Ġst ierf
ĠÐ² Ð¾Ð»
ĠR em
Ġm ess
Ġse chs
ĠÐº Ð½Ð¸Ð³
is her
Ġcer em
Ġonder wijs
Ð½ ÐµÐ¼
Ġv end
Ġcon st
Ġpr ins
Ġged urende
Ġt arde
Ġpart ner
Ġz aken
Ġfon ction
o el
Cl ub
h ui
Ġw inn
ĠChr is
Ġver de
ĠR oll
ĠR on
Ġno od
Ġhal ve
aal f
ĠÑĢÐ°Ð¹ Ð¾Ð½Ð°
ed ia
ĠGo od
ro on
Ġreg io
an as
Ġp ueb
am i
Ð¸ÑĩÐµÑģÐº Ð¸
Ġgen annt
Ġs ister
ĠB ang
Ġra il
Ġcult ur
Ã¶ t
ĠMa is
Ġwest en
Ġcre w
ĠÐ¤ ÑĢÐ°Ð½
nem ers
Ġa mer
Ġt old
Ġste un
Ġst ij
Ġqu ant
k in
i ormente
ĠL ux
ĠC u
Ġmar riage
ÑĢÐµ Ð»
ĠÐ¾Ðº Ð¾Ð»Ð¾
ĠÐ²Ð¼ÐµÑģÑĤ Ðµ
Ġwo bei
Ġ +
s lag
ĠÃ©t ant
Ġt oren
Ġask ed
ĠF all
Ġvrij e
ĠBrit ain
g ie
Å «
ĠÐ¼Ð¾Ð¶ ÐµÑĤ
C ol
ĠÐ¸ Ð³ÑĢÐ°
Ð° Ð´Ð°
ĠNe ben
Ġfor eign
op f
Ġn iets
o ft
âĤ Ĥ
Ġall en
ĠÐ·Ð° Ð±
% .
Ġto uch
Ġne emt
if orm
Ġmin uten
Ġc ann
Ġmet al
ĠÐ½Ð°Ð· ÑĭÐ²
ĠVere in
Ġweit eren
ĠEins atz
ĠÐ¾Ñģ Ð¾Ð±
la ag
Ġeing es
Ġresp onse
ri o
Ġbel ow
Ã¼ ll
ÑĢ Ñĳ
ĠC ost
Ġunt ersch
ÑĢÐ° Ð´
ĠÐ´ÑĢÑĥÐ³ Ð¸Ñħ
Ġtrans fer
ĠI ran
u ele
ĠN az
m od
to e
Ġt im
ĠÑĥ Ð¿ÑĢÐ°Ð²
Ã¢ ce
ĠGeb iet
adel ph
Ġcomp ar
ymnas ium
Ġgel ang
ah len
amer ikan
O m
ĠSte ve
Ġau dien
ĠAm t
Ġpart ies
Ġor den
ier a
Ġblo ck
ow a
ĠÐ³Ð¾ÑģÑĥÐ´Ð°ÑĢ ÑģÑĤÐ²ÐµÐ½
Ġb Ã¢t
itt ed
ĠF und
ĠO ce
Ġlin ks
ĠOx ford
ĠAn th
ĠrÃ© f
ĠG em
ĠÐ¾Ð´ Ð½Ð°ÐºÐ¾
Ġwant ed
ĠC atal
Ġple k
ĠV erv
ĠBet rieb
ĠB rad
Ġr ate
ĠK im
nah men
ĠMar ÃŃa
ĠÐ¿Ð¾Ð± ÐµÐ´
Ġser ve
ĠO tt
ĠAu ft
Ġn ucle
arb y
Ġnomm Ã©
ĠHen ri
iÃ¨re ment
ĠWil son
Ġbere ikte
Ġunivers ity
Ġd ah
m ore
ÐµÐ½ Ð½ÑĭÐµ
Ġnorm al
ĠÑħ ÑĥÐ´Ð¾Ð¶
Ġoud ers
Ð½ ÐµÐ²
ĠFil ip
Ġer z
Ġpr est
Ġver he
ĠM eer
Ġpol y
Ġk urz
ĠgegrÃ¼nd et
ĠSt r
ĠSch auspiel
n ik
Ġher man
Ġc orn
Ġverant woord
ĠÃĸ sterreich
ĠB lan
ĠGu ard
Ġc ut
ĠI J
ge k
w et
Ġesc rit
m Ã¤ÃŁ
ĠN ation
Ġken nen
on ic
Ġv lo
ĠI f
Ġpu eden
Ġmost ly
Ġpou voir
ho og
Ġr ust
eg et
Ġpresent ed
% ,
ĠItal iaanse
Ġart icle
Ġa demÃ¡s
ĠMa jor
Ã¨ se
Ġdel iver
Ġthe ory
Ġindividu als
Ġsh own
Ġvo y
Ġsp orts
ĠÐ¾ÑĤ Ð´ÐµÐ»
Ġcas es
j as
ĠBe v
Ð¿ Ð¾Ð»
Ġbeschouw d
Ġv ide
ĠÃº n
Ġel los
Ġverk iezingen
h ung
ĠAlf red
Ġqu ed
Ð° ÑģÑĤÐ²
ĠS yn
Ð¸Ð½ Ð¾
Ð¾ÑĢ Ð¾Ð³
Ġg od
ĠBes itz
Ðº Ð¸Ñħ
ĠFor sch
Ġus es
Ġdaar bij
Ġrepresent ed
Ġv ak
Ġ189 8
gl as
T o
Ġdur ant
al ity
um es
ĠE conom
Ġsy steem
Ġinc ident
ĠC E
ĠT ime
ĠÐ°ÐºÑĤ Ð¸Ð²
Ñı Ñħ
utz t
ĠEr st
ver te
uf en
ud get
Ġtra vers
og els
ĠEr z
Ġperson en
pt ion
Z e
Ġmar kt
ĠP our
ĠCast le
Ð¸ÑĨ Ñĭ
Ġhe avy
Ġprem iers
Ġo osten
f ico
W hen
Ð°ÑĤ Ñĭ
ĠÑıÐ½ Ð²
i op
Ġp loeg
st one
ĠÑģÐ» ÑĥÑĩ
os o
ĠB uen
ĠT y
ge zet
Ġerre ichte
Ã¼ gel
Ã§ on
w en
g elijk
ĠÑĥ ÑĤ
ĠnÃºmer o
ac ing
n ell
gl ieder
orig ine
n elle
ĠP ot
lu es
Ġtrav Ã©s
ĠS C
ĠA ff
Ġvoor beeld
Ġel la
Ġklo oster
Ġproble ms
ĠN orden
Ġcon na
Ġenerg y
Ð¼ ÐµÑĤ
Ġbr idge
Ġpar c
Ġacc ident
ĠFl ug
Ġver le
ys is
ast ing
ĠSov jet
Ġdoor dat
f il
end om
Ġto uj
Ġtouj ours
Ġm Ãºs
Ġnum mers
Ġricht te
st ation
Ġmur der
ĠL ittle
Ġpro yect
ĠRome inse
Ġ6 00
Ð³ Ð°
Ġ Ä
Ġmay o
Ġexp lo
c il
Ġmov ie
ĠpelÃŃcul a
Ġpromot ed
ĠM oh
Ã¤ re
ĠÐ¿ ÐµÑģ
Ġex pla
ĠZw its
Bi ography
m iss
ay e
Ġover t
al i
ĠMed ia
Ġm ale
Ġcont ains
ĠMos k
Ġcount y
led ge
ÑĥÑİ ÑĤ
Ġ3 9
re den
kl Ã¤r
port un
ĠU it
Ġpropos ed
Ġn acional
Ð¾Ð½ Ð¾Ð²
ÐµÑĢ ÐµÐ´
ir m
ĠB is
Ġ Åĵuv
ĠÐ´Ðµ ÑıÑĤÐµÐ»ÑĮ
b te
Ġh aalde
Ġsett lement
ĠÐµ ÑģÑĤ
l ar
Ġsex ual
Ġm Ã¶glich
Ġle ave
it ing
ur ies
ste en
ĠMit te
Ġse at
ÐµÑĢ Ð¸
rijk e
Ġbouw en
ĠCol omb
Ġcont rat
Ġen ough
ĠK or
Ã¤ m
e au
Ġm Ã©t
der d
Ġbor der
m ill
ĠÑģÐ² Ð¾Ðµ
Î ±
Ġst reng
ĠÐ¸ ÑģÑģÐ»ÐµÐ´
ol n
Ġon line
ĠMar gar
Ġcou ple
Ġdo et
Ġseizoen en
er ken
c ert
aut Ã©
Ġ189 9
und red
à ¤
ĠÐ¼ Ð°Ñı
Ġsour ces
ĠÐ¿ Ð¾Ð³
Ġwereld kampioenschap
ĠTay lor
Ġz iek
Ġjul io
Ġf ans
Ġtelevis ie
Ġgew Ã¤hlt
Ð°Ð»ÑĮ Ð½Ð¾Ð³Ð¾
ĠN av
Ã¶r per
ĠB ot
Ġme ille
A ccording
ĠM any
Ġho uses
w orth
Ġ5 5
n t
sch utz
Ð» ÐµÐ¹
Ð¸Ð¹ ÑģÐºÐ¾Ð¹
Ġs ang
Ġel f
A M
Ġlat ter
Ġc et
Ġh yp
Ġm el
Ã¼nd ung
et ic
ĠM eter
ent o
ĠS i
Ġguer ra
ĠH un
P aul
à ¸
Ð¾Ð¼ Ð¸Ð½
Euro pe
Ð°ÑĤ Ð¾ÑĢ
es h
ĠÐŁ ÐµÑĤ
ÐŁ Ð¾ÑģÐ»Ðµ
ĠÐ°Ð²Ð³ÑĥÑģÑĤ Ð°
Ġwer kt
Ġjaar lijk
Ġa ura
lich te
ĠV ar
eren cia
ot es
Ñĥ Ð´Ð°
Ġfig ure
ĠgehÃ¶r t
ĠN oor
ĠEn erg
Ġprogram me
ĠÐĴ ÐµÐ»Ð¸Ðº
ĠÐ»Ñİ Ð±
Ġr Ã´le
H L
m eer
oh ol
rag on
ut a
che lor
Ġmidd le
minist ration
Ð¼ Ð¾ÑĤ
wo on
ĠG irl
on ce
ĠÑĥ ÑģÐ¿
o eg
ild et
Ġcomp l
ĠDav is
um in
ang s
ĠÐ´ Ð¸Ð²Ð¸Ð·
ĠH ard
ĠÐ²Ð¾Ð· Ð¼Ð¾Ð¶
ĠB ed
ĠUnter nehmen
per or
ĠM ov
Ġop vol
ĠBe z
Ġag ua
Ġincre asing
ff ic
ĠH otel
Ġoct ubre
Ġhistor ische
z ak
el aar
os h
ĠOh io
re gen
Ġunivers iteit
ad Ã©m
Ġâ Ħĸ
ĠÐ¿ÐµÑĢÐ¸ Ð¾Ð´
b esch
ĠÐºÐ°Ñĩ ÐµÑģÑĤÐ²Ðµ
ĠSe a
Ġw eken
Ġb erg
us ch
Ġ urs
Ð¾Ð½ ÑĤ
Ġdest ru
ok en
Ġprodu cer
b uch
id el
Ñĭ Ñĩ
Ġ8 00
x ico
Ġb at
ĠE arth
kt or
ĠÐ¸Ð· Ð±
ĠF al
Ġdis pos
Ġsamen werking
iqu ement
Ġsc reen
k amp
stit ution
200 8
j ets
Ġcar go
Ch ar
g eld
v allen
bo ek
Ġspel er
ĠH aw
ok ken
ĠÑĤ ÑĢÐ¸
ĠG ust
Ġpro ced
h Ã¶r
Ġsp ra
A prÃ¨s
Ġover een
Ġrel atie
ĠÐ¸Ñİ Ð»Ñı
Ġaan vankelijk
Ġp ath
ÐŁ Ð¾
it aire
ran e
Ġsepar ate
Ġde te
fol ge
Van af
iat ely
ĠÐ¼ Ð¸ÑĢÐ°
Ġrem aining
Ġeff orts
In tern
Ġstart ing
Ġde utsche
ĠD utch
ach uset
Ġh inter
ca de
ĠÑģÑĩ Ð¸ÑĤ
achuset ts
Ð¾Ð± ÑĢÐ°Ð·
F rom
Ġd Ã¨s
ĠPhil adelph
Ġmil ieu
ent y
Ã¶r der
r uit
Ġel imin
ĠÐ³ ÐµÑĢ
ĠBr un
Ġt end
ĠÐĿ Ð¾Ð²
ÐºÐ° Ð´ÐµÐ¼
Ġla b
Ġconv irt
Ġtegenwoord ig
ĠEng ine
Ġjun io
f ried
Ġh ere
ĠÐ¾ ÐºÐ°Ð·
ĠWest en
m ens
Ġ4 1
ĠpÃ©ri ode
f a
ĠL auf
Histor ia
Ð°Ð¿ Ð°Ð´
Ġres ults
200 9
Ġdra w
ĠPr Ã¤sident
ĠE th
ist ers
ed elijk
A uf
orn ing
Ġdesp ite
Ġlang er
ic ios
Ġst orm
ĠB ert
ĠGro ot
B ack
v ia
Ġze e
Ġje u
ĠG ames
ant o
ĠS ak
ĠPr iv
Ġh all
c or
Ġwho le
Ġze vent
_ "
iss ent
h men
h Ã¤ng
Ð» Ð°Ð½Ð´
Ġsay ing
ĠB i
k es
Ġp ed
ĠT ony
Ġne arly
st ud
Ġv old
Ġne cess
Ġfriend s
aly se
Ġtrans ferred
Ġv irt
ĠKonink rijk
ĠÑıÐ½Ð² Ð°ÑĢÑı
ĠMot or
Ġ186 0
Ġad j
ĠÐ¿Ð¾Ð´ Ð´ÐµÑĢÐ¶
ĠM ore
ett es
Ġst aart
Ġvrij wel
Ñħ ÑĢÐ°Ð½
Ġgeorganis eerd
ĠH uman
c Ã©e
Ġserv ing
int on
he en
Ġk andid
ant h
Ġze en
Ġsymb ol
ĠP il
ĠÑĢÐ°Ð· Ð»Ð¸Ñĩ
Ġop portun
Ð»ÑĮÐ± Ð¾Ð¼
Ġmunicip io
Ġr ue
ĠÐ» Ð¸ÑĪ
Ġtrab ajo
ĠB alt
Ġel ev
an ia
qu elle
ĠF I
ÑĢ Ð¸Ð³
ĠÑģÐµÐ½ÑĤ ÑıÐ±ÑĢÑı
Ġest os
Ġmeth od
ĠH ung
ĠR olle
Ð°Ð» Ð¸Ð·
ĠD ienst
Ġwrit er
Ġgro tere
Ð¾ÑģÑĤ Ð¾Ñĩ
sc ar
ĠJ ord
Ġlie ÃŁ
Ġgen re
ĠÑģ ÑĥÑīÐµÑģÑĤÐ²
ew erk
ĠOff ice
Ġurs prÃ¼n
gr Ã©
ĠF ach
se au
ĠJ r
Ġw innen
ĠB esch
Ġmar zo
ĠS erie
ĠR ena
Ġzeen iveau
Ġdis put
ĠL ive
cl ass
Ġd ient
Ġof icial
ĠSom mer
A us
Ġoorspr onkelijk
ĠE he
Ã©rie ur
or ation
Ġma and
l eden
ĠÐ¼ Ð¸Ð½
Ð¾Ð½ Ð´
Ġgebruik te
Ġver oor
ier ungs
O C
Amer ican
ĠÐŁ ÐµÑĢÐ²
Ã³ w
ÑĪ ÐµÐ¹
Ġsept iembre
Ġtourn ament
Ġun ique
Ġd azu
Ġz ag
Ġcon str
Ñĥ ÑĢÐµ
Ġf res
ĠO d
Ġband a
v ement
or ten
Ð¾Ð³ÑĢÐ° Ð¼
ro ep
ant ry
Ġoffic iÃ«le
se c
ĠÐ³ ÑĢÐ°Ð½
Ġvar iety
Ð½Ðµ Ð³Ð¾
Ġn orte
Ã© on
Ġremp la
ĠSch m
Ð¸ÑĤÑĮ ÑģÑı
ĠÐ¾ÐºÑĤ ÑıÐ±ÑĢÑı
y t
is ant
Ġgeme en
ĠG ast
Ã¶ ren
d ij
ue z
Ġf it
fÃ¼hr ung
Ġwel che
p et
Ġv ul
ĠÐ¶ Ð¸Ð·
ĠCh am
ĠI S
Ġd w
Ġprote ction
ĠKre uz
Ġg eleid
f ra
ie ter
Ġoff er
ĠÐ¼ ÐµÐ½
Ġprov ides
ĠG olden
Ġinflu en
peon ato
Ġrecord s
ĠTor onto
ĠCo ast
ĠÐºÐ¾ÑĤÐ¾ÑĢ Ð¾Ð³Ð¾
an st
Ġde ep
kom men
Ġen ero
Ġblij ft
ĠÐ¸Ñİ Ð½Ñı
Ġstra at
Ġo oit
ĠAd am
ĠS l
Ġident if
ĠW in
ĠR ub
Ġb ul
Ġwerk zaam
ri enden
Ġnot able
ĠÑĥÑĩÐ°ÑģÑĤ Ð¸Ðµ
200 7
ĠO ri
Ġg era
Ġt erecht
ĠF red
Ġdo ch
ĠR io
ĠS ain
A an
Ġs Ã³
c en
Ġcon qu
Ġaf lever
ĠBo ok
Ġz on
ĠN ick
Ġt ÃŃt
be ek
pr ijs
ver band
âĤ ¬
atur a
ĠBere ich
ĠGe gen
ĠÐ± ÐµÑĢ
Ġtechn ology
Ġmemb res
po int
ĠÐ´ Ð¾Ð±
ot ype
ĠSch loss
ĠW anneer
Ġgre w
s a
Ġlev els
cent rum
ĠÑĤÐµÑĢÑĢÐ¸ÑĤÐ¾ÑĢ Ð¸Ð¸
v ant
ĠPed ro
ell igen
Ġne arby
Ġag osto
stre eks
ĠFern se
Ð² Ð°ÑĤ
Ġor k
ik o
emp lo
Ġsh ips
Ġoper ated
Ġh ay
Ġst ark
Ġinter ior
m und
Ġsem i
Ġconstru cted
ĠP ress
Ġst ap
Ġm uzik
ĠC ur
ĠKais er
ĠF ue
ĠÑĥ Ð²
ous ly
Ġne ut
Ġz ona
ler aar
Ġrecord ing
ĠC hem
ĠF air
e ven
ĠIntern et
Ġappe ars
Ð¸Ñı ÑĤ
ĠThe ir
200 6
ĠÐº ÑĢÑĥÐ¿
Ġp aus
Ġbes loten
Åĵ ur
Ġm akes
emb l
ĠD ol
nis se
ĠB C
ersch ap
Ġ189 5
ÑģÐºÐ¾Ð¼ Ñĥ
ĠRus land
Ġin middels
ÑĥÐ½ Ð°ÑĢÐ¾Ð´
f re
it os
eren ces
ĠV ors
Ð¾Ð² Ð°ÑĤÑĮ
20 11
Ġ189 7
ien en
Ġdro it
Ġz eker
ĠD al
Ġfin ales
Ġmy th
ĠÃ©t ud
Ġret ired
Ð» Ð¾Ð¼
Ġ4 9
Ġof t
W ill
Ġl ives
ĠÐµ Ð²
roll ed
L ou
ĠVer walt
m ission
ang a
er ij
Ġcol umn
Ġnach t
ceed ed
ild ing
Ġ189 6
Ġover heid
Ġf ell
Ġtw aalf
ch os
ĠU iteindelijk
ber ts
is Ã©
Ġde ad
Ġdic iembre
ent ie
L as
ĠBe ach
Ð± Ñĥ
ch i
ĠÐ» Ð¸ÑĤ
Ð¸ÑĢÐ¾Ð² Ð°Ð»
ÑĢ ÑĮ
Ġhab e
Ð°Ð»ÑĮ Ð½ÑĭÑħ
Ġad van
Ġre ferred
ĠÐŀÐ´ Ð½Ð°ÐºÐ¾
Ġj ours
Ġs loot
Ġenc our
Ġlar go
Ġw iss
av el
Ġho ewel
vers ch
Ã© glise
ĠHit ler
ĠPal est
Ġst room
it ief
ĠÐļ Ð°ÑĢ
imm t
ĠB aron
mal ig
ĠFeder al
u vel
Ġcont rib
Ð°ÑĢ Ð¾Ð²
Ġwhe ther
ou est
et y
Ð»Ð¾ Ñī
ĠA ud
Ġpr int
te erd
ĠMich igan
em eter
Ġper mit
Ġb aan
Ġerne ut
ĠM ach
ĠÑĢÐ°Ð·Ð² Ð¸ÑĤ
ĠÐº Ð°ÑĢÑĮ
Ġn Ã¶rd
Ð» Ð¸Ð¼
Ġp og
ĠS und
Ġdis par
ag an
Ġsoci Ã©tÃ©
ĠAs ia
ĠC apt
s burg
Ġr ival
les ia
stell er
ĠStra ÃŁe
or ges
ĠÐ£ ÐºÑĢÐ°
Ġlik ely
ĠInd ones
eb all
ĠGen er
Ġnam es
ĠÐº ÑĢÐ°
ĠÐ·Ð° Ñī
f estival
Ð» Ð°Ð½
u ir
Ġs istema
Ġch ans
he iten
ĠÐ½Ð° Ð¿
Ġun os
ĠSp ain
Ġge ve
Ġrespons ible
ĠArgent ina
Ġg olf
Ġges loten
Ã© rence
ĠÑĤÐµ Ð°ÑĤ
Ġman aged
at ische
Ġesp Ã¨
ĠH um
ug o
Ġst arb
st an
f el
Ã©rc ito
ĠKrieg s
Ġkon ink
w rit
Ġbo und
Ġt Ã©lÃ©
Ġcha que
Ġay ant
Ġ4 3
Ġdiscover ed
Ġform s
ĠSt aff
ast ers
Ġm em
N ederland
ap a
Ġsc ene
ĠM agn
ĠB ach
ĠG las
ĠDie go
Ġemp res
on i
ÑĥÐ± ÐµÑĢÐ½
Ġb ede
Ġho f
ĠÐ¼Ð°ÑĢ ÑĤÐ°
ĠV el
he its
Ġcomp aÃ±
ĠRa ad
Ġverschieden en
ren z
ĠÑģÐ²Ð¾ Ñİ
ĠÑĢÐµ ÐºÐ¸
ĠK omp
werk t
ĠÑĢÐ° Ð½
ĠÑģ ÐµÐº
ĠCh ild
v at
Ġlist ed
Ġv ictor
ĠAss embly
Je an
Ġre ason
sch riften
ug el
ĠLew is
Ġb on
our t
la ub
ĠGra f
ĠC r
Ġso ftware
ĠManu el
ĠE ric
Ġwaar de
ĠÐ¿ÑĢÐ¾ÑĦ ÐµÑģÑģ
ĠÐ¶ÐµÐ½ Ñī
ĠLat in
Ġont ving
is Ã©e
Ġbl ess
Ġe vol
Ð° Ñī
ĠÐ¶Ð¸Ð· Ð½Ð¸
g abe
we hr
H is
ĠF ield
Ġsp ons
Ð² Ð¸Ð½
ÐµÑĢ Ñĥ
K ar
elijk heid
ĠÐ¾Ðº ÑĢÑĥÐ³
Ġin stru
Ġauf grund
Ġcomp ut
Ġbis schop
Ġren ov
ĠGron ingen
ĠÑģ Ð¼ÐµÑĢ
Ġgev orm
u erd
ĠConf erence
Ġw eder
Ġ ...
ĠP ower
amm lung
or ado
ĠMar s
ĠOr der
Ġsit es
ĠMan chester
ĠÑĪ ÑĤ
lic a
r Ã©s
ĠNap ole
vo y
Ð½ Ð¾Ð²Ð°Ð½
ĠÐ² Ð»Ð°ÑģÑĤ
Ġth ink
Ġaang ed
T er
Ð¾Ð» ÐµÐ²
ĠB Ã¼
Ã¢ tre
Ġsch rijven
th ing
onder d
Ġerr ichtet
ĠE astern
Ġpromin ent
Ġre un
eds el
Ġquick ly
A ss
Ġo il
ent h
ĠL ady
Ġbest and
ĠR ahmen
zeich nung
ĠÐ´ÐµÐºÐ°Ð± ÑĢÑı
ĠfÃ¼hr t
Ġcon ten
ĠRo y
Ġcom er
ĠEr nst
all ed
Ġpub lie
op old
ute erde
Ġw and
ĠL or
ĠL ight
c in
art a
Ġpas se
Ġv alt
Ġer voor
ed ad
ĠÐ¾ÑĤ Ð´
Ġjournal ist
R O
ult an
20 12
ĠDu ke
Ġcol le
ĠÑĤ ÑĥÑĢ
ĠFrank reich
ĠÐ¾ÑĤ Ð»Ð¸Ñĩ
Ã¨ g
od a
El le
Ġaang el
Ġje une
ÑĤ Ð¾Ð²
O ok
s weise
0 8
i Ã©e
hab it
ĠÐ°Ð¿ÑĢÐµ Ð»Ñı
ĠFrank furt
Ð¸Ðµ Ð²
ĠSc otland
Ð°Ð»ÑĮ Ð½Ð¾
Ġto utes
ĠP os
Ġam Ã©ric
Ġappear ances
ĠA C
ra che
ĠG ord
Ġseg undo
l on
ĠS um
Ġk olon
Ġz og
Ġdirect ly
Ġtrava il
ĠCop a
Ġcaract Ã©r
ĠGo vernor
ĠÐ¼ Ð¾ÑĢ
Ġar be
Ġhier van
Ġr it
Ġy outh
Ġm os
Ðµ ÑĦ
Ġcon vers
ct ors
ĠB ah
Ð¾Ð» Ð°
ĠBer lijn
Ġr ÃŃo
Ñĩ ÐµÑģÐº
ĠMÃ© xico
os ed
ne e
Ð¾Ð» Ð¾ÑĤ
Ġge Ã«
ĠÃ¶ ffent
ode wijk
Ð¾Ñģ Ð»ÐµÐ´
Ġgro ter
Ġex cept
Ġaand acht
Ġten ÃŃa
Ġresident s
Ã¤ gt
Ġbes luit
y stem
Â ³
ĠT urn
ĠdÃ© partement
ĠD DR
Ġto est
Ġmoment o
k lass
an es
Ġsh oot
ĠÐ¾ ÑģÑĤÐ°Ð²
hr te
t or
ic ient
ĠF ur
om me
im b
ĠG ame
ĠÐº Ð°ÑĤ
Ġdie p
ĠÐ²ÑģÐµ Ñħ
Ġonaf hankelijk
ĠA D
iz ens
Ġneg ent
Ġp urs
oc al
ÑĢÑĳ Ñħ
Ġcu enta
V on
ĠB oth
Ġcover ed
se ud
Ġmultip le
Ðº Ð¸Ð¹
ĠVla anderen
ly n
Ã¤h l
u ze
ĠGeorg ia
ÑĪ ÐµÐ³Ð¾
ĠGru ppe
zeit ig
Ġge vo
P A
Î ¿
Ġs iÃ¨
Ä ±
Ġges lacht
pr im
eg os
S eit
Ġsold iers
ĠÐ¸ ÑģÑĤ
ĠÑģÑĤ Ð°Ð½
k ins
Ġm uerte
Ġverl aten
Ġpla ces
Ġontwikk eld
Ġmain ly
aut en
ĠBern ard
ĠHe alth
Ð´ ÐµÐ½
iz ar
erd inand
Ñĩ Ð¸Ð½
ĠÐº Ð°Ð¼
ĠS erb
ĠÐŀ Ð±
Ġz ette
ĠI ra
ÑĢÑĥ Ð·
z ar
ĠMass achusetts
ĠJoh an
ist ics
ru st
Ġmean ing
Ġcomp te
ÐµÐ´ ÐµÐ½Ð¸Ñı
ĠW irtschaft
ĠHÃ¶ he
ĠPhiladelph ia
Ġpromo ve
Ġne ces
kom t
D ur
ĠSch rift
ĠÐ¡ Ð²
sk y
ĠPe ople
Ġjewe ils
Ð¸ Ð°Ð½
Ġab ril
s o
ĠIsra Ã«l
Chr ist
ĠK han
P olit
ĠD abei
ĠÃ©p oca
ĠGr Ã¼n
Ġd ier
Ġcon dition
at ta
Ð¾ÑģÑĤ Ð¾Ðº
0 9
Ġorder ed
ĠA venue
Ġ5 2
ĠÐ² ÐµÑĢÐ½
B ei
Ġexpl os
ĠB ew
Ġoffic ers
ac teur
Ġmond iale
Ġtro u
ĠL ok
Ð» ÑĥÐ¶
on o
gem aakt
Ġr is
Ġinform atie
la us
Ġev angel
ĠÐ½Ð° ÑĨÐ¸Ð¾Ð½
Ġur ban
Ġex tended
Ġsuper fic
penden ce
ĠÐĺ Ð²
Ġp ick
Ġg oud
ĠÐ½Ð° ÑĥÑĩ
ate au
w ort
Ġontde kt
ist iques
ĠBev Ã¶lker
Ġnov iembre
ĠLeip zig
ĠH ome
pla atsen
schn itt
Ġp oco
Ġo gen
au ft
Ġiss ued
Ġsucc Ã¨s
Ġzeg gen
ue el
Ġassist ant
ĠA y
Ġreve aled
Ġover st
Ġam ount
Ġhe ir
ad ed
ĠÐ¾ ÑĦÐ¸ÑĨ
ĠÐ½Ð°ÑĩÐ°Ð» Ðµ
ĠÑįÑĤ Ð¾Ð¹
allen ge
a ult
Ġzw arte
u cc
re k
ĠV ic
Ġatt ention
Ġst ammen
ff e
Ġz iet
Ġcamp us
Ġtal ent
id den
Ġop in
Ġover all
ed om
Ġrel atief
Ġqu arter
ri f
Ġz anger
ĠRuss ia
Ġopvol ger
ĠÑĩÐ¸Ñģ Ð»Ðµ
ament o
Ġwe gens
iss ant
rom e
ĠGr ande
Ġre ed
Ġret our
ĠE du
Ġst amm
Ġv l
Ġre in
ien d
un ft
w ert
ĠÐ° Ð»ÑĮÐ±Ð¾Ð¼
ĠOn t
Ã¨ nes
ĠÑģÐµÐ± Ñı
Ġad vis
id Ã©
Ġ4 6
Ä ĥ
Ġcle ar
ĠMus lim
i Ã©t
r ingen
amil ton
ichte te
inc oln
a ient
Ġm erc
Ġcons ult
Ġfab ric
bes ondere
aller y
Ġindustri al
Ġt able
ĠÑĢÐ°Ð±Ð¾ÑĤ Ð°Ð»
im mer
ĠÐ¿Ð¾Ðº Ð°Ð·
B el
an ischen
p olit
am o
ĠA cc
ig ten
Ġnewspap er
Ġ ille
Ġsigu iente
Ġwork ers
is abeth
ĠÑģÐ²Ð¾Ðµ Ð³Ð¾
Ġproject s
r Ã¨s
Ġest Ã¡n
c us
Ġimmed iately
ĠÐ¿Ð¾ÑģÑĤ ÑĢÐ¾
ĠU N
gro e
ron om
200 5
in y
Ġpap er
ĠG ut
Ġc ad
ill en
Ð¸Ð½ Ð¾Ð²
Ġat te
ĠBr idge
ĠÐ³ ÐµÐ½ÐµÑĢÐ°
Ġle ct
sch er
Ġdist ance
ĠÐ¿Ð¾Ñģ ÐµÐ»
Ġr and
Ġact or
Ġa vo
Ġf oss
sche in
land e
w ich
c ur
ĠW eg
Ġsp irit
Ġremov ed
Ġonder d
c al
Ġad el
ĠDis ney
Ġme teen
v aard
Ġbep aald
st Ã¤t
Ġ18 50
Ġer ken
cou p
ĠSÃ¼ den
es a
Ġ4 7
B esch
ĠM ess
k unst
ĠZ ug
Ġin vent
Ġproduct s
ĠÐ³Ð¾Ð´ Ð¾Ð²
ron ic
ĠK ilometer
h ouden
Ġel eg
Ġmet res
Ġed ition
ĠL og
Ġk ennis
arm Ã©e
Ġkon nten
Ã¡nd ose
ak k
Ġto ek
ĠFre i
Ġadminist ration
ĠBeg inn
Ġin se
Ġ188 9
ater ial
Ġeffect s
istersch aften
Ġhe art
ĠÑģÑĤ ÑĢÐ°Ð½
Ġmus ique
ĠÐ²ÑĭÑģ Ð¾Ðº
Ã¤uf ig
t ies
Ġm ent
ĠdÃ© t
it ung
Ġ189 2
ato ire
ĠU E
ĠÐ°ÑĢÐ¼ Ð¸Ð¸
Ġlaw s
et je
ĠTrans port
euw en
Ġed itie
Ġo w
Ġvo it
T ra
B y
Ġdes s
ĠMidd le
ĠÐº Ð»Ð°ÑģÑģ
um ber
Ġcr isis
Ġm ant
ed or
ĠÐµ Ð´Ð¸Ð½
g y
Ġ189 3
ĠD res
Ġpromove erde
Ġcondu cted
ĠS eb
Ñģ ÐµÐ´
ĠdÃ© p
Ġs ed
Ġgrow th
ĠK Ã¶l
be elden
Ġha ven
Ġstra f
ĠQue ens
ÑĥÐ»Ñı ÑĢ
ĠOr ganis
ens es
Ġbete ken
j u
Ġgr Ã¢ce
ĠGes ellschaft
Ġpurch ased
ch ing
ĠF en
un te
Ġseg unda
S inds
Ġth er
S yn
ĠCamb ridge
Ġcert ains
h Ã¶
ĠD own
j ourd
Ġv allen
b i
ĠIll inois
Ðº Ð°Ð¼Ð¸
Ġge est
Ġj am
Ð» Ð¾ÑĤ
ĠM utter
Ġfoc us
is ons
Ġoptre den
ĠOr gan
Ġcult uur
ĠN ations
Ġsyst Ã¨me
Ġo tra
ĠV enez
ĠL ind
Ġw itte
Ġo cup
Ġas c
ĠÑĥ Ð»Ð¸
chen en
Ġeff et
Ã ¥
ĠParte i
ĠBr as
ut o
Ġproble m
ĠG as
Ġsh are
emeter y
ĠÑģÑĢÐµÐ´ Ð¸
Ġe astern
Ġbel ong
d y
Ġh art
im ate
ĠS ummer
B er
r Ã¼ck
ĠKle in
Ġverw endet
Ġpl aten
Ġsmall er
Ġeigen en
Ġm ind
Ġse asons
Ġnombre uses
Ġeuro pÃ©
g un
ĠÐ¾Ð¿ ÑĢÐµÐ´ÐµÐ»
ĠB ek
Ġnue va
ĠC er
ĠG Ã¶
ĠXV I
Ġagre ed
Ġou v
ij z
ĠÐĴ Ð¾
um ed
Ã¡ l
Ġpeu vent
Ġhac er
M art
ĠÐ¿ Ð¸Ñģ
Ġspe ed
Ġ189 4
Ð°ÑĢÐ° ÐºÑĤ
im en
ĠÐ¿ÑĢÐ¾ Ð¸Ñģ
Ġg uest
o id
Ġdis play
Ã¤t ze
ill ed
ĠprÃ©sen te
Ġpopul aire
ĠÐķÐ² ÑĢÐ¾Ð¿
res o
ĠEng els
un al
Ġag ent
Ġbeh av
i Ã©s
Ġ5 1
richt ung
Ġ184 8
ĠÐĲ Ð²
ĠD VD
ĠSe e
ĠReg iment
ĠRa il
Ġex tend
Ñĥ Ð²
T C
res ident
Ġhistor ical
20 13
Ġgroep en
Ġdefe at
ge fÃ¼hrt
Ð¸Ð» Ð»
R C
Ġr ule
ĠSpr ing
Ġgra ph
ĠÐºÐ¾Ð½ÑĨ Ðµ
ter a
Ġjo in
Ġh oger
Ġg ol
alt y
Ñģ Ð»Ð¸
Ð°ÑĢ Ñħ
alt ung
Ġvoor dat
ct en
Ġlib re
Ġdestroy ed
Ġch Ã¢teau
ĠJust ice
Ġv eert
ĠBelg isch
ĠÐ¸ÑģÐº ÑĥÑģ
ĠC ard
Ġcon g
val u
Ġo x
Ġe c
Ã¨ mes
Ġcin q
Ġver bre
Ġf en
ĠSt at
Ġtoen malige
Ġfur ent
S c
ken ing
v ard
Ð» ÑģÑı
Ar t
Ġneed ed
Ġm ouv
Ġy et
Ġh op
ill as
ĠÐ²ÑĢÐµÐ¼ ÐµÐ½Ð¸
ĠPerson en
w Ã¤r
ĠXV III
J ahr
Ð³ Ð¸
Ġrec omm
Ġdest ac
ĠL en
E S
ond a
Ġwe ap
Ġuit bre
r ate
eb rero
Ġhigh ly
v iron
la in
Ġbo y
ĠB att
Ġsing les
ĠJun ior
Ġter ror
ĠVerv olgens
Ġfin den
ĠPet ers
n ant
Ġmuch os
ĠK ultur
ann i
Ġsc oorde
Ġz in
Ð¼ Ð¸Ð½Ð¸ÑģÑĤ
ĠÐ¿ÑĢ Ð¾ÑģÑĤ
rab ant
o og
Ġn ivel
Ã¡ p
ĠÐ¿Ð¾ ÑıÐ²
Ġklein ere
ap ed
Ġsold aten
r ons
Ġc ities
Ġdig ital
Ġverb and
our i
Ġperform ances
_ Â«
id i
k ap
0 7
Ġsc Ã¨ne
Ġgegen Ã¼ber
g elijke
ul den
ĠAl ter
ÑĢÐ¾Ð¼ Ðµ
Ġb ond
Ġins besondere
gebouw d
Ġap oy
erst Ã¶r
tem ming
Ġdu o
Ġdem i
Ġcar rera
ĠOr ig
Ġfil osof
Ġra ison
as i
z ant
ĠÑģÐ² Ð¾Ð¹
ĠAir es
ĠR ing
Ġk ur
ĠÑĥÑĩ Ð°ÑģÑĤÐ²
Ġw all
ch ant
ĠHe ad
lin es
ĠNa ast
ĠS old
Ġp ian
Ð¸ÑĤ Ð°
rich ten
Ġverko zen
ĠÐ´ Ð°
ĠIn s
ĠÐ½Ð¾ÑıÐ± ÑĢÑı
Ġse Ã±
f un
ĠÐľ Ð°Ðº
ĠBro ok
Ġk amp
Ġjo int
Ã¼r t
Ġeinges etzt
Ġact u
Ġfol genden
mann schaft
le id
che t
Ġgehe le
Ġocc as
ĠPro f
Ã© poque
gel egd
ĠR oger
igh ter
ÑĦ ÑĦ
ĠSecret ary
z ip
Ġf ellow
le man
all as
opp el
ho ofd
Ġre pe
Ġman us
Ġbe elden
Ġp ale
ho ek
ĠBo y
vang el
ĠItal ia
Ġgebouw en
Ġdemon str
eth ing
Ðº Ð¾Ð½
Ġstre et
Ġst ock
n est
ĠO sten
ar p
Ġcas a
ĠChampionship s
bo ok
0 5
ĠÐ±Ñĭ ÑĤÑĮ
ĠÐ½Ð° ÑĢÐ¾Ð´
ib l
Ġtra cks
Ġpot ential
Ð¸Ð¼ ÐµÑĢ
ĠDe utsche
Ġdecl ar
Ġaf ges
off s
ĠDies er
n emen
ĠT her
Ġdra ft
Ġhoofd stad
Ġn eder
Ġbe vinden
ĠT ol
ou vert
ĠÐ¿ÑĢ Ð¸Ñĩ
Ġcapt ured
ĠÐŀ Ñģ
ĠÐ¾ÑĤÐ½Ð¾ ÑĪ
is p
Ġover genomen
Ġor de
0 6
uest o
ĠSp elen
ĠÐ¶ ÑĥÑĢÐ½
ĠEnt wicklung
on el
ess el
af ter
Ġwe il
Ġspel ers
ĠN ag
ern er
Ġins ide
ĠN ar
la ger
ind re
ĠH istory
Ġmo de
ese hen
af en
Ġaan val
ĠGuer re
r ast
ĠN ame
Ġd ank
Ã¡ m
ĠÐĳ ÐµÐ»
te am
Ġel ements
Ð¾ÑĢ ÑĮ
Ġsec urity
Ġ ÑħÐ¾Ð´
i ago
Ġ188 5
ĠÐ¿Ð» Ð°Ð½
Ġcir ca
h out
Ġv lag
Ġc uy
g leich
fin ale
C ette
ĠÐ» Ð¸Ð½
ric o
ĠÑģÐ¾ Ð¾ÑĤ
ĠB ack
Ġop stand
va it
g eleid
ÑĪ Ðµ
Ã¤ ren
ĠL odewijk
Ġin tended
ĠÃ©t udes
Ġf ebrero
B r
G u
ach en
Ġdest in
Ġco uncil
Ġactiv ity
Ġh undred
ĠM ans
Ġmis ma
Ġmov ing
G B
ĠBill board
Ġd ance
ru cht
ĠAl i
gan gen
Ġschrij ver
Ġhe cho
ĠSport s
z on
Ġf ant
k g
ĠÑģ Ð´ÐµÐ»
r ir
l Ã©
ĠL incoln
ĠK as
ÐµÐ· Ð´Ð°
Ñĭ Ð»
ob ile
ĠReg ierung
Ġmain ten
ĠGuer ra
ĠM ig
Ġontw orpen
Ġpos itive
on na
Ġalong side
igkeit en
Ġb ata
ĠBe at
Ġla quelle
Ġins gesamt
G er
Ġv rienden
ĠF eld
Ġparticip ated
Ġsuper ior
Ġ189 1
ĠFor est
Ġ188 8
ĠÐ³ ÑĥÐ±ÐµÑĢÐ½
ĠB ischof
gesch ichte
Ġdent ro
Ġcir cul
Ġv uel
Ġer m
à ®
Ġcandid ate
ĠÑĢ ÑıÐ´
Ġdam als
Ġzw are
ĠSup re
ĠPh ys
Ġpar ish
I N
Ġz ond
ĠÐ¶ÐµÐ» ÐµÐ·
Ġm embre
de z
Ġe er
ĠÑĤ ÐµÑĩ
I T
It al
Ġhor iz
j Ãł
ĠOr chestra
ĠÐ¾ÑĤ Ð¿ÑĢÐ°Ð²
Ġf al
Ġform at
Ġperson nes
Ġuitgebre id
ĠDemocrat ic
ÑĤ Ðµ
Ġz icht
ÑĭÐ² Ð°ÐµÑĤ
riek se
Ġman ifest
Ġtegen stelling
Ð¸Ñı Ñħ
inn es
bo x
Ġst ore
c ons
ĠP ont
ĠÐ¼Ð¾Ð» Ð¾Ð´
z ess
ĠR oute
ĠF a
ĠBe ide
Ġkar akter
ĠK ind
Ġg ilt
la is
fl uss
Ġhomm es
ĠâĢ ¢
Ġbeg ins
Ġpos itions
Ġh ydro
Ð³ Ð¾ÑĤÐ¾Ð²
Ġfol gte
ĠLux emb
Ġs au
Ġp ain
ĠL yn
r ated
Ġet hn
Ġstud enten
per iode
ĠÐ» ÑĥÑĩ
Pl ot
Ġl itt
Ġgem idd
Ġk ijk
ret t
st ieg
amer ican
ĠN ou
ĠDe velopment
Ġvorm t
Ġcom es
Ġha ce
ĠÐ³ÑĢÑĥÐ¿Ð¿ Ñĭ
Ġbe we
Ġmar ine
ĠP it
Ġzo ek
Ġgede elte
Ġco unter
ar ten
Ġn ative
Ġval ue
it age
Ġc ub
Ġn or
Ġglo bal
Ġcomenz Ã³
Ġch art
l ijst
t own
ĠÑĪ Ð¸ÑĢ
ĠJ ur
ron de
Ġub ic
et on
ĠR iv
ĠBe ispiel
Ð¸ÑĩÐµÑģÐº Ð°Ñı
Ġk ost
Ġte x
Ġabsol v
ist Ã³
i he
ĠÐ¿ÑĢÐ¾ ÑĨ
Ġab ility
Ġd ynast
Ġvari as
Ġw ild
ã Ĥ
edeut ung
ĠN ob
ĠÑĩ ÐµÐ¼
Ġst ories
Ġsuff ered
Ġen se
Ġed ific
l ight
Ġt oneel
Ġl ijst
Ġo or
Ġpl anned
ĠÐŁ ÑĢÐ¸
Ġloc omot
200 4
A D
ant on
Ġfac ilities
Ġdesar rol
it led
Ġpart ijen
ĠÐ²ÑģÐµ Ð³Ð¾
Z ijn
Ġh oren
Ġpass age
Ġma ison
Ġword s
Ġren amed
ord s
ina ciÃ³n
ĠPro ject
gel y
Ġperman ent
Ġme is
Ġpl annen
ĠÐº Ð¼
Ð¾ÑĢ Ð´
Ġdis cipl
Ġz ieken
ou x
Ġverl iet
20 14
ĠÑĢÐ°Ð±Ð¾ÑĤ Ñĭ
an ie
le cht
ĠÐ¸ ÑĤ
ÑĨ Ð¸Ð¹
ĠF ollowing
ĠR ap
Ġdeb uteerde
ĠsÃ³ lo
ĠO orlog
Ġaan zien
ĠLab or
Ġcan ciÃ³n
Ġhij o
Ð¸Ð½ ÑģÐºÐ¾Ð³Ð¾
ct u
am an
Ġget rouw
Ġcompos ed
Ġtegen over
Ġital ien
Ġam ateur
ĠA G
Ġref lect
0 1
Ġkomm t
Ġverb et
Ð¾Ð» Ñı
ĠSam uel
ĠÐ¼ Ð¾Ð´
Ġaangel egd
rop olit
ĠÐ³ Ð°Ð·
ĠHol z
ĠEinw ohner
ĠBuen os
Ġoffic ially
Ġpri x
Ġtreat ment
Ġob ras
ver ein
Ġd ark
ĠV II
ĠM Ã¤n
ĠH ou
ĠJapan se
Ġrequ ire
Ġanci ent
ĠPf arr
Ġdav on
ĠT ai
Ð² Ñĭ
Ġfor est
Ã¼h l
Ġtrois iÃ¨me
Ġpromot ion
ĠÐ¾ÑģÑĤ ÑĢÐ¾Ð²
Ġal d
is eerd
ep ass
E D
Ġenf ants
ĠD ick
ĠB udd
ÑĢÑı Ð´
ĠRe v
Ġdec re
Ð»Ð°Ñģ ÑĮ
ĠR ose
Ġrec over
ĠDe p
Ġgener aal
ĠIn sel
Ġm erk
est ic
ĠNue va
ĠS pecial
Ġt Ãªte
Ġprob ably
Ġhousehold s
Ġbere iken
Ġ15 00
Ġimm igr
aut re
ach ter
ber en
Ġt ab
ĠMar kt
ul aire
Ð¾Ð± Ð¾Ð´
ĠP ur
b urger
Ð°Ð»ÑĮ Ð½ÑĭÐ¹
ĠÑģÑĤ Ð°Ð»Ð°
ÑĥÑĤ ÑģÑĤÐ²
Ġlead ers
ĠÐ³Ð¾ÑĢÐ¾Ð´ Ðµ
ĠÑĦÐµÐ²ÑĢÐ° Ð»Ñı
ĠH amilton
ĠÐ¾Ñģ Ð²
str ument
il ia
ÑģÐº Ð°Ð·
ĠG rab
Ġsp lit
Ġp adre
Ġt an
est ers
ĠG est
ĠR at
ĠLib rary
Ġontwikk elde
Back ground
Ġf rente
k ov
ĠÑģ Ð¾ÑĤ
ĠSo und
ic iones
g rad
Ġblo ed
im et
ĠÐµÑģÑĤ ÑĮ
ĠÐºÐ° Ð¶Ð´
ĠJ ak
Ġp ict
ĠÐ¼ Ð½Ð¾Ð³Ð¾
Ġcont ent
ĠQ ual
Ð»Ð¾Ñī Ð°Ð´
Ġvern iet
Ġzul len
ĠMargar et
amp les
Ġact ions
Ġgev allen
Ð¼ Ð°ÑĤ
Ġgu ard
ÐµÐ» Ð°
io v
ha gen
Ġn ieder
se y
Ġp ied
Ġintern et
or gt
Ġl etters
Ð°Ð½ Ð¸Ð¹
Ġcommen ce
ĠOr de
Ġpartic ipe
Ġheut igen
rest ling
ist ed
Ġwij ze
ĠDivis iÃ³n
Ġqual ity
M P
Ġg ouden
ann y
Â º
ĠdÃ© fin
w elt
Ġbesch reven
ĠKar riere
ĠG uy
Ġtemp le
S u
Ġneigh bor
D oor
ÑĢÑĥ ÑĪ
geb aut
P er
Ġr uss
ĠStud io
ĠÐ´ ÐµÐ½ÑĮ
Ġpublic eerde
ĠÑģÐ¾Ð² ÑĢÐµÐ¼
ĠÑģÑĤ ÐµÐ¿
Ġcamp agne
im ed
Ġactiv iteiten
Ġz itten
ond issement
ell ijk
ida e
ĠF erdinand
Ġaccept ed
mer k
r Ã¤n
j os
ĠF ire
ĠV e
Ġoverl ijden
Ġf ont
Ġgebe ur
as a
Ġ ib
Ġro yal
Ġb urger
Ð³ÑĢÐ° Ð´
Ð¸Ñģ Ð¸
Ġsing er
Ġoffic ieel
mar kt
ict ed
Ġdist ribution
ik i
p he
ĠSt one
lich es
Ġpe ace
ĠÐ´ Ð¾ÑĢÐ¾Ð³
Ġup per
Ġc ensus
Ġe fect
Ġest ate
Ġbes uchte
Ġt ank
Ġe mot
ip t
Ð¸ÑģÑĤ Ð¾Ð²
Ġspr ing
Ġk ent
Ġpla ys
Ġwo on
Ġc ul
ĠÐļ ÑĢÐ°Ñģ
" ),
Ġex emple
Ġclass es
Ġoppos ition
Ġst one
Ġges am
ĠÐ½Ð° Ð±
ud ed
Ġterrit oire
Ġmen os
Ġna he
ĠStud ium
ĠPat rick
c op
Ġfem ales
Ġpublic ation
ÑĢÐ°Ð½ ÑĨ
ĠG ib
ĠP ool
Ġv eget
ĠTr in
ĠArch it
s et
Ġs ets
Ġpres idente
Ġtre in
ĠÐ¿ÑĢ Ð¾Ð³ÑĢÐ°Ð¼
Ð ĸ
ri x
Ġvo edsel
ĠThe od
ĠSchw ar
ÑĢÑĥ ÐºÑĤ
Ġo lymp
ras h
Ġgre en
ativ a
Ġcons ists
Ġm ad
h um
ĠL ag
O R
Ġis lam
ĠCapt ain
Ã³ s
ĠÃ© d
ĠÐ¿ÑĢÐ°Ð² Ð¸ÑĤÐµÐ»ÑĮ
st rat
Ġtri al
Ġdaar door
ĠZw ischen
ow ski
ig s
Ġbeg innen
Ġehemal igen
ipp ed
w iss
Ã© pend
ok er
a ver
ĠA qu
Ð¸ÑĤÐµÐ» Ð¸
Ġveren iging
Ġtip o
Ġf an
ĠÐ¾ Ð·
Ġtechn ique
ĠVere inig
ann es
G ra
Ġcon vent
Ñĭ Ð½
ĠÑĤ Ð¸Ð¿
Ġ187 1
ĠPak istan
ĠSeit e
lem agne
Ġinaug ur
Ġk no
Ġg ouverneur
ĠT enn
Ġprob able
g Ã©
Ġc ort
ĠÃ©qu ip
Ġgro ÃŁ
elligen ce
c rip
ge geben
ĠAn s
Ġcent ro
Ġvro ege
Ġagre ement
ĠÐ²ÑģÑĤ ÑĢÐµÑĩ
Ġis ol
bere ich
Ð¡ ÑĤ
ĠÑįÑĤ Ð¾ÑĤ
or ld
ĠM ul
Ð¾ ÑĨ
Ġmaxim um
Ġgevorm d
ĠT ussen
ĠAb d
be ck
Ġg iving
Ġphys ical
ĠComm on
qu en
Ġnum bers
m uziek
Ġk ru
ĠÐ¡ Ð°Ð½
qu arters
der ing
Ġex am
ĠÑģÐ»ÐµÐ´ ÑĥÑİÑī
ĠK ra
Ġdram a
ir ing
Ġan terior
sch ilder
ina ire
Ġf ert
ĠÑĥ ÑĢÐ¾Ð²
ĠS itz
or et
Ġpl ane
iÃ« rs
amp ton
ĠÃ© x
l Ã¤nd
Ġre y
ĠÐ² ÑħÐ¾Ð´
Ðº Ð¾Ð³Ð¾
Ġap pr
Ġbegra ven
Ġsitu Ã©
O ne
ĠÐ¿Ð¾Ð» Ð¾Ð¶
t ijd
Ġsy m
ĠAir port
ops is
gru ppe
Ġ 000
Ġvilla ges
Ġf elt
Ġne gen
Ġha ber
K en
ĠÐº Ð°ÑĢÑĤ
w issenschaft
Ġb udget
.âĢľ _
Ġa er
0 4
Ġc os
ĠÐ° ÑĤ
Ġho using
Ġcapac ity
ĠÑģÐ¿ Ð¾ÑģÐ¾Ð±
ist o
ĠD un
ĠL au
ĠÑģÐ¾ Ð¾Ð±Ñī
Ġversch ijn
Ġt aught
Ġel ftal
af Ã©
Ġ18 30
C o
Ġcont est
Ġprim arily
Ġarr iv
ĠR hein
Ġl open
ĠWind ows
Ġw al
Ġau ÃŁer
ĠdÃ© jÃł
ĠSen ate
Ġrencont re
Ġp ion
Ġstreng th
Ġarr est
Ġcirc uit
tende els
Ġgen oeg
W ith
atur ing
Ġsch ild
Ġass igned
Ġc um
Ġlar gely
ĠE arl
ĠW ass
ol id
Ġre volution
Ġland bouw
Ġpat ron
ĠWe ek
Ðº Ð¼
ot ed
Ġdepart ment
ĠÑĤ Ð°Ð½
Ġk ab
Ġprincip ales
Ã¼ l
km al
Ġsl ow
Ġoverw inning
g os
Ġtar get
ĠL t
Q u
Ġg au
ĠÑĩ ÐµÑĤÑĭ
L ife
Ġschol ars
Ġla y
Ġma al
Ġad vert
ĠMount ain
ĠHeim at
h y
Ġr ijden
S on
ens emble
ĠA j
Ġcom ing
ĠLe iden
ĠP iet
ob i
Ġ188 7
Ġhoud t
ra at
rit o
ÑģÑı Ñĩ
Ġmayor ÃŃa
ĠÐº ÑĥÑĢ
reg ist
n amen
ÐµÐ½ÑĤ Ð¾Ð²
ĠS omm
ĠS ix
al ion
Ã¤ ll
N o
eg de
Ġelect ions
ari as
c Ã©s
Ġf ille
ĠBus iness
ĠN ad
Ġhe ct
" ).
ird s
Ġ186 4
Ġg ering
Ġp oll
ĠĠĠĠĠĠĠĠ ĠĠĠĠĠĠĠĠ
ĠG olf
ĠÑģÐ» Ð¾Ð²
Ġm uss
v et
Ġtechn iques
Ġ ik
ic hel
ha i
Ġster ke
ĠÐ²Ð¾Ð· ÑĢÐ°ÑģÑĤ
che id
Ġcar acter
Ġwe et
Ġvert elt
ĠÑģÐ¾Ð± ÑģÑĤÐ²ÐµÐ½
a o
ĠBul gar
Ġass ociation
her en
Ġprimer os
C ont
Ġle gend
20 15
ĠMa xim
oord in
gra de
Ġpl anten
Ġresult ed
af a
Ð¾ÑĢ ÑĥÐ¶
or ÃŃa
ic ans
ĠJ am
Ġdedic ated
od ie
ÐµÑĢÐ² ÑĭÐµ
Ġoff ers
ĠÐ¿ÑĢ Ð¸Ð³
up er
Ġcual quier
Ġprop ri
Ġalc anz
J oh
els on
Ġk eren
ĠK ab
b ond
ons o
Ġzwe ite
Ġwe ig
ĠFuÃŁ ball
Ð¶Ð´ Ð°Ð½
Ġman era
ribut ed
ĠU t
ens a
Ġ Ã¼b
Ġfem me
ĠReich s
E N
ĠRa um
Ġver halen
th o
ĠUE FA
Ġ186 1
ĠDesp ite
n ot
ĠP oint
Ġcompon ist
ĠEnter tainment
Ġgro tendeels
Ġ188 6
Ġ Ã¼
Ð¿ Ð¾Ð½
ĠÐĴ Ð»Ð°Ð´
ĠEn tre
Ġbew aard
Ð¾Ð± ÑĢÐ°Ð¶
ĠK un
ĠÃºlt imo
Ġd ÃŃas
acht ige
Ġv estig
Ġp iÃ¨
ĠP rom
ĠC ass
Ġdan ach
h Ã¤lt
al er
Ġze hn
. âĢĿ
Ġdecl ared
if er
a illes
al ten
ĠFreder ik
Ġwo od
ÑĢÐ¾ÑģÑĤ ÑĢÐ°Ð½
Ġeff ort
Ġposs ib
ÑĢ Ð¸Ð´
im os
ial es
ĠDes ign
Ġlead ership
ĠÑģ Ð¾Ð´
f o
w ohl
lo v
Ð¾Ð³Ð»Ð°Ñģ Ð½Ð¾
Ġble ven
ĠNe u
Ġvers chenen
Ġrap ide
D P
Ġcommun es
Ġequip ment
Ġtot ale
hal f
ij zen
ĠcrÃ© ation
ine erd
ĠE P
ĠR acing
Ġtrans f
rit z
ĠM emorial
Ġun ion
Ġg ained
ĠAu ÃŁerdem
Ġzahl reiche
Ġfif th
Ġparall el
Ð¾Ð² ÑĭÑħ
ĠPol ice
Ġrec ently
Ġb aron
ĠÑį Ð»ÐµÐºÑĤ
ĠM iller
ĠAm ts
Ġgra b
Ð°Ð½ Ð¸Ñİ
ĠÑįÐº Ð¾Ð½Ð¾Ð¼
Ġbez ig
ĠB il
ĠÑį ÑĤÐ°
Ġb ou
Ġr ich
uur de
te ilt
ver kehr
ÐµÐ» Ð¾
ĠÐ¸Ð· Ð¼ÐµÐ½
Ġaut h
Ġ âĤ¬
Ġser ious
anter ie
Ġst u
Ġ186 5
ĠB enn
ĠTib et
ĠH elen
Ãºblic a
Ġter re
un ion
Ġcan al
Ġcon clus
ĠZ ur
Ġce ux
Ġcontin ues
Ġtit led
w ith
Ð² Ð¾Ð´
Ðŀ Ð±
L A
Ð¸ÑĩÐµÑģÐº Ð¾Ðµ
ir se
ĠÐĽ ÐµÐ½
ĠLond res
Ġz at
Ġstand aard
Ġzw art
ĠT on
A ut
s n
Ġg Ã©
ĠÐ² ÐµÐ´
Ġant igu
Ġcat al
od se
Ġk at
Ġmater iaal
Ġmill ions
Ġhoog leraar
H en
h ou
ĠÑģÑĤ Ð°ÑĤ
ĠW ieder
ĠB ond
omb res
ĠH om
ĠTh ree
ĠSp ace
Ġform al
p erson
ĠA ch
Ġpa id
ag ers
qu ence
ĠSte phen
ĠB rian
Ġro of
ĠMar sh
Ġk ra
ĠF ac
Ġ5 4
Ġpass en
Ġgest eld
ĠÑģÐ¾ ÑħÑĢÐ°Ð½
lo os
Ġexp ress
Ġrep ut
ĠR aj
Ġband s
P ol
ĠÃ© conom
Ġk ept
Ġw a
st Ã¼tz
ĠÑĥ Ð³
Ġpueb lo
eg ra
ĠW W
Ġfa il
Ġ *
lass en
ĠJ a
au teur
athol ieke
Ġp ack
ĠÑĤ ÑĢÐ°Ð½
ĠÑģÑĤ Ð¾Ð»
ĠÑģÐ¾Ð² ÐµÑĢÑĪ
Ġspra ke
ĠSch ule
Ġ188 4
gh an
k ten
Ġs and
Ãº t
ĠEn ts
Ġorgan ized
ĠdÃ©velopp ement
geb ruik
lo yd
Ġtoege voegd
h op
Ð½ Ñİ
ĠAd olf
Ã© b
Ġnew ly
ĠRe vol
geme inde
kw am
Ġpres ence
Ġmach te
Ġk ern
Ġbur ied
ĠE ven
rie ges
Ġh ang
Ġb od
ĠB erk
G r
Ġf indet
me ester
ĠCh ampions
Ġs ays
ĠK y
ÐµÐ² Ð°
ĠÐ¸Ð½ ÑĤ
ĠNach dem
ĠÐ½Ðµ Ð±
Ġ186 3
Ġach ie
cl am
3 00
Ġge produ
Ġsla cht
k am
Ġadopt ed
al itÃ©
oc ol
Ġgez in
An t
Ġinner halb
ĠB ak
Ġvo ert
g ave
ÐµÑģÑĤ Ð¸
fr ont
n g
el ten
Ġvo ice
ĠSal z
Ġgetrouw d
ĠReg ional
Ġthere fore
ĠA ka
Ġeen voud
ĠAr men
m Ãªme
Ġz eit
ay er
Ġwill en
ĠtÃŃt ulo
ast richt
ÑĪ Ð¸Ð¼
Ġr ent
uw en
ĠPhil osoph
Ð¼ÐµÑĢ Ð¸ÐºÐ°Ð½
D av
Ġtra ins
Ġspeci ale
ĠÐ½Ð°ÑģÐµÐ» ÐµÐ½Ð¸Ñı
Ġperm ett
ĠB urn
ÐµÑģÑĤ ÑĮ
ĠG eld
ol Ã³g
ĠW ork
ĠPr ime
ĠÐ¿ÑĢ Ð¾Ð±
ĠAn other
Ġim age
s luit
ra Ã®
Ġhabit antes
ĠF ree
Ġâ Ķ
Â» )
Ġwon en
ra ciÃ³n
Ġbed rijven
Ġw Ã¼r
Ġhe den
Ġges te
Ġ188 1
Ð°ÑĤ Ð¾Ð²
Ġclaim s
ing ham
Ġvol to
Ġdar unter
ĠB arn
y ond
ubl ique
Ġt ried
Ġtra dic
ina us
con Ã³m
le ben
au ch
ÐµÐ½ Ñģ
Ã©ro Ã¯
ha ven
Ġe chte
Ġbe vel
T rans
Ġsc ript
ĠStra ÃŁen
Ġbe teil
Ġth ous
Ġsec onde
ĠZ iel
ĠÐ½Ðµ Ð³Ð¾
Ġcit izens
Ġp oten
ĠCh ap
Ġro ll
Å Ħ
Ġr ural
ute t
Ġvorm de
ĠR ic
ende te
c ell
Ġa th
Ġp int
Ã©n Ã©
ĠMag azine
ĠT rib
ĠÑĤ Ñĭ
Ð½ Ð¸Ñĩ
ather ine
ru p
ĠB onn
at os
Ġwar m
ĠÐ²Ð¾Ñģ ÑģÑĤ
ĠK os
Ġal ter
ĠO ran
B o
ru im
or er
Ġ186 2
pl icht
ĠS ied
ĠÃ©t abl
Ġdam al
ck ed
ĠRepublic an
0 3
Ġpopul air
Ġse arch
ĠM ath
l ij
ar c
ĠÐ¿ÑĢÐ¾Ð² Ð¾Ð´
ĠK ro
Ġle iden
ĠrÃ©s ult
ĠW y
ĠN ow
Ġau c
Ġex port
ĠÐ¸Ð¼ ÐµÐ½Ð¸
ĠR Ã©
ĠÐ¿ÑĢÐ¾ ÑĪ
ĠD ig
Ġess ent
Ġknow ledge
Ġmidd ele
ert ijd
ĠE vangel
Ġsitu atie
Ġkwal ific
Ġde j
Ġm ise
200 3
k re
w ahl
0 2
im ir
Ġpaint ing
or ben
az a
ĠKlo ster
G ro
in ten
ĠE U
âĢĿ ,
Ð» Ð¾Ð½
ĠÐ´Ð² Ð¸Ð¶
ĠÐ¿ÑĢÐ¾ ÐµÐºÑĤ
Ġex act
id der
ĠBrug ge
Ġper ten
r ats
u ven
ĠG riekse
ri be
ĠCon ne
ĠH ind
ĠDou glas
ĠB edeutung
ĠSte f
Ġpress ure
ÑĢÐ°ÑĤ ÑĮ
Ġprof it
ĠÑģÑĤÑĢÐ¾ Ð¸ÑĤÐµÐ»ÑĮ
Ġarg ument
Ġh inaus
ĠTechn ology
ĠÐļ Ð¾ÑĢ
ak kelijk
out s
Ġ187 6
ff er
ĠEurope es
ĠP C
ĠW it
ri en
ĠcÃ´ tÃ©
Ġd ict
Ġvo eren
ĠAnd rÃ©
Ġalc ohol
Ġbe weging
amp s
Ġinn ov
qu et
ed ige
ĠF Ã¼hr
z end
ers eit
ĠP ic
Ġaan leg
Ġso gen
ĠU s
ĠÑģÑĤ ÑĥÐ´
ac re
ĠmÃºs ica
A ug
ĠVert rag
ĠH in
Ð¾Ð² Ð°Ð»Ð¸
Ġdien de
âĢĿ .
ĠD ok
ĠN ationale
genwoord ig
Ġwid ely
ÐµÐ´ ÐµÑĢÐ°
ĠL iver
Ġal ten
ĠV alen
ĠSci ences
if ik
ig ens
Ġle aves
Ð¸ÑĤÐµÐ» ÐµÐ¼
Ġfor ward
Ġmilit air
ĠMan agement
I V
S P
h ouw
Ġres c
Ġhab ÃŃan
ĠAs ian
ĠEst ado
Ġoccur red
n Ã©e
ab y
Ġter rein
Ñĳ Ð²
d i
il ien
Ð¾Ð² ÑģÐºÐ¾Ð³Ð¾
Ġh iel
h arm
Ġvers ions
Ġpet it
Ġw oorden
te te
Ġdif er
ĠScott ish
ĠA M
ĠAls o
ant age
Ð ¦
ad i
l ungs
ĠF ore
Ġou dere
Ġver fÃ¼
Ġbes onders
ÑģÐº Ð¸Ð¼Ð¸
a ide
Ġk apel
innes ota
Ġacadem ic
ĠÐ°Ð² ÑĤÐ¾Ð¼
Ġph ase
Ð¾ÑĢÐ° Ð±
ok rat
ĠÑģÐ²Ð¾ Ð¸Ñħ
Ġact ing
Ġper fect
ĠLe opold
Ð´ ÐµÐ¹
ĠÐ½Ð°Ñĩ Ð°Ð»ÑĮ
Ġ ÑĢÐµÐ´
Ġex pected
ran ken
ĠFl oren
Ġs ales
ĠÑģÐ²ÑıÐ· Ð¸
f s
ĠBahn hof
Ġsuperfic ie
g art
ob a
ĠG ene
op her
Ġb urn
Ġst rug
Ð² ÑĢÐ°Ñī
Ġro od
Å ¾
Ġse ul
Ġshow ed
ze e
m is
de utsch
Ġsuggest ed
Ġerw Ã¤hn
ite te
ĠR ou
gr and
Ð° Ðµ
Ġact ually
Ð¾Ñģ Ð¿
olog isch
ie ven
iv as
est eld
an za
200 2
Ġ5 6
Ġ187 9
Ġdesar roll
ed ers
Ġy ards
F l
be y
he ven
ap ens
b res
ĠP uerto
bo den
ĠHow ard
ĠÐ½ÐµÐ¼ ÐµÑĨ
Ġk lim
ag de
Ġcomm ander
pla ce
N ational
ĠB ishop
ĠF ri
gel egt
ĠÑģÐ¾ ÑĨ
ĠCorn el
Ġgrant ed
Ð°ÑĢÐ°ÐºÑĤ ÐµÑĢ
b ul
el ings
Ġcom ien
ĠA kt
fol ger
Ġp ul
ĠS V
ĠH ur
ĠM i
Ġdev ant
Ġtrav aux
ĠW es
R uss
Ġb ol
o ende
Ġdi ale
Ġv uur
ĠB our
S eg
Ġo v
ur i
ĠZ Ã¼r
Ġbeau coup
t je
ak ed
Amer ika
Ġpil ot
ens en
ĠS ter
ĠBer uf
ĠÃ¶ st
Ġdivid ed
ab lo
Ġofficial s
Ġm ijn
qu Ã©
Ġbec omes
sch iff
Ġc aval
ĠÑģÐ¾Ð¾ÑĤ Ð²ÐµÑĤ
S port
ÑĥÐ±Ð» Ð¸Ðº
Ġvol ume
Ġzorg de
elb ourne
ĠMill ionen
Ġ188 2
ĠSant iago
Ġex iste
Ð¸ÑĤÐµÐ» Ñı
hol m
Ġl assen
wij ze
Ġdam age
Ġparticul ier
Ġmention ed
st elle
Â» _
Ġ187 8
k omm
Ġterrit ory
Ġz and
Ġllam ado
iv als
ot ten
Ġst am
Ġb atter
ual mente
uld ig
Ġfl ight
Ġge vol
Ġstell te
ĠG onz
Ï Ĥ
Ġt ierra
in th
ĠM u
ro ffen
se ite
ad io
ĠÐ¿ Ð°Ð¼
ĠDo ctor
Ġeng ag
Ġbran ch
n eten
Ã© rat
ĠGord on
Ġal one
D en
ĠAmerik a
A lex
hen den
uest a
Ð½ Ð°Ð¼
ĠÐ¼Ð¾Ð¶ Ð½Ð¾
b rug
d is
Ġ5 3
Ġfe aturing
Ã¤s st
P ierre
Ã©ri que
ĠÑĦ ÑĢÐ¾Ð½
Ġzu dem
Ġbedo eld
Ġsow ohl
Ġelekt ron
e es
Ġrest rict
Ġd og
Ġc Ã©l
Ġst onden
lo c
Ġdifer entes
ĠR ichtung
Ġgep ublic
ab ord
Ð¸Ñģ Ð°
Ġtod as
wend ung
ĠÐ¿ÐµÑĢÐ² ÑĭÐ¹
ĠW ars
ĠÐ½Ðµ Ð·
Ġonts n
ĠS ig
orn o
Ġremp orte
ĠUS S
J an
ĠÐ½Ð° Ð¿Ð¸Ñģ
em ed
ĠT at
volg d
int ure
ÑģÑĤÐ² Ð¸Ð¸
ĠV eel
ĠNet work
Ġest o
Ġdi agn
Ġrecher che
Ġdist rib
ir ks
Ð¸Ð² Ð°ÐµÑĤ
ĠÐ² Ð¾Ð¿
ĠÐ¿ÑĢÐµÐ´ÑģÑĤÐ°Ð² Ð»Ñı
ĠÐ± ÐµÐ»
Ġexpand ed
Ġtoek omst
F orm
Ġmo le
Ġint elle
ĠpolÃŃt ica
ĠÐ½ Ð¸
Ġt all
w ind
ĠAn dere
em pla
Ġart icles
Ġestim ated
hu izen
ĠAf rika
Ġfig ures
d anks
Ġa arde
P C
Ġtyp ically
ĠspÃ© cial
ash ion
ĠAtlant ic
w orks
Ġdist ric
Ġhoe veel
T S
w assen
ien nent
Ġredu ced
af Ã¼r
Ġmed al
Ġhand s
univers itÃ©
Ġcre ation
Ġcas o
ĠÑĤ ÑĢÑĥÐ´
Ġ187 5
Ð¾Ð»Ð¾Ð³ Ð¸Ð¸
Will iam
b ren
ĠH ugh
os is
ispiel sweise
ĠKore a
Ġp ad
v le
ek ing
br and
Ġreg ister
ĠT emp
Ì ģ
ĠR ol
ĠLe ist
Ġt ells
iam i
ek te
Ġgrand s
ĠM ond
Ġ( âĢŀ
Ġkle iner
Ġ186 6
ĠA ma
Ġ iron
Ġinter act
id iÃ³
Ġeconom ische
Un ie
Ġsat ell
Ġle ider
Ġsu st
Ġde port
Ġb ott
Ġpat tern
ag ner
ĠH orn
Ð¸ÑĤ ÑĥÑĤ
ĠÐ¿Ð¾Ð· Ð²Ð¾Ð»
le in
ĠMilit Ã¤r
ĠGesch Ã¤ft
ĠSing ap
Ġch annel
Ġgre ater
ĠL et
Ġpres ente
ĠR og
ĠA h
ĠÐ»Ð¸ÑĪ ÑĮ
Ġ186 7
ig ration
Ġrelig ion
Ġw ear
Ġbis her
ber gen
ĠÐº Ð²
Ġperson nel
ĠDuits ers
ĠK u
Ġs etzte
Ġoper ating
Ġge Ã¯
ĠK az
sp ro
ÑĥÑģ Ð°
Ġde leg
Ġcomp ared
ĠC in
Ġatta cks
Ġsch rieb
Ġ188 3
Ġdesc ript
Ġer Ã¶ff
Ġgr Ã¼ndete
ĠComm and
ult uur
20 16
ĠTwe e
vo et
m ine
Ġpes ar
ĠÐŃ ÑĤÐ¾
ĠL age
ram a
ĠÐ¿ÑĢ Ð¸Ðº
Ġland s
Ġen gl
Lou is
Ġk oor
Ġj ury
ĠAnd erson
Ġgro wing
Ġbo om
ho e
Ġke in
Ġcomb ined
Ġconfir med
d on
neh mer
gener aal
ĠS ac
Ġcommun ities
kund ige
Ġz ust
Ġdaar voor
Ġgeh Ã¶ren
ĠCost a
ep er
Ġprogram a
Ġimport antes
n ungen
Ġto da
im ientos
Ġop z
ĠNederland en
w ijd
ĠVer l
ĠAb s
Ðµ ÑģÑı
j oy
ÐµÐ» Ð¸Ñĩ
f Ã¼r
Ġexp lic
Ġro oms
Ġcont ain
Ġestud ios
il anden
at ch
uck y
ri al
Ġresult aat
F amil
ĠLi bert
Ġuntersch ied
Ð» Ð¸Ñı
âĢ ĺ
z onden
ya ume
Ġvon den
Ã©r ale
Ġpod ium
ĠT u
ĠÐ²Ñĭ Ð±
ĠR y
R es
Ġbeh oorde
ĠCl ar
ĠC rist
Ġgemeent era
j er
Ġs ons
ĠP ir
Ã¤ch lich
Ġge woon
Ð¸Ñģ Ð¸Ð¼
ĠHerz og
Ġth ings
ĠMa astricht
ĠÑĢÐ°Ð· ÑĢÐ°Ð±Ð¾ÑĤ
Ġ |
Ġprov iding
Ġobt ained
reib ung
Ġf lag
ĠRe form
Ð°Ð½ ÑĮ
ĠHar vard
Ġfinanci Ã«le
Ġm ine
Ġh Ã¤ufig
ĠT rum
Ġanim al
Ġ187 2
Ġno te
Ġre ject
Bi ografÃŃa
ÑĢÐ°Ð½ÑĨ ÑĥÐ·
ric ket
Ġf oto
ĠN iet
Ġger icht
Ġjun ior
n i
ĠNapole on
ĠL ors
ult y
rim on
Ġgek omen
ĠÑĨ ÐµÐ»
ĠÐºÐ¾ÑĢ Ð¿
Ġgemeins am
Ġ( -
ĠÐ¿ Ð¾Ð½
iel lement
L o
ro eg
Ġk la
ĠN iger
k ar
Ġmaak ten
Ġresult ing
ÑĳÐ½ Ð½ÑĭÑħ
ĠÐ¼ÑĥÐ·Ñĭ Ðº
Ġextre m
Ġide as
ĠÐ¾Ñģ Ð½Ð¾Ð²Ð°Ð½
ĠÐ¸ÑģÑĤÐ¾ÑĢ Ð¸Ð¸
Ġow ner
Ġprodu cciÃ³n
wh ich
ĠEst a
ĠBru der
sp el
geme in
ĠVeren igd
ie te
ĠS oph
ĠÐ¿ÑĢ Ð¾Ð¼
Ġwo onde
200 1
Ġcar s
j amin
Ġhe en
Ã¨ ge
ĠHigh way
Ġ8 5
p Ã¤
re gel
issen schaften
uest ra
ĠPar lam
ĠÐº Ð°Ð·
Ġref used
Ġexecut ive
ĠK Ã¼
ony m
Ġtru e
ĠSeb ast
D ep
Ġteach er
Ġreg iÃ³n
ĠBo den
Ġpl ants
Ġalgun as
Ġsitu Ã©e
Ġst il
Ġg anz
Ã¶r m
ab hÃ¤ng
Ġch er
Ġes a
irat et
Ġfund ament
ĠBr igade
Ġinj ury
it as
oor te
ik al
Ġgeb leven
C omm
Ġ187 4
ĠC irc
ĠÐ¾Ð¿ ÐµÑĢÐ°
ĠB ud
ÐµÐ½ ÐºÐ¾
Ġsc oring
ĠÐº ÑĢÐµÑģÑĤ
lo gen
Ġsie ben
Ð»Ðµ Ð¶
Ġdern iÃ¨re
Ġslacht off
ĠÐ±ÐµÑĢ ÐµÐ³
Ġspre ad
ĠM undial
Ġcann ot
S V
ĠIn v
enste in
Ġgel uid
Ġverantwoord elijk
o ef
Ġher o
stand igheden
Ð¾Ðº ÑĢÐ°ÑĤ
Ġw ing
J ac
Ġmod els
ĠO scar
Ġteach ing
Ãºt bol
h ing
in ar
Ġbere ikt
Ð³ Ð¾Ð´Ð°
ĠÐ¡ ÐµÐ²ÐµÑĢ
Ġphot ograph
J ul
ĠStand ard
Ġd ynam
at isch
ĠM elbourne
ĠÑģ Ð¾Ð¿
we is
O M
Ġer nst
Ð¾ÑĢ Ð¾Ð¶
Ġ187 7
g le
ĠSo zial
g ten
st att
temp s
Ġpar e
c ÃŃa
in cl
Ġ186 8
Ġcrit ical
Ġth r
wh ere
est a
ĠÐ¿ ÑıÑĤ
ic on
ĠOff ic
h aft
il idad
Ġ184 0
Ph il
Ġc iv
v loed
Ġveroor z
Ġc ells
ver tre
ĠÐļ Ð¾Ð¼
arr ing
ĠCount ry
ĠÐ¸ÑģÐ¿ Ð¾Ð»Ð½
ĠM ong
ĠPar a
ĠÐ¸Ð¼Ðµ ÐµÑĤ
ĠCol orado
if en
ÑĪ Ð¸Ðµ
ÑĥÐ½ Ðº
a Ã¯
ĠFran ces
Ġg ut
ĠT ab
ĠAl len
ra ce
ĠÐ¡ ÑĢÐµÐ´
ador a
ĠM unicip
ag it
ĠM P
Ġrestaur ant
Ġarr ested
ĠÐº Ð°Ð½
Ġr isk
Ġ5 7
Ġprot agon
verk iezingen
a as
Ar ch
Ġzes de
ĠÑħ Ð¾ÑĤ
ĠMos c
Ġih nen
ÑģÑĤÐ¾Ñı Ñī
B eg
b ron
uk i
Ġinstitut ions
ĠV as
Ġk osten
Ġents pre
iz in
p her
ari um
Ġprincip ale
Ġp it
ĠN ij
ĠSeit en
U ne
Ġvot es
ĠBevÃ¶lker ung
ĠMoor e
ĠM ission
ĠL ow
ĠGr ant
Ġro les
Ġra ad
Ġvol gt
D A
ne w
ÐµÐ± ÑİÑĤ
ĠPol ish
ĠLiver pool
Ġn at
ul ed
schapp elijk
ĠSupre me
ÐµÑĢ Ð¾
Ġuit zonder
ĠAr mee
Ã©c n
fÃ¼hr er
Ġprob eerde
Ġblo od
ĠLim burg
Ġ5 8
d ing
Ġverschieden e
el ess
Ð°Ð»ÑĮ Ð½ÑĭÐµ
ÑĥÑĤ Ð±
Ġm ile
esse ur
ĠSt utt
Ð¸Ð½ ÑģÐºÐ¾Ð¹
Ġsurround ing
ri Ã³
ĠnÃ© cess
am ar
if icaciÃ³n
Ġrece ive
Ð½Ñı Ñı
Ġtien en
L and
ĠH inter
ĠGr amm
rad os
ĠXI V
rit te
Ġv in
Ġzij de
ĠÐ·Ð°Ðº Ð»ÑİÑĩ
ra chte
Ġc ry
ĠÐºÐ¾Ð» Ð¸Ñĩ
Ġrespect ively
ĠÐ¼ Ð¾Ð¼
Ġfight ing
ĠÐ»Ð¸ÑĤ ÐµÑĢÐ°ÑĤ
ist ent
ĠKonink lijke
Ġc orpor
ĠÐº Ð¾ÑĢÐ°Ð±
ĠM es
Ġconc urrent
ĠÐ½Ð°ÑħÐ¾Ð´ Ð¸ÑĤÑģÑı
Ġeigen aar
Ġconvirt iÃ³
Ġallow ing
to ut
Ġver ander
Ġest as
ĠÐ´ ÐµÐ¿
Ġm ol
Ð¸Ð¹ ÑģÐºÐ¾Ð³Ð¾
ĠÐ·Ð°Ð¿ Ð°Ð´
or ph
iller y
Ġsett led
ci endo
ĠN Ã¤
an im
o a
ĠE ver
Ġpour s
P r
Ġzelf stand
ass ade
ĠEm peror
ag og
em ar
Ġhand el
S aint
Ġgeh t
Ge ography
ĠÐ¼ Ð¸ÑĢÐ¾Ð²
Ġgel oof
Ġdesc end
Ġsom ething
Ġyoung er
Ġb ought
ĠB h
Ġpun to
Ġm Ã¡
ĠA T
ÐµÐ¹ Ð½
Ġste en
Ġvoy age
as ch
Ã¤ chen
Ġdub b
Ġaudien ce
Ġsqu ad
Ġmount ain
Ġcust om
ĠCh ine
ap h
Ġmed ewerk
st a
ov iÄĩ
ional ly
Ġadd ress
ĠOr d
bens o
Ġcon jun
Ġe as
Ġad ult
Ð»ÐµÐ½ Ñĭ
Ġdise ase
ÐµÑģÑĤÐ²ÐµÐ½ Ð½Ð¾Ð¹
Ġpur pose
aar ten
Ġork est
Ġcr im
Ð¸Ð· Ð¼
On t
p ur
Ġtra ffic
Ġdien en
lie ben
ĠMa as
ĠI de
ĠÑĦ Ð°Ðº
ĠT rip
res se
Ġgez et
ĠN eg
Ġseule ment
Ġgo es
ele y
sch ip
Ġfem mes
ad ers
ĠÑĦÐ¸Ð»ÑĮ Ð¼
Ġej emplo
Ã¶ ll
Ġno us
Ġaff ili
ĠMe ister
Ġviol ence
Ġgevolg d
Î ½
Ġbe he
Ġan un
Ġcomplet ely
ĠH arb
Ð¸Ð½ Ð¾Ð¹
Ġfus ion
Ġres erve
Ġve ces
Ġfran ch
esse e
ĠMin istry
ett i
ĠO ud
ĠStaat en
Ġlos ing
Ġminist re
Ġl ance
ÐµÑĢÐ± ÑĥÑĢÐ³
Ġident ified
ic ed
ĠC el
ĠCru z
Ġus o
Des p
Ġh ip
Ġcal cul
ĠH ugo
Ġvoc al
ĠN ich
Ġm art
Ġklass ieke
arbeit er
ĠÐ±Ñĭ Ð²
ob en
Ġpres erv
Ġliter ature
ect or
uro s
Ġe u
Ġto wer
stal ige
Ġg rie
Ġre ch
et jes
ĠV rij
Ġprod uit
ĠHier na
Ġauthor ities
riz ona
ĠM use
Ð¸ÑĨ Ð°
a id
ĠÑĢÐµ Ð¶
ag h
Ġt Ã©r
itz er
ĠÐ¾Ñĩ ÐµÐ½ÑĮ
Ġzu vor
Ġexempl aren
al ia
ĠHer mann
os sen
ne z
ĠJ ong
aj es
im ately
ĠÐ²Ñĭ ÑħÐ¾Ð´
Ġh alen
ĠÐ¿ÐµÑĢ ÐµÐ¿
Or ig
Ġgeprodu ceerd
A ust
ĠB ry
ĠÑģÑĤ Ð°Ð»Ð¸
Ġkom men
Å Ļ
ktion en
Ã¼s sen
ic amente
Î ¹
Ġv el
me isterschaft
Ġrap id
im men
ĠStad ium
b is
ven u
Ġsign if
Ġ iemand
Ġop richting
tra ck
Ġtra iner
Ġ AR
ĠÐľ Ð¸Ñħ
ĠJohn ny
Ġstruct ures
Ġverspre id
ig den
Ġmill ones
won gen
Ġdra gen
ĠEl isabeth
Ð¸Ðº Ñĥ
Ġd ichter
Ġm emor
Ð¼ ÐµÐ½ÑĤ
Ðł Ð¾Ð´
Ġvis ited
Ġspoor lijn
ak eld
Ġlo i
Ġ187 3
Ġf ase
red edor
L ater
Ġden omin
ĠRep ubliek
Ġc uer
Ġme ant
Ð°ÑĤ Ð¸Ð²
ÐŁ ÑĢ
Ġon to
Ġh ot
Ġbe ispielsweise
Ġy our
T oen
ent lich
Ġ9 5
ĠÐ¿ Ð»Ð¾ÑīÐ°Ð´
ĠÐ° ÐºÐ°Ð´ÐµÐ¼
E mp
Ġens emble
ÑģÑĤ ÑĢ
ĠÐ· Ð°Ñı
rich ter
Ġteil weise
Ġe g
we er
Ð¿ Ð¸ÑģÐº
le z
Ġmaterial s
isc ons
ac u
ein ander
b ten
Ġpap el
Ã¤us er
ĠCl ark
Ä «
Ð¾ÑĢ Ð¾Ð¼
ĠArbeit s
Ġsyn th
Ġc urs
ĠÐ¸Ð½ ÑĤÐµÑĢ
Ġs ÃŃ
ĠÐ°Ð² ÑĤÐ¾ÑĢ
Ġcas i
ĠÑģÐ¾Ð± Ð¾Ð¹
Ġpat ri
ĠverÃ¶ffent lichte
we ight
Ġse hen
G o
ud ing
ĠIs lands
Ġorganiz ations
ro c
itÃ¤ ten
ĠB ovendien
Ð°Ð½ Ð³
Ġ ers
ĠBo ys
ĠB ass
Ġtre kken
p at
Ã ¦
ĠÑģ Ð¸Ð¼
Ġcomm ittee
Ġhoriz ont
Ġuitge zonden
ĠÑĢÐµÐ·ÑĥÐ»ÑĮÑĤ Ð°ÑĤÐµ
). âĢĭ
ath ar
Ġvol gen
geb roken
ot i
Ġau jourd
Ġuitge geven
Ġcual es
Ġlleg Ã³
Ġm i
ĠM iami
Ġresp ond
R ep
unt a
ersch aft
Ġopge heven
Ð¾Ð¶Ð´ ÐµÐ½Ð¸Ñı
A chter
is eerde
re es
ĠFran cia
Ġrecogn ized
Ġall ows
ĠFern ando
Ġf ish
ĠBerlin er
b ur
ut ions
aut or
ĠverÃ¶ffent licht
Ġor gel
Ð¿ Ð°
ĠFernse h
ĠÐ¿ÑĢ Ð¸Ñħ
ĠP ear
ĠAth let
ĠEn s
ipp i
Ð³Ð¾Ð´ Ñĥ
ÐµÑĤ ÑĮ
ĠP sych
R el
ĠÑģ Ð¾Ð»
Ġ6 6
et ing
qu ir
Ġabsolv ierte
ĠR ick
ĠÐ¿ÑĢ Ð¸Ð·
Ġr Ã¨g
Ġm ist
Ġ7 00
Ġas es
Ġ7 2
b org
Ġcan cer
ĠÐ¾ÑĤÐº ÑĢÑĭÑĤ
Ġt ient
eg as
Ġpolit ics
ĠX III
ader ing
á »
A A
ĠÐ¿ÐµÑĢ ÐµÑĪ
ĠÐº Ð°Ð¿
mot or
ĠPri ze
ĠK ansas
Ġter me
Ġbl ue
ĠBay ern
Ã¼ck en
ĠÐº Ð½Ñı
Ġch ose
Ġver no
Ġcollabor ation
ic ide
n ership
ĠMig uel
ĠP ad
pro f
ĠÐĲ Ð»
ĠÐºÐ¾ÑĤÐ¾ÑĢ Ð¾Ð¼
Ġd ix
ĠR Ã©p
ĠV ersch
Ġenerg ie
ÐµÑĢ Ð¸Ð¸
ĠSt rat
n ement
ch Ã©
199 0
B I
k ele
Ġconf erence
Ġcontr ast
Ġs og
ĠÑĩ ÐµÐ³Ð¾
itzen der
p op
Ð°Ð½ Ñģ
Ġho ckey
Ġtegen stand
ĠZw eden
Ġoorspr ong
z us
ĠP el
Ġsch loss
weg ung
B orn
ĠÐ²ÑĤÐ¾ÑĢ Ð¾Ð¹
ĠÐ¿ÑĢÐµÐ´ Ð¿ÑĢ
Ġhier voor
ĠÐ¿ÑĢÐ¸Ð¼ ÐµÐ½
is f
ĠC art
ge ver
Ġprop ag
Ġp ag
ĠÃ©x ito
Ġauf genommen
ett bew
Ġapp lied
ĠÃ©qu ipe
ĠÐ´Ð°Ð½ Ð½ÑĭÐ¼
ĠWh it
ste men
Ġreturn ing
Ġfac ilit
Ġme isten
Ġentre pr
On der
ĠDub lin
Ġlib rary
Ġrem ar
Ġesc rib
bed rijf
ĠÐ¾Ð±ÑĢÐ°Ð· Ð¾Ð¼
lo opt
ĠPro te
Ġh ombres
ĠJ ung
ÑĢÐ° Ð³
Af rika
Ġattack ed
ov o
ĠMid den
o unts
z os
ĠLu ik
ĠFin land
uerd o
Ġobt ient
ch ang
Ġconstru cciÃ³n
habit ants
ruct ure
Ġsuc ceeded
Ġseg Ãºn
g aben
av ier
ĠR ijn
ĠÐ·Ð° Ñħ
ĠT age
ĠfranzÃ¶s ischen
Ġtra ject
Ð»Ð° ÑĪ
Ġnach dem
Ġm ate
Ġentstand en
Ã¼ ter
ĠRijk s
ĠWe i
Ġbeteken is
ĠCh ampion
g lichen
ĠOnt ario
Ġ186 9
Ġver oorde
C al
Ġan c
Ġmujer es
ĠAl an
Ġju ist
ĠVerk ehr
Ġsl ight
veren iging
te enth
ĠRo berts
ĠMo z
kom sten
ra c
Ġfre quent
ĠA uss
ĠN ieuwe
ĠÐ²Ñĭ Ð·
ĠReg el
ĠV ia
man ia
ad urch
ĠÑĦ ÑĢÐ°Ð½ÑĨÑĥÐ·
Ġac res
M W
ĠÑĩÐµÐ»Ð¾Ð²ÐµÐº Ð°
Ġlong ue
Ġw oll
ra de
Ġerfolg reich
Ġdist ing
ã ģ
Ġoverl eden
ĠÐ¿ÑĢÐ¸Ð½ Ð¸Ð¼
ĠSe ver
oz ial
ific ations
Ġaf st
ĠK lasse
int ers
Ġkle uren
Ġz aak
Ġbro thers
Ġfac ility
Ġlo an
Ġgepublic eerd
Ð»ÐµÐ½ Ð°
Ġtw enty
ĠB og
p ent
ĠT Ã¼r
Ġcombin atie
Ġpunt os
Ġ ieder
ger o
Ġfa ir
Ġdah er
Ġgev aar
lin der
Ġkle inen
Ġstart te
Ġtw ice
Wh ile
z one
Ġnecess ary
ĠA demÃ¡s
ge en
Ġd oll
sch ild
olog ies
p ir
ĠÐ¿ÑĢ Ð¾Ð¶
ĠSk y
aal t
ĠD NA
Ġmin i
Ñģ Ñĥ
ĠD C
Ġexp ansion
te k
ĠB uck
ĠHon or
Ġla gen
Ġ18 00
Ġinv as
ĠCh annel
Ġsol id
Ġpos te
ĠÐ¾ÑĤÐ½Ð¾ Ñģ
yp te
au re
Ġpar och
lem aal
ĠCommun ity
Ġal iment
Ġet was
ĠÑģÐ¾Ð´ ÐµÑĢÐ¶
Ð¸ Ð´Ð°
iscons in
Ġdon ne
ĠÑĥ ÐºÐ°Ð·
ÑģÐº Ð¾
ag u
Ġconne cted
st ro
it ors
lijk heid
Ġpro vis
ĠPar lement
Ġfe u
geh end
ĠBen ed
qu itect
ĠCh or
Ġlangu ages
m useum
ash i
ĠStud ios
ĠSt Ã¤d
Ġp air
Ð»ÐµÐ½ Ð¸Ð¸
ĠÐ½Ð°Ð·Ð½Ð°Ñĩ ÐµÐ½
ĠR ond
ĠÐ² Ð½ÑĥÑĤ
ant a
ĠÑĥ Ð·
ĠTer rit
Ġeigen e
Ġgevo el
Ã¼r z
ĠÑĤ Ð¾Ñĩ
ĠSal v
Ġrec re
Ġrelig ie
ĠÑĤ ÑĢÐµÐ½
ĠÐ´ÑĢÑĥÐ³ Ð¸Ðµ
Ġp ont
ĠK Ã¼nstler
199 9
Ġh its
Ġsign al
C D
f red
ÑĤ Ð¾Ð½
ĠÐĲÐ½ Ð´
ĠTru ppen
ĠÐ¿ ÑĢÐµÐ¼
ap es
ĠEr sten
ÑıÐ± ÑĢÐµ
im ar
ĠEr d
Ġverde eld
wer eld
ill erie
ĠGe orges
ĠM innesota
Ã¶glich keit
Ġin gen
ille urs
ĠÑĤÐµÑħ Ð½
ĠS lag
ĠB innen
ĠW ell
ze ker
Ġrom ant
Ġz egt
Ġk il
Ġcon stant
oma ine
g aande
Ġpar liament
west ern
ile y
Ġt am
ogrÃ¡ fica
ĠIra q
ĠH op
che v
ĠEr folg
Ġpart i
z ijn
Ġ ign
ĠD Ã©
ĠÃ¶ sterreich
ĠKon ing
kt ions
Ġze igt
ĠChrist us
ĠJord an
Ġw es
Ġgleich en
Ġjam ais
Ġapp ara
Ð» Ñĥ
Ġamp l
B as
Ġd aling
ĠW ir
ĠLy on
Ġf ully
Ġcon ven
ĠStud ies
Ġcin co
im ul
Ġr ub
Ġhost ed
Ġact ie
Ġhabit ants
ĠÑģÐ¿ÐµÑĨ Ð¸Ð°Ð»ÑĮ
Ġk amer
el ftal
ĠAust ria
Ġprob eert
to ernooi
Ġfund ing
Ñģ Ð¾Ð½
ing e
Ġken merken
ĠOper a
ĠB ran
ĠH uis
ĠÐ» Ð¸Ñĩ
ĠD ave
ĠHand els
Ġcontempor ary
Intern ational
is iert
raag d
Ð¾Ñģ Ð»Ð°Ð²
Ġdesarrol lo
p aar
ĠÐ´ Ð¾Ð¿
ival ent
iÃ«n t
c ido
ĠF ame
ĠÑĢÐ° Ð±
D it
Ġa j
ĠJ enn
ĠHer man
ĠLeg isl
Ġbo dem
Ġprovin cia
Ï ģ
Fran k
lie ÃŁen
Ġpos it
Ġo cas
ĠRe in
Ġstem men
ĠÐ¼ Ð°Ð³
v iÃ³
Ġgevangen is
Ġju ego
Ðĵ Ðµ
Ġcapt ain
Ġondersche id
b ourg
Ġm ales
Ġpro s
Ġbef inden
ĠChar lie
ok k
Ġho ch
4 00
Ġw ahr
Ġtent oon
Ġanal ysis
ĠSt art
ĠH as
Ġattempt ed
Ġreport s
Ġbro ke
ĠMed ical
g ren
Ġer op
ĠÐ½Ð°Ñĩ Ð°Ð»Ð°
ĠV it
ĠPolit iker
Ġa h
Ġcompos ition
ic y
ĠÐ½ ÐµÐ¹
Ġaura it
ĠK rit
st o
Ġcer ca
Ã©ta it
Ð¸Ð»Ð¸ Ñī
Ġh appen
Ġein zel
hed ral
ĠX II
F ollowing
ĠN AS
anden burg
Ġan ne
c imiento
conom ie
h aupt
Ġt rom
ÑĢÐµ ÑģÑģ
Ġzw ar
Ġthe ma
ĠR und
Ġbest u
bru ch
l ast
ic ien
iz i
Ġto er
ok ing
ĠDres den
ĠVenez uela
Ġliv re
Ġe conÃ³m
ĠÑį Ð¿
Ġ Ã¤hn
onn es
ĠKÃ¶l n
ĠPro ble
Ð¾Ð» Ð¾Ð²
ĠPhilip pe
ĠL Ã¼
ze uge
vo eren
ĠM au
ĠHal b
ro ck
ens is
Ġl ado
Ġst ars
Ġvers iÃ³n
ĠKel ly
is atie
Ġs ides
ĠM ak
Ġent itled
Ġun iform
se a
Ġthe orie
. ),
Ġbata ille
Ġs ov
Ġexist ing
Ġern annt
Ġwo und
ĠFamil ien
re ten
Ġlever de
Ã ½
ĠN i
ĠÐ± Ð°Ð·
Ġun able
ĠSie g
Ġm Ã¨re
Ġimport ance
Ġport ion
ied t
Ġar ms
Ġo lie
ĠLe uven
Ġacc ord
Ġaange zien
ĠXV II
ĠMiss ouri
Ġt ry
ĠÐ¶ Ð¸Ð·Ð½
Ġbron ze
ĠCou pe
h ere
ĠT em
Ġge ar
ĠÐ¾Ð´ Ð½Ð¸Ð¼
ÃŃst icas
n og
Ġm orning
tem berg
ĠDan ach
Ġfr uit
w all
Ġpl anning
Ġreview s
ĠÑĤÑĭ ÑģÑıÑĩ
r ine
Ġten er
Ġg rij
Ġro utes
ĠDur ante
ĠRel ig
co ach
Ġinsp ired
n ummer
Ġc ependant
Ð°ÑĤÐµÐ» Ñı
Ġw issenschaft
Ġhe ll
iz es
ĠÐ» ÐµÑģ
Ã¤n dern
Ġpers pect
Ġ3 50
ĠP ict
iel ten
Ã¤tz lich
Ġ6 8
Ã¤n den
ĠrÃ© c
Ġra c
organis ation
is ode
Ġleg gen
Ġloc atie
y ard
w Ã¼r
Ġw isk
ĠÐ¼Ð°ÑĤ ÐµÑĢ
wedst rijden
ĠT ak
ĠV III
itz t
Ġd ik
Ã¼ ler
pre iding
Ġdo den
ĠMex ican
ĠC os
ĠCan al
ÑĥÐ½ Ð´
Ð°ÑĤÐµÐ» ÐµÐ¹
ĠÐ³ Ð¾Ð²Ð¾ÑĢ
Ġanim als
Ġapplic ation
ĠM ort
ĠÐ± Ð¾ÐµÐ²
Ġhor se
ĠT emple
Ġbrit ann
vol gende
Ġmouv ement
gesch lossen
M en
Ġhe lemaal
Ġr Ã¶m
ĠÐº ÑĢÐ°Ñģ
ĠSch utz
ÑĢÐ° Ñħ
ĠHann over
Ġf rÃ©
ci ous
zet ten
ann er
Ġhand elt
stre am
k as
ge vens
d ruk
ĠD ark
ra p
Ġa van
Ġf ict
ij o
ĠR et
Ġfe est
Ġbeschik baar
Ġepis odes
Ġcommunic ation
anst alt
Ġl ob
Ġpar mi
Ġverover de
re chten
ĠP in
irt y
ĠZÃ¼r ich
gesch akeld
Ġprin cipe
Ġg ives
Ġmark ed
Ġreg iment
ĠÐ³ÑĢÐ° ÑĦ
ĠS n
ĠdÃ©c ada
ĠItal ien
ĠÑĢ Ð¾Ð»ÑĮ
u ert
ĠAm Ã©rica
amm ad
ĠâĶ Ĥ
Ġn Ã¤ch
zak elijk
t ers
ess ions
Ã¤t igkeit
Ġcr ÃŃt
Ġfu era
Ġh ors
Ġgew esen
ĠMo dern
R T
adÃ©m ie
st ar
Ġincl us
ur f
ĠS oc
l ife
ĠÐ²Ð¸Ð´ Ðµ
ĠExp ress
Ġsecond ary
Ġst elt
ĠI ron
ist ol
ĠÐ¸Ð³ ÑĢÐ¾Ðº
Ġhier bij
ĠM em
ĠD y
ĠÐ¾Ð¿ Ð¸Ñģ
ÑĢÐ° Ð±
ĠHo ckey
at iques
Ġn os
ĠColomb ia
ĠÐ¿Ð¾ÑģÑĤ ÑĥÐ¿
ĠÑĢÐ° ÑģÑĤ
d ess
g ung
ĠForm ule
ate te
ÑıÑĤ ÑģÑı
Ġl iqu
Ġm oord
ic ul
Ġgo vern
Ġgra v
ĠÑħ Ð¾Ð·ÑıÐ¹
Ġso ul
Ġcr ime
ĠO ude
Ġgo vernor
ĠMor gan
Ã¼h le
Ð¾ÑĤ Ð¸Ð²
A ct
ĠL amb
A z
t itel
ang o
ĠCo oper
iov anni
Ġk ende
ss on
fl Ã¤che
Ġproyect o
Ð ¯
ĠÑĢÐ° ÑģÑģ
Ð¾Ñı Ð½
Ġn ut
Ġbe zocht
ĠÑģÐ¾ÑĤ ÑĢÑĥÐ´
Ðº Ð²Ð¸
al in
we ek
ĠÐ¿ÑĢÐµ Ð·Ð¸Ð´
V P
Ġbe aut
Ġly ric
Ġt unnel
or der
ĠB ush
Ġ185 9
ĠNach folger
ind ers
Ġfact or
Ġattemp ts
ĠA S
M on
ĠÑģ Ð¸Ð»ÑĮ
Ġinge zet
N C
ĠLuc as
re te
Ġk amen
Ġein igen
Ġim pr
ob il
ĠCh er
c raft
Ġpot ent
ĠKenn edy
ĠLand kreis
Ġmix ed
Ġconoc ido
Ġke hrte
Ð¸Ð¼ Ð¾
uth or
Ġjaarlijk s
ĠAr k
ĠBe ck
Ġdir ige
Ġt Ã©
Ġbe at
ĠÐ²Ð¾Ð¿ ÑĢÐ¾Ñģ
ĠHerr schaft
Ġch osen
Ġv ogel
Å Ł
ĠH em
isten cia
Ġliter atuur
ĠhÃ¶ ch
Ġau teur
ĠÐ¿ ÑĢÐ°ÐºÑĤ
Ġcent imeter
Ġoccup ied
ĠS ign
Ġsupp ly
Ġverm oord
ic ale
at on
Ġhe et
ĠI van
Ġgen utzt
Ġon bek
E sp
Ġthe atre
ĠÐ¾Ð´ Ð½Ð¾Ð¹
Ġpu esto
arbeit en
mp re
ĠlÃŃ nea
M o
Ġd ich
ĠK ort
Ġcre ating
i ados
Ġde utlich
Ð³ Ð»Ð°Ð²
ĠH unt
Ġs ilver
Ġpart idos
A c
Ġl er
Ġveil igheid
ill ing
ĠAut or
S o
Ġgew eld
Ġvoll edige
Ġdens ity
Ġsaf ety
Ġb ovendien
Ġr are
D uits
Ġcommon ly
raag t
Ġdiv or
Ġst ro
ĠAus bildung
Ġ6 2
E m
Ġdem ande
Ġvij and
ĠLig ue
Ġscient ific
ĠÐ° Ð¼ÐµÑĢÐ¸ÐºÐ°Ð½
ges ellschaft
ter min
ve en
âĢľ )
k op
ĠÐ´Ð° Ð¶Ðµ
Ã¼ ge
Ġfl ow
Ġle quel
ĠIn form
D F
Ġmiemb ros
ĠM eg
im on
Ġz est
ĠL is
land en
Ġdaarna ast
ĠProvin z
Ġa men
Ġg uns
Ġver wo
ĠJim my
S ince
Ġont vangen
Ġconte xt
Ð° ÑĦ
ropolit an
ass au
ĠTe xt
mÃ¤ÃŁ ig
ĠSqu are
Ġz orgen
ĠÐ°Ð² ÑĤ
ĠÑģÐ¼ÐµÑĢ ÑĤÐ¸
Ġch airman
ĠÐļ Ð°Ð·
ĠNet her
ĠÐķ Ð³Ð¾
Ġn ationaal
ĠSch l
ĠÐŁ ÑĢÐµ
Ġ orth
Ġbas ketball
ĠAustral iÃ«
up es
Ġmeth ods
ic ip
ĠTenn essee
ib en
Ġd ru
at om
E ine
ĠZ ahl
ĠCub a
Ġoppos ed
Ġe ux
Ġch ron
ĠPrim era
m ach
an ische
Ġer fol
ĠSt elle
Ġdro pped
geb Ã¤ude
Ġgeld t
Ġst opp
Ġh ub
ĠAf ghan
D S
ur ent
Ð¾Ð² Ð¸Ñĩ
Ġmilit ar
Ġs ense
Ġrelativ ely
ze hn
Ġrejo int
ĠÐ½Ð° ÑģÑĤÐ¾ÑıÑī
Un ion
Ġs ale
Ġwin ner
ĠSar ah
ĠK ampf
ĠÐ·Ð°Ð² Ð¾Ð´
Ġig ual
Ġaut our
ĠÑĤÐµÑĩ ÐµÐ½Ð¸Ðµ
w acht
Ġtijd schrift
Ġch am
ĠHill s
z we
Ġtu in
Ġbill ion
Ġcollect ie
gero epen
t i
Ġc adre
Ġa wards
Ã¤ cht
Ġpro pre
ĠT ras
Ġhabit at
ÑĭÑĪ Ð»ÐµÐ½
ĠWien er
ĠAnth ony
Ñį Ð¹
ĠLiter atur
Ġt a
Ġfre quently
Ġauthor ity
h at
Ð°Ð½ Ð³Ð»
Ã´ me
Ġnam ens
Ġeffect ive
ĠÑĢÐ°ÑģÐ¿ ÑĢÐ¾ÑģÑĤÑĢÐ°Ð½
ier to
app y
ĠTs je
ativ o
ĠtÃ©r min
Ã¡t ica
Ġenem y
z in
ĠM erc
ord nung
ĠÐ¡ Ð°Ð¼
Ġarchitect ure
ĠÑĨÐµÑĢ ÐºÐ¾Ð²
ĠG allery
up art
Ġvroeg er
Ġnot es
Ð± ÑĥÑĢÐ³
ĠJ ans
Ã® le
eral d
etro it
Ġon ver
Ġqu and
L u
Ġr um
mir al
un is
ĠP ier
Ġl anc
Ð¾Ð² Ð°ÑĤÐµÐ»ÑĮ
ĠF ig
Ð°ÑģÑĤ Ñĭ
i w
ĠW ie
Ñĳ Ð·
Ġa z
Ġf ear
wie gend
Ġt ol
to ine
Ġtre es
ĠÐ¾ÑĤ Ñģ
ĠHa wa
ĠF inn
Ġre duc
M al
Ġan schlieÃŁend
ÑĢÐ°ÑĤ Ð¸Ð²
ĠÐ°ÑĢ ÑĤ
ĠAl ban
M I
ĠI b
20 17
part ij
x ual
199 8
Ġeconom y
Ġtand is
Ġondersche iden
ÑĨ Ð¾Ð²
rol le
Ġcommand ant
ĠA ur
Ã©rie ure
Ġtelevis ies
Ġconn u
Ġdu ur
Ġe arth
Ġex change
Ġverb inding
ĠPl us
ÑĦ ÐµÑĢ
T ot
at oren
Ġr ess
Ġtoege past
Ġh eren
ĠB aden
ie ÃŁ
ĠRud olf
ĠLt d
ĠB Ã¶
lin ie
Ġ5 9
ĠÐ¡Ð¾Ð² ÐµÑĤ
ĠSt il
ÃŃ os
Ġpl upart
Ġcl in
Ġe ig
Ġprom ov
V B
st ral
v d
ap rÃ¨s
Ġ ice
ik s
ah a
Ġd ial
g els
Ġfab riek
ĠNÃ¤ he
b st
Ġesc ape
Ġd afÃ¼r
Ġmeas ure
Âł Âł
Ġreg res
ĠL ied
ĠAb ra
Ġp up
N S
at in
ÑĨ Ðµ
ĠH ell
og a
pp ing
ĠF arm
m aker
ĠAmer icans
Ġmat ter
ĠSund ay
Ġa gen
D an
in burgh
ap par
Ġbetre ft
ĠÐ³ÑĢÐ° Ð¶Ð´Ð°Ð½
Ġsur tout
oord at
Ġple in
Ġcours es
Ġs oc
Ġ6 3
Ġprem iÃ¨res
ĠM ik
Ġw alls
Ð½ Ð°ÑĢ
ij t
ĠS ic
il ian
Ġverb unden
ĠLab our
ĠMil an
Ġsimp ly
Ġstij ging
ĠH MS
Ġed ad
werk e
ĠY am
ĠB illy
ĠP Ã©
sen ce
Ġdef end
; _
Ġbro ers
ĠPol ize
Ġres ources
Ġdoc uments
ĠVin cent
Ġn ie
ĠÐŁ Ð¾Ð»
Ġshort ly
O ther
Ġen orme
Ã¢ ge
ĠChrist mas
p ed
ĠOrig inal
ÑģÑı ÑĤ
olo og
ĠS ilver
Vers preiding
Ġprodu z
ĠDon ald
ĠBeg riff
Ġr ules
Ã¼ll er
Ġaan leiding
ĠBen jamin
s erie
Ġleg de
ĠGes amt
ĠÐ·Ð°Ñī Ð¸ÑĤ
Ġen joy
geme en
ĠL ot
de ck
ag se
ĠStutt gart
our ce
ĠÐ¿ÑĢ Ð¸Ð·Ð½
ĠCharl otte
ĠLe y
ĠS icher
ĠAm b
ÑĢÐ° Ðº
Ð»Ð° Ð³Ð¾Ð´
Ġvo erde
Ġcam era
ĠÑģÐµÐ¼ ÑĮÐµ
Ġs ino
Ġcol leg
Ġvis ual
ĠÑģÑĤÑĢÐ° Ð½Ñĭ
Ġperform ing
B ar
Ġp age
ĠS ek
pr Ã¤sident
ĠÑħ Ð°ÑĢÐ°ÐºÑĤÐµÑĢ
Ġb ow
Ã© ma
Ø §
Ġextens ive
Ġemploy ed
Ġcrim inal
Ġverb ouw
Ġk aart
Ġnomin ated
er ies
Ġindust rie
Ġar te
ĠLe o
Ġsub stant
olog ist
ĠÐļ ÑĥÐ±
rat or
Ġt ir
ĠL it
Ð¾Ðº Ð°
Ð² Ð¾
Ġmar que
Ġverlen g
Ġsp ot
Ġgra de
ĠInd iana
Ð°ÑĨ Ð¸Ñİ
Ġt alen
gen oten
Ð¾ÑĤ Ñĭ
Ã¼t zen
Ð¿Ð¸ÑģÐº Ð¾Ð¿
Ġpe up
Ġocc ident
ĠÐ¼ Ð°Ð»
ĠTe vens
Ġverdw enen
iv amente
Ġappro ved
Ġrecon oc
Ð²Ð¾Ð» Ñİ
ĠJ ay
Ð¸Ð½ ÑģÐºÐ¸Ð¹
ĠF ant
Ġthe me
Ġpie ce
and ro
ĠMont real
ĠConf eder
ers uch
ater n
Ġste hen
lan gen
ĠP om
g ow
ĠB ull
ĠRe y
Ġer v
ĠÐ¿ÑĢÐ¾ ÑħÐ¾Ð´
us alem
ros oft
ĠGar den
Ġchampion nat
Ġsubse quent
Ġrecon na
Ġcult iv
m un
j on
Ġpor que
Ġmem ory
_ âĢŀ
r un
Ġb ureau
ĠIn nen
Ġsch ade
ze pt
op ol
Ġback ground
ĠS id
bre cht
Ġum f
Ġconf ront
utt ing
Ġvlie g
is o
op ter
g or
ĠR ug
mitt el
È Ļ
Ġrece iving
ĠerwÃ¤hn t
am os
Ġconstit ution
m ate
t ag
le ed
ĠÅ ł
Ġm anten
k ers
ĠWe hr
famil ie
i esten
Ġm ac
iss ippi
Ġhand els
Ã© cole
if y
Ġatt rib
em ene
ĠÐ¢Ð°Ðº Ð¶Ðµ
Ġerre icht
in ist
Ġb ele
Ð¸Ñħ ÑģÑı
P art
Ġziek te
Ī Ĵ
ĠÐ¼ Ð°Ñģ
wh ile
ĠG et
Ð°ÑĤ Ð¾Ð¼
Ġt ree
Ġs we
ad ow
is d
Ġstr and
sten en
ĠB und
ĠFamil y
Ġsus p
Ġadvan ced
Ġste el
ĠC S
ĠP rag
ÑģÑĤ ÑĢÐ¾
omm el
Ġ185 7
Ġdivis ie
reg on
ĠHou ston
ie zen
Ġadministrat ive
ĠN aval
ĠPart ij
ĠSchwe izer
Ġg ather
ĠMar cel
ĠBru ce
ĠMed al
ĠB uff
Ġd ollar
ĠÐ¼ÐµÐ¶Ð´ ÑĥÐ½Ð°ÑĢÐ¾Ð´
ĠJes us
en f
ĠÐ´ Ð°Ð»ÑĮ
Ġau ÃŁerdem
ĠÑĤ ÑĢÐµÑĤ
ÑĢÐ°Ð½ Ð¸Ñĩ
Ġwe ight
Ġpro hib
H ar
ĠR an
Ð´Ð° Ñĩ
ine a
ĠRo de
ir st
Ġre gen
Ġsl ot
for mer
r Ã¼
te ken
ĠP reis
ÑĢ Ð¸Ð²
ĠgrÃ¶ÃŁ ten
ĠPol and
Ġcy cl
Ġst of
row d
ĠKÃ¶nig s
Ġf ought
ek ten
Ġhead quarters
Ġpower ful
Ð°Ð½ Ðµ
Ġder gelijke
Ġcon cep
ĠJos ef
p ad
Ġhier mee
p orte
Ġfus ie
Ġverhe iratet
Ġalg emene
Ġdeta ils
ĠR ow
R S
ĠC emetery
ord re
ĠRes erve
vorm ige
ĠÑģÐ±Ð¾ÑĢ Ð½Ð¾Ð¹
Ġspe ech
ivis ie
Ġt Ã©cn
ĠK raft
ĠBroad way
w itz
Ġvers e
Le ven
Ġdra agt
Ġnucle ar
h len
Ġt ort
ĠArn old
Ġtit les
Ġcop ies
els el
Ġelement en
atal la
Ġachie ved
Ñİ Ð¶
Ġgez ond
Ġland schap
Ġv eter
Ġmach ines
Ã¼ss eld
ĠH ass
ĠE ach
C an
sp raak
Ġverand erde
ĠZe e
Ġou der
Char les
ĠH av
gen ote
ons erv
Ġpro xim
ig ingen
ult ura
Ġel les
o ise
na ire
ĠW isconsin
ĠÐĿ Ð¾
ÑĮ ÑıÐ½
Ġaf deling
Ġder e
ĠLe v
ĠÐ²Ð¾ ÑĪ
ĠF ro
ĠSchwe iz
to cht
Ġcl oth
Ġverz org
ĠCo de
Ġbeh ulp
ĠBro thers
Ġwen ig
Ġhold ing
Ġfr Ã¼h
Ġt ran
Ġbe Ã«
Ġ7 6
it an
Ð± Ðµ
St ation
Ð¾ ÐµÐ´Ð¸Ð½
Ġserv es
Ġverl eden
ĠPal ace
ĠÑĦ ÑĥÑĤÐ±
Ġf inds
it ze
Ġbo od
ĠH og
Ġ3 000
Ġvoor malig
Ġch ois
olog ique
Ġkathol ieke
Ġre produ
ĠD in
v oll
ĠÑĤ Ð¾ÑĤ
Ġgeb oorte
Ð¸ÑĨ Ðµ
it aar
Ġsch oon
ĠMa j
Ġwrit e
i ast
Ã¼rt temberg
ĠSingap ore
ad amente
itect ure
Ġcontribut ed
ĠÑĥÑģ Ð»Ð¾Ð²
Ġg uid
Gen eral
a ien
Ġkampioenschap pen
ople iding
ĠsÃ© lection
Ãª que
Ġgebeur ten
l v
Ġmedian te
ÑĤ ÐµÐ½
vent h
Ġkw art
Ð¸ÑĩÐµÑģÐº Ð¸Ð¼
ograph ic
Ġsett ing
Ġiedere en
ĠKe vin
ĠN ash
ĠMas ch
ĠÑģÐ²Ð¾ Ð¸
Ġcommission ed
u ct
Ġne eds
ement en
mb H
ĠAu ÃŁen
Ġaanged uid
ĠMar io
Dav id
ĠrÃ© d
Ġlib ro
k amer
ĠAl ice
ĠRÃ©p ublique
Ð² Ð°ÑĢÐ´
im ens
ĠMay or
ĠâĢ ĭ
Ġih res
Ð°ÑĤÐµÐ» ÐµÐ¼
itÃ¤ ts
ĠreÃ§ oit
ĠCh a
ĠMat hemat
Ġbe Ã¯n
ĠÐĲ Ð·
Ġbero ep
Ġpar fois
Ġpr estig
ĠÐļ Ð¾Ð»
Ġhout en
ug os
ĠMilit ary
h anden
Ġaller lei
Ġac uerdo
ĠBl Ã¼
Ġjust ice
K on
Ġsom it
Ġdo ing
Ġinf rast
iv ia
ĠÑĢÐ° Ð´Ð¸
ĠÐ²ÑĭÐ¿ ÑĥÑģÐº
Ġing res
Ġpet ite
ĠÐ°Ð´ Ð¼Ð¸Ð½Ð¸ÑģÑĤ
ĠB omb
Ġord ers
Ġcomm iss
Ġvol wassen
ĠHarr is
ĠL em
Ġgest icht
ĠR um
c ter
ĠTok yo
Ġzilver en
Ġel e
Ġchans on
M C
h art
p ost
Ġim pl
Ġfr Ã¨re
Ġmuch o
w erv
ass in
ÑģÑĤÐ² Ñĥ
la u
ĠCar ter
. ).
z etting
Ġd omaine
ta il
ĠRep Ãºblica
ĠZ uge
Ġw ohl
ges etzt
ÐµÐº ÑĤÐ°
f oot
Ġaltern ative
ĠR yan
C e
ĠFeder ation
ĠL oren
Ġer b
Ġpat ients
Ġt omb
ĠEd inburgh
ĠSeg unda
z ijds
Ġav ond
Ġj a
ch ar
Ġ18 15
ÐµÑģÐ¿ ÐµÑĩ
Ġ6 7
Ã©r er
Ġse ks
ĠR oma
Ġcl as
Ġdesc ub
zent rum
Ġp seud
Ġto epass
ĠÐ¿Ð°Ð¼ ÑıÑĤ
ĠÐ½Ðµ Ð¾Ð±
Ġseg ment
Ġj ourn
Ġan geb
bas is
Ġs ought
ĠVilla ge
ĠC ob
Ġsy mp
Ġmehr eren
f est
ĠD ro
ÑĢÐ°Ð· Ð´
Ġkoning in
ĠÐ´ Ð¾Ñĩ
Ġhier door
aup ts
Ġzieken huis
Ġmet ros
ver e
Ġwe alth
ĠConstant in
Ġhu izen
Jos eph
ÑģÐº Ð°
iz ado
Ġt act
ĠS le
Ġbe yond
Ġmon arch
ĠSy mph
ĠÐ·Ð°Ñı Ð²
Ġda ily
Ġanci en
ĠBarb ara
ĠServ ices
Ð¾ÑĢ ÑĤÐ°
ÑĤ Ñĭ
vel and
199 7
L S
Ġwen iger
Ġletz te
' m
Ã³ d
ĠMaur ice
Ġcon stitut
u as
Ġre mo
ĠMe hr
ĠSte wart
ĠIm perial
Ġfav our
Achter grond
cent ury
ĠÑģÑĤÐ¾ÑĢÐ¾Ð½ Ñĭ
W erk
Ġachter grond
ĠBra un
kra ine
ĠÐ¿ÑĢÐµÐ´ Ð»Ð¾Ð¶
f d
af el
ĠS ho
ĠÐ² ÐµÑĢÑģ
Ġro ut
Ġbeper kt
ĠR un
S an
ĠÐ²Ð¾Ñģ Ð¿
Ġest ilo
Ġsus pend
ib e
Ġhog ere
Ġim ages
Ġref erence
ĠBa chelor
Ġsel ben
oc ra
Ġbed re
ĠGust av
J o
Ã ĸ
Ġden ken
Ð¼ Ð¸Ð½
b urn
et her
Ġmunicipal ity
it is
Ġcomp agnie
L C
ur ance
Ġges la
c ome
ĠK ant
Ġend s
l ip
p or
ĠL anc
Ġenf rent
Ġvest igde
Ro bert
Ġvliegt uig
la ch
etz ten
ĠursprÃ¼n glich
Ġo vers
ĠE ugen
ÑĥÐ±Ð» Ð¸ÐºÐ¸
ĠSte ph
M ed
Ġreg ions
rukt ur
Ġfrag ment
ÑģÐº Ð¾ÑĢÐµ
rÃ© t
ĠA rea
Ġg lass
ĠD etroit
Ġ12 5
ri ers
Ġweten schappelijke
ĠHeil ige
ent in
iv ent
ĠÐĴ ÐµÑĢÑħ
Ġsch er
rat es
Ġst enen
fab riek
Ġverno emd
l Ã¶s
Ġor igen
l ijf
Ġre ally
ĠT ob
ĠBo x
Ġcu ad
Ġgek regen
Ġamer ikan
ĠA rizona
ĠÐ° Ðº
ibliothe ek
av ia
Ġconvert ed
st ijl
Ã´ ne
ĠSch ne
ĠAka demie
e ist
i ang
ar an
V V
ist ant
e ing
Ð¾ÑĢ Ð¾ÑĪ
Ġl Ã¤sst
Ġm un
ĠDesp uÃ©s
est on
ĠE ing
Ġtro upes
le ist
od ge
ĠMary land
u ca
ĠC it
F Ã¼r
Ġontst aat
ro d
heim er
Ġac teur
Ġop ges
Ġsuccessful ly
Ġavo id
r ell
up t
Ġv io
Ġbekend ste
Ġpog ing
Ï Ħ
Ġc ela
ke e
Ġob st
Ġe je
us in
Ġret ir
Ġhers elf
ĠL ast
ĠPh ill
ĠÐºÐ¾Ð¼Ð°Ð½Ð´ Ñĭ
ĠEle kt
Ġa id
ĠÐ¾Ð±ÑĬ ÐµÐ´Ð¸Ð½
Ġver f
Ġcr ist
Ġim ag
In stitut
sy steem
G A
Ġel se
Ġer klÃ¤r
Ġdr ive
ĠÑĥ Ð¼ÐµÑĢ
u ing
Ð¾Ð² ÑģÐºÐ¾Ð¹
Ġabandon ed
rupt ion
ĠÐ´ ÐµÐ±ÑİÑĤ
ÐµÑĩ Ð°ÑĤ
Ġmar athon
Ġbeeld houw
Ġpro bl
Ġar gent
ĠO ak
ĠÑģÑĤ Ð°Ð½Ð¾Ð²
Ġcompet ed
all ie
ĠOlymp ics
Ġent sch
bra do
ÑĥÐ» ÑģÑı
geh Ã¶r
ro e
ot ische
Ġaan b
Ġmult i
Ġt orp
Ġn ing
ho en
stand s
v lie
it ische
Ġtro ub
Ġutilis Ã©
ĠÑĢ Ð¾ÑģÑģ
ĠE igen
Ġmo gen
ĠAbra ham
ĠÑįÑĤ Ð¸Ñħ
gesch iedenis
ĠÑĢÐµÐ³ Ð¸Ð¾Ð½
ĠStan ley
Ġer ster
ĠFre und
ĠÐ¡ Ð¿
ged ragen
ĠOce an
ĠQueens land
ĠP ope
ĠC ape
ijd t
ĠÐĹ Ð°
Ġl ies
Ġstra ight
Ġ6 1
ĠPol y
ĠL ad
ĠR T
uk a
ĠWal ker
m outh
ele ct
Ġbel ieve
eter re
Ġan aly
ĠMosk ou
ÐµÑĢ ÑĤÐ°
Ġje unes
Ġemp le
Ġh ired
end es
Ġpass es
ecut ive
Ð¾Ð² ÑĭÐµ
ĠdÃ© n
ĠsiÃ¨ ge
Ġkunsten aars
Ġnav ig
ĠL Ã¶
Ġfo under
ou de
Ġdom estic
ĠÐł ÐµÑģÐ¿
ĠÐ´Ð¸ ÑĢÐµ
Ġart ikel
Ġuitge ver
on ist
ĠT yp
Ġha ut
W il
de c
Ġnoord elijke
onne ur
Ġsle ep
Ġentwick elte
Seg Ãºn
Ġin ten
Ġbo is
ĠMit glieder
ĠD ance
ĠD Ã¼sseld
act ie
Ġgirl s
hand el
G eb
ek e
stell ungen
Ġst icht
sk a
Ġinv ited
Ġdis pon
ha w
ĠV ien
Ġpro ved
ben e
Ã©t ique
ĠÐ´ ÐµÐ²
ĠÐ¾Ð± ÑĭÑĩ
Ġm igr
Ð°Ð½ Ð¸
Mar ie
Ã± as
ĠC ependant
Ġof re
Ð¶Ð´ ÑĳÐ½
ming ham
Ġ11 0
Ġengine ering
Ġde els
ĠP ieter
ĠNether lands
Ġs ne
Ġm erg
Ġdien te
Ġpro ven
ĠFr Ã¼h
C omp
Ã©t ico
Ġfinal ement
Ġident ity
Ġmogelijk heid
um er
led ing
acion ales
ĠP y
Ġdire kt
al m
ĠEin zel
ĠBy zant
Ã¤l fte
Ñĩ Ð¸ÑĤ
ĠVla ams
B l
ĠÐ± ÑĢÐ¾Ð½
Ġlaun ch
Ġt ak
Ġexist ence
ie val
gen ce
ber eit
ĠF M
ci ent
Ġret irement
Ġgeh ad
Ð¸Ð± Ð¾Ð»ÐµÐµ
Ġwereldkampioenschap pen
ĠRe cht
ĠDaar om
nem ing
ĠGr Ã¼ndung
ĠÐ½Ð°Ñĩ Ð¸Ð½
Ġconse cut
ĠEx per
Ġquest ions
w esen
Ġchar ges
ĠHier bij
g ede
ling e
ĠHol y
V erk
Ġcommun autÃ©
Ġme urt
geb ieden
d ur
ak h
ĠCla ud
Ġheir atete
Ð¿ÑĢ Ð¸Ð¼ÐµÑĢ
Ġdistric ts
ĠDre h
Ġfoc used
Ġsh ared
che ll
Ġond anks
ĠÐ» ÐµÐ³
Ġalle ged
ÑĢ Ð¾Ð»
ĠS Ã£o
stre cke
Ġfund s
Ã¯ ne
onn ement
Ken merken
199 6
Ġop pon
Na ast
Ġtradition ele
Ġs enten
Ġsim il
ĠUn a
ĠStre cke
ĠWerk e
Ġp av
ĠY our
S a
ĠA ber
ĠR ain
Ġst rom
Ġaf hankelijk
ĠÐ¼Ð¾Ð³ ÑĥÑĤ
ĠÐ´Ð² Ð¾ÑĢ
ĠÐ·Ð°Ð² ÐµÑĢÑĪ
ĠZ um
Ġp and
Ġla ge
ĠFrank lin
Ġau teurs
Ð¸Ð½ Ð°Ð¼
Ġlearn ing
Ġhum or
) :
Ġ9 6
Ġest aban
Ġser ÃŃa
baar heid
v as
Ġp ir
Ġint ers
I P
ar den
Ġno emde
uis hed
ĠprÃ©sen ce
ĠB eng
ĠÐ¾ÑĤ ÐºÐ°Ð·
Ġent rance
Ġversch il
ĠProt est
Ñĥ ÐµÑĤÑģÑı
ĠÐ±ÑĥÐ´ ÐµÑĤ
ĠP ac
t jes
ĠW a
ĠOlymp ic
Ġhold s
ĠdiffÃ©r ents
ub b
ĠHe art
Ġkrit iek
or ven
la ce
Ġconfir m
Ġc ore
Ġstuk ken
ĠN orte
ĠÐ²Ð¾Ð· Ð´
ind ingen
Ġsci ences
Ġv all
Ġin her
ul u
Ġvo cht
stuk ken
ĠS A
ĠSch n
ou re
Ġfield s
ĠBow l
ÑĢ Ñİ
ĠSh ort
o ven
Ġprin ce
d ent
int a
Ġrank ed
ĠGab riel
os ph
_ -
ĠD J
Ġent fern
B en
Ġstamm t
v ader
Ġv ogels
Ġeigen lijk
ijn s
ĠBundes liga
Ġs ell
Ġw alk
Ġelekt rische
Ġsome one
Ġsuiv ante
b rit
ĠÐ¸Ð· ÑĥÑĩ
Ġged rag
j aren
amp en
Ġoffic es
Ġsie mpre
Ġdest ijds
ĠRuss ell
Ġnar row
ĠT an
ÑĢÑĥ Ðº
Ġmot iv
ĠÑĢÐ¾Ð´ Ð¸Ð»ÑģÑı
ap olis
ĠEisen bahn
Ġcast le
ug els
Ġd ak
ed ish
ĠC ant
if ul
Ġdesign ated
ĠLiber al
Ġk ol
Ġl if
Ġher st
Ġlie gen
ĠConse il
om o
Ġcomp lic
Ġdef ense
ĠSpiel er
gra ven
ĠV ice
iss er
Ġhel pen
Ġfac ed
ĠN elson
Ġman iÃ¨re
ium s
Ġb ak
ĠL ock
ĠK ings
Ġhistor ic
ĠÐ°Ð² Ð¸
Ð¸Ð¼ ÐµÐ½
ĠÐ° Ð»
af plaats
aÃ± o
Ġb ast
ĠÐ¾Ð± ÐµÑģÐ¿ÐµÑĩ
ĠÐ¿ÑĢÐ¸ Ð±
Ġdoll ars
âĢĭ âĢĭ
ĠÐ²Ñĭ Ð¸Ð³
ĠSt ell
ĠÐ¿Ð¾ ÑįÑĤ
ĠLaw rence
L oc
ĠV lad
Ġle y
at ra
Ġf uel
Ġg las
att an
Ð½Ðµ ÑĪ
Ġexp ression
ĠM all
ĠÐ°Ð½ Ð³Ð»
F ilm
st ag
Ġun known
iev elijk
199 5
r ations
Ġm uur
Ġproble em
Ġdefin itief
I r
Ġdr ink
ĠÐº Ð¸Ð½
Ġein mal
Ġopge volgd
ĠÐŀ ÑĢ
Ġbra k
A g
ies e
Ð°Ð» Ð»
ĠHaar lem
Ġcon ce
Ð½Ð¾Ð² ÑĮ
Ġdig it
ij a
lah oma
ĠMatt hew
ĠamÃ©ric ain
Ġ185 5
po use
ĠMar g
Ġen co
r t
Ġbef and
ĠpaÃŃs es
Ġw ays
qu in
ĠRep resent
Ġaang es
_ âĢĶ
Ġwat ers
Ġh Ã¤t
Ð¼ Ð¸ÑĤ
Ġend ing
ĠSp ielen
get rokken
Ã¡t ico
ĠÐ½ÐµÐ± Ð¾Ð»ÑĮÑĪ
Ġcomp rom
ĠcrÃ© Ã©
ip er
Ġdire cte
Ġincl uso
ĠJ ar
H and
y les
Ġjon gen
Ġre ct
Ġg ift
Ð¶ ÐµÐ½
Ġeing e
Ġsov iÃ©t
us a
ĠP ast
Ġbuiten land
Ġbel ief
St and
p es
ĠC ad
ĠÐĽ Ñİ
ĠI X
ĠSqu adron
ĠÑģÐº Ð¾ÑĢ
d ose
Ð½ ÐµÑģ
ĠJew s
ĠB lues
Ġeeuw en
u ido
ĠR ab
ĠV all
Ġaut onom
el et
Ġge pr
ĠFl uss
ut ies
ge geven
Ġw apens
ĠC ond
ac ent
Ġkilom et
Ġarg ued
Ġorigin ele
ĠD ipl
man uel
Ġ184 9
Ġfol k
Ġf ine
ĠK auf
ĠH ad
ÑĥÑĤ ÑĮ
ĠÐ´ ÑĢÐµÐ²
Ġrug by
Ð¸ ÑĢÐµ
ĠS achsen
ĠD ruck
ĠÐ½Ðµ Ñģ
ri fic
ĠH ir
Ġact s
Ġ ut
ĠG or
iel s
Ã§ a
Ġbr igade
ĠStud ien
Ġcar bon
Ð½ Ð´
Ġdep loy
Ġster ren
p ie
ĠBer gen
Ġult imately
Ġfl at
chts te
ÑĢÐ¾ ÑĦ
ĠC ow
ĠK urt
eng ers
P eter
Ġmes es
ĠÐ¾ÐºÐ¾Ð½Ñĩ Ð¸Ð»
Ġconstr uit
l is
Ġhe av
n s
uelle ment
Ġl ux
Ġnou v
Ġwith dra
ĠOper ation
W elt
K e
Ġf iets
ĠBu ilding
Ġcent uries
ĠdÃ© cide
et ta
Ġmet ers
Ġfin anc
Ġ8 8
ĠD ak
ef e
Ġposter ior
ĠAnd ers
Ġamb os
ĠrÃ©g ul
ĠAtlant a
Pro du
ĠS af
ĠU C
ok al
Ð¸Ð¹ ÑģÐºÐ¸Ñħ
B M
Ġon gel
Ġge heim
ĠV S
ĠCom itÃ©
ĠÐĵ ÐµÑĢÐ¼
Ñĥ Ð»Ð¸
Â» ),
ĠCent raal
Ġvold oende
Ġaf geleid
Ġbas ic
Ġcaus es
Ġcy cle
re h
ĠG mbH
Ġaan genomen
ĠrÃ© seau
ĠWor ks
Ġ185 6
Ġweap ons
ĠÐ·Ð° Ð´
w ikk
k la
Ġmes ure
Ġzeven de
Ġzuid elijke
ĠSte ven
Ġm og
ĠSh ang
ĠTru st
ĠRay mond
Ġver dere
Ġnouv elles
ĠE hren
Ġfin anz
Ġmis lu
ĠÐ½ Ð¸Ðº
ĠSt u
Ġco oper
Ð¸Ð² Ð°Ð»
Ġonderste un
ĠC ert
Ġvis ion
ĠN u
Ġmat hemat
Ð¾Ð² Ð¾Ð³Ð¾
Ġuit er
Ġpie ces
Ġs od
Ð½Ð°ÑĢ ÑĥÐ¶
ĠÐ¸Ð· Ð¾Ð±ÑĢÐ°Ð¶
Ġfinal mente
ĠAcadem ie
ĠC O
Ġrad ical
Ġf ract
gl eterre
Ġintern ationaal
Ġho ek
ied ad
ef de
Ġh istÃ³
Ġrel ation
c la
Ġc overs
c n
ĠÃºlt ima
Ġte gelijk
Ġsch wer
ĠD ach
im ore
Ġemp has
Ġc ra
Ġopportun ity
rum ents
Ġorganis ation
Ġes per
ĠF u
Ġeng aged
Ġvers lagen
Ð°Ð´ Ñĭ
ĠW he
Ġestud io
Ġgo bern
Ġrecib iÃ³
E T
r isch
ĠÑĪÐ¸ÑĢ Ð¾Ðº
ĠS ow
ĠÐ¿Ð¾Ð´ Ð¿Ð¸Ñģ
Ġt rying
Ġde pos
Ġflo od
ĠÐ´ Ð»Ð¸Ð½
Ġinst al
Al though
Ġexper t
Ġv i
er as
il io
198 0
ersp elen
I M
ĠSe attle
Ġcorre ct
Ġpart nership
Ð°Ð² Ð°Ð»
Ġscen es
k le
Ð¾ÑģÑĤ Ð¾
Ġest ruct
Ġw ijn
ÑĢÐµ Ð·
Ġbo erder
omp son
Univers itÃ©
ĠÃ© poque
ĠT och
ĠMiss issippi
Ð¸Ðº Ð¾Ð¼
N adat
Ġdir igent
ĠLuxemb urg
rug uay
U C
Ġcom edy
ĠÑĤ ÑĢÐµÐ±
ĠBr ig
ĠS ierra
ien nes
ĠI T
Ġinv asion
st ens
Ġej Ã©rcito
E M
Ġt y
Ġe igent
ĠÑĤ Ð¾ÑĢÐ³
Ġopt im
ri de
Ġmeer der
ctic ut
Ġreg ime
v lo
ĠDe ath
Ġaflever ing
z eg
Ġrel aciÃ³n
ĠCon stitution
Ġbrit Ã¡n
Ġ7 8
Ġverand erd
Ġz ie
ĠW issenschaft
ĠV il
ĠZ ust
Ġ185 4
ro ph
ĠL an
als ozial
Ġz erstÃ¶r
ĠHo ff
Ġko os
Ġt urb
Ġto es
Ġs ab
Ġinvestig ation
ift ung
Ġbe woners
geb ung
Ð»Ð¸Ð¼ Ð¿
Ġwaar voor
Ġre cept
Ġdevelop ing
ĠS es
Ġprovin cial
ĠMic rosoft
ĠAm ong
Ġnum eros
ĠLeit er
ĠP unk
ĠÐ¿ÐµÑĢÐ² Ð¾Ð¹
ĠpÃºblic o
ge ber
Ġverh inder
Ġinde pend
ĠN eb
Ã¤u ft
ÐŁ ÐµÑĤ
Ġcrit ics
Ð°Ð» Ð¾Ð³
Ġcall s
Ġ185 8
ĠbeÃ« ind
ÑĮ Ð¸
ÃŃ fico
Ġcomp ens
og ne
ĠÃ¡ rea
ĠEngine ering
it sch
Ġcal le
ect ed
ĠSen ior
Ġcol abor
Ġava ient
Ġl le
ĠSer ge
Ġfound ing
Ġtek sten
Ġan ge
Ġob s
Ġexhib ition
ĠÑĤ ÑĢÑĳÑħ
ĠAd ams
ro v
Ã¼t zt
ĠespaÃ± ol
ite in
Syn opsis
O b
ÐµÐ½ Ð½ÑĭÐ¼
Ġpriv Ã©
Ġjoue ur
Ġprote ct
Ġview s
Ġlors que
Ġsat isf
ent ral
era ciÃ³n
att ing
ĠTown ship
r ÃŃ
ĠBe cause
Ġ9 9
st ate
Ġr as
ĠLu ci
Ã© ch
ÐµÐ½ Ð½Ð°Ñı
ty m
Ġd in
Ġges proken
ĠÐ¿ÑĢÐ¸ ÑĪ
nem er
Ġrecogn ition
Ġterritor io
Ġref uge
iv ity
ĠAt t
Ġre ar
ĠE ag
n gel
ĠN y
Ġsla agde
ĠTh or
Ġli bert
Ġdem ol
Ġanne x
ĠL uther
Ġbeh oort
Ġgan Ã³
r Ã³n
ĠN ative
og ie
Ġat mos
Ġcontro le
tra g
ĠFilm s
ĠÐ¼Ð¾Ð¼ ÐµÐ½ÑĤ
un i
ĠÐ¼ Ð¸Ð»
Ã¤t zen
Ġf asc
lan zen
Ã¼s se
ĠK ern
Ñĩ Ð¸Ñģ
be weging
at em
Ġest uvo
ĠÑĥÐ½Ð¸Ð²ÐµÑĢÑģÐ¸ÑĤ ÐµÑĤÐ°
Ġv ig
v rouw
Ġmiemb ro
Ġp ru
Ġz ones
Ġ7 7
ĠSeg Ãºn
Ġinfluen ced
Ġexp ressed
T op
stru ct
ĠG leich
se it
E ducation
b il
erg ie
Ġlie utenant
ĠMed ic
o et
Ġrequ est
ĠL ike
ĠKir ch
Ġem pez
ig neur
Ġen regist
Ġar quitect
Ġ7 4
ĠWe in
Ġverw acht
ĠAust in
bo y
ĠR Ã¶
Ġro y
ouw en
R ec
h aps
iz Ã³
199 4
Ġ185 2
Ġa gr
est ro
Ġarr ive
Ġsog ar
ĠN BA
Ġeduc ated
ĠElect ric
ĠA er
Ġsle cht
Ġh erk
Ġcomer cial
S ie
ĠD og
Ġres id
ivers ary
Ġvol unte
ĠGrie ken
Ġ6 9
Ġproces o
Ġmy ster
schlieÃŁ lich
Ġextens ion
Ġdu urde
Ġinstit ution
ĠÐĳ ÐµÑĢ
ĠÐ¼Ð¾Ð½ Ð°ÑģÑĤÑĭ
Ġpass ing
Ġair port
ens ions
mar ine
w aren
at if
Ġspe elden
Ġcamb io
Ġald aar
Ġverwo est
omm od
ĠHo og
Ġb ald
Ġold est
Ġr ise
ĠÑĩ Ð°Ñģ
ĠÑģÑĤ Ð°ÑĤÑĮ
Ġst ichting
ĠTe ile
Ġnieuw s
av ant
amp agne
ob le
Ġter rain
Ġd ritten
ĠCla ude
he orie
ĠÐ¼ ÐµÑģÑı
Ġbek er
jar ig
ĠÐº ÑĢÐ¸ÑĤ
Ġpl ot
Ġconne ction
Ġfail ure
ĠÐ¿ÑĢÐ¸Ñħ Ð¾Ð´
z es
Ġg ain
Ġredu ce
at ar
Ġuit geschakeld
r unde
ĠC hel
ĠE is
Ñı ÐµÑĤ
b ie
Ġvari ant
Ġvic toire
Ġal rededor
r ut
itu ation
Ġbest imm
Ġt ap
ĠB ourg
Ġlocal idad
ÑĢÐ¸ÑĤ Ð°Ð½
Ġre asons
Ġn aval
Ġbas eball
Ġport ret
fahr t
Ġac cep
Ð» ÐµÐ½Ð¸ÐµÐ¼
Ã¼ lt
Ġaud io
Ġdert ig
ĠB ear
ĠI C
elb are
ĠDe an
ĠRe ihe
ĠRe view
ĠÑĨ Ð²ÐµÑĤ
ta ire
ett y
E L
Ġmed ios
Ġdon nÃ©
ĠÑĢ Ð¾Ð¼
ĠZwits erland
ĠÑģ Ð¾Ñģ
Ġm ental
Ġr ichten
Ġversche iden
Ġm eld
ill Ã©
ĠM ack
Ġdetermin ed
Ġmon aster
Ġdon ker
ĠFloren ce
Ġeconom ie
Ġcon form
ar f
ari us
id al
Ġprop io
Ġ185 1
bek er
Ġz estig
os aurus
ĠHer bert
ĠÐ²Ñģ Ñĳ
c ore
ĠÐĴ Ð°Ñģ
En tre
ÐµÐ½ Ð³
ĠÐ² Ð½Ð¾Ð²ÑĮ
Ġcomp il
iden cia
Ġexp res
ĠCam peonato
S al
ĠÐ¾ÑĤÐ´ ÐµÐ»ÑĮ
v illa
Ġ Ã¤l
ĠTh Ã©
Ġclim ate
uit se
Ġinf l
Ġcon vin
Ġparticip ation
V A
ÑĥÐ¼ Ð°
Ġcar ry
ple in
ro du
Ð°Ð´ Ð»ÐµÐ¶
ĠÐ¼ÐµÐ½ ÐµÐµ
ĠÐ²ÑĭÐ¿ Ð¾Ð»Ð½
ier p
bra ak
Ġhe ard
Ġder rot
ĠÐ¿ÑĢÐµÐ´ ÑģÐµÐ´
ĠIntern ationale
ĠB elle
sch au
ĠGar cÃŃa
Ġbor st
Ġst ating
ĠG iovanni
Ge ografÃŃa
ed se
Ġla id
Ġvolg den
Ġregion ale
m aken
Ñģ Ð¸Ð¼
ĠZu dem
ĠRe f
ĠÐ¸Ð½ ÑĦÐ¾ÑĢÐ¼
u che
Ġa ument
ĠV org
ĠSoci Ã©tÃ©
6 00
Ġpre f
Ġst ellt
Ġze i
Ġbron zen
Ġwel ches
Ġprakt ijk
F M
n ight
Ġp ool
Ġt ier
20 18
ĠAt l
Ġdocument ary
Ġcolon ial
Ġencuent ran
ĠÐ¾ÑĤÐº ÑĢÑĭ
Ġm olen
Ġinde pendence
we alth
er te
ĠB apt
Ġch ant
Ġen fer
ap pro
Ġbo ot
hal te
m ut
st Ã¼ck
ĠF A
Ġuit ste
ĠÐ¾ÑĦÐ¸ÑĨ Ð¸Ð°Ð»ÑĮ
Aust ral
Ġ Ã¤
Ġf iel
ĠSch wer
Ġconsist ed
ul os
ĠR onde
illa ume
Ġacc ue
ĠCamp bell
Ġjur id
Ġwinn aar
ĠO regon
Ġch ance
ĠPro jekt
ĠPart ido
ĠGra ham
Ġto ward
ĠF ace
al ph
ĠÑĥ ÐºÑĢÐ°
ĠÐ´Ð² Ðµ
ĠÐ¿ÑĢÐµ Ð¿Ð¾Ð´
ĠC omb
f ung
Ġtown s
ĠS uz
Ġen orm
aar se
Ð°Ð½ Ð´Ð°
or io
Ġbeh oren
Ġcert aines
Ð°Ð» Ð¸ÑģÑĤ
Ġfle et
Ð° ÑģÐ¿
ĠH amm
in ch
ĠÑĦ Ð¸Ð·
Ġallem aal
Ġcomp Ã©t
Ġon th
lab ama
rib uciÃ³n
ĠSain te
y en
ĠA ge
ĠSec urity
b ischof
Ġs ir
Ġis la
Ġro ugh
ĠÐ½ÐµÐ¾Ð± ÑħÐ¾Ð´
ĠFor ces
ĠSw eden
ĠÑĢÐ°Ð¹ Ð¾Ð½Ðµ
ĠD iam
ĠÐ¿ Ð°ÑĢÐ°
Ġocc asion
co ver
Ġc lo
Ġspe c
rÃ¤ ge
c uen
Ġlang ue
ÑĢÐ° Ñĩ
ĠProvin ce
r ong
Ġges p
Un ter
ĠBir mingham
Ġheil ige
Ġver volg
a ad
Ġm adre
Ġn est
Ġherv or
ĠS elbst
Ð´ Ñĥ
Ġstri ke
Ġincorpor ated
ĠApp le
Ġmuch as
Ġgelegen heid
Ġbere ik
ĠE ss
ĠRen Ã©
it ime
ri or
ĠSch lacht
ĠÑĦ Ð¸Ð»
v ak
ĠR ico
ĠF ries
Ġsl uiten
ĠÐ¸Ð½ÑģÑĤ Ð¸ÑĤÑĥÑĤ
ĠAl m
gest ell
ĠChild ren
Ġm ir
aar den
ul de
Ġpos ible
Ġcapt ure
ign es
im as
waar ts
Ð¸Ñī Ðµ
Ðº ÑĥÑĢ
ĠG riff
Ã¡n dez
ĠF ut
Ġinst antie
V la
w ise
Ð¼Ð¾ÑĤ ÑĢÑı
ĠHoch schule
Ġpaint ings
Ġlleg ar
ÃŃst ica
Ġqu ite
ĠMan h
ĠXIX áµī
ĠDe ad
ĠComm unic
ĠdiffÃ©r entes
Ġsnel heid
Ġslight ly
Ġat a
Ġcap able
Ġmor al
as en
ou red
ĠIs a
u ÃŁen
ĠK no
Ġveh icles
jÃ¤hr igen
ĠS ax
c era
ĠE vent
ĠÐ¾ Ñħ
Ġor b
L ors
h omme
rÃ¤ ger
it ul
Ġwar e
f ar
Ġprodu cing
ÐµÐºÑĤ Ð¸Ð²
Ġin du
Ġgener ation
ag ent
Ġdec is
ĠNic olas
Ġbron nen
k ings
ĠS or
ver g
Ġtot dat
Ġ7 3
Ġt alk
ont in
ĠÐ± ÑĢÐ°ÑĤ
ĠB rabant
Ġvermo edelijk
ĠFreder ick
ĠA BC
om pl
ĠÑģÐ» Ð¾Ð¶
or age
ĠPla ce
schaft s
Ġscient if
ÐµÐ½ Ð½Ð¾Ðµ
199 3
Ñģ ÑĮ
Ġnauw elijks
Ġwon ing
and al
ĠW restling
Ġland ing
ĠInf antry
Ġfollow s
Ã °
ĠDe port
ĠÑģÐ¿ Ð¾ÑĢÑĤ
Ġres igned
ĠÑĢÐ°Ð± Ð¾Ñĩ
Ġleef gebied
Ġdrug s
B O
ĠK urz
Ġmaint ained
Ġapplic ations
ce erde
re b
Ġcant on
ol ph
Ġ18 14
ĠW els
ĠTh a
Ġimp lic
199 2
Ġbas es
ĠRob inson
y ers
Ġst ab
Ġstad ium
Ġpromot ie
Histor ique
ĠÐ¶Ð¸Ð·Ð½ ÑĮ
Ġa chtste
ĠPat ri
Ġrespect ievelijk
ĠÐ¼ Ð°ÑĪ
n u
Ġt anks
Ġdaar in
Ġstart s
Ġrapide ment
ĠÐ¿ Ð¾ÑĢÑĤ
ok a
te ile
Ġdank zij
M a
ĠNe v
te kend
ĠÐ½ÐµÑģÐº Ð¾Ð»ÑĮ
ÐµÐº ÑģÑĤ
ĠAnd y
le ans
Ġsupport ing
Ġ8 2
Ġla ke
ph one
Ġestablish ment
p ra
Ġtechn ical
re ter
Ġveh icle
Ġin z
Ġenvironment al
ĠS ara
ĠS Ã¶
gen es
at y
ĠC all
Ġdro eg
ch end
Ġre de
Ġeven als
Ġay ud
ĠÐ´ÐµÑĢÐµÐ² Ð½Ñı
Ġp owers
Ġgesch ikt
Ġdamal igen
ij de
Ġo ce
ĠB ret
Ġcont ained
Ġko cht
ĠTele vision
ĠV iol
Ġsel ten
ettbew erb
d ad
ier ta
ĠÑĢÐ° Ð²
Ġgru pos
Ġbehav ior
b la
ĠArbeit en
ĠsÃ¼d lich
Ġ7 1
Ġzicht baar
Ġv ale
Ġe igh
ĠK rist
zo on
Ġind ruk
Ġne un
Ðº Ð¸Ðµ
im er
Ġcontin ent
Ġvis ible
L eg
Ð°Ð½ ÑĤÐ°
ĠFer r
Dur ante
om on
Ġtrans ition
ĠÑĤ ÑĢÐ°Ð´
ĠMo on
mill ion
ĠGlas gow
ĠPos ition
Ġig lesia
Ġw ed
Ġ9 8
Ġpri est
Ġse ats
Ġfin ishing
Ġpolit iques
Ġpromo te
Ð¸ÑĩÐµÑģÐº Ð¾Ð¼
Ġj Ã¼d
F re
Ġsp oren
ist ique
Ġn ort
olog ischen
ĠGru ppen
ĠG ang
Ġneg ative
Aug ust
ĠMosc ow
Ġwil den
Ðµ Ñı
Ã¤ ger
ĠOn danks
ÐµÑħ Ð°Ð½
el ine
Ġre ign
ĠRail road
ĠY an
Ġdec ades
is ierung
gen e
ĠK Ã¶rper
p as
Ġz ang
Ġheav ily
Ġdis pla
ĠLie utenant
Ġr h
ĠCh art
S ome
p in
ĠÑĤ Ð°Ð¼
Ġtoeg ang
Ġcuer po
Ġprincip ios
Ġloop baan
Ġb io
ach es
Ġe benso
az ar
Ġant h
Ġm ap
Ġ13 0
Ġsera it
ou ch
ĠSt ory
ĠZent rum
ĠVerwalt ungs
ĠAff airs
ĠS au
Ã©c ur
ĠÐ¿ÑĢÐ¸Ð½ Ð°Ð´Ð»ÐµÐ¶
writ er
Ġ ich
Ġpas Ã³
Ġgoed eren
ĠWar ner
Ġneigh b
Ġvern ieuw
sch uss
Ġprincipal ement
Ġinstall ed
rop ri
Ġregard ing
ĠAss oci
Ġf Ã©
á ĥ
Ġbij een
ĠÐ¿Ð°ÑĢÑĤ Ð¸Ð¸
Ġaccomp an
Ġcateg orie
ĠEl tern
le ger
ĠSw edish
mon ument
ve il
Ġsitu ated
ĠÐ²Ð¿ ÐµÑĢÐ²ÑĭÐµ
Ð» Ð°ÑĤ
Ġgebe urde
Dist ribution
ĠN FL
ĠW agen
Ġbesch Ã¤ft
ĠÑĪÐºÐ¾Ð» Ñĭ
and el
Ġgeb aut
ĠÐ± Ð¾Ð»
Ġsp o
sp re
Ġvoll stÃ¤nd
bez irk
d it
ĠAl ph
Ġliter ary
ĠÐ´Ð¾ÑģÑĤ Ð¸Ð³
est al
Ðŀ Ñģ
Ġweten schap
Ã¶ffent lich
ĠLeit ung
Ġwicht ig
Ġt ick
Ġc rowd
ig os
ĠÐ´ ÐµÐ¼
du ate
akes pe
Ġv ragen
Ġun cle
ĠB ien
ia c
ĠTh rough
ĠEn kele
Ġ185 3
Ġer in
ita ine
p lo
h ouder
Ġpro tÃ©
ĠPar ker
Ġcab o
b und
ĠÃ© lu
ga ans
Ġk rant
Ġverb le
ĠOl iver
Ð¸Ð± Ð»Ð¸
Jahr hunder
Ġqu artier
uw d
ĠÐ¾Ð± Ð¾ÑĢÐ¾Ð½
Ġdoel punten
ĠSong s
ĠÐ¾Ð´ Ð½Ð¾Ð³Ð¾
Ð½ Ð¾Ð´
rit e
Ġover ige
ĠÑģÑĤ ÑĢÐµÐ»
Ġ184 6
Ġvroeg ere
ĠÐ² Ð»Ð¸Ñı
R I
ign ement
ib el
Ġbo eren
Ġposs Ã¨de
Ġp on
Ġtra ined
ĠReg ierungs
ĠBes uch
Ġf Ã©d
l ern
Ġb out
Ġvoor bere
Ġsu jet
ĠS pen
ĠTra dition
Ġsl otte
Ġw acht
re cord
Ġintern al
etro ffen
ĠÃ© lev
z an
ĠU lt
ir i
ĠCont in
Ġc d
Ġbren gt
ĠÐ£ÐºÑĢÐ° Ð¸Ð½Ñĭ
Ġdescript ion
Ġiniti atief
Ġplaats elijke
Ġopen bare
ĠH ere
ĠÐ¿Ð¾ Ñħ
Ġ184 7
E P
P at
Ġy ellow
k ens
ak ten
Ġbeg inn
ĠÑĨÐµÑĢ ÐºÐ²Ð¸
y steem
Ġl ift
Ġf isc
Ġdat es
ĠÐ¶ÐµÐ½Ñī Ð¸Ð½
e ck
ĠFore ign
ore a
Ġbesch ad
ĠTod ay
qu i
Ġpr ijzen
ĠÐ¿ÑĢ Ð¾Ð¿
Ġretro uve
ĠdÃ© part
Ġspeci aal
Ġestado un
iti ative
Ð¾Ð¼ ÐµÑĤ
ĠN ied
ĠOr leans
ĠUn ie
Ñİ Ð·
Ġpr endre
Ġpr ice
Ġs aint
e euwse
ĠÐ´ ÑĥÑħ
Ġloc ations
Ġbeh ouden
Ġgau che
ĠÐ¿ Ñģ
Ã¨ que
r iet
Ġgez amen
Ġh unt
oc cup
ĠÐ· Ð°Ð»
ĠPhilipp ines
ĠE C
au en
ac le
ĠÃ¼ber n
ĠspÃ¤ter en
d ist
n ie
Ġpolit ischen
lev ard
Ġnatuur lijke
r ass
Ġsle chte
Ġ ijs
ĠSch Ã¼ler
ĠRos en
ĠKent ucky
ĠM uh
ĠO fic
ĠÐ¸ Ñģ
ĠMar se
Ġintern acional
Ġaf beeld
Ġsh ape
E G
l ater
for der
ĠGeschÃ¤ft s
Ġs ant
ia ge
ÐµÐ» Ñı
ĠÐ¿ÑĢÐ¸Ð½ Ñı
. '
F in
Ġcamp o
Ġoorlog s
Ġ Ã¤lt
ĠW aal
ĠH alle
Ġkunsten aar
Ġbuiten landse
ĠK il
ĠBe fore
Ġw elt
ĠGlo bal
ĠFran co
tern al
Ð¸ÑĨ Ð¸Ð¾Ð½
iz ier
ograf ische
Ġimpro ve
ir ely
Ġe valu
ĠC iudad
ĠCa es
Ġj Ã¼n
Ġdistin ct
Ġreb u
Ġa Ãºn
ĠC ry
Ġrond om
ÑĤ Ñĥ
ank er
k ker
Ġcon vention
Ġwo ont
ĠStock holm
ĠRang ers
Ġoverst ap
Ġeuro pÃ¤
Ġaanwezig heid
Ġaans luit
ĠTh en
Ġocc urs
rimon io
Ġsc ale
Ġab dij
ĠespÃ¨ ce
M L
ÑĢÐµ Ð¶Ð´
ĠÐ¼ Ð°ÑģÑĤ
Ġzo eken
ar ische
ro f
Ġbed raagt
Ġdeg rad
es o
ĠMarsh all
uv ieron
Ġho op
Ġart iesten
Ġthre aten
199 1
Ð¼ ÐµÑĩ
art sb
gel aten
Ġcommer ce
Ġbl ind
st ances
Ġdiam eter
Ġh am
Ġdef ined
ger ichte
ĠPit ts
Ġkilomet res
ĠÑĦÐ°Ðº ÑĥÐ»ÑĮÑĤ
ors hip
J ames
Ġl an
ĠBe zeichnung
ĠS P
Ġau prÃ¨s
Ġrec ruit
Ġent ry
ĠJul ius
Ġjud ge
Ġb it
ĠE lement
Ġbet rÃ¤
Ġpos iciÃ³n
Ġvijft ig
ĠÐ¿ÑĢ Ð¾Ñģ
ĠEv ans
ball er
ĠJ ason
ĠJ ava
or us
Ġllam ada
Ġgevol gen
Ġb onds
Ġpolit ician
ieren den
yth m
Ġm alen
Ġqu ad
ost ol
Ġ18 12
Besch rijving
ot ic
Ġla ger
ag ues
Ġad m
ĠÐŁ Ð¾Ð´
Ġacc used
sch l
ĠAj ax
ĠSt ars
Ġsur vey
t ussen
Ġver gro
ĠÐ¿ Ð¾Ð»ÑĮÐ·
ĠSt ichting
Ġbijzonder e
an lage
b Ã¼
ĠH amp
Ġ( '
Ġit ems
ĠN Y
Ġconcer ts
Ġsh ift
ĠLe euw
d ale
up s
ie h
ling ton
Ñı Ð²Ð»Ñı
ĠVan c
Ä Ľ
Ġgroup es
z ins
ÐłÐ¾Ð´ Ð¸Ð»ÑģÑı
ar Ã¡
Ġconsider able
ish es
Ġstop pen
ĠÑĢÐ°Ñģ ÑģÐºÐ°Ð·
Ġbo at
c omb
ĠH Ã¤lfte
Ġk or
ĠR oth
ĠW right
ig ua
ra h
Ġpubl iÃ©
Ġplaat ste
ĠÃ©lect ions
Ġexplo it
Ġr ar
hed raal
roll en
ĠAd ministration
Ð¾ÑĢ Ð²
ĠrÃ© v
Ð¸ÑĢÐ¾Ð² Ð°ÑĤÑĮ
ru ch
Ð¸ÑĩÐµÑģÐº ÑĥÑİ
ĠÐ¾Ð±ÑĬ ÑıÐ²
t al
Ġinternational en
a che
ĠfrÃ¼ hen
Ġopz ichte
ĠK in
ĠI owa
Ġvers loeg
Ġg am
Ġdid n
Ġsuccesvol le
u age
Ġacc ommod
ĠLin ie
m ain
ĠD allas
Ð¾ÑģÑĤ Ð°Ð²
ĠCon vention
Ġom standigheden
Ġcan ciones
Ñģ Ð»ÑĥÐ¶
Ġbouw de
Ġcaus ing
Ġreact ie
Ġpro port
Ġobserv ed
ĠG P
Ġver we
ĠPart i
ze f
ĠMar ket
ann on
ĠÐ¿Ð¾Ð´ Ð³Ð¾ÑĤÐ¾Ð²
f riend
Ġf ashion
ĠÑĩ ÐµÑĤ
Ġserv icio
erseit s
Ġhe ight
Ġrel ief
v ingen
ĠW ho
ĠOran je
ĠDa ily
Ġe ten
ip ul
ĠAf rik
Ġag ed
Ġent irely
Ġrep res
t rans
8 00
Ġt ask
ro le
ite ur
Ġ184 5
f ur
ĠC P
olog ne
ĠE K
Ġge gevens
ĠÐ°Ð½ ÑĤ
Ġb iedt
ĠÐ² ÑģÑĤÑĥÐ¿
ĠDies es
Ġwit ness
Ġzond ag
Ġh our
Ġpro ef
ĠS atur
Th omas
ik ing
ip per
ĠÐ¼ Ð¸Ð½Ð¸ÑģÑĤ
ĠÑį Ð½
p oort
ĠdÃ© ro
Ġde be
ĠÐ²Ð¾Ð· Ð³Ð»Ð°Ð²
Ġallem and
Ð¸ÑĢÐ¾Ð²Ð°Ð½ Ð¸Ñı
ĠRena issance
B ahn
n ische
Ġcl asse
Ġhom es
ut te
ĠL iv
Ġent raÃ®
Univers itÃ¤t
Ġzevent ig
ĠVereinig ten
Ġstand ards
ĠAn schluss
ten der
Ġh ohen
Ġse ctions
ĠÃ ¢
Ġsch war
us hed
se g
ÑĪ Ð¸ÑĢ
ĠWolf gang
Ġempres a
ĠConne cticut
Ġk erken
Ġra cial
ĠJap on
Ġvot ed
ÐµÑĢÐ° ÑĤÐ¾ÑĢ
ĠdÃ©c ouvert
Ġsp ir
Don ald
ĠAn schlieÃŁend
n itz
ĠS ri
Ġel lo
Ð¸Ð¹ ÑģÐºÐ¸Ð¹
vel t
ĠÑģÐ² Ð¾Ð±Ð¾Ð´
artsb is
ĠS tern
ĠBe f
Ð¾ÑģÐ»ÐµÐ´ ÑģÑĤÐ²Ð¸Ð¸
E A
T ube
ĠG T
ĠÐ¾Ð± Ð½Ð°ÑĢÑĥÐ¶
Ġfr ame
Ġpopul ations
Ġbetre kking
Ġ9 2
ĠBrit ten
r ise
Ġd uty
Ġcon dic
ĠAb geord
ian us
for me
ÐµÐ½ÑĤ Ð¾Ð¼
stoff en
let on
Fran Ã§
Club carriÃ¨re
ĠVanc ouver
ĠF ont
ĠÐ¿Ð¾Ñĩ ÑĤÐ¸
ĠÑģÐµÐ· Ð¾Ð½Ð°
o ce
ĠPolit ik
ĠÐ°ÑĢÑħ Ð¸ÑĤ
ze k
Ġrel oc
Ġedific io
P our
ĠU kraine
atur en
Ð»Ð°Ð³Ð¾Ð´ Ð°ÑĢÑı
Ġc oordin
Ñģ Ð¾Ð½Ð°
ĠN utz
Ġdisp ute
ĠA re
Ġdat zelfde
ĠVerb indung
Dist ribuciÃ³n
ÑģÐ¿ Ð¾ÑĢÑĤ
w asser
Ġsec und
ra el
ĠEx ecutive
Ñĩ Ð¸Ð²
ck ing
k h
ion ales
Ð¾Ð² ÑģÐºÐ¸Ð¹
Ġcommer ci
ĠC atherine
Ġconse il
c ular
ĠV ideo
Ġnorm ale
est ens
f eer
in to
ĠUnt ersuch
ĠFur ther
Ġwoll te
ĠP od
hel ess
ĠF ul
Ġge g
Ġverk rij
Ġfound ation
Ġveroorde eld
ĠT ower
Ð¾Ð½ Ñĭ
Ġvoor bij
ĠIs ab
Ġsupport ers
Ġche val
ĠWo chen
Ġakt iv
ĠdÃ© put
ank a
P re
ĠD rie
Ġfuer zas
ĠÐ¡Ð¾Ð² ÐµÑĤÐ°
Ġla c
voor zitter
lig gende
ĠA x
Ġacqu is
Ġcont aining
ho ff
ag g
for sch
Ġweiter hin
Ġt ell
Ð¾Ð» Ð½Ñı
ss el
Ġ1 18
Ġminim um
R ich
as ka
iv an
Ã¡ ct
Ġne uro
Ġa kk
ĠM rs
ĠUnivers al
ĠP av
vla k
Ġo ef
ĠÐĽ Ñĥ
Ġpriv il
un ch
ĠH ud
ĠLou ise
ĠA P
Ð°Ð½ Ð½ÑĭÐµ
G Ã©
ĠA uthor
ĠDÃ¼sseld orf
ĠAn der
qu al
Ġpl ate
Ġstre ek
Ġstap te
Ġdep end
ĠN acht
H a
ĠT as
ĠÐ¿ÑĢÐ¾ Ð¸Ð·
ĠnÃ¶rd lich
Ġr ig
ĠDam it
Ã¤s ent
ĠMet ro
Ġo sc
Ġver boden
ĠValen cia
ĠAfghan istan
âĢ¦ ]
F ue
Ġb acter
S erv
Ġma je
ĠU ruguay
Ġvor ige
Ġax e
Ġk r
ĠMur ray
em men
ĠP ubl
Ġko op
end orf
ĠTh ompson
ĠY outh
Ġt v
Ð»Ðµ Ð³
ĠC ort
ĠÐ¸ÑĤ Ð¾Ð³
o ons
Ġle ben
ĠSt amm
ign y
als o
Ġgede elt
ĠAd vent
Ġcollect ed
Mart in
Ġgra ve
Ġeig endom
w inning
Ġse ems
Ġnot hing
Ho ewel
ĠCommon wealth
Ġcho ice
me isterschaften
Ġverschill en
un o
Ġsecret aris
ion e
ĠH ob
d ou
k ampioen
ert a
Ġkill ing
Ġang lais
ĠFI FA
Ã³ Ã³r
Ġsele ctie
uh l
ĠÑģÑĭ Ð³ÑĢÐ°
ĠÑĩÐ°ÑģÑĤ Ð¾
ie erd
ge komen
ĠÑĢÐ°Ð· Ð´ÐµÐ»
f on
st rom
ĠB uiten
ĠBe au
ĠCle veland
ed on
Ð¸Ð· Ð¼Ð°
ĠAmsterdam se
Ġlief de
D uitse
ĠOr th
ĠNik ol
Ġanc est
Ġuit ges
ĠL ac
che z
Ġsh all
ĠPro zent
Ġged wongen
Ġemploy ees
el ve
n Ã©es
Ġsuiv ant
Ġintelle ct
ĠP ul
Ġg ods
d or
Ġste p
and in
Ġaang etroffen
Ġproper ties
ĠÐ²Ð¾Ð· Ð²ÑĢÐ°Ñī
Ġonts lag
Ġop vall
ekt ur
Ðĺ Ð·
Ġaang esteld
ĠMor ris
rat ive
I L
Ġc erc
ĠM erk
Ġfact ory
Ġin dem
ĠSp rache
ĠÐ¾Ð±ÑĢÐ°Ð· Ð¾Ð²Ð°Ð½
ĠL ane
ĠG le
Ġv ue
og d
ĠÐľÐ¾ÑģÐº Ð²Ðµ
Ġuit een
ĠAr ten
Ġa par
Ġcerem ony
ĠÅĵuv re
zie h
ĠAd ri
Ġinterest s
ĠÑģÐµÐ» Ðµ
ĠG ymnasium
h Ã©
s ing
Ġp s
we iter
Ð¾Ð²Ð°Ð½Ð¸Ðµ Ð¼
ÐµÑĢ ÑĮ
Ġhigh way
Ð¾Ð² Ð°Ð»Ð°
ran o
ĠFin anz
ĠÑĩÐµÐ¼Ð¿Ð¸Ð¾Ð½ Ð°ÑĤÐµ
ĠBalt imore
z ame
op per
ĠZ aken
Ġprof esseur
ĠBar ry
Ġintrodu ction
Ġherv orm
ucc ess
ĠO cc
Ġas oci
ÑĢÐµ Ñģ
b in
v rij
Ġcont rolled
Ġprim ero
Ġc athol
Ñĥ Ñį
ans ch
St ar
Ġbew ust
ĠSing le
bo ot
Ġdist int
Ġcle an
ĠT omm
ĠÑıÐ²Ð»Ñı ÑİÑĤÑģÑı
ap ie
Ġaspect s
ĠC ze
ĠÐ± Ð¾ÑĢÑĮ
ĠÐĿÐ¸Ðº Ð¾Ð»
f ig
ĠT am
ĠSh ar
Ġdrum mer
gew icht
ĠSold aten
Ð» Ñĭ
ci os
ann iÃ«
ĠNe ub
u ken
ism s
osp it
Ġnoord o
ĠÑģÐµÐ»ÑĮ ÑģÐ¾Ð²
ic ians
Ġ18 20
ĠÑĤÐµ Ð¾ÑĢ
ĠÑģ Ð¾Ð·
Ġdis miss
Ġ9 3
Ġmach en
iv ier
ot yp
ĠÐĵ ÐµÑĢ
Ġmess age
V ol
ĠC ir
Ġmin ute
tÃ© rie
M c
ĠCE O
off ic
Ġle erde
Ġstand s
Ġg etting
ĠS Ã¤
mer n
Ġd ang
Ġgemeen schap
Ġtelevis iÃ³n
Ġcour ts
Ġsix th
ĠDre am
ab et
Ġb aby
ĠDaar bij
ĠdÃ©cl ar
Ġmat Ã©ri
oc ent
ĠHer ren
ÐµÐ½ÑĤ Ñĭ
Ġdoel punt
ĠManh attan
n ach
Ġb uit
ĠW irk
ĠÅĵuv res
j en
ot ion
ĠW ert
Ġsurv ived
v iv
sch w
ĠMar x
Ġab ol
Ġbesch rij
ĠGeme inden
it iÃ©
ÐµÐ½ Ðµ
Ġaffect ed
iz end
Ġdo ct
ĠAb out
ĠPaul o
ier d
ĠSh akespe
ĠÐ´ÐµÑĤ ÐµÐ¹
ĠTai wan
ĠÐĴ Ñģ
Ġgew one
ar tet
og ram
Ð³ Ð°ÑĢ
ĠÑĢÐ°Ð· Ð¼
viron ment
ĠÑħÐ¾Ð´ Ðµ
ĠRol and
ĠE mer
Ġmov imiento
ĠKore an
f Ã¤h
Ġmiss ions
H z
Ġresult aten
Ġthre at
H S
and t
Ã¼ ste
Ġjo ining
Ġgest uurd
ĠBre men
Ġhyp oth
u izen
Ġland sc
Ġh uit
Ġport ra
Ã©rat ure
ĠR ights
out en
Ġimm ers
l Ã¤uf
Ã Ĺ
um ul
Ġqu er
ĠSalv ador
Ġc ens
ĠF itz
ĠÐ½ Ð¾Ñģ
Ġaan gebracht
ĠÐ¼ Ð¸ÑĢ
k racht
iz iert
uch en
Ġeduc ational
CA A
Ð» Ð¸Ðº
P ost
ĠP ow
ĠSh ah
Ġmog elijke
Ġimpro ved
c at
Ġper ÃŃ
Ġmarket ing
ĠÐ³ÑĥÐ±ÐµÑĢÐ½ Ð¸Ð¸
Ġgra ven
Ġtechn ische
... ]
Ġde grade
ĠS aar
Ġtwintig ste
ĠÐ² Ð°Ð¶
univers iteit
Ġkwal iteit
ĠB ald
ĠHil fe
Ġver zet
Ġverko op
Ġcandid ates
B ritt
ch as
ĠÃ© pouse
ÑĢ Ð¸Ð½
Ġgew ijd
ter m
iss ue
Ġrecon stru
ĠG ard
ĠÐ¿Ð¾Ñģ ÑĳÐ»
Ġbra chten
Ġbra chte
Ġinj ured
ĠCom o
ĠÐ½ ÐµÐ²
ĠÐ± Ð¾Ñı
Ġgradu ate
en as
Ġk roon
Ġrealiz Ã³
Ġadv ance
h orn
Ġ ._
k ort
Ð³ Ð¾ÑĢÐ¾Ð´
olo gen
Ġo ch
ab s
Ġpl ut
Ð¶ Ð¸
Ġsol ution
P ort
ĠAll iance
Ġrelig ieuze
Ġpoet ry
ĠÐ¿ÑĢÐ¾Ð± Ð»ÐµÐ¼
Ġthe oret
ĠQu Ã©
Ġn ac
Ġver p
Ġath let
ĠJ ama
Ġcompos er
Ġverv aard
ĠÐ³Ð¾Ð» Ð¾Ð²
ĠÐ° Ð³
Ġde den
ĠC N
cte urs
z ingen
Ġde cide
Ġreach ing
B est
ĠUn iÃ³n
se in
Ġarr ondissement
Ġstat ement
ĠSw iss
ĠNor weg
ier ungen
Ġra z
ĠBr andenburg
D C
M y
Ġd ress
l open
Ġa cept
ĠV ern
ĠAd dition
' re
Ġres idence
Ġbrief ly
Ġt els
Ġpr is
ĠMot ors
Ġtemper ature
ĠV egas
Ġes pos
Ð°Ð½Ð¸Ðµ Ð¼
ĠMet h
organis atie
ĠÐ¼Ð°ÑĤÑĩ Ðµ
Ġr ib
Ġrul ed
Ġap lic
Ġg are
ĠÐ¾ÑĤ Ð²ÐµÑĤ
Ġontwikk elen
sch we
fl ug
maat schappij
amp a
vis ed
Ã¤ch s
Ġdou b
ĠrÃ©sult ats
er ne
le iter
Ġshe ll
ator io
em aal
Ġneut ral
al tet
ĠR ace
Ġtechn iek
Ã´t el
ĠBa um
Ġwound ed
Ġcons ac
ĠÐ¾Ð±Ð»Ð°ÑģÑĤ ÑĮ
Ġpr on
Ġ8 7
Ġent ren
z og
il st
Ġausge zeichnet
Ġf ung
met ros
Ġappel Ã©
Ã¶ hn
ĠZwe edse
ĠNorm an
S m
Ñģ Ð¼
ĠB lock
ĠG ot
ian e
ĠÐµ ÑģÐ»Ð¸
Ġcrit ique
198 9
Ġhom bre
ri Ã«
gel Ã¶st
Ġsk ills
ĠProdu ktion
ĠC F
ĠT ang
ĠW alt
Ġar med
Ġsur f
Ġterm ine
Ġethn ic
ĠN ort
Ġop v
Ġgar den
Ġcondu ct
Ġrepe ated
ĠG oth
Ġsing ing
Ġver min
Ġtw elve
Ġmoy enne
Ġw inkel
Ġz orgt
ĠMod el
ĠD ere
Ġs emble
ĠÐ¿ÐµÑĢ ÐµÑģ
Ġact ress
Ġreal ity
ĠW aar
Ġver zoek
Ġneg oti
Ġse is
n ia
o ien
ĠÐ¿Ð¾Ð» Ð¾Ð²
Ġrijk s
ĠÑĤ ÑıÐ¶
Ġgev raagd
ot or
Ġaus gest
Ġpaint ed
Â» ).
ĠÐ¶ Ð¸ÑĤÐµÐ»ÐµÐ¹
da ad
ir che
ĠOk lahoma
ĠPool se
St ud
Ġar che
g ate
Ġfun cion
le ider
Ġt ub
Ġverl or
197 0
els pel
Ð°Ð¼ Ð±
Ġsur ve
Ġsen ator
ĠSil ber
us st
ĠI hre
ĠÐ¡ ÐµÑĢÐ³
open hagen
ĠRob in
Ġkandid aat
Ã ľ
ĠÑĢÐµ Ðº
ĠYou Tube
Ã©rica ine
ĠÑģ ÑĨÐµÐ½
Ð°Ð² Ð¸ÑģÐ¸Ð¼
ĠBrook lyn
ĠV ent
Ð°Ð»ÑĮ Ð½Ð°Ñı
Ġ14 0
Ġbla uw
Ã¨ tre
ol ution
Ð»Ñİ Ð´
Ġspre ekt
ĠVors itzender
Ġind Ã©pend
Ġjong ere
ĠRest aur
Ġso zial
ĠthÃ© Ã¢tre
Ġd un
Ġf anden
ĠÑĦ ÑĥÐ½Ðº
ÑĤ Ð°Ð»
ĠÑģ ÑĬ
Ġeng ines
an ig
ĠH arm
ĠO u
ap est
Ñİ ÑĢ
Ġben eden
ĠAuft rag
emar ken
elle ment
Ġ9 7
Ġcost s
Ġlag ere
P al
Ġf iction
Ġk omp
C la
Ġdat eert
ĠÐ¾Ñģ ÑĥÑīÐµÑģÑĤÐ²
Ð¾Ð½Ð° Ñĩ
ĠbÃ¢t iment
Ġh ing
ra ges
ĠÐ± Ð¾Ð³
Ġground s
lic k
Ġc rash
ĠG un
Ġcall ing
ĠR itter
Ġst imul
ĠÐ½Ðµ Ð¿
Ġhom me
Ġsl uit
Ġstruct uur
ĠK rim
ĠÐ¾Ð± ÑĥÑĩ
Ġle ek
iz ada
v ir
uz ie
ĠÑįÑĤ Ð¸
Ġmatch s
t ar
Ġerz ielte
ĠÐ¿ Ð¾Ð¶
Ã³ pez
ĠFun ktion
ĠF riend
Ġed ge
ĠComm ander
rÃ¤ s
rab a
ĠIntern acional
Åĵuv re
and y
se z
Ġ8 4
ĠLe Ã³n
Ġeing ef
Ġnom brado
Ġdesign s
Ġpurch ase
19 45
Ġsa ve
ĠFried hof
Ġbrit ischen
M in
ĠL loyd
Ġher ken
Ġgel eden
Ġsch olen
ĠÐºÐ¾ÑĤÐ¾ÑĢ Ð¾Ðµ
ĠL ate
ĠÐ²Ð»Ð°ÑģÑĤ Ð¸
le te
ĠM asters
Ġgew icht
ĠP ays
ge he
ĠN ep
ĠTur ner
Ã¡ b
Ġna ve
Ġann once
v on
ĠÑĤ Ð²Ð¾ÑĢ
dert ussen
ĠÐ´Ð¾Ð»Ð¶ Ð½Ð¾ÑģÑĤÑĮ
Ġlook ing
anda ag
Ġbod ies
pe te
ĠJak ob
ĠÐ¾ ÑĨÐµÐ½
Ġvo ie
Ġbev ond
Ġprov oc
ĠÐ±Ð¾Ð»ÑĮÑĪ Ðµ
Ġfa ith
og le
Ðº Ð¸Ð½
ĠÐ»Ñİ Ð´ÐµÐ¹
fass te
Ġr Ã¡p
ĠFe uer
b ot
Ġcorn er
Ġk ader
ĠTur m
Ġbomb arde
ĠcÃ©l Ã¨
Ġp ier
th a
cc a
ac on
Ġwh y
Ð¸Ð· Ð°ÑĨÐ¸Ð¸
Ġdies el
M ont
Ġbe urt
ĠÃ Ĺ
Ġmob ile
k rit
Ġgen der
Ġposter iormente
ĠR ÃŃo
ĠOr den
ĠS ul
Ġwe ather
ĠCham ber
G es
ÐŁ ÐµÑĢÐ²
bor ough
ĠOlymp ischen
ĠL ov
Ġonder hand
ges etz
Ð» Ð¾ÑģÑĮ
ĠB red
Ð¾ Ñĥ
ĠÐ¸ Ð´Ðµ
ĠdÃ©s ign
Ġdestru ction
ĠÐ¿ÑĢÐ¾Ð¶ Ð¸Ð²
-- --
cul o
Ġtest s
Ġin habitants
Ġme x
ĠMal ays
Ġfres h
Ġw iel
Ġh ielt
ĠÐºÐ¾Ð½ ÑģÑĤ
Ġwin st
Ġrest o
ĠT il
off en
ĠÐºÐ° ÑĦ
Ġp ues
Ġworld wide
Ġsen c
Ġbezoek ers
Ġveroorz aakt
ien cia
gel open
Ġfranch ise
Ġt anden
ÑĤ Ð¾Ð¶
ĠTrum p
ĠAut om
Ã©r Ã©e
m ant
Ġvraag t
co ck
con de
Ġc elles
ĠT hr
au ern
ĠSomm ige
ÑĨ Ð°Ð¼Ð¸
Ġgr as
Ġlead s
Ġconcl uded
Ġdeb ate
ĠAnd reas
w eten
Ġeas ily
ĠS of
Ð°ÑĤ Ð¾Ñĩ
Ġrel ative
C rit
ogra pher
Ġverwij st
M ichael
ĠÐ¸Ð³ ÑĢÑĭ
Ġt achtig
iss a
Ġaut obi
T we
Ġf ys
ĠÐ½ Ð¸Ð¼
Ġver voer
art o
ĠFir ma
ĠÐĳ Ð¾Ð»ÑĮÑĪ
Ġin ici
Ġille g
ĠB ast
Ġstat ue
Ġvermo gen
ĠChrist opher
Ã¤nd ig
ron en
ĠÐ² ÐµÑģ
ĠV i
Ġro se
ĠNatur al
Ġkonink rijk
Ġoper ate
Ġl um
ĠÐ¦ ÐµÐ½ÑĤ
d s
Ġ20 20
ĠÐ² Ð»Ð°Ð´
ĠPro p
ol ith
. /
go ing
Ġvor handen
Ġre ven
Ġspre ken
ĠNot re
Ġmaint ain
ur re
Ġoppos ite
Ġongel uk
Ġel abor
Ġadvoc aat
ĠcompaÃ± ÃŃa
ĠL av
Ġbe wo
ĠJo odse
Ġagric ultural
Ġcab e
era us
Ġ8 1
ĠInde pendent
ĠÐ± Ð»Ð¸Ð·
ĠVer te
Re ception
ĠCu ando
t ant
Ġb ieden
ad al
ĠÑĥ Ðº
ĠÑģÐ°Ð¼ Ð¾Ð»
Ġan z
Ġclass ical
red it
Ġprincipal mente
Ġconstit uen
Ġre ading
Ġmot ion
Ġche min
Ġa de
ug a
Ġ9 00
ar ije
Ð¼ Ð¿
ĠrÃ© al
Ġf la
Ð² Ð¸Ð´
ĠÐ» Ð¸ÑĨ
Ġterugk eer
ĠP ablo
ĠSp Ã¤ter
Ġvor st
Ġregular ly
D aar
ÑĨ Ð¸ÐµÐ¹
Ġstand ing
Ġmeerder heid
Z w
amm ed
Ġcomm itted
Ġe ilanden
ĠAb schluss
Ġdisc rim
ĠTha iland
br idge
ĠHier mee
ger y
Ġbeteil igt
um m
ĠCom mer
Ġb ildet
ĠÐĲ ÑĦ
Ġ184 2
ĠM aterial
ĠDe put
Ġfir ma
Ġdef ens
ĠZ ar
ĠG ary
ĠJul es
ĠprÃ© f
reg ation
ĠCap it
Ð¾Ð» Ð¸
ĠRep ublik
Ġearl iest
ĠD ag
Ã¼ m
ĠD ue
ĠEin fluss
on ge
or um
ĠC urt
ab ase
ĠSch ol
ÑĭÐ² Ð°ÐµÑĤÑģÑı
M od
Ñģ Ñĭ
Ġimp uls
Ġbo ys
Ġspecif ically
R en
ĠB eth
Ġspe el
ÑİÐ¶ ÐµÑĤ
ak u
ĠWh at
ĠÐ® Ð¶
ĠB res
esch ool
ĠÑĥÑĤ Ð²ÐµÑĢ
ĠRug by
Ġbeg rip
duc ciÃ³n
Ġtras lad
Ġmar qu
lijn en
Ġtoege kend
Ġbil den
f Ã¶rm
o ge
ist ik
Ġben oem
W orld
on gen
it at
anz er
Ã©c ut
ĠK ey
Ġconjun to
Ġen e
ĠW ard
Ðº Ð¾Ð½Ñĩ
Ã¡t icos
Ġsch rift
Ġtemper atuur
le hr
ĠCh and
ĠVer m
uz z
Ġins crit
ĠD j
ĠÐ°Ð²ÑĤÐ¾Ð¼ Ð¾Ð±
is eren
Ġs ession
ĠCent ro
Ġreject ed
ĠÐ¸Ð½ÑĤÐµÑĢ ÐµÑģ
Ġres istance
ĠÐ²Ð¾Ð· Ð½Ð¸Ðº
B et
ess es
Ġvers te
Ġad mitted
con f
ĠÑģÐ²Ð¾ Ñĳ
Ġw orth
Ġin gang
Ġentwick elt
ĠÑģÐµÐ· Ð¾Ð½Ðµ
ĠÐ¡ Ð¾Ñİ
ĠVer lag
ĠVer bre
Ġpo em
ut os
Ð°Ð²ÑĪ Ð¸Ð¹
f ather
Ġt aak
ter y
ĠÐ¿Ð¾ÑģÑĤ Ð°Ð²
Ġtem a
Ġpersoon lijke
Ġcent raal
ĠPe ace
Ð¸ÑĤÑĥ ÑĤÐ°
Ġont bre
midd ellijk
ĠR Ã¤
b aren
Ġder ived
ÑĪ Ð°Ñı
Ġschilder ijen
Ġm Ã¨tres
ĠOrganis ation
Ġfa Ã§on
Euro p
ĠO pp
Ã¶ ÃŁe
Ġrelig ios
Ġh onderd
ĠKn ight
Ġro ads
Ġtre inen
Ġweder om
ĠCh en
f are
Ġgo ods
ĠN Ã¼r
ĠR as
ĠsÃ© par
Ġra cing
Ġsecret ary
hoen ix
ĠR ost
iÃ«n ten
ĠÑĢ Ñĭ
ĠStud enten
Ġdescrib es
ĠM ind
me hr
mitt elb
Ġth erm
ik elen
ĠÑĢÐ°Ð±Ð¾ÑĤ Ñĥ
Ġin fer
ra f
ĠÐ¿ÑĢÐ¾Ð¸Ð·Ð² ÐµÐ´
iss es
ĠCo ok
ĠQuÃ© bec
Ġd ok
old s
Ġsig ne
tro du
ĠGro en
Î »
ĠÑģ Ð½
ĠÐ¿Ð¾ÑģÑĤ Ð¾ÑıÐ½
ĠGes etz
ĠSt orm
Ð¸Ðµ ÑģÑı
auf te
Britt anniÃ«
ĠN r
Ġaan geb
Ġepis od
t op
Ġl ijnen
Ð³ Ðµ
S ec
ro se
Ġch air
Ġwest elijke
geme ente
Ġcro wn
u ese
ver l
per io
ĠÑĢÑĥ Ð±
Ġsched uled
ĠPr ins
Ġre cl
isc op
Ġt ijden
it re
Z u
ĠD oc
etz ungen
Ġcompr end
Ġverd iep
Ġcorresp onden
Ġgemidd elde
Ġv ain
al z
Ġget roffen
ĠW ander
us k
Ġbes itzt
Ġled ig
Ġloc ales
Ġcolleg a
Ġb ras
ere ur
Ġex ception
up p
Ð¸Ñı Ð¼Ð¸
Ð¸Ð¼ Ð°
gew iesen
Ġ ersche
ĠÐº ÑĢÑĭ
ach ing
Ġact rice
Ġcin Ã©ma
ul in
ap an
Ġwrit ers
Ġclos ely
Ġim perial
Ã©d Ã©
Ġacht t
O P
P riv
Ġals nog
D a
ĠM ut
ari at
ĠÑİ Ð¶
ĠS ed
Ġgef unden
ĠW enen
Ġet h
ĠLe x
Ã¤t ter
end ers
Ġtijd elijk
ÑĳÐ½ Ð½ÑĭÐµ
Ã© ren
Ġex terior
s atz
ĠT ier
ĠÐ¿Ð¾Ñģ Ð²
ĠÐŀÑĤ ÐµÑĩ
ĠBez irks
iden se
Ã©t Ã©s
Ġ8 3
Ġremp ort
Ġmilj ard
Ã¶st lich
t ent
Ġhij os
stit ute
Ġref ers
ĠMat th
ĠFle et
ĠS z
ĠMarc us
ĠA labama
Ġart ific
Ġuit sluit
ian os
sen al
ĠChr on
Ġsinds dien
ĠE j
et ime
Ġk ick
ĠOn ly
aire d
Ġmerg ed
Ġre izen
Ð¸ÑĤ Ð°Ð½
Ġover igens
ĠW ang
p ower
Ġbis dom
Ġverscheiden e
ĠG ol
Ġmar c
Î µ
co op
Ġ183 7
ĠN HL
i ado
gl Ã©s
Ð½Ð¾Ð² Ð°
cast le
lo ad
ĠdÃ©f ense
Ġleid t
O per
k ur
Ġver plicht
plaat ste
Ġprotest ant
fab rik
Ġ8 6
Ġt ries
ĠN ationaal
ÑĥÐ½ ÐºÑĤ
S ur
ĠS ad
Ġarr ival
gar ten
ĠVen et
end ar
ĠEr geb
ĠEind hoven
Ġinterest ed
M ark
Ġb atalla
Ġ ij
gest elde
Ġmod o
Ã¤hl te
Ġm Ã¼ssen
ĠB aker
Ð¸Ñĩ ÑĤÐ¾Ð¶
ĠR afa
ĠK opf
o der
ess a
Ġmeille ur
ĠÑģ Ð¸Ð½
ish ment
ĠV l
ĠFrans en
ĠD est
ĠBay er
Ġbusiness es
ĠÑģÑĤÐ°Ð» Ð¾
Ġleer lingen
Ġr ating
ma il
ĠHarr ison
Å Ľ
ĠP i
Ġpur pos
Ġw irtschaft
ĠW is
Ð¸Ð¼ Ð¸ÑĢ
Ġpri ester
west lich
act or
Ġst ores
ĠW et
ÐĵÐµ Ð¾Ð³ÑĢÐ°ÑĦÐ¸Ñı
O l
Ġland goed
ific atie
Ġcontr Ã´le
Ðº Ñģ
ĠF ritz
ĠHe idel
ÑĢ Ð¸Ñģ
ĠWar ren
! "
Ġa ired
ar gent
ul len
Ġuit voering
ÐµÐº Ñģ
Ġ7 9
Ġb ie
ĠAd el
ĠM ult
ess els
for ce
Ġclass ic
ĠWay ne
U it
Ġeinz ige
Ġd rop
ĠS ach
ĠVer fÃ¼
uccess ful
S y
ĠÑģ ÑĥÐ¼
ĠIn formation
Ġbro ken
Ġbro wn
Ġ183 9
Ġsy mpt
Ġb in
ien ce
Ġ5 000
Ġsele ction
ĠmÃ© th
in strument
ik h
Ġus ers
Ġa artsbis
Ñħ Ð¾Ð·
stell t
Ġlyric s
Ð¸ Ð¾
ĠÑģÐµÐ²ÐµÑĢ Ð¾
g uez
Ġhet geen
Ge orge
sch lag
ĠL ion
Ġdire cciÃ³n
Ġor bit
Ð» Ð¾Ðº
ĠA insi
Ð¾Ð² Ð¾
ĠCh allenge
Ġequ al
Dep uis
w ho
ven de
ign on
Ġsoll ten
Ġpossib ly
ĠW ort
ĠN on
ĠÐ¼ÐµÑĤ Ð¾Ð´
Ġunter st
Ġeing est
ĠM icha
Ġho y
ko op
ĠbeÃ¯n vloed
ĠÐ± Ð°Ð»
Ġint elligence
Ġweek end
ĠBrazil iÃ«
ĠdÃ© l
ĠI hr
ĠdÃ©c ouv
ĠÐ¿ÑĢÐ¾Ð¼ ÑĭÑĪÐ»ÐµÐ½
S tra
ĠÑģÐµÐ» Ð°
Ġa head
re ur
Ġest ar
Ġparticip ate
lieÃŁ t
ĠMÃ¼n ster
ĠEx pl
ĠÐ·Ð´ ÐµÑģÑĮ
Ġreg isseur
s port
ro wn
Ġas sez
f ound
ĠÐĶ Ð»Ñı
Ġra zas
Ġbesch er
Ġregard ed
ĠÑĢÐµ Ð²Ð¾Ð»Ñİ
ĠBÃ¼rger meister
ĠJu den
Ġf rei
ip pen
Ġcollect ions
ÅĤ aw
Ġregister ed
itt el
Ġtoes temming
Ġmed ium
Ñı ÐµÑĤÑģÑı
all o
Ġch ante
agn es
Ġlink er
m ol
ĠL enn
ĠI an
end um
ĠÐ´ Ð°Ð²
Ġadv antage
Ġfilosof ie
ĠG ill
Ġchurch es
bet rieb
Ġledig lich
Ġs ah
Ġl Ã©
ĠL Ã³pez
com ing
Mus ic
ass el
Ġburg ers
ĠHis pan
ĠM Ã¶glichkeit
ĠÐ´ÐµÑıÑĤÐµÐ»ÑĮ Ð½Ð¾ÑģÑĤÑĮ
ĠÐ¸ÑģÑĤ Ð¾Ñĩ
Ã¤n gen
Ġriv iÃ¨re
Ġd ot
Ġd ice
or ient
Ġv ient
Ġgro en
Ġre vel
D r
Ġein fach
Ġ184 4
ĠOn ce
Ġpolit icus
ÐŁÐµÑĤ ÐµÑĢÐ±ÑĥÑĢÐ³
P e
ip pe
Ġsp ielt
ĠÑĥÑģÐ¿ ÐµÑħ
ren der
Ġvo ir
ĠÑĥÑĩ Ñĳ
ĠgÃ©nÃ©ral ement
M ax
Ġver ein
Ġbegra afplaats
Ġverzam eling
Emp ire
ony me
Ġa ande
ĠAir lines
ĠNij me
Ġv ra
ĠÐ¿ÑĢ ÑıÐ¼
Ġvrouw elijke
Ġexperien ced
sche id
Ġte en
ĠÐ· Ð¾Ð»Ð¾ÑĤ
Ġdam aged
ĠÑħ Ð¾ÑĢÐ¾ÑĪ
ĠÐ¿Ð¾Ð¿ ÑĭÑĤ
z ers
ĠK ru
Ġsocial es
ĠHistor ic
ĠAr ena
Ġapp ropri
Ãī glise
Ġ183 8
Ġdiale ct
o ie
ced es
Ã³n ica
ĠTh us
Ġconc rete
imm ing
rÃ¤ fte
Ġ183 6
zw ischen
Ġpart is
Ġcons igu
Ġschilder ij
Ġf lex
oth y
ĠUnter stÃ¼tz
Ġle bte
Ġex er
ĠTra ining
Ġgener atie
Ġtra it
Ġv u
Ġar men
Ġg ets
ĠAl ten
Ð¾Ð»ÑĮ ÐºÑĥ
ro id
ĠJ orge
lie f
Ġchar ged
Ġobject s
ĠGirl s
Ġb apt
Ġass umed
Ġpra ised
Ġproduct en
Ġpal ab
fra u
ij i
iss ing
ĠÑģÐ¾ÑģÑĤÐ°Ð²Ð»Ñı ÐµÑĤ
Ġbestu urs
ĠÑģÐ² ÐµÑĤ
ĠT ong
waar de
ĠTh ird
Ġver to
Ġmin es
ĠÐł ÑĥÑģ
ĠÑĥÑĩ ÐµÐ½
imm ung
embl Ã©e
ÑĨ Ð¸Ð¿
Ġt s
W Ã¤hrend
ĠÐ½Ð° Ð³ÑĢÐ°
Ġinst ruments
Ġparticul iÃ¨rement
Ġatte int
Ġweig erde
ism os
Ġtrad itie
Ġchrist elijke
Ġe her
Ð· Ð°Ð¿Ð°Ð´
Ã³ l
Ġmed ieval
Ġlearn ed
Ġc afÃ©
ĠF ell
ĠÑģ ÐºÐ°Ð·
og ether
Ġ18 16
ho den
Ġfun ctions
ĠÐºÐ¾Ð¼Ð¿ Ð°Ð½Ð¸Ð¸
d alen
ĠÐ¸Ð½ Ð´
Ġnouve aux
ĠQue bec
Ġto urs
Ġj Ã¤hr
ĠÐŁ Ð°ÑĢ
Ġzahl reichen
Ġal te
ĠPitts burgh
ĠZ us
ĠMount ains
Ġd ip
ĠM Ã¼ller
ĠW as
hard t
Ġtrop ical
re de
Ġst ages
zie hung
ĠBatt alion
Ġt ons
vis ies
ĠK iel
ces e
ĠPl ant
ĠInstitut o
gr ens
z ust
Ġc ord
Ġso ft
Ġauf ge
ĠÐĴ Ð¾Ð»
Ġ8 9
ĠOostenrijk se
Ġaanges loten
ĠÑģ Ð¾Ñĩ
ĠCon c
Ġpublic ations
Ġoff izi
ĠT anz
ĠMarse ille
Ġ18 13
ĠFil ips
Ġpassen ger
st il
au ff
ien ste
Ġreg els
cul es
ĠCap ital
Ġconc ur
Ġf ib
ĠDire ktor
Ġv s
em at
ijk en
ĠÐ½ Ð¾Ð¼
Ġplaats v
Ġdro its
ÑĢÐ° Ð¹
ess ed
Ġlog o
Ġopt ion
ĠJer usalem
R oy
eren z
Ġsh op
ĠÑĩÐ°ÑģÑĤ Ð½Ð¾ÑģÑĤÐ¸
Ġcirc um
d ruck
st aan
ĠP ru
ĠIslam ic
Ġrepresent ative
ĠCol onel
Ġacc ompl
ĠSant o
.âĢĭâĢĭ _
Ġespe cie
ĠtÃ©rmin o
ĠNorweg ian
Ġcl ar
ĠÑĥÑĩÐ°ÑģÑĤÐ² Ð¾Ð²Ð°Ð»
Ġacc ur
ĠVer band
Ġfre edom
Ġa ft
ĠrÃ©alis Ã©
loss ing
ĠÐ·Ð°Ð¼ ÐµÑģÑĤ
Ġehemal ige
h onneur
ÑĢ Ð¸Ðº
ĠC amer
ĠÐŁ Ð°Ð²
ree ce
ĠÑģÐ¾Ð± ÑĭÑĤ
ĠÐļÐ¾Ð½ ÑģÑĤ
ĠÐ¾ÑĤ Ð¼ÐµÑĩ
Ġhoofd rol
ĠK oh
ĠÐ² Ð¾Ðº
Ġs elling
ĠÑĤÑĥÑĢ Ð½Ð¸
our se
Ġstu deren
Ġsort ie
ĠÐ¿Ð¾Ð¿ ÑĥÐ»ÑıÑĢ
Ġassist ance
m ac
ÑĢ Ð¾Ð·
pr Ã¼
ĠJ ess
g on
ĠGo ogle
ĠForsch ungs
ĠM az
R Ã©
Ġd orpen
% ),
ant ly
Ġdesc ribe
ĠÐļ ÑĢÐ¾Ð¼Ðµ
ĠRich mond
ĠM uch
ĠG ir
ĠÐ³ Ðµ
ĠÐ¾Ðº ÑĢÑĥÐ¶
ĠÐ¾ÑĢ Ð´ÐµÐ½
ĠÑĩÐ»ÐµÐ½ Ð¾Ð¼
De ath
ĠDen emarken
Ġa im
ĠTra iner
Ġ179 3
Ġal to
Ġmet ro
ĠMc K
Ġverkl aarde
ren nen
Ġres ign
ĠÑĥÐ½ Ð¸ÑĩÑĤÐ¾Ð¶
ĠS ony
ge gen
ĠAl ger
Ġkant on
ĠZent ral
ĠOffic er
Ġbev rijd
ĠÐºÐ¾Ð½ Ñģ
Ġjo ven
Ð¾Ð² Ð¾Ð»ÑĮ
Ġde cade
ie Ã«n
ric ulture
ĠÐĺ ÑģÐ¿
ĠÐ· Ð½Ð°Ðº
Ġbev atten
Ġrepla ce
ĠÐķÐ²ÑĢÐ¾Ð¿ Ñĭ
Ġa parte
Ġopn ames
ĠH els
Ġn ations
ĠBet ween
Ġlong itud
Ġown ers
ĠGer ichts
Ġbre de
Ġval ley
Ġf Ãºtbol
ĠF ot
all es
ĠbetrÃ¤ gt
ĠC av
ĠF em
Ġbritann ique
ich i
ĠÐ² ÐµÑĢÑħ
str ong
Ġb oord
if ts
mo ins
ok u
ad ier
Ġfuer te
ĠStef an
ĠLu ke
yl on
le itung
ci ente
Ġprogram ming
ĠL ub
ĠAle mania
n ischen
ĠLouis iana
bren gen
ĠSymph ony
Ġphilosoph y
ÑĪ ÐµÐ¼
ĠÐ³ÑĢÑĥÐ¿Ð¿ Ð°
l ik
Ġvoor ste
Ġbete kende
Ġwen ige
ĠD io
hol der
ĠÐºÐ¾Ð¼Ð¿ Ð¾Ð·
Ñı Ñĩ
ĠT Ã¤tigkeit
ĠRos a
ĠNic ola
ale is
Ġdev ice
Ð½Ð¸Ðº Ð°Ð¼Ð¸
Ġ184 1
T ras
ĠH aut
ill os
ĠL Ã¤nge
ir ma
Ġdec ir
Ġon es
Ð´ Ñĭ
vorm ig
ĠB le
ĠD aten
Ġent w
Ġopen baar
Ð»ÐµÐ½ Ð¾
ĠMit chell
Ġref us
Ġfol gten
ĠPriv at
Ġcom te
Ġt ennis
ĠR idge
ĠÑģÐ²Ð¾ Ð¸Ð¼
Ġexc ell
ĠJon athan
Ġd ome
Ġm use
ĠÐ²ÐµÑĢÐ½ ÑĥÐ»ÑģÑı
Ġbescherm ing
Ġer reichen
ĠÐºÐ½Ñı Ð·
ĠÐ´ ÑĢ
Ġvers laan
Ġge allie
Ar m
Ġzu ido
ĠBij bel
ĠGott es
ĠBras il
ok ed
ĠMit arbeiter
ĠÃºn ico
ĠW agner
ĠGe gens
Ġp y
id ay
Ġaf gebroken
Ġhead ed
ĠKomm un
ĠF ellow
Ġcan on
ĠFre ib
Ġ184 3
z ens
Ġv ÃŃ
Ġh ill
ÐµÐº Ð°
Ġac id
Ð½Ð¾ÑģÑĤ ÐµÐ¹
Ġespe cies
N et
ĠÑĪ ÑĤÐ°
Ð°ÑĢ Ð¼
ĠDes de
M er
Ġpro che
ĠÐĴ ÑģÐµ
Ġst ood
Ġ183 5
Ġdeel nemers
Ġturn s
ĠÐĲÐ»ÐµÐºÑģÐ°Ð½Ð´ ÑĢ
Ġpro long
Ġmet tre
pro ject
Ġlijk en
ĠB eit
ĠSch les
Ġdarauf hin
ĠM acht
ĠRo om
Ġbott om
Ġvoor naam
i u
ress ie
gesch reven
ĠÐ·Ð°Ðº Ð¾Ð½
Ġf el
ÑģÐº Ðµ
Ġpre uÃŁ
Ġv oren
Ġspoor weg
ĠÐ¿ Ð¾Ð·Ð´
Ġspirit ual
Ð¾Ð² Ð°ÑĢ
ĠRe ino
vol le
Ġherman o
own ed
lu ence
ĠGu atem
ĠÃģ ngel
Ġqu itte
ÑĢÐ°Ð² Ð½
ath y
h all
Ġc ot
Ġatta ched
Ġdeliver ed
âĢ ī
ĠSch Ã¶n
it ur
ĠF ive
Ġesc uela
Ġverst erk
Ġc Ã´t
je v
ĠEd die
gra f
Ġ183 2
Ġhij a
gel en
ĠÐ¸ÑģÐº Ð»ÑİÑĩ
Ġb Ã©nÃ©
ĠIsrael i
Ġret ained
fe hl
ĠMar co
Ġstopp ed
A pp
m olen
Ġsav oir
Ġ9 1
Ġapoy o
ĠN at
Ġgro ss
Bel g
ÑĳÐ½ Ð½ÑĭÐ¹
Ġsom ew
Ġbeleg te
Ġv Ã©rit
ĠM TV
we i
ian te
Ġv loot
Ġp Ã©n
ĠGren ze
Ġw ait
ĠTe genwoordig
ĠÑħÐ¾ÑĤ Ñı
Ġoccup ation
Ġwerk ing
Ã¤r k
ĠPap st
ĠnÃ¤ch sten
Ġresult ado
ĠA ri
Ġcomp la
Ġpre ced
Ġrest ored
Ġshow ing
t el
Ġa gency
Ġben annt
Ġpap ier
ĠM is
Ġk id
ĠÐº Ð»Ð°Ð´
Ġown ership
Ġc aught
ĠH old
Ð± Ð¾
ĠBr Ã¼
ferent ie
ĠG ulf
ĠÑģÐ¸ÑģÑĤÐµÐ¼ Ñĭ
ĠÐ´Ð¾Ðº ÑĥÐ¼
Ġvo ix
Ġb omen
Ġfa isant
ÐĲ Ð½
Ġemp f
ĠÐ¿ÑĢÐ¸Ð½ ÑıÐ»
ĠS K
Ã© h
eg al
ĠW erner
ĠÐ²Ð¾Ð·ÑĢÐ°ÑģÑĤ Ðµ
Ġb eleid
uis se
Ġtra p
ĠGil bert
A V
ork est
Ġhistor ian
Ġdivis ions
Ġconsist ing
Ġlit era
E E
ĠMunicip al
ĠÐ¿ ÑĥÐ½ÐºÑĤ
ĠS ah
ĠB Ã¼h
rÃ© d
ĠÐºÑĥÐ»ÑĮÑĤ ÑĥÑĢÑĭ
ĠAmerik aans
Ġhoeveel heid
ĠÐ¾Ð´ Ð½Ð¾
ĠEnerg y
ah re
ma ak
Ġgesch lossen
uck er
ipp ing
ĠCro wn
Ġvoor af
ass ung
ath a
ĠS ultan
ĠY e
sp rach
M ad
el der
ĠÑĥÑĩ Ð¸Ð»Ð¸Ñī
Ġbez etting
ĠPeters burg
s ie
an while
ant i
ĠSp iele
ĠfÃ¼hr en
ur st
c ourt
Ġdr iver
ĠwÃ¼r de
Ġentfern t
Ġf lying
ell and
ĠÐ±Ð¾Ð»ÑĮÑĪ Ð¸Ð½
as ure
Ġen l
Ġcom itÃ©
ph ere
Ã©t at
ĠPort land
ĠÑĥÐ² ÐµÐ»Ð¸Ñĩ
ĠC BS
Ġgeh aald
Ġ[ âĢ¦]
ĠÐ¾ÑĢÐ³Ð°Ð½Ð¸Ð· Ð°ÑĨÐ¸Ð¸
u iv
en er
Ġcaus a
ĠIn vest
ĠGer ard
Ġdub bel
Ġveel al
Ġz une
ĠC are
ĠT ourn
Ġgel egd
ĠEg ypte
Ġrepresent ing
Ġro llen
ĠEst o
Ġobt uvo
Ġaccompan ied
Ġad vent
ĠMet ropolitan
Ðŀ ÑĤ
fass ung
Ð ®
ĠÑĤÐ°Ðº Ð¸Ñħ
uiten ant
Ġdif eren
ÃŃ m
Ġmilit Ã¤r
l s
ĠB od
Ð³ Ð¾ÑĢ
fr ast
Ġc ine
Ñĩ Ð°ÑģÑĤ
Ġin m
ok es
Ġmo chten
Ġbel asting
Ġpas o
Ġadj acent
ĠÑģÑĤÐµÐ¿ ÐµÐ½Ð¸
incl uding
ĠJo den
ĠÐ¿ÑĢÐ¾Ð² ÐµÐ´
Ġuns uccessful
ĠEr nest
Ġgeve cht
Ġformer ly
Ġto x
ĠArgent in
Ġinter esse
y on
ĠSur in
ĠMÃ¤n ner
f ran
oc cas
Ġhe at
ek ra
it us
se ason
Ġinter pr
Ġall ÃŃ
ĠÐ» Ð¸Ð³
Ð½Ð° Ð·
Ġposs ession
Ġde lay
ĠS amm
Ġpersonn age
ĠÐ¾Ð± ÑıÐ·
ty pe
ĠVere ins
Ġmeis je
ĠO range
ac te
Ġverwij derd
v ient
w iel
or is
ĠE cu
Ġbe halve
Ġfest ivals
á º
ĠB Ã©
ĠF Ã¶rder
Ġer kend
Ġden n
iÃ« r
m ale
Ġaange past
Ġaande el
ĠHe bre
Ð¼ ÑĥÐ½
Ġver lieÃŁ
ÐµÑĢ Ð½Ð¾
ord in
Ġvrij will
zeich en
Ġde venir
Ġtown ship
ver walt
Ġdu c
ĠÐ¿ÑĢÐ¾ÑĨ ÐµÑģÑģ
Ġpru eb
et ische
nam ige
Ġnun ca
ĠA gency
Ġsu icide
ĠÐ½Ð° ÑĥÐº
ĠNaz i
i ya
Ġg olden
ĠPer form
Ġpolit ische
ĠJo an
Ġwind ows
Ġmin ing
Ġsecond s
ĠSh aw
Ġke uze
ĠBrun o
ĠSm all
H ans
Ġom vat
ĠC ulture
ĠN ova
Ã¶ p
Ġv as
Ġb edeut
geb ra
ĠBr istol
oc ratie
Ġes pect
ĠAg ain
ĠN og
opp ing
Ġbet alen
Ġmod ellen
volg ing
ads lid
Ġco usin
Ġ9 4
ĠH essen
Ġpl ots
zeich nete
akt ion
198 8
Ġteach ers
Ġ18 10
ĠMa ine
ĠReg ister
ĠÐº ÑĢÐµÐ¿
Ġna ciÃ³
schein lich
Ġvoor keur
ĠÑİ Ð³Ð¾
ĠBudd h
m ogelijk
Ġus er
Ġplan et
ĠFin ale
ĠWels h
ĠP le
ĠAthlet ic
il igen
Ġsup Ã©rieur
ĠJer ry
Ð² Ð¸Ð¶
Ġcomb ination
ele ction
Ġ Ã³r
ĠU pon
Ġequip os
ĠN assau
ĠJ oy
bo eken
Ð°Ð½Ð´ Ð¸Ð´
Ġespecial mente
ers en
ĠN CAA
Ġex pect
Ġgreat est
ĠÐłÐ¾ÑģÑģ Ð¸Ð¹ÑģÐºÐ¾Ð¹
Ð°Ð»ÑĮ Ð½Ð¾Ðµ
Ġke inen
Ġ183 4
gro epen
ĠÐ¾ÑģÐ½Ð¾Ð² Ð½Ð¾Ð¼
ĠÐĲÑĢ Ð¼
ab ol
Ġ180 6
Ġapro xim
Ġpart ners
bre ak
Ġwind ow
Ġcritic ized
Ġt ail
anci en
Ġcar n
ĠKe izer
Ġtouch down
mer en
ĠÐ¸ Ð´
orm ais
ĠÐ²Ñĭ ÑģÑĤÐ°Ð²
Ġins pe
H ab
Ġst ieg
Ġup d
h es
ĠP ink
Ġverb lijf
ch ron
ĠN g
Ġkab inet
ÑĢÐ¾Ð¿ ÐµÐ¹
ve z
âĢĭ _
Ġmen cion
ĠCl inton
Ġpresident ial
Ġincluy endo
ĠSatur day
al g
kom ende
Ġsch nell
Ġfran ces
ow o
ok o
Ġcontribut ions
Ġb und
Ġpass ion
ĠWW E
ze ugen
ĠÐ» ÐµÐ²
ix on
Ġmass ive
ĠÐ¾ÐºÑĢÑĥÐ³ Ð°
B ern
Ġ183 1
Ġmus Ã©e
Ġtit ul
Ġk os
ĠD iv
rij s
ĠJos h
ĠÐº Ð¾
Ġprepar ed
Ġnom ination
ĠShakespe are
Ġha ir
A L
he ater
ĠV at
Ġents te
ĠBere its
Ġvir us
_ âĢĵ
ĠÃ©t rang
ĠprÃ© par
reib en
ĠÃ©conom ique
Ġuitzonder ing
ĠNav ar
G re
ent hal
ĠTra de
ĠgrÃ¶ÃŁ te
ĠCirc uit
ĠE c
Ġbev estigd
groe id
g i
ĠZeit punkt
ide m
ÑĢÐ° ÑĨÐ¸Ð¸
Ġho he
ĠM ang
Ġinter ne
Ð»Ðµ Ñĩ
mat ige
Euro pa
n ed
Ġcar rying
ĠL P
ĠR uf
Ġon middellijk
Ġdec enn
Ġdep th
mus ik
umin ium
ĠGÃ¶ tt
rÃ© al
ĠS R
ĠI áµīÊ³
ater dag
Ġextre me
ri ffen
hab ilit
Ġcred it
ĠMe in
ĠPer u
Ġev acu
Ġsoll en
ĠÐ´Ð¸Ð²Ð¸Ð· Ð¸Ð¸
ĠÐĲ Ð´
l ot
Ġgr ass
Ġin glÃ©s
Ġtyp ical
Ġbesch uld
Ġinter ess
Ġmy st
ĠNor way
Ġthous ands
ĠÑģÐ¾Ð² Ð¼ÐµÑģÑĤ
Ġf ired
Ġn ick
ĠW rit
ĠÐ¸Ð¼ ÐµÐ»
ÑĥÑī ÐµÑģÑĤÐ²ÐµÐ½
Ġz eld
Ġle bt
Ð± ÐµÑĢÐ³
Ġ12 00
Ġmusic ians
aupts Ã¤chlich
a and
Ġele cciones
qu ences
Ġtermin al
Ġslachtoff ers
U m
Ġf at
ĠD ragon
Ġdiff us
ĠespÃ¨ ces
Ġdro ite
ze iten
Ð»Ð¸ Ð¶
yd ra
Ġbescher men
verte genwoord
B N
v ig
Ġcl an
ĠÐ¢ Ð¾Ð¼
Ð¾ÑĢ Ð¾ÑĤ
da agse
on iem
ĠÐºÐ°ÑĦ ÐµÐ´
ĠP ero
Ġovert u
Kar riere
iet ies
Ġval or
ĠV iv
Ġreturn s
Ġsp at
ĠÑģÑĤÑĢÐµÐ» ÐºÐ¾Ð²
Ð¾ Ð¸ÑĤ
ĠG az
ÐµÐ½Ð¸Ñı Ñħ
Ġint itul
d r
Ġeen heid
Ġme z
ĠÐľ Ð°Ð»
Ġtrop as
ĠU hr
Ġdr iving
Ġpro mpt
Ġshoot ing
stÃ¤t te
ĠÐ¿ÑĢÐµÐ´Ð¿ÑĢ Ð¸ÑıÑĤ
f onie
er ts
im il
ĠÐºÐ¾Ð¼ Ð¸ÑĤ
Ġsched el
f alen
Ġf ron
Ġbe endete
app el
Se ine
Ġdeg rees
Ġmuzik ale
ort un
Ġfig ur
ĠD iet
um i
ĠÐ½Ð° ÑģÑĤÑĥÐ¿
ĠOtt oman
ĠCong o
ĠÑģÐ¾ÑĨ Ð¸Ð°Ð»ÑĮ
te erde
zeich nungen
Ġd rag
ĠN ur
ĠK ranken
Ġt onen
ĠÐ¤ÑĢÐ°Ð½ ÑĨÐ¸Ð¸
Ġgrond gebied
Ã¡ lez
ĠSw itz
ĠÐ¼ÑĥÐ¶ ÑĩÐ¸Ð½
Ġdebut ed
p are
Ġt ack
k W
ig i
ach im
Ð¸Ð½ Ð³ÑĢÐ°Ð´
ĠLa ura
Ġtrava ille
Ġsuggest s
Ġ Ã³
Ġqu ot
sch rij
Ġret ra
Ġproble mas
FranÃ§ ois
k ond
m ile
ĠRa w
Ġd adurch
Ġdoc ent
Ġcr imin
ĠNou velle
Ð¼ Ð¼
ĠHud son
Ġ á
ĠSt Ã¼ck
Ġten ÃŃan
ĠTest ament
Ġst aten
ĠGegens atz
Ġconsecut ive
ĠS low
ind a
Ġpass engers
Ġconstit u
ĠUr ban
Ġl Ãł
op baan
Ġv idÃ©
Ġl iste
Ġcompr is
ĠÐ½ÐµÑģÐºÐ¾Ð»ÑĮ ÐºÐ¸Ñħ
Ġd uties
Ġc il
ĠMed ien
Ġverw ant
Ġm Ã¶
Ð¸Ð± Ð¸ÑĢ
Ġmob il
ed es
ĠÑĥ Ð¼
198 5
Ġl eren
ach ts
Ġecht genote
Ġo verse
r aron
ĠI P
urs o
est and
Ġon s
on ais
ĠSwitz erland
ĠS onn
Ġrel eg
Ġgroot te
Ġrel acion
Ãī cole
ĠAut o
m Ã¨tres
Ġvertre k
an al
on ing
us ement
ĠZ one
ĠMuse o
ĠD im
Ġperson ne
Ġle icht
Ġcom Ãºn
ĠÑģÐ¼ Ð¾Ð³
ĠEdu ard
crip ciÃ³n
Ġfundament al
ĠT oy
ĠÐ¾ÑĤÑģ ÑĥÑĤÑģÑĤÐ²
w irk
198 6
Ġin houd
ĠÐ·Ð½Ð°Ñĩ Ð¸ÑĤÐµÐ»ÑĮ
ill i
p ot
Ġle itete
land o
Ġac omp
ĠÑĨÐµÐ½ÑĤ ÑĢÐ°
ĠÐĺ ÑĢ
d est
ĠR AF
Ã©r ations
ĠNic ol
edd ing
ĠÐĺÐ² Ð°Ð½Ð¾Ð²
Ġgebe urt
Ð¸ÑĤ Ñĭ
ĠAlle en
Ð¾ÑģÑĥÐ´Ð°ÑĢ ÑģÑĤÐ²ÐµÐ½
Ġerw arb
H C
v ideo
Ð¸Ð» Ñı
ĠE mb
ĠSystem s
ĠOrts teil
om ineerd
ĠÐ¼ÐµÑģÑĤ Ðµ
z aal
Ġe volution
Ġinst ance
ĠB ase
Ġnot ably
Ġfa Ã§
ĠBas is
ĠD um
Ġw uchs
Ġbran ches
T ur
Ġactiv idad
re eg
Ġperson age
f unk
Ġmin uut
ĠJul ia
eff ect
Ġopin ion
Ġsubject s
et own
Ġch im
Ġengine er
ÑĢ Ð¸Ñħ
ro b
Ġk al
Ð¸ÑĨ Ð¸Ð¿
ark ed
ic z
Ðº Ð°Ð¼
Ġstar red
Ġis lands
Ġfe cha
Ġoffic ier
Ð¶Ð´ Ñĭ
Ġdess in
Ġv illes
ou e
es es
Ġcab inet
ir urg
ĠVien na
ĠMe isterschaft
Ġdegrade erde
Ġoff ensive
Ġ[ ...]
Ġmedic ine
Ġd ry
ur u
ĠC ec
id de
Ġlors qu
ruim te
ĠK it
ie b
Ġexc av
T en
ĠS Ã¤nger
ĠE re
Ð¸Ñĩ Ð°
Ġem igr
ĠPortug uese
ĠP hoenix
ĠÐ¿ÑĢÐµ Ð²
ĠSever al
k ol
An ton
Ġsepar ated
Amer ik
Ġarbe iders
ĠB ent
Ġllev Ã³
ĠDig ital
v uld
y cl
Ġs un
Ġp aard
A rab
Ġst ress
ĠÐ² Ð´
ĠP ublik
ĠK N
ĠÐ± ÑĢÐ°
vo eg
v l
Ġl isten
Ġp ant
ĠS we
Ġun us
Ġsqu adron
Ġcon cess
st all
ĠE ff
Ġest aciÃ³n
ĠCh airman
Ġtemp el
ĠMet al
Ġsitu aciÃ³n
ĠÐ½Ð°ÑģÑĤÐ¾ÑıÑī ÐµÐµ
Ġl ichte
Ġoost elijke
a qu
ĠÐ± ÑĢÐ¸Ð³
ĠDel ft
Ġne ef
ĠÐ¼Ð½Ð¾Ð³ Ð¸Ñħ
aut om
ĠKir k
neh mens
att ers
Ġged ragen
Ġben ad
Ġorganis aties
Ġh Ã©
ret Ã¤r
Ġfun cties
ĠS PD
Ġvoor z
Ġpre cis
athar ina
ĠJane iro
V al
Ġs op
un ci
le ving
Ð¾Ð» Ð°Ð³
ĠÑĦ Ð¾ÑĤ
ĠCar lo
Ġleg te
ĠStre it
Ġnet werk
od os
Ġat ra
ĠÐ¿ÑĢÐ¸Ñģ Ð¾ÐµÐ´Ð¸Ð½
ĠÐ¡Ð°Ð½ ÐºÑĤ
pr end
Ġcateg ory
Ð½ Ð¸Ð¸
Ġk ies
Ġop ende
Ġre kening
ĠN BC
Ġse em
ĠI ch
ĠÐĲ Ð±
Ġge gaan
wÃ¤r ts
Ġou vert
ra den
ĠNach bar
Ġgez ag
ĠEurop Ã¤
ĠCommun ist
pr in
ernoo ien
ĠÐĵÐµÑĢÐ¼ Ð°Ð½Ð¸Ð¸
c z
Ġk g
we isen
uv re
spiel er
Ġlegisl ation
Ġmet hode
ĠTer ry
âĤ ĥ
Ġdipl oma
ĠP ep
ren n
ĠTh ough
Ã¶l f
ĠKonink lijk
ĠPop ular
ale za
198 7
Ġa illeurs
ÑĢÐµ ÑĪ
ĠÐºÐ¾Ð¼ Ð¸ÑģÑģ
Ġ179 5
ard i
Ġdra wn
ĠBos ch
Ġinvest ment
Ġspe cul
Ġassist ent
ĠÑĢÐ°Ð·Ð»Ð¸Ñĩ Ð½ÑĭÑħ
d elen
âĢľ ._
Ġeven ing
ĠRena ult
h ens
ĠÐ¾Ð±Ñī ÐµÑģÑĤÐ²ÐµÐ½
que z
ĠUnterstÃ¼tz ung
ĠF res
S i
Ġf alls
Ġk iezen
ĠNiger ia
ĠG aul
ĠG reece
ĠPri or
ĠmÃ¡ xim
ĠÐ¸Ð·Ð± ÑĢÐ°Ð½
Ġgesam te
Ã©cur itÃ©
ĠÑĥÐ¿ÑĢÐ°Ð² Ð»ÐµÐ½Ð¸Ñı
Ġille gal
d as
Ġfe el
ĠGu illaume
Ġpro vo
ĠÐĳ Ð¾Ð³
ĠVerfÃ¼ gung
f le
ĠR unde
Ġr am
rom os
ĠJe ux
Ġens ure
ap y
ĠÑĩ ÐµÑģÑĤÑĮ
ĠSing h
ĠH ub
Ġren ew
Ãº a
ĠVoor al
Ġre ception
ĠrÃ© uss
ĠEm ma
ahr en
midd elen
ĠÐ¡ Ðº
ĠSe ven
Ġhistor ique
Ġjug ador
Ġinfer ior
Ġro ts
ĠÐ²Ñĭ Ð´ÐµÐ»
ĠCar ib
Ġass ault
Ġnegent iende
Ġom vang
Ð¾Ðº Ñģ
Ġconf igur
Ġdaugh ters
ĠVerwalt ung
Ġg ig
Ð¾Ð² ÐµÐ´
ĠG att
Ġrec og
ĠÑģÐ¾Ð·Ð´ Ð°Ð½
Ġstay ed
Ġpurpos es
Ġro w
Ãª tes
ĠPar ÃŃs
Ġdis appe
lan ge
Ġactiv itÃ©s
Ġmens elijke
int Ã©
Ġubic ado
Ġvel oc
N ot
ĠW ing
Ġcom ic
Ġonderd elen
P or
hal le
Ġfact ors
cuen cia
u zen
Ġel las
Ġso le
in ity
Ġn ied
Ġjong eren
Ġcom pete
ÃŃ fic
ĠÐļ Ð°Ð½
Ġtro on
Ġges cheiden
Ġpolic ies
ĠIndust rie
Ġimpr ison
Ġ NE
ĠM S
ĠN aar
ĠÑģÐ¾ ÐµÐ´Ð¸Ð½
Ġc oc
Ġverm utlich
b Ã©
ag ua
ĠÐ¢ ÑĥÑĢ
Ġases in
ric al
Ġconcern s
Ġextrem ely
Ġcre aciÃ³n
Ġann iversary
row s
Ġj eder
h ende
Ï ĥ
am ientos
z uf
ĠÂ §
Ġimp ression
Ġverh oud
Ġt ales
pro ble
Duits land
la bor
Ġdec idiÃ³
ĠInstit uut
Ġnob le
orf iets
ĠgeÃ¯n ter
Ġf ly
ĠMo der
Ġpropos e
x te
ĠB alk
ĠÐ¸Ð¼ Ñı
Ġsp rak
ĠÑĨ ÐµÐ»ÑĮ
mit glied
Ġvle ugels
bos ch
GÃ© ographie
Ġvol ont
Ġprop ia
Ġge ogrÃ¡fica
ĠÑĤ Ð¾Ð³Ð´Ð°
ĠVer g
amerikan ischer
Ġd al
le ut
co unt
Ġequ ivalent
S ta
re chte
ÐĴ Ð¾
Ġsignificant ly
Beg in
Ġg aven
ĠLaur ent
re ci
Ġont b
ĠÐ²Ð¾ Ð¾ÑĢÑĥÐ¶
Ġprod uits
ĠC rit
or r
Ġex amples
Ġtwe emaal
Ġce inture
club s
Ġwir kte
ĠÐ¤ ÐµÐ´ÐµÑĢÐ°
an alyse
Ġen voy
Ġe ye
ÑĢ Ð¾Ð±
Ð¸ÑĤ Ð°Ð¹
Ġvorm den
Ġverble ef
Ġac teurs
Ġunder standing
ĠÐ¿ÑĢÐ¾Ð² ÑĳÐ»
ĠL icht
Ġgene es
Ġch ain
ĠAn a
Ã¶r dert
Ġch ampions
ĠÐ» Ð¸Ð±
Ġparticip Ã³
Ġstre ets
Ġro uge
Ġsec onden
bo gen
Ġmod Ã¨le
ĠÐ¾Ñĩ ÐµÑĢÐµÐ´
ĠH ern
Ġdes ap
Ã¶ sen
Ġers etzt
ĠH ert
mer kt
ÑĥÐ½ Ð¸ÑĨÐ¸Ð¿
Ġliber al
ĠMuh ammad
b ut
Ġch ac
ĠG len
Ðº Ð¸Ð¼
ĠÐ¿ÑĢÐ¸Ðº Ð°Ð·
ĠÑĥÐ½Ð¸Ð²ÐµÑĢÑģÐ¸ÑĤ ÐµÑĤ
Ġlog rÃ³
occas ion
al on
Ð¾Ð² ÑĭÐ¼
ĠSte el
j aard
ett res
ĠF ine
ĠN ancy
ĠW ider
Ġsp in
ĠMa ÃŁ
Ġport ug
Ġur b
Ġgebeurten issen
Ġsch ak
19 60
Ġsever e
Ð°ÑĢÑĤ Ðµ
ĠM ember
Ġdoor gaans
Ġtit els
Ġadapt ation
ĠÐ¿Ð¾Ð» Ð½Ð¾ÑģÑĤÑĮÑİ
Ġverd ween
abil idad
ĠÐ¼Ð¸ÑĢÐ¾Ð² Ð¾Ð¹
ĠÐ¼ ÐµÑħÐ°Ð½
Ġon ze
Ãª tÃ©
hank elijke
Ġpaar den
ĠLehr er
ĠSpe ed
ol ie
Ġs or
Ġl ich
Ð¾Ñģ Ð¾ÑĦ
Ġl ov
ĠAd miral
ĠE qu
zen e
ĠMc G
gra af
Ġprote in
ÑģÑĤÐ²ÐµÐ½ Ð½Ð¾
ulo use
ĠBob by
Ġbe wijs
ĠâĢ ļ
Ġdien sten
Ġnuev os
m aster
leg io
ĠÑģÐ¸Ð¼ Ð²Ð¾Ð»
Ãª ts
Ġd ijo
ĠS ay
ĠAn toine
Ġinv it
halt ung
w issenschaften
ĠVert reter
Ä Ł
st ance
Ð¾Ð² Ð°Ñı
Ð°Ðº Ð¸
Ġaanv allen
Ġmeas ures
ĠC ord
ĠÐºÐ¾Ð» Ð¾Ð½
Ġre action
Ð¾Ñħ Ð¾Ð·ÑıÐ¹
Ġper haps
Ġpract ices
Ġp hen
Ġdem ocrat
Â Ń
Ġst ret
Ġat ac
Ġcons ul
ĠPf lanzen
ĠExp ed
pre is
Ġrespons ibility
C S
Ġen z
ian en
Ġed iciÃ³n
ĠCarol ine
Ġgera akt
ĠgeÃ¯n trodu
ĠSch le
ig g
ĠV and
Ġgew ijz
ĠperÃŃ odo
ĠBeg in
Ġexpla ined
P ublic
Ġmus sten
' )
ĠR oh
Ð¶ Ð°
Ġgro t
Ġfa ill
hand lung
ĠH unter
co de
Pro fess
Ġver hoog
h ow
Ð´ Ð¾
Ġpan el
Dem ografÃŃa
Ġcultur ele
Ġumf asst
g ard
Ġr idder
ĠL omb
bo ven
ĠGre y
Ġra akt
198 4
Ġb aj
pro fess
ĠÐ¾Ð± ÑĢÐ°ÑĤ
kir chen
ĠStu art
Ġre chte
Ġdar Ã¼ber
ia h
Ġontst onden
ol lo
Ġfil ed
cht ers
ĠÐ´Ð°Ð»ÑĮ Ð½ÐµÐ¹
Ð°ÑĤ Ð°Ð»ÑĮ
Ġcons olid
Ġreg ro
Ġp oc
ynast ie
ĠEsc uela
Ä Ļ
red es
er y
Ġantigu o
ĠTomm y
ĠT T
Ġind ire
ĠVol k
Ġtrad itions
Ġre tre
Ġide al
Ġbr ill
et he
Ð½Ð¸ÑĨ Ð°
ĠTurk ish
P lay
ĠVal le
Amerik aanse
ĠArn hem
ĠPrin cip
ir ent
ĠTe atro
ĠSen ator
Ġbra in
ĠVerte id
ĠGonz Ã¡lez
Ðº Ð°Ñı
Ġra ise
ĠSp irit
Ġsoci aal
ibliothe k
Ġvl uchten
ĠO ct
igen ous
Ġam Ã©ricaine
Ġexped ition
Ġauc un
S am
ol ia
res teerd
Ġfre quen
Ġno emt
Ġcomm it
Ġpubl ishing
Ġ183 3
Ġ( âĢ
Ġex erc
Ġkom st
ĠClass ic
Ġah ora
Ġm outh
Ġaf d
Ġsyn d
Ġprop or
Ġn uit
ĠA ction
Ġneg oci
ĠL ith
ĠK ob
ir ie
ĠCh i
Ġpopular ity
Ġplut Ã´t
ur idad
ge erde
Ġcompos itie
Ġsurv iv
ĠFel ix
Ġun as
ĠÐŀ Ð½Ð°
Ġgradu ating
ĠÐ¾ÑģÐ² Ð¾Ð±
ĠÑģÐµÐ± Ðµ
ud i
Ġkap itein
Ġontmo et
ĠÐ²Ð¾ÑģÑģÑĤ Ð°Ð½Ð¾Ð²
ilit eit
get ragen
ĠZeit ung
ass ador
ĠÐ½Ð° Ð¸Ð±Ð¾Ð»ÐµÐµ
ĠÃ©l Ã©
Ġinclus ief
Ġm om
Ð² ÐµÐ¹
ĠÃ¼bern ommen
ĠHeidel berg
ĠD och
ĠI k
ub a
Ã¶ h
ĠHeil igen
ĠW and
ond o
ĠRich ter
Ġcross ing
Ġcomput ers
ĠS ans
ĠÃ© vol
ĠÑģÐµÐ» Ð¾
ĠÐ²Ð½ÑĥÑĤ ÑĢÐµÐ½
Ġqual ified
os es
Ġge pl
ĠAl berto
Ġpri ze
ĠBau ern
ĠSchwar z
Ġtru st
ugos lav
inten do
Ġval ues
Ġk aum
ĠÐ´Ð¾Ð¼ Ð°
Ġcha Ã®
or st
Ġh auptsÃ¤chlich
ier n
Ġch allenge
ĠH onda
ĠInd ien
ĠS uch
Ġest ren
ĠCh ang
Ġsn ow
Ġr amp
ĠK op
ier ter
Ġom streeks
Ġhy per
ric itÃ©
Ġfa ut
ĠÑĢÐµ Ð»Ð¸
ĠPict ures
ĠÐ´Ð¸ÑĢÐµ ÐºÑĤ
ĠMed iter
Ù Ħ
âĢ ¢
ĠÐ¿ÐµÑĢÐ² Ð¾Ð³Ð¾
Ġidee Ã«n
Ġeigen schappen
is tem
Ġh ur
ĠP ay
uk te
Ġperson a
Ġstop te
A cc
Ġau stral
ĠAn lage
Ð°Ðº Ð°
ĠÐºÐ¾Ð½ ÑĦ
Ġenco unter
Ġk ool
Ġj ump
Ġneighbor hood
ĠerÃ¶ff net
Ġrec ens
Ġ179 0
Ġpsych iat
E ind
Ġges pre
Ġfl or
ĠĠĠĠ ĠĠĠ
Ġabs or
ĠSebast ian
ag i
Ġ18 18
Ð¾Ð¶Ð´ ÐµÐ½Ð¸Ðµ
ĠLand wirtschaft
Ġforma ciÃ³n
Ġcomp orte
Ġcamp aÃ±a
ĠIsa ac
L uc
l oper
Ð» ÐµÐ²
Ġst orage
ĠÑĥ ÐµÐ·Ð´Ð°
Ġlang zaam
Ġsculpt ure
Ġt aille
ual es
Ġgest ion
Ð² Ð¸Ð³
itar ist
ig ungs
ĠD od
Ġpers ons
Ġfac ulty
ÃŃst ico
ĠG and
Ġfe ed
unt os
Ġhe ures
lo o
ĠÐ± Ð¾Ð»ÑĮ
ĠCon stit
Ġna zi
ar ante
ĠE y
Ãª mes
I f
ĠÐ¿ Ð°ÑĤ
Ġse igneur
ag uay
Ġdefin itie
ĠOfic ina
f oon
Ã¤ ten
ĠrÃ©g ime
Ġliqu id
Ġcon temp
pro chen
ĠCom ics
Ġv Ã³Ã³r
Ġe yes
de aux
Ġpro g
Ġwe es
Ġacc us
ex ist
Ġp hr
Ð» Ð¸ÑģÑĮ
Ġalg or
Ġprimer as
ĠColl ins
Ġth ick
Ġklim aat
Ñĥ ÑĢÑĥ
ĠSur vey
Ġeuro pe
ĠÑģÐµÐº ÑĢÐµÑĤ
o j
Ġb irds
ci ence
Ġet appe
ĠIn te
Ġmembers hip
Ġespa cio
ĠÐ¿ÐµÑĢÐµÑĪ ÑĳÐ»
un ning
Ġgleich zeitig
ĠÐºÐ»ÑĥÐ± Ð°
ach i
elo os
Ġhe ette
Ġbest en
Ġpers Ã¶n
ĠComp agnie
ĠgÃ©n Ã©rale
u ver
et al
ĠÃ© ch
Ġwaar aan
Ð¸Ðº Ð¾
bo und
Ã§ ant
Ġprison ers
Ã³r d
ĠÐ´ÐµÐ¿ ÑĥÑĤ
ĠDen kmal
ĠKon z
w ers
ĠL oc
ĠTer min
Ġter rest
ÑĢÐµ Ð³
Ġvict ims
vo erder
Ġb anks
Ġ10 1
Al lemagne
Ġtrop ische
ÑĤÐ¾ÑĢ Ð¾Ð¼
ic it
sch ul
av oir
ĠAnt werp
ĠDef ense
stra f
ĠcrÃ© Ã©e
Ġarch ae
Ġdeter mine
Ġpro beren
ĠÐ´ Ð¾Ð³
ins ula
ĠA ra
ĠÐ¶ Ð¸Ð»
bo om
Ġmarch Ã©
s icht
Ġles qu
Ġincreasing ly
rie ks
ĠÐ½ÐµÐ· Ð°Ð²Ð¸ÑģÐ¸Ð¼
Ġb rick
Ġdist ributed
Ġgedeelt elijk
lo egen
Ġpe ak
Ġvictor ia
ĠP az
Ġd age
ic ion
Ġag o
in ks
Ð¾ÑĢ ÑĥÑģ
lic ation
ĠÃ ®
Ġconoc ida
Ġaflever ingen
ep el
g ue
ats on
ett ingen
Ġo cur
ĠL ager
Ġag ents
ĠÐŀÑĤÐµÑĩ ÐµÑģÑĤÐ²ÐµÐ½Ð½Ð¾Ð¹
O t
Ġab st
vert y
ĠÑģÑĩ ÑĳÑĤ
ĠShang hai
Ġl ad
ĠVers ion
ab led
ĠAl brecht
Ġar c
ĠAl aska
ĠEr w
ul as
Ġgere geld
ĠCont rol
Ġcontrovers y
ĠNijme gen
1 50
Ġw ins
ru kken
Ġenv ir
Ġp ud
Ġin icial
ĠW affen
ĠTsje ch
lich ten
ar ma
im port
Ġ18 17
ograph ique
ĠBern hard
Ġcritic ism
che len
Ġcomp uesto
ĠÐµ Ð¿Ð¸ÑģÐºÐ¾Ð¿
ÑĢÐµÐ¼ ÐµÐ½Ð½Ð¾
n orm
Ġat let
alis ation
d re
Ã¡ st
ert ed
ĠÐºÐ¾ÑĢ Ð¾Ð»ÐµÐ²
ro k
Ã© dition
ĠBelg ique
ĠAu ff
arbeit et
Ġeer dere
i able
ĠÐ¿ÐµÑĢÐ² ÑĭÐ¼
k rain
is i
pt on
ĠMart ÃŃ
Ġra in
ĠE arly
Ġreput ation
ĠW end
Ġv ary
Ġ18 21
Ġmod if
Ġvol umes
ĠÐ¿ÑĢÐ¾Ð² Ð¸Ð½
Ġmal grÃ©
ĠKÃ¶nig reich
lÃ¶s ung
i ros
k athol
Ġe b
med aille
ĠfrÃ¼ her
Ġra b
ĠMasch inen
Ġunivers ities
ĠÑĢÐµÑĪ ÐµÐ½Ð¸Ðµ
inst all
ĠrÃ©f Ã©rence
ff ende
ĠHer itage
x y
ĠP ack
Ġpubl ique
ar in
lan e
ĠÐŁÑĢÐµ Ð·Ð¸Ð´
ro de
ib ilidad
ĠrÃ© volution
Ã¤h len
ĠTur key
G rand
ĠÐ¿ÑĢ Ð¸ÑĢ
ogra af
ush ing
ĠG amb
ber ta
Ġkan aal
cep ciÃ³n
Ġrijk e
Lo opbaan
F e
ĠR ath
Rich ard
Ã¼ cht
Ġout re
Ġwieder um
ĠM etz
Ġsch l
ĠUt ah
ĠCat hedral
Ġmus ul
Ġchild hood
Ġpen alty
Ġdu el
ĠÑĢÐµÐ¶ Ð¸ÑģÑģ
Ñĩ Ð¸Ðº
me z
ink els
iqu Ã©
ĠS la
Ġ180 3
ĠNob el
ĠzerstÃ¶r t
ĠD raft
ink i
izen den
ĠWeit er
D AP
Ð» ÑĥÑĩ
ĠB urger
Ã« ren
Ġleef de
ĠÐ²ÑĭÑĪ ÐµÐ»
ĠSchauspiel er
ĠÐ° ÑĢÐµÑģÑĤ
Ġchar ter
Ġast ronom
Ġal ta
ck now
ol t
ĠOs lo
Ġscen ario
Ġgren st
ĠÐ² ÐµÑĢ
Ġfem in
ĠAb bey
ĠÐ¾Ð¿ ÑĥÐ±Ð»Ð¸Ðº
Ġarrang ed
l ets
ro qu
ĠY ale
Ġvol viÃ³
Ġverd rag
Ġhistor isch
iud ades
Ġkn app
Te chn
ĠMon ument
Ġhum ans
ĠÐ² Ð½
Ð°Ð½ Ðº
Ġmon uments
Ġrespons able
ĠB av
le e
Ġsol ar
Ġverlie fd
Ġmen ing
Ġaug ment
am ents
Ġbedo eling
E t
ar et
ĠÑĤ Ð¸ÑĤ
Ġontsn appen
ä ¸
Ġh uur
ĠK och
p m
Ġc ient
ĠZ ag
Ġr ally
ĠMus ical
ĠÃ¶st lich
ĠCent ury
Ġaand elen
Ġt ren
or re
it able
Ġ18 25
ĠÐ·Ð°Ð¿ Ð¸Ñģ
ĠEn vironment
rat ing
mittelb ar
Ġverk reeg
ĠOr gel
Ġuitsluit end
h ill
it ure
Ġp ure
ĠW en
ĠÐ¾ÐºÐ¾Ð½Ñĩ Ð°Ð½Ð¸Ñı
c ond
Ġt elt
Ġp itch
ĠK ate
ĠÑĢÐµ Ñĩ
ia z
uy e
ko cht
ray ed
ĠKarl s
Ġgear resteerd
ĠEcu ador
Ð½ Ð¾Ð²Ð°Ð½Ð¸Ñı
Ġf ÃŃs
Ð» Ð½
ab ad
Ġtem as
Ġda ad
Ġgro ei
ip h
Ġwest lich
Ġboerder ij
Ð¾ÑĢ ÐµÐ²
Ġrev ista
sp ire
ĠdÃ©s ormais
ĠL ange
au b
Ġalle g
ĠHer bst
Ġinvol ving
Ġking dom
ĠÐłÐµÑģÐ¿ ÑĥÐ±Ð»Ð¸ÐºÐ¸
Ġsim ul
ĠEth iop
en o
er aal
al te
Ġcompos Ã©
Ġw ider
ĠF alls
Ġge geben
Ġch all
Ġamb assade
Ġdere cho
ĠÐľÐ¸Ñħ Ð°
Ñĳ Ð´
ĠI stan
ah nen
Ð¿ Ð¾
Ġden ied
ĠÑĤ ÐµÐºÑģÑĤ
Ġgem acht
Ge ographie
ĠUp per
Ġ ×
Ġk ond
ÃŃcul o
at tet
est one
ĠP u
Ġgele verd
Ġh als
ĠM ons
ĠÐ¿ Ð¸ÑģÑĮ
ĠÐ³ Ð»ÑĥÐ±
SC O
ente erd
ĠTo ulouse
Ġib n
ĠÐºÐ¾Ð»Ð¸Ñĩ ÐµÑģÑĤÐ²Ð¾
Ġh ern
ĠL Ã©
lo ze
Ġbet aald
Ã¼r k
Ð¾Ð» Ð¾Ð´
ĠÐ½Ð° Ð¿ÑĢÐ¸Ð¼ÐµÑĢ
Ġno che
ĠÐ¿Ð¾ÑĤ ÐµÑĢ
ĠZusammen hang
b ureau
w it
Ġz onen
auf en
ĠÑģÐ»ÑĥÑĩ Ð°Ðµ
er ia
ÐµÐ½ ÐµÐ¼
Ġstud ying
ĠAuthor ity
Ġf illed
Ġgen ommen
ĠBe im
Ġmiss ing
7 00
Ġme ets
Ġtro tz
iÃ©n dose
Ġhead s
Ġpersoon lijk
sen te
Ġam or
Ġhier op
N ic
i ak
ĠÐ± ÑĢÐ¸ÑĤÐ°Ð½
arte te
D urch
h igh
ais se
198 3
ĠÐ¾Ð±ÑĢÐ°Ð· Ð¾Ð²Ð°Ð½Ð¸Ñı
ĠRafa el
ĠWirtschaft s
Ġconstituen cy
piel t
ĠNÃ¼r n
ol y
Ġr ates
U A
ou st
in age
em ann
Ð°Ð» Ð¾Ð²
ĠÐ½Ð°Ð·Ð²Ð°Ð½Ð¸Ðµ Ð¼
ĠBr is
ĠPer ry
Ġse ien
Ġco ol
ĠÐ²Ñĭ Ð±Ð¾ÑĢ
ĠD anny
Ġbeg eleid
Ġport rait
Ġinte g
ĠTurk se
Ġgraaf schap
ĠÑĢÐµÐ´ Ð°Ðº
Ġbr ig
Ġconcent ration
ĠÃ¶ffent lichen
u iding
Ġk er
if a
Ġg itaar
Ġbero emde
Ġcoup les
u um
tro p
Ġconserv ation
ocra cy
to gen
Ġsign ing
c am
x is
ĠC ot
ĠDipl om
Ġcol our
ose xual
Ġmen or
ĠBrit s
Ġmag az
ĠPla za
Ġb ishop
ĠD ah
ĠH ero
Ðº ÑĥÐ¿
ĠÐ¼Ð°ÑĤÐµÑĢ Ð¸Ð°Ð»
p it
Ġgew erkt
Ġprot otype
ĠDel hi
Ġuitbre iding
Ġacomp aÃ±
) )
Ġdiff erences
ativ os
richt ungen
ĠÐĴÐµÑĢÑħ Ð¾Ð²
g liche
p ak
Ġhe uvel
ens on
ĠY ang
ÐĲ ÑĢ
Ġoptre dens
ment en
ĠDeput y
Ġcomm issie
ĠÐºÐ¾Ð½ ÐºÑĥÑĢ
igheid s
ÑĩÐ¸Ñģ Ð»ÐµÐ½
cy cl
ĠNation alsozial
maal s
Ġf alle
P rem
elt jes
ĠÐĳ Ð°ÑĢ
ĠÑĥÐ´ Ð°Ð»Ð¾ÑģÑĮ
Ġo ber
ra ine
ĠÐº Ð°Ð½Ð´Ð¸Ð´
Ġvert ical
Ġtri o
Ð°ÑİÑī Ð¸Ñħ
Ġg ira
Ġsur g
ĠStadt teil
st rijd
iss ements
r ina
k ust
ĠB ible
ĠVer hÃ¤lt
ĠÐ·Ð°Ð¼ ÐµÐ½
vers ie
Ġapare ce
ĠÐ´ Ð°Ð»
o ide
Ġge omet
Ġbro uw
ĠpiÃ¨ ces
b ad
pro ces
log o
ĠEs sen
cte erd
Ġaangeb oden
Ġpred omin
Ġo este
ĠMain z
ĠNoor wegen
gemein schaft
I R
Ġsubs id
out er
ec ution
Ġpict ure
ĠSoph ie
ob jet
Ġonder werp
ĠÐ¿Ð¾Ð» ÐºÐ°
ĠÑģÐµÑĢ ÐµÐ±
af e
Ġgra ag
ĠÐĵ ÐµÐ½
Ġdev ices
Ġsal le
ĠLat ino
Ġmaxim ale
Ġk leding
ver de
ĠÐ· ÑĢ
Ġvol unt
Ġpass ag
ĠÑĢÑĥÐºÐ¾Ð²Ð¾Ð´ ÑģÑĤÐ²Ð¾Ð¼
ÑĢÐ¸ÑģÑĤ Ð¸Ð°Ð½
Ġart illery
Ġdecl ined
w es
uss ia
Ġbr ut
Ġinvestig aciÃ³n
Ġar ist
ĠM Ã©d
ĠâĢ ¦
Ġc ricket
Ġtrans m
ĠMar vel
ĠGuatem ala
Ġw ave
ang le
Ã¶ ss
ÑİÑī Ð¸Ð¹
e us
st ock
ĠTh om
form atie
ÑĭÐ² Ð°Ð»
ÃŃ p
ep pe
Ð°ÑĤ ÐµÑĢ
Ġno ir
ĠSo ul
ĠÐ± Ð¸
Ġv iss
ĠW ahr
ĠThe ma
Y ou
Ġpo verty
ĠComp uter
le vel
Ð°Ðº Ñĥ
Ġparticip ants
ĠÃºlt imos
ĠF rid
Ġsch aal
Ã¼hr t
ĠÑģÐ¾ ÑİÐ·
Ġdomin ant
Ġle gt
Pro duction
Ġverkl aard
Ġfix ed
Ġex cent
ĠVer Ã¶ffentlich
Ġchem ical
am ine
ĠC Ã©s
ĠH ope
ĠV eil
Ġpass er
Ġpropos al
Ġcelebr ated
ÐµÑĤ Ð¾Ð¼
p al
at rice
Ġc raft
ĠTro phy
Ġde venu
as ia
og o
ĠÑĢÐµ ÑģÐ¿
198 2
ÑĳÑĤ ÑģÑı
ĠÐĴÐµÐ»Ð¸Ðº Ð¾Ð¹
Ġprofes ional
Ġqu art
Ġvoetbal elftal
est re
Ġge ken
ĠF lag
Ð¾Ð² ÑĭÐ¹
Ġ179 4
] ,
el on
iss on
ish i
ĠRo ose
ĠÐ¼ÐµÑĤ ÑĢÐ¾Ð²
ĠBroad cast
len gte
arr era
ĠBas ketball
Ġonafhankelijk heid
ĠS j
ep ing
Ġsp its
ĠY orks
Ġinter ven
Ã¼n den
Ġbel ast
ĠFor um
ĠB lu
ĠSt rom
ĠÐ¿Ð¾Ð» Ñĥ
d ijk
at iven
wij zen
Ġprovin ces
ĠDaar mee
Ġmann er
pe kt
Ã¤l le
Ġ16 00
ĠÐ¿Ð¾Ð¼Ð¾Ñī ÑĮÑİ
Ġpain ter
P a
ĠN ico
Ġpar ent
ĠBo ul
Des de
Ġm emorial
Ġbehand eling
ĠBlÃ¼ ten
Ã¨ ce
ĠÐļ Ð°Ð¼
Ð¾Ð¿ ÑĢ
geord net
ĠBelg ium
Ġhe lic
ĠÐ² ÐµÑĤ
ĠgehÃ¶r ten
Ġnuev as
Ġsp l
Ġsim ult
Ġdiff erence
âĤ ģ
Ġin gesteld
ĠRog ers
rÃŃ guez
ĠK atholieke
th aven
Ġsur render
Ġpermett ant
ĠÐ¼ ÑĥÐ½Ð¸ÑĨÐ¸Ð¿
ĠÐĳ Ð¾ÑĢ
Ġs alt
Ġb log
Ã¸ r
Ġhelp ing
ĠT eg
ĠL ob
Ġtit ular
ĠÐ³ÐµÐ½ÐµÑĢÐ° Ð»
ĠEnts cheid
ĠP ut
ĠÐļ ÑĢÑĭ
ha ber
ativ as
Ġorganiz aciÃ³n
o ires
it udes
Ġl ingu
Ġk new
ĠAl pen
Ã¡n t
198 1
Ġstrong ly
ĠÐ¼ÐµÐ´ Ð¸ÑĨ
M ill
Ġbe ho
ien sten
Ġat elier
Ġperson aje
ĠCas a
ĠÐ½ÐµÐ¾Ð±ÑħÐ¾Ð´ Ð¸Ð¼
b ane
Ġt elde
ĠDem oc
an lagen
ĠA ven
ĠD ennis
G M
ĠK ons
ĠIn gen
Ġchap elle
piel en
Ġal go
eg orie
Ġtr Ã¤gt
Ġcomm emor
ĠgÃ©n ero
Ġg alt
Ġbig gest
ÐµÐ½ Ð½
ĠrÃ© un
im an
ff ing
Ġbe weg
ĠK em
Ġdat ing
ĠÐĴ Ñĭ
Ġverl ies
Ġc iudades
Ġdivers os
ĠE very
av an
ĠÐ¿ÑĢÐ¾Ð¸Ð· Ð¾ÑĪ
h ost
Ġperman ente
ĠD enn
ĠO ur
Ġtien de
rie be
ĠOrth odox
amb o
b ody
Ġann on
Ġsogen annten
ac les
Ġverand eren
b ark
el ia
ĠRuss isch
Ġjob s
Ġo e
Ġste am
Ġerst es
ve ur
ĠDel ta
Ġdocument aire
ĠAbd ul
Ġd imin
Ġresident ial
ĠNev ada
Ð¾Ð»Ð¾Ð³ Ð¸Ñı
S outh
Ġpre cies
ĠÑĢÐ°ÑģÐ¿ Ð¾Ð»Ð°Ð³
Ġscholars hip
is ent
te or
aus ch
Ġtest ing
ĠÐ´ÐµÑıÑĤÐµÐ»ÑĮ Ð½Ð¾ÑģÑĤÐ¸
ĠÐ² ÐµÑī
Ġcon dam
ru ppe
197 5
f ond
ĠÑį ÑĦÑĦ
Ð¾ÑĢ Ñĭ
Ġpr ime
ĠÐ¼ Ð¾Ñī
Ġdiscipl ine
ĠNich olas
t il
ĠC elt
Ġcomp art
Ġab und
Ð°Ð»ÑĮ Ð½Ð¾Ð¼
ĠSant os
iÃŁ t
ind ungen
Ġsub urb
ĠÄ Į
P R
ĠJe zus
ĠÐĹ Ð°Ð¿Ð°Ð´
ĠÐ¼Ð½ Ð¾Ð¶
ĠPear l
ĠÐ°Ð´Ð¼Ð¸Ð½Ð¸ÑģÑĤ ÑĢÐ°ÑĤÐ¸Ð²
e o
ÐµÑģÑĤ ÑĢÐ°
ĠÑĥÑĩ ÐµÐ±
ĠSpiel zeit
ÐĹ Ð°
ĠZusammen arbeit
ĠMer cedes
Â ¹
Ġfamil iar
Ġinf ect
Ġmiddele euwen
ĠBred a
ĠT ief
ĠH ed
ĠO ekra
Ġel ig
Ġjour ney
g ut
zo als
ĠCro at
Ġrad ar
' ._
P op
Ġprincip io
ĠT ax
ĠN intendo
ÐµÐ½ Ð½ÑĥÑİ
Ġay uda
ĠH imm
Ġsupp osed
ĠBeat les
ĠB ord
al us
Ġcont ribution
ĠP ok
Ġse quence
ĠCaes ar
ĠÐ½ Ð¾Ñĩ
ouver te
Ġstad ion
Ġ179 2
Ġgro s
is po
Ġbelang stelling
ĠRes erv
ĠAr ist
Ñĳ Ð¶
Ġoff ering
g ement
Ð°ÑĢ Ñĭ
olog iques
ĠMon ate
Ġstat ut
Ġtempor ary
ĠRep ort
uc iones
Ġm ang
il ib
Ġinform aciÃ³n
Ð»Ð° Ð¼
ĠÐºÐ¾ÑĤÐ¾ÑĢ ÑĥÑİ
Ġsuccess or
Ġcred ited
ĠMal ta
Ġuit voer
ĠPl at
inos aur
ĠLeon ard
Ġpercent age
Ġmeis jes
Ġc c
te xt
Ġk lin
ĠF at
ber ry
Ġch arts
Ġperten e
r Ã¶
ĠS alt
ic iÃ³
act ive
Ġmill imeter
Ġgu ilt
Ġrepla cement
Ġt ut
Ġeing er
ĠPaul us
ĠÐ½Ð°Ñģ Ð»ÐµÐ´
ĠG y
ok ie
ĠÑį Ð»ÐµÐ¼
ĠÐ½Ð° Ð¹
l ia
ĠF ood
ĠÐ¾Ð±Ñī ÐµÑģÑĤÐ²Ð°
Ġesc al
ĠSel on
Ġrequire ments
a af
Ġserv icios
Ġcert ific
ĠS ang
ĠW oman
ise ur
Ġgest ellt
Ġfran cÃ©s
Ġdise Ã±o
Ã¤n dert
Ġpers u
rel ated
b lo
f ase
m Ã©
k rieges
Ġbekend heid
Ġsound track
Ġnegent ig
Ġder ech
ong festival
ĠVal ent
re ibt
ur ban
Ġc oorden
ĠÐ¿ÑĢ Ð¸Ð´
pen se
Ġged ood
Ġeind ronde
Ġenter ing
ĠR ica
ĠÐ½ ÐµÑĤ
ĠSe conde
ĠTe gen
Ġsche me
ĠB ag
ĠG Ã¼ter
Ġwo oden
Ġauth ent
197 9
ifik ation
Ġst ruck
Ġtorp edo
" ;
Ġperiod o
tem d
stand en
Ġrom ans
Ġsu ces
spr ong
Ð½ Ð¾Ð³
Ġappoint ment
Ġne uer
ĠÐ² Ð½Ð¸Ð¼
Ġverlie hen
ĠB MW
em ark
áµ Ĵ
Ġpe int
Ġluch a
Ġzo veel
ĠlÃŃ der
ĠK ron
in ent
Ġcan c
Ġgelijk namige
ĠNorm and
ĠÐĺ ÑĤÐ°Ð»
Ġt um
Ġme ester
Ġany thing
Ġschrij ft
O s
Ð Ļ
ĠÐº ÑĥÐ¿
Ġelect ronic
Ġpro se
ĠÑį Ð¼
Ġkl ok
Ġgere ed
Ġpat ent
Ġbe ach
Ġrad i
in Ã©
Ġge el
b ing
Ġvoor uit
Ð°Ðº Ð¾Ð²
penden cia
o ond
ĠD ane
ĠLim ited
Ġobjet ivo
ĠForsch ung
Ġpresente erde
ĠMedic ine
c ap
F S
Ġuit gere
en ant
ĠB om
ĠWeit ere
Ġvijft ien
andin av
on ies
ĠGu adal
ĠBat man
ĠD rag
Ġtoepass ing
Ġm Ã©c
Ġwe iÃŁ
ĠMag dalen
Ġh uge
rie ken
ĠRe ed
lÃ¤nd ischen
Ġrep ublic
Ġcapit ale
ĠPÃ© rez
re ts
ÐµÐ½ Ð¸ÑĤ
Ġter cer
Ġevery thing
Ġvertre kken
Ġver pf
ĠC aval
Ġvoor komt
ĠAb u
Ġverk open
P L
iff e
Ð°Ð½ Ð½ÑĭÑħ
Ġvo is
rÃ© taire
Ð½Ð¾Ð´ Ð¾ÑĢÐ¾Ð¶
is Ã©s
Ġl ug
Car act
Ġnort heast
Ð¸Ð±Ð»Ð¸ Ð¾ÑĤ
' ve
Ġd rew
ĠD ynam
ĠCh o
ĠÑģÑĭ Ð½
ĠCornel is
Ã¼n der
ĠKap elle
ĠÑĩÐµÐ¼Ð¿Ð¸Ð¾Ð½ Ð°ÑĤÐ°
Ġsatell ite
Ġp ages
ĠÐĴ ÑĤÐ¾ÑĢ
inn ert
ĠÐ Ļ
Ð°Ð½ ÑģÐºÐ¾Ð¹
ied lung
Ã©r Ã©s
ĠÑĪÐºÐ¾Ð» Ñĥ
ĠlÃ©g isl
id ges
ĠN athan
Ġviol ent
ĠÐ¼Ð½Ð¾Ð³ Ð¸Ðµ
ĠÐ¿Ð¾ÑģÐ² ÑıÑī
Ġ18 29
Ġents pr
z aken
is ait
Ð¸ÑĨ Ð¸Ñı
Ġdecl ine
Ġheut ige
ĠÑģ Ð±
ĠSe villa
Ġwereld wijd
Ġmodel o
Ġlicha ams
ĠÐ´Ð¾Ð¿ Ð¾Ð»Ð½
b ishop
ĠK la
ĠO S
Ġac ab
Ġkra chten
Ã¯ de
Ðĺ Ð½
Ġmiss ie
Ġlink ed
Ġcoorden adas
Ġab sence
hol t
heb ber
Ġsamen ge
inc inn
197 4
197 8
Ġjong ste
Ġus age
Ġout put
Ġfuer za
ĠIn it
ĠÑĤ ÑĢÐµ
ĠSchm idt
ĠseÃ± al
Ġ(âĢ ł
Ġfl ank
ĠAng riff
w w
Ġf erm
Ð¾ÑĤ Ðµ
ĠBerk eley
de b
ĠL Ã©on
Ġdich o
stru kt
Ġrequ ires
ĠBes atz
ĠH ul
ĠÑħ ÑĢÐ°Ð¼
Ġcin qu
ĠCaliforn iÃ«
Ġdefin it
l ades
ersche id
Ġnob les
ck len
stit el
Ġstre am
la bel
ass o
Ġgeb rek
Ġvoor deel
pe Ã³n
Ġafge beeld
K rit
Ġth ing
ÐµÐ¼ Ð°ÑĤ
Ġst arring
ĠÑĨÐµÐ½ÑĤ ÑĢÐ°Ð»ÑĮ
Ġtro kken
ĠÃ¼ber wiegend
ĠÐ° ÑģÑģ
Ġunder ground
ĠG ay
Ġbring ing
Ġpart es
ĠBor deaux
ro u
Ġcomp ound
Ġartist ic
Ã¨ les
ĠÐ° Ð»ÑĮ
Ġbeste hen
ĠÐ¿Ñģ Ð¸Ñħ
un esse
Ġges loopt
Ġeenvoud ig
Ð¾Ð¿ Ð°Ñģ
for cement
ĠK amp
Ġontde kte
Ġpale is
ÑĮ ÐµÑĢ
Ġform ally
ĠÐ´Ðµ ÑģÑıÑĤ
ĠÐ¿Ð¾Ð· Ð¶Ðµ
ĠÐ²Ð¾Ð¹ÑģÐº Ð°
Ġmaat schappij
ĠNAS A
Ġ18 11
Ġdest ro
ĠSow jet
visies ongfestival
z org
ĠÐ· Ð°ÑĤ
Ġform ul
Ġaff airs
ĠPhilosoph ie
Ð»Ð° Ð·
ĠHamp shire
ĠS now
ĠHe avy
Ġno emen
ĠÐºÐ»Ð°Ð´ Ð±
um ph
se k
c ule
Ġso il
N orth
ĠÑĤ ÑĢÑĥ
ec ciÃ³n
Ġmajor itÃ©
Ã©roÃ¯ des
Ġwerk elijkheid
Ġinvol vement
ĠÑĦÐ¸Ð»ÑĮ Ð¼Ð°
Ġvre de
Ġgrie ch
z ado
Ġpr ise
po le
Ġer k
Ġheer lijkheid
Ġerken nen
ier ende
ĠNew castle
ĠÐ· Ð½
Ġinterview s
ĠS ide
Ð¸Ð² Ð°ÐµÑĤÑģÑı
Ġdist ingu
ĠEd wards
Ġpremier ed
in ian
Ġmal ad
Ġmeet ings
L age
R ed
Ġs ede
Â» .âĢĭ
Ġv essels
ĠM end
ĠRuss ie
Ġtransl ation
Ġimpos s
ek sen
ĠHo ofd
Ġident ific
ĠR enn
ric ul
ĠÐ¿ÑĢÐµÐ´ Ð¿
ĠÑĥÑģÐ¿ ÐµÑĪ
n els
Ġthe at
ĠD uch
ĠÐ·Ð°Ðº Ð¾Ð½Ñĩ
Ġf lan
Ãª che
Ġer e
Ġs iÃ¨cle
ĠK up
Ġor o
Ġverlie zen
ĠIn g
Ġprote cted
ĠÐ½Ð¾Ð² ÑĭÐ¹
Ġst uurde
Ã¡ bit
ĠAn im
Ġarchitect uur
ig ar
ĠRod rÃŃguez
ĠvollstÃ¤nd ig
Ġa leman
Ġdise Ã±
on ica
cc ion
ĠTrin ity
ab i
Ġbet rieben
ĠÐ¿Ð¾Ð»ÑĥÑĩ Ð¸Ð»Ð°
ĠOb ama
Ġvisit ors
Ġmas cul
Ġsk in
ĠÑĩÐ¸Ñģ Ð»Ð¾
io te
af deling
Ġverl Ã¤uft
ijf ers
Ġs end
Ġarchitect ural
ĠÐ·Ð°Ñħ Ð²Ð°ÑĤ
Ġler aar
ĠgeÃ¯ntrodu ceerd
i ÃŁen
comp lex
b Ã¼rger
Ġpublic Ã³
Ġproduc ers
D el
T our
ĠM ust
Ġwor st
alis eerd
Ġcant idad
P ara
r hein
ĠW itte
nel heid
Ã¤d t
ĠPhil harm
Ġval id
ĠRen nen
ĠGed urende
ĠÑģÐ¾Ð» Ð´
ĠSh a
Ġacc ounts
ĠGra fen
Ġrem ix
gra duate
Ġzon as
Ð° Ð±Ð¾ÑĤ
ĠI erland
Ġâ ĪĴ
ĠC ultural
ĠP asc
ĠV iert
D u
Ñĩ Ð°ÑĤ
ĠÐ¿ÑĢÐ°Ð² Ð°
f inal
em y
Ġr ass
Ġ7 50
Ġvert aald
Ġvisit ing
? "
en ing
Ġb lues
ĠL isa
ĠY ugoslav
Ġbek am
Ġfl ed
Ġkl aar
Ġv racht
ĠW itt
Ġch rÃ©t
Ġpl ateau
amb a
incinn ati
Ġf ishing
ĠF o
Ġpres encia
Ġbu y
Ġregel mÃ¤ÃŁig
ĠU mb
Ð» Ð¸Ð½Ð°
ĠM ant
M ah
Ġter res
Ġblo emen
ĠEj Ã©rcito
ĠYorks hire
r Ã¡s
f our
ĠP ant
Nach dem
Ġ178 9
ĠPrin cess
Ġrail road
ĠÐºÑĢÐµÑģÑĤ ÑĮÑıÐ½
Ġge fÃ¼hrt
Ġpro cent
cier on
ĠÐ¿ÐµÑĢÐµÐ² Ð¾Ð´
ĠÑĤ ÑĭÑģ
Ġwat ch
Ġpeque Ã±o
o ter
Ġb ibli
op es
ĠÐŀ Ð½Ð¸
ĠBas el
ĠS ou
Ġbenef it
ĠÑĩÐµÑĤÑĭ ÑĢÐµ
Ð¡ Ð¿
Ġtr ata
ĠShe l
ĠMeth od
S pe
Ġf inding
ĠSpr ings
y ne
ĠR alph
ĠÑģ ÑĢÐ°Ð¶
Ġdist ribut
ĠcompÃ©t ition
ĠpolÃŃt ico
Ã© cl
ĠFen ster
Ġact ors
ĠRoose velt
ĠC lay
ĠR ek
ĠÑĤ ÐµÐ¿
ull ivan
atri Ã¨me
ĠÐļ Ð°Ð»
ĠÐ±ÑĥÐ´ ÑĥÑī
Ð¿ ÑĤ
Ġab ort
Ġont vang
Ġmainten ance
Ġgel uk
arch ie
197 6
Ġqual itÃ©
Ġreden en
z inn
Ġex cl
Ġsec ure
ĠMart ÃŃn
Caract Ã©r
Ġperman e
Ġspe ak
Ġincl u
Ġpass Ã©
app ing
ab ilitÃ©
Ġ10 5
ĠC enso
ĠH ond
Ã¤ llen
ine e
euw s
Ġrestaur ants
ĠS r
os hi
onder zoek
ĠdÃ©c rit
Ġadd ing
z uur
Ġv ingt
Ġe isen
Ġdro og
Ġrestaur atie
r ele
Ġbe heer
Ġver re
Ġtravel ed
ar lo
Ġz aterdag
Ġzul etzt
k leur
we chsel
Ġpr atique
ede eld
ĠPar ad
Ġach iev
sp ra
j ekte
ad ura
Ġliv res
ĠMun ich
m ag
Ð½Ð¾ ÑĪ
Ġvers us
in ale
ris is
Ġtre den
ĠPrem io
ĠSe x
Ġmix t
Ġdisp ers
werv els
Ġconcer ten
b ow
Ġl angen
Ġind ien
Ġant woord
g arn
ic um
Ġvolks vertegenwoord
ĠE hr
ĠÐ¡Ð² ÑıÑĤ
ĠÃ©lÃ© ments
ĠS ag
Ġ18 28
ĠM am
ĠI ce
Ð¾ÑĢÐ° Ñħ
ĠTurk ije
Ð¸Ð²ÑĪ Ð¸Ð¹
Ġuit ger
Ġass ign
ĠEnerg ie
s l
Ġf allen
Ġn iemand
Ġmar iage
ĠtÃ© mo
Ġop gesteld
ĠVer wendung
op pen
Ġbes a
nem ingen
ĠChel sea
ĠD ob
ĠGramm y
ĠI v
lie gen
ĠÐ± Ð°ÑģÑģ
uss ion
Ġdaarop volgende
K arl
r ond
Ã¤hr t
Ġlaw yer
b one
ĠD rei
20 19
Ġbes o
ĠCo al
sy stem
Ġc od
ins el
Ñĳ ÑĤÐ°
olo ge
ĠPlay er
Ġshe l
Ġpod rÃŃa
Ġont werpen
Ġtransl ated
ic ap
ĠÐĿ ÑĮÑİ
Ġc itÃ©
ĠAl tern
Ð¾Ñģ Ð°
uis te
Ġjaarlijk se
m oord
ĠÐ½ Ð¸Ð·
Ġcateg orÃŃa
ĠÑĤ Ð¾Ð½
Ġl uid
Ġ180 8
ĠÐ´ÑĥÑħ Ð¾Ð²
an moins
Ġb uur
Ġovereen komst
ĠV f
Ġver me
n eter
Ġder iv
Ġpres que
ĠMe yer
arr iv
Ġpropri Ã©ta
Ġchall eng
N T
Ġof wel
ĠK w
ĠAn k
197 7
Ġper ce
ĠBuff alo
Ġd Ã¼r
ic ular
ĠÐ¿ÑĢÐ¸ Ð¾Ð±
ĠHong arije
M ichel
ve au
Ð¸Ð» Ðµ
Jac ques
end ung
ĠZeit schrift
ĠConserv ative
ĠOce aan
ĠÐµÐ´Ð¸Ð½ ÑģÑĤÐ²ÐµÐ½
Ġespos a
ĠFreib urg
Ð² ÑĳÑĢ
ĠÐ¶Ð¸Ð² Ð¾ÑĤ
Ġgro ÃŁer
Ġp oort
ass a
ĠJud ge
Ġaanzien lijk
Ġgesam ten
Ð± Ð¸
ĠSus an
Ġinse cten
Ġvoc als
Ġorth odox
Ġappe al
hor st
ĠÐ¿Ð¾Ð¼ ÐµÑī
Ġsout ien
ĠV ie
ĠPr Ã¤
Ġdern iers
d ar
Ġactiv idades
ĠS onder
ĠT i
ĠDen mark
Ġ180 9
Ġenter tainment
Ġvide os
p ri
Ge org
ĠHugh es
ĠGrieken land
bor ne
Ġgroep s
ĠÑĥÑģ Ð¸Ð»
ĠHarb or
Ġnorm aal
ĠÐ±ÐµÑĢÐµÐ³ Ñĥ
Ġma Ã®tre
ins ky
ĠKe ith
ĠÐ·Ð°Ð² Ð¾ÐµÐ²
CaractÃ©r istiques
bo og
Ġtor neo
T ussen
Ġde me
Je ugd
Ð´Ð° ÐµÑĤ
Ġvrij heid
gress ive
ĠÐ¿Ð¾Ð³ Ð¸Ð±
Ġt ief
Ġo om
Ġpres se
ĠÐ½ÐµÐºÐ¾ÑĤÐ¾ÑĢ ÑĭÐµ
Ġerb aut
Ġplant a
Ġhappen ed
Ġn immt
ĠHar old
ĠÐ¿ÐµÑĢÐ² ÑĭÑħ
v aux
ig re
ĠB arth
ĠRe yn
Ġwon ingen
Ð¸ÑĤÐµÐ»ÑĮ Ð½Ð¾Ð³Ð¾
Ġgemidd eld
ric es
et ed
c tement
Ġe ieren
Ġzw Ã¶lf
Ġexp uls
Ð½Ð¾Ð² ÑĢÐµÐ¼ÐµÐ½Ð½Ð¾
Ð¸ÑĢÐ¾Ð²Ð°Ð½ Ð¸Ðµ
Ġtom be
M eter
ĠÐº ÑĢÑĥÐ³
Ñ ĸ
Ġaf wijk
Ð°ÑĤÐµÐ» Ð¸
ĠÐ¿ÑĢÐ¾ÑĦÐµÑģÑģ Ð¸Ð¾Ð½
Ġvolto oid
Ġfut ur
m and
Ġf ile
Ġdynast y
ĠÐ³ Ð²Ð°ÑĢÐ´
Ġbep alen
ĠOb serv
ĠZ h
ĠCar n
Ġother wise
Ġpion eer
r isten
ĠfÃ© min
B lack
ĠDan ish
ĠÑģÐµÐ¼ ÐµÐ¹
ĠrÃ©al ise
Ġgel ief
Ġtoege wezen
Ġover gang
Ð¸Ð» ÐµÑĤ
onn Ã©
Ġderech os
ĠÐľ Ð°Ð¹
Ġgra cias
ĠFl Ã¤che
ĠGer mans
ĠN ak
ĠB ros
Ġro yaume
ĠÑģÑĤ Ð°Ð²
Ġappear ing
Ġinge voerd
ĠAddition ally
h aald
ho ch
p resident
Ġw rong
it eld
ĠK lim
Ġonder houd
Ġged ichten
Ġsyn dic
Ġach ieve
Ġqued Ã³
Ġinter pre
ĠÐ´Ð² Ð¸Ð³
ĠAu gen
le urs
Ġj acht
Ġart ikelen
k ampf
ĠL ima
ĠKun sten
Ġl Ã¤ng
ĠP ere
Ġex it
Ġform ing
ĠÐ¾Ð´ Ð½Ð°
Ġanun ciÃ³
Ġpap ers
ĠProgram m
ĠÃ©quip es
ĠBest and
ĠÑĦ Ð°ÐºÑĤ
Ġbu ik
Ġelement os
l at
Ġc orte
Ð½ Ð¸Ñı
ĠD S
Ġgere g
Ġpre c
k raft
Ġinter f
Ġsc Ã¨nes
Ã¼ gen
z am
Ð¾Ð· Ð½Ð°Ñĩ
ĠCra ig
Ġcul min
ĠÐº Ð°ÑĢ
Ð¾ÑĤ Ð²Ð¾ÑĢ
wa gens
Ġreb ell
Ð°Ð»ÑĮ Ð½ÑĭÐ¼
ĠÐºÐ¾Ð½ÑĤ ÑĢ
ĠÐ¸Ð¼Ð¿ ÐµÑĢÐ¸Ð¸
b ak
ip el
ĠÐĴ Ð°Ð»
Ġmidd elbare
ĠcÃ´t Ã©s
T om
n on
ch or
Ġla p
ĠÐ¼ ÐµÐ»
Ġdat ed
Ð¸Ð°Ð» Ð¸ÑģÑĤ
s ub
Ġzw ak
orf olk
oster iormente
O T
ĠUm gebung
Ġven ue
B rit
st op
st ab
st elsel
Ġver tra
Ġmaxim aal
m aking
Ġdef ensive
ĠTra il
Ġoper ates
Ġto on
ĠK olon
Ġover d
ĠG obierno
ÐµÐ½ Ð·
Ġim agen
ĠBo eing
fl icht
ĠH at
Ġwe ak
ĠSim p
ĠÐĶÐ¶ Ð¾Ð½
Ġzanger es
ina ison
Ġfilm ed
Ġattra cted
ĠGar ten
ĠSci ent
ĠT ed
ĠÐ´ Ð½ÐµÐ¹
Ġescrib iÃ³
Ġdoor s
ĠBer l
Ġelect oral
w ent
ĠIn gl
Ġrealiz ar
Ġeinzel nen
ĠB orn
ĠÐºÐ¾Ð½ÑĤ ÑĢÐ°ÐºÑĤ
gev onden
ÃŃ gen
be an
Ġmanufact uring
ĠÑģÐ¾Ð¾ÑĤÐ²ÐµÑĤ ÑģÑĤÐ²
Ġperson ajes
ĠB ath
ĠRo und
ĠÐļ ÑĥÑĢ
Ġproduct ions
Ġbatt les
Ðº Ð¾Ð¿
ĠL uz
Ġdep uty
ÐµÐµ Ñħ
Ġans wer
ĠÐ´ÑĢÑĥÐ³ Ð¾Ð¹
Ġvlie gen
Ġreis de
C amp
n ats
ent rÃ©e
Ġ18 24
Ġex cess
ĠeuropÃ© enne
ĠD ank
ict ions
ĠÐ¿ÑĢÐ¸ÑĢ Ð¾Ð´
J ack
ÐµÐ½ ÑĨ
Ġexperien ces
ĠÃ¼ bers
n Ã©s
ta ciÃ³n
Ġeven ement
Ġba chelor
ĠÐ¾Ð³ ÑĢÐ°Ð½Ð¸Ñĩ
ÐµÑĢ ÐµÐ¶
min ster
197 3
Ġsuff icient
Ã©d Ã©ration
ĠgeÃ« x
ĠÐ½ Ð°Ð»
ĠB ug
ĠG la
ĠÐº Ð¸Ð»
Ġatt ach
Ġappara Ã®t
ĠDe ux
Ġpla za
ÃŃcul os
ĠÐº Ð¾Ñģ
Ġact ieve
ĠK um
m ath
v ogel
Ñģ Ð¸
ĠC ase
Ġ18 22
ĠEn rique
Ġent lang
Ġalt ura
brit ann
Ġzod anig
Ġp ak
Ġre par
Ġse ed
ĠBr uns
Ġwel cher
ĠL ocal
Ã¶ ÃŁer
ÐµÑģ Ð°
Ð¸ÑĨ ÐµÐ¹
ĠJe anne
ĠLar ry
ĠInd ians
ĠAan vankelijk
ĠL ap
ÐµÐ½Ð¸Ñı Ð¼Ð¸
ĠCl ara
iqu er
Ġmin eral
oud ers
Ġp udo
bro ek
waar den
et zen
ĠB este
Ġ18 26
Ġgro wn
ĠPer Ãº
Ġbil dete
Ġgem akkelijk
ĠCo le
ĠRod rig
Ġman if
Ġsoci edad
Ġtol er
ĠR ams
uv Ã©
anc ell
ĠÑĥÐ½Ð¸Ð²ÐµÑĢÑģÐ¸ÑĤ ÐµÑĤÐµ
M ay
er be
on ial
Ġcover age
Ġcoast al
c ester
Ġc ited
ĠÐļ Ð°
Ġpersonn ages
ĠRuss land
ĠcÃ©lÃ¨ bre
B B
E conom
c alled
ch ner
che f
ĠCon cert
Ġneighb our
re chts
Ġc enso
ĠE rik
ĠÑĢÐµ Ð¹
Ġh oort
Ġpre de
Ġsurround ed
Ġw ants
Ġn ichts
omen te
Ġt ijde
erk unft
vorm ing
ĠBild ung
g esehen
ĠL iving
Ġdefe ating
Ġb om
iz z
Ġcapac idad
Ġst able
ĠK laus
Ġp Ã©r
ĠUn it
Ġas ist
m ater
ĠF isch
ĠSte en
19 50
ograph ical
Ġboven ste
ĠÃľ bers
Ġanal ys
C he
F F
ĠE va
Ġinstrument al
cklen burg
Ã¨ ves
ke ers
Ð²Ð° ÑĢÐµ
ĠGra ce
Ġcat Ã©g
O ut
Ġtrans mission
Ġcamp s
Ġmark ets
Ġc up
âĢĻ .
ĠTra in
Ġcapt ur
Ð¾Ð» Ð¸ÑĤ
ĠÐ²ÑĭÐ¿ ÑĥÑī
el aten
ast ro
Ġconcern ant
ĠB ist
Ġdes halb
Ġperson ages
Ġweek ly
ĠÑģÑĤÐ°Ð½ ÑĨÐ¸Ð¸
s uch
er ver
ĠLe eds
ĠTheod or
e ux
Ġinter med
Ġjoue urs
re form
ĠC R
ĠSpen cer
Ġzu ur
ĠÐ·Ð°Ð² ÐµÐ´
Ġhundred s
re ment
Ġgere cht
ĠÑģÐµÑĢ Ð¸Ð¸
Ger man
im me
Ñı Ð»Ð¸
ĠÐł Ð¾Ð±
Ġinv al
aard oor
Ġcomplet ion
ĠÐ²ÑĭÑģÑĤÑĥÐ¿ Ð°Ð»
Ital ie
ĠÐ²ÑĭÐ· Ð²
t ot
Ġred den
ĠConse jo
Ġestadoun idense
ĠI rak
ĠV oll
Ð¸Ð½ Ð´
Ġoff en
ĠEuro visiesongfestival
Ġacht erste
ĠSurin ame
Ġel der
ĠÐ¿Ð¾ ÑĢÐ°Ð¶
Ġbed acht
Ġerfol gt
Ġkom pl
Ġpublie ke
ĠDak ota
Ġc ogn
ĠTh under
ĠÐĵ Ð»Ð°Ð²
Ġcas ual
Ġgreat ly
ĠAtl Ã©tico
ÑĦ Ð°
ĠÑĤÐ¸Ð¿ Ð°
ĠSalz burg
ad ministration
Ġher inner
Ġg ard
na ast
ĠÐ¿ÑĢÐ¸Ð½ ÑıÑĤ
m akers
Ġdis k
Ġkilom eters
Ġb ibliotheek
ĠJ ose
Ġfor te
Ġein st
ĠCast ro
Ð² Ð°ÑĢ
Ġpos e
ĠVeren iging
Ġleng ua
Ġeje cut
O L
ĠAlf onso
gru ppen
ĠA vec
ne as
geb leven
Ġtit res
ue il
Ð°Ð»ÑĮ Ð½ÑĥÑİ
Ġbedrijf s
Ġprogram mes
Ġadv ies
Ġvall Ã©e
Ġvol le
uc ion
ĠÐĶ Ð¾Ð½
Ã¤d chen
ĠW inn
aat schappij
Ġweiter er
ĠFel ipe
Ñģ Ð¾Ð¼
le it
Ġre ken
g Ã¼lt
Ġb ande
Ġni Ã±os
re ck
te in
Ġn it
V or
in atie
ĠN as
Ġdon ated
N H
ÑĭÐ² Ð°ÑİÑĤ
Ġv andaag
Ġafter wards
ver wege
Ġpat ient
Ġblan c
Ġauth ors
ĠT amil
ĠAd minist
Ġsud den
ĠÐ¼Ð¾ÑĢ Ñı
id Ã©e
Ġan alyse
ep lay
Ġsur gery
ĠPro v
ĠÐ½ÐµÐºÐ¾ÑĤÐ¾ÑĢ ÑĭÑħ
ĠK lass
und ige
Ġsa x
Ġverk iez
lem Ã¡n
ĠÑĪÐºÐ¾Ð» Ðµ
Ġenth Ã¤lt
Ġpens ioen
ĠB ird
Ġmit ad
Ð»ÐµÐ½ Ð¸Ð¹
ĠMin ist
Ġdown town
Ġamb t
Ġdepart ure
elk ens
ĠSchrift steller
Ð² Ñĥ
ĠR A
p ress
ĠP att
ĠÐ² Ð¾ÑģÑĤÐ¾Ñĩ
int Ã©rieur
Ġcol ony
Ġsymb ool
Ġpian ist
B apt
u els
Ġv essel
Ġma atre
ĠÑģÑĤ Ð¸Ñħ
Des ign
Ġcontinu ing
Ġleer ling
Ġrough ly
B ere
à ¯
Ġbevol kings
Desp uÃ©s
ĠV ik
Ġdurch gefÃ¼hrt
Ġ urg
ĠA chter
Ġsp oke
Ġbet ere
Ġint ention
Ġamb ten
Ġd unk
ĠZ usch
Ġne gende
Ġland sk
Ġj efe
Ġgro ene
per toire
ĠHe ide
ĠQ uer
A uch
Ġver plaatst
Ġmilit aires
ĠParlam ent
ĠV iel
or ial
ĠF ischer
ĠN etz
um ann
Ġaan hang
ĠÐ¾Ð± Ð²Ð¸Ð½
Ġcomplex e
Ġabsol ute
ĠRo berto
ĠÑĦ Ð¾Ð½
ĠGra y
com o
Ġherst eld
Ġlast ed
Ġ180 1
Ġprocess es
ĠespaÃ± ola
voet bal
g uer
ĠWe imar
Ġdw ars
p te
Ð» Ð¾ÑĢ
na ires
Ġaut on
Ġanno unc
Ġp ension
ĠChrist oph
D is
st amm
ÑģÑĤ Ð°Ð½
Ġop lossing
c ase
ĠT ages
Ġbla uwe
Ġv rucht
Ġm ando
st Ã¤nde
Ġquien es
Ġloss es
Ġjur isd
Ġn ek
Ġbie tet
Ã¼ st
ĠÑĥÐ¿ Ð¾Ð¼Ð¸Ð½
verwalt ung
Ġverk auft
Ġgewijz igd
ĠÐ½ ÑĳÐ¼
f rom
Ġaus schlieÃŁlich
Ġass embly
Ġtechn ologie
Ġdo ivent
Ġval le
ĠIg lesia
Ġencour aged
Ġs Ã©curitÃ©
le en
Ġse ek
Ġ4 50
ĠÐ»Ð¸Ð½ Ð¸Ð¸
Ġtentoon stelling
C u
W A
ĠS uisse
Ġse venth
Ð°Ñı ÑģÑĮ
Ġgez el
ÑĥÑģÑĤ Ñı
ĠAn zahl
Ġcult ura
ĠQu ad
ĠTok io
I mp
U na
ĠS oms
Ġall iance
Ġpet its
Ġcover ing
Ġd ol
la imed
Ã¤ um
Ġbijn aam
ian i
ĠAl c
ĠAd ela
ĠT ir
Ġonts lagen
Ġel ite
- )
mot oren
R et
Ġw isten
ĠS aud
Ġdra wing
C am
emb les
rad as
Ġafges loten
Ġact ed
mb ol
ĠRoll ing
r iss
Ġle veren
ĠVan wege
ĠFÃ¼r st
Ġvide oc
Ġocas iones
ativ ely
Ġexecut ed
ib a
Ne ben
Ġcontrovers ial
ĠC incinnati
ÑıÑģ ÑĮ
ĠÑĢÐ°Ð·Ð²Ð¸ÑĤ Ð¸Ñı
ub ile
ĠAr senal
ĠMod ell
igs zins
ĠFace book
os c
ĠEm il
ar ca
it ario
Ġversch ijnen
Ġrem ember
che ment
haus es
A ir
H ier
ru b
ĠU krain
Ð¸ÑĤÐµÐ»ÑĮ Ð½Ð¾Ð¹
196 8
Ġmo itiÃ©
ÐµÐ² Ð¸Ð´
ĠSc ot
ĠB az
ĠC rim
Ġbeg un
ĠRo yaume
ĠPan ama
D I
ĠB un
ĠÐ¿ÐµÑĢ ÐµÐµÑħ
ĠprÃ© v
Ġess ay
Ġf ou
ĠW ed
Ð¾Ð» ÐµÑĤ
Ð°Ð»ÑĮ ÑıÐ½
Ġvis ite
Ġinflu ential
midd el
ĠArab ische
Ġerm Ã¶
h it
Ñı Ð³
Ġben aming
ĠD ios
ĠV aak
ĠÐ² Ð½ÐµÑĪ
ĠC A
ĠSt ahl
ĠLand tag
ĠÐ´ÐµÑĢÐµÐ² Ð½Ðµ
F ried
Ï Ģ
ius eppe
Ġc old
ĠTer wijl
ĠF uj
ĠG ate
ĠSt alin
aal den
h Ã¤user
Ġre tail
Ġstrateg y
ĠreÃ§ u
B is
ĠÐĴ Ð¸Ðº
Ġl uz
ĠFre edom
ĠVerkehr s
Ġgepr Ã¤gt
ĠÐ¼ Ð»Ð°Ð´
Ġgr amm
orspr onkelijk
Ġata que
w urf
ĠD azu
ĠW int
ĠW TA
ĠW appen
Ġchang ing
Ġvoor gang
ub il
197 2
r Ã©es
ĠB elf
ĠÐµ Ð¹
an us
Ð»ÐµÐ½ Ð¸Ñİ
Ġtoeg ank
ĠG au
ins k
ĠÐ·Ð°Ð½ ÑıÐ»
c ard
Ġm undial
Ġsu f
Ġpr Ã¡ct
ĠÑģÑĤ ÑĢÑĥÐºÑĤ
T wo
z z
ĠM ing
Ð´ Ð¾Ð²
Ġbescherm d
Ġt ribut
Ġen dem
Ġwe zen
Ġgre c
Ġexpl or
ĠÐ¿Ð» Ð°ÑĤ
ĠGel Ã¤nde
ĠS T
le a
Ã¼hr ung
ĠSte uer
ĠÐºÐ¾Ð½ ÑĨÐ°
ĠM ira
ot on
ĠKn ow
ge ois
od ore
ĠSuper ior
th en
Ġwaar uit
Ġrapid ly
C ent
Ġg ent
ĠK ruis
ĠDe ense
Ġch apel
kw artier
k ow
Ġz aal
Ġwh ilst
Ġad oles
Ġind oor
Ġber ufen
Ġsp an
Ġco ff
uf e
iden cy
ĠÐ·Ð° Ð´Ð°Ñĩ
Ġeffect ively
Ġm uestra
Ġ18 23
gr Ã¼ndete
ĠS erg
ell os
port s
Ġass ess
ĠTourn ament
ande ur
ĠMet all
Ġequ ipped
c rib
2 50
Ð° ÑģÐº
Ġor chest
Ġben oemde
eg el
ĠÐ» ÐµÐ¹
Ġc able
Ġ180 7
ÐµÐ¶Ð´ ÑĥÐ½Ð°ÑĢÐ¾Ð´
ĠVlad imir
P ers
Ġo d
ĠÐ¿Ð¾ÑģÑĤ Ð°Ð½Ð¾Ð²
Ã³ metros
Ġuit gest
ĠLat ijnse
ĠEsp aÃ±
y ll
an er
Ġnorth west
ĠMartÃŃ nez
ĠE ck
leg ung
ĠMar in
ĠdÃ© pla
Ġkant oor
Ġgezond heid
Ġt wij
Ġc ere
Ġspr int
Ġp unk
rane an
D E
ĠÐĽ Ðµ
ĠBas il
Fran ce
Ġquel que
ĠÐ° Ð±
iÄ į
Ġklo ost
ĠBapt ist
Ġorig ine
Ġappar ten
ĠSak sen
ie ÃŁen
Ġg one
ĠÐ¾ ÑĢÑĥÐ¶
Ġg arde
ĠÐ¿Ð¾ÑĤ Ð¾Ð¼
ĠN Ã©
Ġden kt
ĠCÃ©s ar
Ġc rop
Ġh ospit
. :
Ð» Ð»
ĠÑģ ÑĥÐ¿
ĠNew ton
ows hip
Ġagric ulture
ar est
ĠN atal
ov Ã¡
ĠAnt ar
ĠMur phy
o ed
an j
Ġg az
ĠÐ¼ Ñĭ
ĠAcadem ia
Ġ Ø
ĠprÃ©c Ã©d
ĠÐĿÐ¸Ðº Ð¾Ð»Ð°
Ġst abil
ĠBlo od
ter ing
ĠW onder
Ġop gebouwd
Ġmanus cript
ĠÐĴÐ»Ð°Ð´ Ð¸Ð¼Ð¸ÑĢ
Ġpr at
ĠÐ¼ÐµÑģÑĤ Ð°
Ġst o
Ġra za
Ġdon nÃ©es
Ġrom p
196 9
Ð¸Ð»Ð» ÐµÑĢ
ĠM ason
Ġunder t
Ð¾Ð³ÑĢÐ°ÑĦ Ð¸Ð¸
chel le
ĠRon ald
Ġgera de
Ġneder laag
ĠWe ise
Ġmot orfiets
et itie
om y
ĠMan ager
Ã© ct
Ġaf ect
ĠÑĢÐ° Ð¼
Ð¾Ðº Ð¾Ð¼
Ġanci ens
al ie
ĠBron ze
Ġtrad ing
ĠMalays ia
Ġbe wegen
ĠThe men
T ax
gl er
197 1
Ġhistor iques
oph one
Ġsomew hat
ĠC Ã³rd
id or
Ð¾Ð² Ð°Ð²ÑĪ
if le
Ġsp ielen
Ġsur pr
Ð°ÑİÑī Ð¸Ð¹
Ġeleg ido
ĠÑĦÑĥÑĤÐ± Ð¾Ð»
Ġad op
Ġ180 2
Ġjou er
ĠdÃ©but s
Ġdemon strat
Z ur
Ġz ong
Ñĳ ÑĢÐ°
Ã¼hr en
ĠÑģÐ¾Ð± ÑĢÐ°Ð½
Ġhe iÃŁt
Ġr endre
Ġsch ad
ĠNam ens
Ġuit ma
Ġcl Ã¡s
he il
ĠÐ² Ð¾ÑģÑĤÐ¾Ðº
Ġsh ock
geb oren
ĠUr spr
ĠÐ·ÐµÐ¼ Ð»Ð¸
ric iteit
Ġvert aling
Ġvertre ten
ĠfranzÃ¶s ische
Ġverschijn t
ĠÑĨÐµÑĢÐºÐ¾Ð² ÑĮ
D ame
ĠN orfolk
Ġna z
Ġsold ats
k ern
entre prise
arr ison
ĠPolize i
x i
osp el
ion ale
ĠInstit ution
ĠRe ise
B ra
as ten
itt ingen
Ġfer ro
O ff
ian za
Ġallem ande
ĠArm strong
ĠPal mer
Ġnou vel
Ġmoy en
Ã ²
sch al
Ġsn elle
ĠT unis
Ġartist es
Ġsant Ã©
ĠÐĵ Ð¾ÑģÑĥÐ´Ð°ÑĢÑģÑĤÐ²ÐµÐ½
Ġauc une
Ġvale ur
Ġa le
st room
ĠWal lace
ichte ten
v il
Ġl uitenant
ĠÑģÐ² Ð¸Ð´
ĠM C
Ġrecht streeks
Ġen fin
Ġze igen
ĠÐ¿ÑĢÐ¾ÑĤÐ¸Ð² Ð½Ð¸ÐºÐ°
ĠD aardoor
Ð°Ð» Ñĭ
iz ierte
ĠbÃ¢t iments
Ġ iz
z Ã³
Ġr usse
ĠZ ul
are z
ĠRevol utie
Ġthreaten ed
is ering
Ġb ios
ĠÐ± Ð¸ÑĤ
Ġen igszins
os se
Ñĥ Ð¹
Ġer weit
Ġau ft
Ġ3 60
ĠGro ÃŁen
ĠBang lades
ĠW u
Ġmont re
S in
ĠM old
ĠBr ight
Ġband en
Ġcoal ition
ie gen
ĠR Ã©g
Ġontw ierp
icien cy
U R
ĠSh in
m ars
Ġhe ter
ĠM Ã¡
Ġte atro
Ġsou ha
Ġsw itch
Ġzet els
Ġw ine
anci enne
Ġhoogte punt
ĠProtest ant
bark eit
T T
ann ingen
ĠLa us
Ġsupp lies
Ġcommunic ations
ĠÐ¾ÑģÐ½Ð¾Ð² Ðµ
Ð³ Ð³
S int
Ġth irty
Ġcam ino
Ġprofes or
Ġh ind
ig el
ĠF ight
Ġdubb ele
Ġhors es
he em
Ġg all
ĠÐ¾ÑĤ ÑĢÑıÐ´
if ice
ed an
ĠÐ¿ÑĢ Ð¾Ñĩ
Ġher itage
Ð¸ÑĤÐµÐ»ÑĮ Ð½ÑĭÑħ
h im
Ġsuff ering
Ġbal ance
ĠWeltkrieg s
He in
ĠD ial
ĠCh an
Ġbre it
ĠÐ´Ð¾Ð»Ð¶ ÐµÐ½
Ä ħ
Ġa cknow
enn t
Ġsupport s
ĠKrit ik
ĠAm ateur
Ġpost ed
edd h
Ġde ur
Ġp au
Ġvoor aan
Ġcons p
ĠÐŀ Ð»Ð¸Ð¼Ð¿
Ã©l ior
ĠMont g
ĠRome inen
Ġ179 8
ĠFern Ã¡ndez
Ġoccas ions
e qu
ff ield
ĠAr g
ĠÐŃ ÑĤ
H owever
od on
y g
ang ular
ĠSchool s
ĠAr te
ĠÐĹ Ð°Ðº
Ġvle ugel
Ġg arn
Ð°ÐºÑĤ Ð¸Ð²
Ġontmo ette
Ð»Ñı ÐµÑĤ
Ġlaat st
Ã©ra ire
ĠgeÃ¯n spire
ĠÑĦÑĢÐ¾Ð½ ÑĤÐ°
Ð¿ Ð°ÑĢÑħ
Ġcl ient
ĠIm m
Ġsticht te
l ings
Ġrec uper
Ġtre ated
Ġcomun idad
i Ã¡n
Ġch asse
Ġjon gens
onom ie
Ġlit urg
k ere
ĠL oth
Ġmov ements
Ġaccess ible
el aars
Ġre vers
ond anks
geme inden
Ã¡m ara
olog ists
onder den
Ġweit gehend
M any
ĠÐ² ÐµÐ»Ð¸Ðº
ĠÑĢÐ° ÑģÐº
ĠNe il
ĠÐ° Ñį
Ġdesign er
Ġnov els
Ġproduc eren
Ġsod ass
ĠÐ²Ð»Ð¸Ñı Ð½Ð¸Ðµ
op he
ĠAd van
Ġtim ber
iz ers
Ġmod ified
auf hin
B re
Ġfir me
Ġst yles
Ġant igua
Ġo s
Ġimposs ible
Ñĥ Ñı
Ġar bit
ĠÑĢÐ°Ð· Ð¼ÐµÑĢ
tym ologie
Ġeditor ial
ĠÐºÐ°ÑĢÑĮ ÐµÑĢÑĥ
Ġgen au
Ġten den
Ġdeta il
ĠDeb Ã¼t
Ġpre gn
ri ert
og y
Ġweten schappelijk
ĠStan ford
h ir
ĠB ata
Ġre pl
ĠÐ²ÐµÐº Ðµ
Ġz ek
ÑĦ Ð¸Ð½
ĠÐĲ Ð¼ÐµÑĢ
Ġinter Ã©s
Ġmitt el
Ġver lo
ÐµÐ² Ð¾Ð¹
Ġleg it
ĠSchw ester
Ġharm onie
ĠC old
ĠÑģ ÐµÑĤ
ĠHamb urger
ĠBab y
Ġinfrast ructure
an walt
Ã© sente
ĠF land
Ġunder stand
Ġsow jet
fl Ã¤chen
prof it
Ġtelevisies erie
Ġoch tend
Ġan ges
Ġalle in
ĠZwe i
at ically
Ġst offen
Ġbest Ã¤t
g au
elijk se
Ġconcern ed
Ð¾Ð½ Ð¸Ð¸
l Ã¤ss
Ġb ay
ĠV ille
pr us
Ġrepla cing
ĠÐ¿Ð» ÐµÐ¼
Ġblan cos
Ġproxim itÃ©
ĠW atson
Ġex ter
ĠÐ± Ð»Ð°Ð³
Ġsim pl
Ġonbek end
u im
Ġb arb
ĠF isher
la ir
Ġdat os
ater ra
ins ki
enn ent
Ð¼Ð°ÑĤ ÑĢÐ¸Ð²
S ep
ĠD isk
av i
ĠÐ¿Ð¾ ÑģÐº
Ġspecif ieke
ĠMov ement
ul i
Ġvoornaam ste
ĠT yr
ĠUn ido
ĠDar stellung
ĠÑĤÑĢÐµÑĤ ÑĮ
op ing
Ġhost s
ĠGreg ory
Ġpeup le
v ie
Ġk alk
ĠÐ» Ð¸Ð´
Ġhier in
ĠÑģÑĭÐ³ÑĢÐ° Ð»
Ġso uten
Ġappro val
Ġproced ure
Ġtam aÃ±o
ĠÐ¿ÑĢÐµÐ¿Ð¾Ð´ Ð°Ð²
Ġakk oord
ĠÑĤÐ¸ÑĤ ÑĥÐ»
W ar
ĠBe h
ĠÐ²Ñģ ÐµÐ¼
ĠHels inki
ĠÑĤ ÐµÐ¼Ð¿
ĠÃ¤ uÃŁ
ĠÐ½Ð° ÑģÑĤ
Ġne us
Ġprincip aux
Ġturn ing
Ġsurv iving
ĠIndones ia
Ġe asy
ast s
Ð½Ð¾ Ñģ
Ġander er
qu Ãªte
ĠK rieges
Ġom sch
be h
Ġprocess us
Ġkunst schilder
Ð°Ð» Ð¾Ð¼
br id
ĠFranÃ§ ais
abb aye
U N
Ġarm as
us iÃ³n
Ġvoor jaar
Ġve c
Ġnewspap ers
ĠI F
Ġre pro
Ġst rict
ĠW ies
Ġph one
Ġvari able
ĠÐŁ ÑĢÐµÐ´
ĠPet rus
Ġoccas ionally
ĠN ah
k ru
Ġb ier
Ġstatt f
le ctor
ĠE chter
ĠO il
ĠÐľ Ð¾Ð½
Ġsit io
Ġexist ed
Ġschw ed
Ġbo ats
ta wa
Ã©t abl
ĠHa ven
ir al
Ac adÃ©mie
Ġg ulden
Ð½Ð° Ñħ
fen is
Ġuitgere ikt
ĠW als
Ġprobable ment
ĠM ap
Ġk it
ĠCla us
ĠÃºn ica
ĠEns emble
is ierte
ĠE int
ĠÑģÐ² ÑıÑĤ
ĠMÃ¤n n
ĠP s
Ġtour nee
Ġatt or
lop ende
at um
ĠSt ill
Ġmehr fach
Ð²ÐµÑĢ Ð³
Ġerschien en
d essen
ÐµÐ½ ÑĨÐ¸Ð¸
v oc
Ġm u
ĠS ib
ĠAuf grund
Ġfon ctions
Ġpeque Ã±a
er ÃŃa
ĠÐ½Ðµ Ð¿ÑĢ
Ġinc end
ĠÑĢÐ°Ð±Ð¾ÑĤ Ðµ
ĠJust in
Ġf ro
ĠA V
Ġconsid Ã©rÃ©
ĠÐ¶ÐµÐ»ÐµÐ· Ð½Ð¾Ð´Ð¾ÑĢÐ¾Ð¶
ĠFÃ¼hr ung
ĠL ower
Ð°Ð½ Ð½ÑĭÐ¹
uy Ã³
g g
at ik
Ġc iel
ĠGen Ã¨ve
Ġrecomm ended
k osten
Ġdel la
Ġger est
ĠÐ¿Ð¾ÑįÑĤ Ð¾Ð¼Ñĥ
ĠF BI
Ġ18 19
Ġalso ok
Ġag g
ĠHo ge
ĠMad ison
Ġremain der
ĠC ler
Ġvoor sprong
rad or
Ġschrij vers
Ġstell vertre
NE SCO
be id
forsch ung
Ġan arch
ĠMed izin
rouw en
Ġerv aring
Ġqu atriÃ¨me
ÑĪ ÑĤ
Ġtrabaj os
Ġkat hedraal
ĠCamer on
I G
ĠOp fer
Ġgradu ally
Ġvliegt uigen
Ġv and
ĠD up
196 5
Ġbos sen
ĠD oordat
ĠN aties
ĠÐ¿ ÐµÑħ
ĠSal on
ge on
Ġtourn Ã©e
ĠGener ation
t ic
ĠS ue
Ġter ren
ele cted
ĠÐ½Ð¾Ð² Ð¾Ð³Ð¾
ul ent
Ð¾Ñģ Ñı
ĠSp ider
Ð°Ð´ Ðµ
Ġmann elijke
ĠÐĵ Ðµ
Ð°ÑĨ Ð¸Ð¹
oir s
Ġindividu ele
ĠÐ¸Ð½ÑģÑĤ Ð¸ÑĤÑĥÑĤÐ°
Ġverbet erde
Ġin zwischen
Ġn erv
ĠZ immer
pl it
ago ge
ĠJohann a
d al
Ġsla an
Ġnood zakelijk
ĠbÃ©nÃ© fic
Ġg ay
ĠT sche
Ġgel eg
ĠArt ikel
Ġsk elet
ig ue
land carriÃ¨re
ÐµÑħ Ð½
ch in
Ġw onder
Ġ18 27
An gleterre
ÑĢÐµÑĩ ÐµÑģÐº
Ġwahr scheinlich
ĠÐ¼Ð¸Ð» Ð»Ð¸
ÑĢ Ð¸Ð¸
Ġbev onden
ĠÃ©v Ã©n
Ġl ista
Ġconst ante
ĠÑĤÐ°Ðº Ð¸Ðµ
ĠgrÃ¶ÃŁ ere
Ġna issance
Ġsupp l
ĠAp ollo
ĠÑģÑĤÐ°ÑĤ ÑĥÑģ
ci en
ĠÐ± Ð»Ð°Ð³Ð¾Ð´Ð°ÑĢÑı
ĠÐ·Ð° Ñģ
ĠAkt iv
ĠÑĦÐ¸Ð» Ð¾ÑģÐ¾ÑĦ
D o
ĠH Ã¶r
ab ilities
ĠÐ´ Ð¸ÑģÐº
ĠP eking
ĠÐºÐ¾ÑĤÐ¾ÑĢ ÑĭÐ¼
ĠAnd rea
ĠChe f
Ġdens idad
amerikan ischen
M E
ish a
Ġwiss el
Ġverleng d
Ġpl as
Ġdirect ors
minister ium
Ġenc arg
Ġparc ours
ÑĳÐ½ Ð½Ð¾Ð¹
ÐµÐ¹ Ð¼
Ġdon ner
Ġappar ently
tem per
ĠArch itect
as is
Ġintro duc
Ġb id
Ġaff ir
Ġbot an
ra be
Ġman ipul
Joh ann
ĠÐĲ Ð»ÑĮ
Ġbed rag
Ġemploy ment
M ost
Ġje ux
ĠdÃ©c or
Ġmind estens
ft ig
z anger
Ġrepr Ã©sente
che pen
Ġprin ces
ĠAuf stieg
Ġgere kend
ĠIndust rial
ĠDiam ond
ĠÐĶ Ð¼Ð¸ÑĤ
ĠAs ÃŃ
ĠMont rÃ©al
Ġsele ct
oot schap
ĠAng els
ĠÐ´ÐµÑĢÐµÐ² Ð½Ð¸
ro epen
Ġprovin cies
Ġarbeit et
Ġvers ies
Ġend Ã©m
c ott
ĠCl iff
ĠtÃ©lÃ© vision
f ire
Ġprofession ele
H A
ĠR ib
ĠÐ² ÐµÑģÑĮ
Ġapp arte
En t
mann s
ĠÐ¿ÐµÑĢÐµ ÑħÐ¾Ð´
wind igkeit
Ġh ic
Ġre ady
ĠÐºÑĥÐ»ÑĮÑĤ ÑĥÑĢ
Ġpro med
ĠCo ck
ĠÐ¿Ð¾ÑģÐº Ð¾Ð»ÑĮÐºÑĥ
Ð³ Ñĥ
ta it
Ġpour rait
Ġparticip aciÃ³n
ĠÐĹ Ð°ÑĤÐµÐ¼
er weise
Ġuit z
Ġinter c
ĠEl les
ĠOn line
Ġor nam
ĠÐ± Ð¸Ð±Ð»Ð¸Ð¾ÑĤ
ĠdÃ© pend
ĠÑįÑĤ Ð¸Ð¼
b ung
ĠD oming
he astern
ay o
ĠArt es
ĠÐĺÐ½ Ð´
Ġl ignes
ĠA rag
ĠC IA
ot ing
ran j
Ġemer gency
k ingen
Ġas ks
ay an
ĠÐ³ Ð¾Ð½
ĠrÃ©s erv
lie p
ÐŃ Ðº
on er
al do
B E
ĠBe ver
ĠTre aty
ĠM Ã¡s
ĠH D
ag ar
Ġma an
act ions
Ã¡n chez
ĠÑģÐ¾Ð² ÐµÑĤÐ°
Ġreported ly
orig inal
w intig
reg ierung
ÑĥÑİÑī Ð¸Ð¹
ĠÐ¸Ð¼Ðµ ÑİÑĤ
el in
rie ven
ign ant
pos itie
Ġround s
Ġactual idad
Ð»Ñı ÐµÑĤÑģÑı
Ð°Ð»Ð¸ ÑĦ
Ġcr imes
ver fahren
co very
ĠÐ·Ð° Ð³
ĠMad ag
Ġiniti ative
ĠFerr ari
Ġgerest aure
ĠM ix
ĠC lo
ĠÐ¿Ð¾Ð¼ Ð¾Ð³
Ġverkl aring
ĠUnt ersch
Ġlitera ire
b ruik
ĠP rat
Ġecht genoot
Ġcolle ges
ĠLe gend
ĠAb teilung
Ġrepr ises
ĠLauf e
M ac
ĠP ius
ĠFrances co
Ġaf ro
nam ed
Ġestruct ura
m ede
ĠPar aguay
pre ad
ĠFrÃ¼h jahr
Ġn áµĴ
ĠÐ² ÑģÐºÐ¾ÑĢÐµ
Ġqu a
Ġtra itÃ©
Ġdivers as
ĠcaractÃ©r istiques
Famil ie
Ġcabe za
Ġzek ere
ĠK i
Ġgar ant
ĠhÃ¤t te
ĠS lav
ĠR up
min ute
Ġmat rimonio
Ġpat rol
Ã¼t te
ĠAb itur
het ic
j ew
ĠP ick
ras se
ĠÐ¿ÑĢÐ¸Ñģ ÑĥÑĤÑģÑĤÐ²
ĠÐ´ÐµÐ±ÑİÑĤ Ð¸ÑĢÐ¾Ð²Ð°Ð»
ÑĢ Ð¸Ð¹
ou p
ÑĪ ÐµÐµ
ĠAng lo
Ð°ÑĢ Ð¸Ð¸
Ġsa iled
Ġdeel name
fass ungs
Ġpassag iers
Ġuit gave
Ð¾Ð²Ð°Ð½ Ð°
ĠMoh ammed
et as
ĠSo ftware
ĠYear s
in tre
as o
ak ov
Ġass emb
Ġsele cciÃ³n
Ġmerc ado
Ġperten ec
S ub
Ġn ep
Ġsp ending
Ġmogelijk heden
Ġamerikan ischen
ĠD ame
Ġre iz
ĠN C
Ġge hen
ĠO w
Ġrep orter
Ġcat ch
Ġinflu ences
Ġencont rar
z ige
re to
ri ors
Ġobserv ations
ĠIJ s
ĠÐ¿Ð¾ÑģÐµÐ» ÐµÐ½Ð¸Ñı
Ġuiter lijk
n issen
Ġp Ã©
Ġwereld beker
Ġw ides
ew ork
Ġonderzoek en
Ġfeit e
ĠCommunic ations
el i
Ġto ured
ĠÐ¿ÐµÑĢ ÐµÐ¼
Ð°Ð¹ Ð½
Ã¨ tes
ÑĢÑĥ Ñĩ
ĠÐĲ Ð¼
Ġhe ers
sch ien
Ġma ire
ĠOn dertussen
ĠMet ern
Ð¸ÐºÐ° ÑĨÐ¸Ð¸
Ðº Ð¾ÑĢ
Ġget iteld
ing ers
Ġher bouw
Ð½Ð° Ð´
Ġsamen leving
Ġast ron
ĠKam mer
Ð¾Ð¼ Ð±
oth Ã¨que
Ġcr Ã©e
ĠpiÃ¨ ce
Ġb arr
ĠD ion
196 7
aak te
Î º
ĠSing les
ĠÐ¦ÐµÐ½ÑĤ ÑĢÐ°Ð»ÑĮ
Ġm ath
om i
ÐµÐ½ Ð½Ð¾ÑģÑĤÐ¸
Ġdis pose
ĠÑı Ð²
Ġresc ue
Ġst anden
ĠW ells
alen der
ĠMal er
ĠHu bert
rep ublik
Ġchans ons
ĠArk ansas
Ġe ut
ug Ã¨ne
ĠÐ´Ð² ÑĥÐ¼
Ð½Ð¸ÑĨ Ñĭ
Ġimmigr ants
J apan
Ġt elkens
Ġpro clam
Ġsaf e
ĠZ owel
Ġpl ante
Ñģ Ð»ÐµÐ´
Ġobt ain
ĠÐµÐ² ÑĢÐ¾Ð¿ÐµÐ¹
Ġthous and
le chter
ĠIn stead
S G
r ando
ĠR uth
ag Ã©
Ð°Ð² ÐºÐ°Ð·
Ġactual mente
ĠI z
Ġle zen
Ġfa ible
Ġopn amen
ĠÑģÐ»ÑĥÐ¶ Ð±Ñĥ
Ġchap ter
ĠV aters
ĠDe ep
Ġter cera
ĠSp art
con stru
org ung
Ġmag ist
Ġrev ient
ĠG ul
ĠCon n
ĠcrÃ© er
Ġevery one
H al
Ġcom fort
ĠÐ¾Ð± ÑĢÐ°Ñī
Ġball et
geb ot
ĠÐĿ Ð°ÑĨÐ¸Ð¾Ð½
Ġfour n
Ġtrou ver
Ġp in
ap point
ĠAn teil
Ġint ell
ĠMc L
ĠR ut
Ġed ited
Ð¸ÑĤÐµÐ»ÑĮ Ð½ÑĭÐ¹
Ġminister ie
Ġcolon ies
Ġinj uries
Ġ17 00
Ġt orn
at as
mo us
ĠÑĢÐ°Ð· Ð³
Ġcompon ents
Ġapro b
Ġs ket
Ġm ud
ĠCh al
Ġass assin
Ġinflu encia
Ġst artete
ĠÑĤ Ð¾Ð¼Ñĥ
ĠKong ress
[...]
