{
  "version": "1.0",
  "truncation": null,
  "padding": null,
  "added_tokens": [
    {
      "id": 0,
      "content": "<|endoftext|>",
      "single_word": false,
      "lstrip": false,
      "rstrip": false,
      "normalized": true,
      "special": true
    }
  ],
  "normalizer": null,
  "pre_tokenizer": {
    "type": "ByteLevel",
    "add_prefix_space": false,
    "trim_offsets": true,
    "use_regex": true
  },
  "post_processor": {
    "type": "ByteLevel",
    "add_prefix_space": true,
    "trim_offsets": false,
    "use_regex": true
  },
  "decoder": {
    "type": "ByteLevel",
    "add_prefix_space": true,
    "trim_offsets": true,
    "use_regex": true
  },
  "model": {
    "type": "BPE",
    "dropout": null,
    "unk_token": null,
    "continuing_subword_prefix": "",
    "end_of_word_suffix": "",
    "fuse_unk": false,
    "byte_fallback": false,
    "vocab": {
      "<|endoftext|>": 0,
      "!": 1,
      "\"": 2,
      "#": 3,
      "$": 4,
      "%": 5,
      "&": 6,
      "'": 7,
      "(": 8,
      ")": 9,
      "*": 10,
      "+": 11,
      ",": 12,
      "-": 13,
      ".": 14,
      "/": 15,
      "0": 16,
      "1": 17,
      "2": 18,
      "3": 19,
      "4": 20,
      "5": 21,
      "6": 22,
      "7": 23,
      "8": 24,
      "9": 25,
      ":": 26,
      ";": 27,
      "<": 28,
      "=": 29,
      ">": 30,
      "?": 31,
      "@": 32,
      "A": 33,
      "B": 34,
      "C": 35,
      "D": 36,
      "E": 37,
      "F": 38,
      "G": 39,
      "H": 40,
      "I": 41,
      "J": 42,
      "K": 43,
      "L": 44,
      "M": 45,
      "N": 46,
      "O": 47,
      "P": 48,
      "Q": 49,
      "R": 50,
      "S": 51,
      "T": 52,
      "U": 53,
      "V": 54,
      "W": 55,
      "X": 56,
      "Y": 57,
      "Z": 58,
      "[": 59,
      "\\": 60,
      "]": 61,
      "^": 62,
      "_": 63,
      "`": 64,
      "a": 65,
      "b": 66,
      "c": 67,
      "d": 68,
      "e": 69,
      "f": 70,
      "g": 71,
      "h": 72,
      "i": 73,
      "j": 74,
      "k": 75,
      "l": 76,
      "m": 77,
      "n": 78,
      "o": 79,
      "p": 80,
      "q": 81,
      "r": 82,
      "s": 83,
      "t": 84,
      "u": 85,
      "v": 86,
      "w": 87,
      "x": 88,
      "y": 89,
      "z": 90,
      "{": 91,
      "|": 92,
      "}": 93,
      "~": 94,
      "¡": 95,
      "¢": 96,
      "£": 97,
      "¤": 98,
      "¥": 99,
      "¦": 100,
      "§": 101,
      "¨": 102,
      "©": 103,
      "ª": 104,
      "«": 105,
      "¬": 106,
      "®": 107,
      "¯": 108,
      "°": 109,
      "±": 110,
      "²": 111,
      "³": 112,
      "´": 113,
      "µ": 114,
      "¶": 115,
      "·": 116,
      "¸": 117,
      "¹": 118,
      "º": 119,
      "»": 120,
      "¼": 121,
      "½": 122,
      "¾": 123,
      "¿": 124,
      "À": 125,
      "Á": 126,
      "Â": 127,
      "Ã": 128,
      "Ä": 129,
      "Å": 130,
      "Æ": 131,
      "Ç": 132,
      "È": 133,
      "É": 134,
      "Ê": 135,
      "Ë": 136,
      "Ì": 137,
      "Í": 138,
      "Î": 139,
      "Ï": 140,
      "Ð": 141,
      "Ñ": 142,
      "Ò": 143,
      "Ó": 144,
      "Ô": 145,
      "Õ": 146,
      "Ö": 147,
      "×": 148,
      "Ø": 149,
      "Ù": 150,
      "Ú": 151,
      "Û": 152,
      "Ü": 153,
      "Ý": 154,
      "Þ": 155,
      "ß": 156,
      "à": 157,
      "á": 158,
      "â": 159,
      "ã": 160,
      "ä": 161,
      "å": 162,
      "æ": 163,
      "ç": 164,
      "è": 165,
      "é": 166,
      "ê": 167,
      "ë": 168,
      "ì": 169,
      "í": 170,
      "î": 171,
      "ï": 172,
      "ð": 173,
      "ñ": 174,
      "ò": 175,
      "ó": 176,
      "ô": 177,
      "õ": 178,
      "ö": 179,
      "÷": 180,
      "ø": 181,
      "ù": 182,
      "ú": 183,
      "û": 184,
      "ü": 185,
      "ý": 186,
      "þ": 187,
      "ÿ": 188,
      "Ā": 189,
      "ā": 190,
      "Ă": 191,
      "ă": 192,
      "Ą": 193,
      "ą": 194,
      "Ć": 195,
      "ć": 196,
      "Ĉ": 197,
      "ĉ": 198,
      "Ċ": 199,
      "ċ": 200,
      "Č": 201,
      "č": 202,
      "Ď": 203,
      "ď": 204,
      "Đ": 205,
      "đ": 206,
      "Ē": 207,
      "ē": 208,
      "Ĕ": 209,
      "ĕ": 210,
      "Ė": 211,
      "ė": 212,
      "Ę": 213,
      "ę": 214,
      "Ě": 215,
      "ě": 216,
      "Ĝ": 217,
      "ĝ": 218,
      "Ğ": 219,
      "ğ": 220,
      "Ġ": 221,
      "ġ": 222,
      "Ģ": 223,
      "ģ": 224,
      "Ĥ": 225,
      "ĥ": 226,
      "Ħ": 227,
      "ħ": 228,
      "Ĩ": 229,
      "ĩ": 230,
      "Ī": 231,
      "ī": 232,
      "Ĭ": 233,
      "ĭ": 234,
      "Į": 235,
      "į": 236,
      "İ": 237,
      "ı": 238,
      "Ĳ": 239,
      "ĳ": 240,
      "Ĵ": 241,
      "ĵ": 242,
      "Ķ": 243,
      "ķ": 244,
      "ĸ": 245,
      "Ĺ": 246,
      "ĺ": 247,
      "Ļ": 248,
      "ļ": 249,
      "Ľ": 250,
      "ľ": 251,
      "Ŀ": 252,
      "ŀ": 253,
      "Ł": 254,
      "ł": 255,
      "Ń": 256,
      "en": 257,
      "er": 258,
      "Ġd": 259,
      "an": 260,
      "in": 261,
      "Ġt": 262,
      "on": 263,
      "es": 264,
      "he": 265,
      "ĠÐ": 266,
      "Ġa": 267,
      "or": 268,
      "ar": 269,
      "Ġs": 270,
      "Ġde": 271,
      "Ð¾": 272,
      "ch": 273,
      "is": 274,
      "el": 275,
      "Ġw": 276,
      "at": 277,
      "it": 278,
      "Ġv": 279,
      "Ð°": 280,
      "Ðµ": 281,
      "Ġl": 282,
      "al": 283,
      "Ġp": 284,
      "Ġo": 285,
      "re": 286,
      "Ð¸": 287,
      "AR": 288,
      "Ġb": 289,
      "Ġin": 290,
      "Ġm": 291,
      "ed": 292,
      "Ġc": 293,
      "as": 294,
      "un": 295,
      "Ġthe": 296,
      "Ð¾Ð": 297,
      "ie": 298,
      "Ġe": 299,
      "ÑĢ": 300,
      "ÑĤ": 301,
      "Ñģ": 302,
      "and": 303,
      "NE": 304,
      "Ð½": 305,
      "Ġf": 306,
      "ro": 307,
      "ART": 308,
      "te": 309,
      "ur": 310,
      "Ġh": 311,
      "ij": 312,
      "Ġ1": 313,
      "ing": 314,
      "Ġg": 315,
      "ĠS": 316,
      "il": 317,
      "ST": 318,
      "START": 319,
      "Ġen": 320,
      "et": 321,
      "Ã©": 322,
      "Ġn": 323,
      "st": 324,
      "ion": 325,
      "ent": 326,
      "ic": 327,
      "Ð»": 328,
      "am": 329,
      "Ġof": 330,
      "de": 331,
      "ĠA": 332,
      "le": 333,
      "om": 334,
      "ol": 335,
      "us": 336,
      "ig": 337,
      "Ġhe": 338,
      "ĠM": 339,
      "Ġz": 340,
      "ĠB": 341,
      "Ġto": 342,
      "ĠC": 343,
      "ĠD": 344,
      "ra": 345,
      "Ġvan": 346,
      "Ġand": 347,
      "ĠT": 348,
      "LI": 349,
      "LINE": 350,
      "NEW": 351,
      "NEWLINE": 352,
      "os": 353,
      "ad": 354,
      "ers": 355,
      "ĠH": 356,
      "Ðº": 357,
      "Ġun": 358,
      "est": 359,
      "Ġ2": 360,
      "id": 361,
      "ĠP": 362,
      "Ñĥ": 363,
      "Ġ(": 364,
      "ut": 365,
      "Ġ19": 366,
      "im": 367,
      "qu": 368,
      "ĠL": 369,
      "._": 370,
      "ich": 371,
      "Ġk": 372,
      "ĠI": 373,
      "oor": 374,
      "em": 375,
      "Ġla": 376,
      "ter": 377,
      "ĠE": 378,
      "Ð²": 379,
      "ct": 380,
      "ĠR": 381,
      "Ġhet": 382,
      "Ġal": 383,
      "ĠG": 384,
      "AP": 385,
      "AG": 386,
      "Ġbe": 387,
      "PAR": 388,
      "RAP": 389,
      "RAPH": 390,
      "AGRAPH": 391,
      "PARAGRAPH": 392,
      "Ñı": 393,
      "aar": 394,
      "ĠF": 395,
      "ge": 396,
      "Ġeen": 397,
      "iv": 398,
      "ir": 399,
      "Ñĭ": 400,
      "Ð¼": 401,
      "Ġre": 402,
      "ul": 403,
      "den": 404,
      "Ġon": 405,
      "Ġr": 406,
      "ot": 407,
      "ĠN": 408,
      "Ġis": 409,
      "âĢ": 410,
      "la": 411,
      "EC": 412,
      "ON": 413,
      "Ġwas": 414,
      "TI": 415,
      "SEC": 416,
      "TION": 417,
      "SECTION": 418,
      "Ġ20": 419,
      "Ð´": 420,
      "ÑģÑĤ": 421,
      "Ġst": 422,
      "ĠW": 423,
      "um": 424,
      "ĠÐ¿": 425,
      "ation": 426,
      "der": 427,
      "ĠK": 428,
      "gen": 429,
      "ĠÐ²": 430,
      "ĠJ": 431,
      "ist": 432,
      "Ġder": 433,
      "Ġcon": 434,
      "ant": 435,
      "Ġse": 436,
      "Ġwer": 437,
      "ver": 438,
      "Ġop": 439,
      "Ġth": 440,
      "Ġdie": 441,
      "Ġge": 442,
      "ÑĮ": 443,
      "ci": 444,
      "ce": 445,
      "ĠV": 446,
      "Ġle": 447,
      "Ġver": 448,
      "Ã¼": 449,
      "ri": 450,
      "ber": 451,
      "ĠO": 452,
      "Ñĩ": 453,
      "ou": 454,
      "Âł": 455,
      "ÐµÐ½": 456,
      "ÑĢÐ°": 457,
      "ten": 458,
      "og": 459,
      "ier": 460,
      "ĠÑģ": 461,
      "se": 462,
      "op": 463,
      "ab": 464,
      "Ġfor": 465,
      "Ð¾Ð²": 466,
      "Ã¤": 467,
      "Ġdes": 468,
      "Ġte": 469,
      "Ã³": 470,
      "Ġpro": 471,
      "Ġqu": 472,
      "Ġund": 473,
      "ĠIn": 474,
      "Ġcom": 475,
      "Ġj": 476,
      "Ġel": 477,
      "ow": 478,
      "ag": 479,
      "Ð·": 480,
      "ak": 481,
      "ĠÐ¸": 482,
      "Ġer": 483,
      "Ġan": 484,
      "ap": 485,
      "Ñħ": 486,
      "ijn": 487,
      "Ġy": 488,
      "uit": 489,
      "art": 490,
      "ly": 491,
      "che": 492,
      "ort": 493,
      "we": 494,
      "Ġas": 495,
      "Ġals": 496,
      "ine": 497,
      "Ð¿": 498,
      "ijk": 499,
      "Ð¹": 500,
      "ĠÐ½": 501,
      "ĠDe": 502,
      "ck": 503,
      "Ġvoor": 504,
      "ĠÃ": 505,
      "Ġmet": 506,
      "ĠÐ¾": 507,
      "ith": 508,
      "ru": 509,
      "Ð¾Ð´": 510,
      "ien": 511,
      "ia": 512,
      "ve": 513,
      "pe": 514,
      "ĠU": 515,
      "ik": 516,
      "ach": 517,
      "ÐµÑĢ": 518,
      "od": 519,
      "ans": 520,
      "Ð³": 521,
      "Ð±": 522,
      "res": 523,
      "Ð°Ð½": 524,
      "our": 525,
      "Ġau": 526,
      "au": 527,
      "Ġet": 528,
      "00": 529,
      "ell": 530,
      "ung": 531,
      "ub": 532,
      "ĠThe": 533,
      "sch": 534,
      "Ġwh": 535,
      "ay": 536,
      "ĠSt": 537,
      "if": 538,
      "Ġ201": 539,
      "ies": 540,
      "end": 541,
      "hr": 542,
      "ill": 543,
      "ere": 544,
      "th": 545,
      "ne": 546,
      "ok": 547,
      "IC": 548,
      "ÑģÐº": 549,
      "LE": 550,
      "Ġ<": 551,
      "Ġ</": 552,
      "ARTIC": 553,
      "ARTICLE": 554,
      "eg": 555,
      "ĠÐº": 556,
      "ang": 557,
      "Ġzijn": 558,
      "Ġwith": 559,
      "ud": 560,
      "Ð¾ÑĢ": 561,
      "ft": 562,
      "Ð¾Ð¼": 563,
      "Ð¾Ð»": 564,
      "ven": 565,
      "Ð°Ð»": 566,
      "all": 567,
      "Ġein": 568,
      "ord": 569,
      "'s": 570,
      "io": 571,
      "Ġat": 572,
      "Ã¨": 573,
      "ĠZ": 574,
      "Ġ200": 575,
      "Ġwerd": 576,
      "Ġsu": 577,
      "Ġaan": 578,
      "ÃŃ": 579,
      "ond": 580,
      "ain": 581,
      "Ġ18": 582,
      "Ġ\"": 583,
      "eer": 584,
      "ast": 585,
      "rom": 586,
      "ire": 587,
      "ÑĢÐµ": 588,
      "ze": 589,
      "ard": 590,
      "ac": 591,
      "ip": 592,
      "und": 593,
      "ass": 594,
      "Ġhij": 595,
      "Ġby": 596,
      "Ñİ": 597,
      "Ġpar": 598,
      "ĠÐ³": 599,
      "ug": 600,
      "ĠÃł": 601,
      "Ġest": 602,
      "ue": 603,
      "Ġim": 604,
      "ff": 605,
      "Ð¾Ð³": 606,
      "ÑĨ": 607,
      "Ġque": 608,
      "ĠÐ´": 609,
      "Ġuit": 610,
      "ens": 611,
      "ek": 612,
      "Ġex": 613,
      "ess": 614,
      "Ã¶": 615,
      "ts": 616,
      "ÐµÐ»": 617,
      "isch": 618,
      "lo": 619,
      "ele": 620,
      "Ð¾Ð¹": 621,
      "Ð½Ñĭ": 622,
      "Ġthat": 623,
      "me": 624,
      "eld": 625,
      "ied": 626,
      "ate": 627,
      "ind": 628,
      "ment": 629,
      "Ã³n": 630,
      "iz": 631,
      "ann": 632,
      "ĠÐ½Ð°": 633,
      "oc": 634,
      "Ġch": 635,
      "ÑĪ": 636,
      "Ġvon": 637,
      "Ð¾Ð½": 638,
      "Ġor": 639,
      "land": 640,
      "Ð¶": 641,
      "ran": 642,
      "Ġdoor": 643,
      "ÐµÑĤ": 644,
      "ost": 645,
      "Ġdat": 646,
      "),": 647,
      "Ġdu": 648,
      "elijk": 649,
      "ken": 650,
      "ont": 651,
      "du": 652,
      "mer": 653,
      "ov": 654,
      "cht": 655,
      "eit": 656,
      "Ð¸Ð½": 657,
      "Ġpr": 658,
      "Ġden": 659,
      "ew": 660,
      "ĠÐ±": 661,
      "ong": 662,
      "ity": 663,
      "Ð¸ÑĤ": 664,
      "Ġ3": 665,
      "iet": 666,
      "In": 667,
      "up": 668,
      "orm": 669,
      "ale": 670,
      "ĠCh": 671,
      "Ġfrom": 672,
      "Ġit": 673,
      "Ġhis": 674,
      "ĠÃ©": 675,
      "ep": 676,
      "Ã¡": 677,
      "ĠÐ¼": 678,
      "ste": 679,
      "ater": 680,
      "rit": 681,
      "av": 682,
      "ĠAn": 683,
      "Ġover": 684,
      "ust": 685,
      "Ġar": 686,
      "ib": 687,
      "Ð°ÑĤ": 688,
      "ĠÑĤ": 689,
      "ĠUn": 690,
      "ian": 691,
      "ĠAl": 692,
      "ah": 693,
      "Ġsch": 694,
      "igh": 695,
      "Ġles": 696,
      "icht": 697,
      "pr": 698,
      "ĠâĢ": 699,
      ").": 700,
      "Ð¸Ð»": 701,
      "ure": 702,
      "Ġom": 703,
      "sen": 704,
      "ische": 705,
      "ive": 706,
      "Ġwor": 707,
      "Ġes": 708,
      "Ð¸Ñı": 709,
      "ĠÐ¿ÑĢ": 710,
      "que": 711,
      "to": 712,
      "Ġgro": 713,
      "Ġwar": 714,
      "Ġtot": 715,
      "Ġpla": 716,
      "Ð¾ÑĤ": 717,
      "Ġsp": 718,
      "Ġcomp": 719,
      "Ġma": 720,
      "Ġhad": 721,
      "Ġso": 722,
      "Ġdel": 723,
      "esch": 724,
      "Ġ199": 725,
      "Ġaf": 726,
      "ĠÂ": 727,
      "Ð¸Ðµ": 728,
      "per": 729,
      "Â»": 730,
      "ect": 731,
      "her": 732,
      "Ġme": 733,
      "ĠSch": 734,
      "ige": 735,
      "ÑĦ": 736,
      "men": 737,
      "ĠEn": 738,
      "Ġper": 739,
      "ide": 740,
      "amp": 741,
      "ame": 742,
      "ement": 743,
      "Ð½Ð¾": 744,
      "Ð¾Ð³Ð¾": 745,
      "cl": 746,
      "ĠLe": 747,
      "Ġlos": 748,
      "Ġcont": 749,
      "Ġpl": 750,
      "Ġbij": 751,
      "ĠÂ«": 752,
      "Ġpart": 753,
      "Ġwur": 754,
      "Ð°ÑĢ": 755,
      "Ã¼r": 756,
      "ore": 757,
      "Ġmit": 758,
      "Ġwaar": 759,
      "pp": 760,
      "iss": 761,
      "cc": 762,
      "ĠHe": 763,
      "Ã©s": 764,
      "Ġdem": 765,
      "uw": 766,
      "eren": 767,
      "be": 768,
      "lich": 769,
      "aal": 770,
      "Ġro": 771,
      "ĠMar": 772,
      "Ġtra": 773,
      "ions": 774,
      "ated": 775,
      "19": 776,
      "rie": 777,
      "Ġne": 778,
      "Ġab": 779,
      "Ð¾Ñģ": 780,
      "lic": 781,
      "ĠÐ·": 782,
      "ult": 783,
      "iel": 784,
      "Ð¸Ð¸": 785,
      "ingen": 786,
      "ÃŁ": 787,
      "âĢĻ": 788,
      "ĠAr": 789,
      "use": 790,
      "ric": 791,
      "Ġgeb": 792,
      "out": 793,
      "ob": 794,
      "Ġare": 795,
      "erv": 796,
      "Ð¸Ðº": 797,
      "mp": 798,
      "Ġ4": 799,
      "af": 800,
      "ger": 801,
      "ciÃ³n": 802,
      "rij": 803,
      "Ñī": 804,
      "Ġwere": 805,
      "nen": 806,
      "Ġzu": 807,
      "ĠÑĥ": 808,
      "The": 809,
      "ign": 810,
      "erk": 811,
      "ĠÐ³Ð¾Ð´": 812,
      "ert": 813,
      "ÑģÑĤÐ²": 814,
      "age": 815,
      "Ġonder": 816,
      "De": 817,
      "oh": 818,
      "ben": 819,
      "ern": 820,
      "ÑģÑı": 821,
      "ary": 822,
      "Ġmo": 823,
      "Ġze": 824,
      "Ġnaar": 825,
      "ren": 826,
      "igen": 827,
      "ial": 828,
      "Ġcl": 829,
      "tre": 830,
      "aan": 831,
      "Ð°Ðº": 832,
      "Ġres": 833,
      "ĠTh": 834,
      "Ġter": 835,
      "Ġco": 836,
      "Ð»Ð°": 837,
      "els": 838,
      "Ã©e": 839,
      "int": 840,
      "Ġam": 841,
      "Ð¸Ð¼": 842,
      "pt": 843,
      "ors": 844,
      "Ġwurde": 845,
      "ins": 846,
      "ivers": 847,
      "ish": 848,
      "ÐµÐ¼": 849,
      "Ġra": 850,
      "ear": 851,
      "Ġ198": 852,
      "Ġ5": 853,
      "les": 854,
      "Ġook": 855,
      "ĠÐ°": 856,
      "Ġher": 857,
      "Ġvers": 858,
      "ischen": 859,
      "Ġauf": 860,
      "Ñĳ": 861,
      "Ġho": 862,
      "ats": 863,
      "ke": 864,
      "Ġwhich": 865,
      "Ð¸Ð¹": 866,
      "unt": 867,
      "ry": 868,
      "als": 869,
      "ction": 870,
      "ado": 871,
      "ite": 872,
      "Ġad": 873,
      "ĠÑĩ": 874,
      "man": 875,
      "ons": 876,
      "ces": 877,
      "Ã«": 878,
      "ient": 879,
      "oll": 880,
      "ĠdÃ©": 881,
      "amen": 882,
      "Ġsh": 883,
      "Ġman": 884,
      "of": 885,
      "ĠÐĴ": 886,
      "ĠY": 887,
      "Ġdas": 888,
      "ical": 889,
      "ĠRe": 890,
      "Ġpor": 891,
      "port": 892,
      "ÐµÐ´": 893,
      "Ġ197": 894,
      "ition": 895,
      "bre": 896,
      "Ġha": 897,
      "Ġno": 898,
      "ome": 899,
      "Ð°Ð¼": 900,
      "ice": 901,
      "ph": 902,
      "gr": 903,
      "Ġinter": 904,
      "Ġdur": 905,
      "ĠÑĢÐ°": 906,
      "ÐµÐ¹": 907,
      "Ġnot": 908,
      "Ġpre": 909,
      "Ġgen": 910,
      "ÃŃa": 911,
      "kt": 912,
      "eder": 913,
      "âĢĭ": 914,
      "ations": 915,
      "Ġbo": 916,
      "uss": 917,
      "ise": 918,
      "Ġdans": 919,
      "Ġbeg": 920,
      "Ġtr": 921,
      "Ð¸Ñĩ": 922,
      "erd": 923,
      "ĠEr": 924,
      "atie": 925,
      "ĠHet": 926,
      "Ġ194": 927,
      "ÑĢÑĥ": 928,
      "Ġniet": 929,
      "Ġsur": 930,
      "vo": 931,
      "ta": 932,
      "Ġ17": 933,
      "Ġmaar": 934,
      "Ð¸Ð²": 935,
      "aat": 936,
      "Ġna": 937,
      "ĠÐ¡": 938,
      "ool": 939,
      "vol": 940,
      "eb": 941,
      "na": 942,
      "Ġword": 943,
      "Ġ6": 944,
      "Ñį": 945,
      "ings": 946,
      "ĠFran": 947,
      "omm": 948,
      "Ġ196": 949,
      "erste": 950,
      "Ġdo": 951,
      "ille": 952,
      "ild": 953,
      "Ġfin": 954,
      "Ġcar": 955,
      "Ã±": 956,
      "pen": 957,
      "Ġont": 958,
      "ational": 959,
      "gel": 960,
      "Ġwerden": 961,
      "Ð°Ð²": 962,
      "ual": 963,
      "Ð¾ÑģÑĤ": 964,
      "Ġfir": 965,
      "ilm": 966,
      "wo": 967,
      "ember": 968,
      "Ġalso": 969,
      "Ġune": 970,
      "Ġmar": 971,
      "ende": 972,
      "Ð¸Ñģ": 973,
      "urs": 974,
      "ahr": 975,
      "ath": 976,
      "ks": 977,
      "ight": 978,
      "ĠfÃ¼r": 979,
      "ÐµÐ²": 980,
      "ile": 981,
      "Ġrec": 982,
      "ĠBe": 983,
      "Ġwordt": 984,
      "ĠÐ±Ñĭ": 985,
      "Ġworden": 986,
      "old": 987,
      "ĠĠ": 988,
      "ina": 989,
      "ique": 990,
      "vel": 991,
      "Ġist": 992,
      "ede": 993,
      "uro": 994,
      "uch": 995,
      "Ġson": 996,
      "Ġsich": 997,
      "Ã©n": 998,
      "ma": 999,
      "Ġspe": 1000,
      "olog": 1001,
      "uis": 1002,
      "elf": 1003,
      "one": 1004,
      "ĠLa": 1005,
      "ance": 1006,
      "act": 1007,
      "Ġaus": 1008,
      "ime": 1009,
      "ÐµÐº": 1010,
      "Ã¨re": 1011,
      "ĠPar": 1012,
      "Ġhas": 1013,
      "form": 1014,
      "Ġlas": 1015,
      "Ġall": 1016,
      "Ġpour": 1017,
      "uur": 1018,
      "Ġzo": 1019,
      "Ġwe": 1020,
      "chter": 1021,
      "Ð¾Ð±": 1022,
      "Ġcomm": 1023,
      "Ġgo": 1024,
      "Ġ_": 1025,
      "uld": 1026,
      "Ð°Ñı": 1027,
      "ld": 1028,
      "ogra": 1029,
      "eft": 1030,
      "âĢĶ": 1031,
      "ada": 1032,
      "ĠÐ¾ÑĤ": 1033,
      "ĠRo": 1034,
      "ĠEl": 1035,
      "Ġag": 1036,
      "ĠSp": 1037,
      "Ġzich": 1038,
      "Ġact": 1039,
      "urg": 1040,
      "Ġ15": 1041,
      "Ð¸Ñħ": 1042,
      "Ġ16": 1043,
      "ther": 1044,
      "zen": 1045,
      "Ġdis": 1046,
      "co": 1047,
      "Ġeine": 1048,
      "ss": 1049,
      "Ġfirst": 1050,
      "ijd": 1051,
      "ca": 1052,
      "are": 1053,
      "omen": 1054,
      "Ġgr": 1055,
      "ari": 1056,
      "Ġuna": 1057,
      "ĠÑģÑĤ": 1058,
      "lie": 1059,
      "ouw": 1060,
      "âĢĵ": 1061,
      "Ð»Ñı": 1062,
      "Ġ7": 1063,
      "Ġ195": 1064,
      "ron": 1065,
      "ory": 1066,
      "Ġoff": 1067,
      "ĠÐļ": 1068,
      "Ġpol": 1069,
      "Ġvol": 1070,
      "ica": 1071,
      "ident": 1072,
      "ese": 1073,
      "ĠÐŁ": 1074,
      "cial": 1075,
      "own": 1076,
      "Ġtwe": 1077,
      "pl": 1078,
      "era": 1079,
      "Ġbet": 1080,
      "Ã¤n": 1081,
      "ef": 1082,
      "geb": 1083,
      "gan": 1084,
      "ÐµÐ»ÑĮ": 1085,
      "Ġwo": 1086,
      "Ġtheir": 1087,
      "ux": 1088,
      "eme": 1089,
      "Ð¾Ðº": 1090,
      "orn": 1091,
      "vent": 1092,
      "Ġ193": 1093,
      "ĠIt": 1094,
      "gh": 1095,
      "ton": 1096,
      "Ġsa": 1097,
      "Ġcons": 1098,
      "Ġbut": 1099,
      "ced": 1100,
      "Ġ8": 1101,
      "ĠDie": 1102,
      "000": 1103,
      "az": 1104,
      "ĠÐ¾Ð±": 1105,
      "Ġbest": 1106,
      "able": 1107,
      "ĠHij": 1108,
      "van": 1109,
      "ĠPro": 1110,
      "Ð»Ð¸": 1111,
      "Ġil": 1112,
      "ral": 1113,
      "sp": 1114,
      "aus": 1115,
      "Ġreg": 1116,
      "Ġrel": 1117,
      "Ġsein": 1118,
      "Ġi": 1119,
      "tem": 1120,
      "elt": 1121,
      "ress": 1122,
      "une": 1123,
      "uf": 1124,
      "Ġits": 1125,
      "ĠVer": 1126,
      "Ġqui": 1127,
      "Ġincl": 1128,
      "ĠSe": 1129,
      "min": 1130,
      "iden": 1131,
      "Ð½Ð¾Ð¹": 1132,
      "Ġdeze": 1133,
      "rat": 1134,
      "ack": 1135,
      "Ġyear": 1136,
      "Ġpub": 1137,
      "Ġcol": 1138,
      "ner": 1139,
      "uer": 1140,
      "20": 1141,
      "amil": 1142,
      "Ð¾Ð·": 1143,
      ".âĢĭ": 1144,
      "ĠÐ»": 1145,
      "Ġus": 1146,
      "Ġwho": 1147,
      "Ġmin": 1148,
      "heid": 1149,
      "Ġ-": 1150,
      "elle": 1151,
      "Ġlo": 1152,
      "Ġprodu": 1153,
      "pos": 1154,
      "att": 1155,
      "Ġbis": 1156,
      "iÃ«": 1157,
      "ase": 1158,
      "Ã¼n": 1159,
      "ute": 1160,
      "18": 1161,
      "oord": 1162,
      "Ð¾Ð»ÑĮ": 1163,
      "je": 1164,
      "ĠÐ½Ðµ": 1165,
      "ĠrÃ©": 1166,
      "Ġvo": 1167,
      "Ġnach": 1168,
      "Ð¸Ð·": 1169,
      "Ġtro": 1170,
      "dem": 1171,
      "Ġbes": 1172,
      "aten": 1173,
      "Ġ9": 1174,
      "Ġpe": 1175,
      "oren": 1176,
      "erson": 1177,
      "ates": 1178,
      "aft": 1179,
      "Ð³Ð¾": 1180,
      "ĠÐ¸Ð·": 1181,
      "Ġfa": 1182,
      "ĠÐ¿Ð¾": 1183,
      "ett": 1184,
      "ick": 1185,
      "itt": 1186,
      "Ġve": 1187,
      "Ġone": 1188,
      "ĠÑį": 1189,
      "Ġland": 1190,
      "tern": 1191,
      "ank": 1192,
      "Ġeerste": 1193,
      "ĠCo": 1194,
      "ho": 1195,
      "enn": 1196,
      "ĠÐ³Ð¾Ð´Ð°": 1197,
      "Ġ10": 1198,
      "ix": 1199,
      "ree": 1200,
      "mo": 1201,
      "aren": 1202,
      "Ġlater": 1203,
      "Ġhave": 1204,
      "Ġob": 1205,
      "Ġser": 1206,
      "Ã¼ber": 1207,
      "Ġcent": 1208,
      "ĠNew": 1209,
      "amb": 1210,
      "urn": 1211,
      "Ġaut": 1212,
      "Ġhaar": 1213,
      "Ġheeft": 1214,
      "gl": 1215,
      "sten": 1216,
      "Ð½ÑĭÑħ": 1217,
      "ĠTe": 1218,
      "ĠÐľ": 1219,
      "Ġthis": 1220,
      "its": 1221,
      "ĠAm": 1222,
      "ited": 1223,
      "pro": 1224,
      "ys": 1225,
      "ĠUnivers": 1226,
      "Ġmeer": 1227,
      "Ġapp": 1228,
      "ĠÐµ": 1229,
      "rib": 1230,
      "Ġjaar": 1231,
      "Ġpara": 1232,
      "Ð¾Ð¶": 1233,
      "Ġsec": 1234,
      "Ġbel": 1235,
      "wn": 1236,
      "Ġfo": 1237,
      "Ġkon": 1238,
      "Ġbeen": 1239,
      "Ġpres": 1240,
      "ohn": 1241,
      "âĢľ": 1242,
      "Ġdaar": 1243,
      "ÐµÐ½Ð¸Ñı": 1244,
      "ĠMa": 1245,
      "Ġsc": 1246,
      "ude": 1247,
      "ante": 1248,
      "Ġent": 1249,
      "ales": 1250,
      "Ð¸ÑĢ": 1251,
      "red": 1252,
      "Ġfilm": 1253,
      "Ġalle": 1254,
      "ido": 1255,
      "Ġwaren": 1256,
      "Ġtwo": 1257,
      "elijke": 1258,
      "schap": 1259,
      "erde": 1260,
      "Ġdan": 1261,
      "tÃ©": 1262,
      "ĠOr": 1263,
      "Ġpos": 1264,
      "ĠÑĦ": 1265,
      "Ð°Ð»ÑĮ": 1266,
      "Ġ12": 1267,
      "fer": 1268,
      "Ġsie": 1269,
      "ungen": 1270,
      "Ġstud": 1271,
      "Ð½Ð¾Ð³Ð¾": 1272,
      "par": 1273,
      "ilit": 1274,
      "ll": 1275,
      "lijk": 1276,
      "ĠÐĲ": 1277,
      "ges": 1278,
      "eter": 1279,
      "stit": 1280,
      "En": 1281,
      "va": 1282,
      "ÐĴ": 1283,
      "hal": 1284,
      "ques": 1285,
      "ÑĤÐ¾": 1286,
      "ward": 1287,
      "onder": 1288,
      "ĠÐ²Ñĭ": 1289,
      "Ġsy": 1290,
      "ente": 1291,
      "aciÃ³n": 1292,
      "Ġ'": 1293,
      "Le": 1294,
      "Ġac": 1295,
      "Ãª": 1296,
      "inn": 1297,
      "Ð¡": 1298,
      "ork": 1299,
      "Ġcomo": 1300,
      "ose": 1301,
      "emb": 1302,
      "ĠSh": 1303,
      "ÐµÑģÐº": 1304,
      "ely": 1305,
      "Ġnog": 1306,
      "pla": 1307,
      "Ã©r": 1308,
      "vec": 1309,
      "ird": 1310,
      "Ġret": 1311,
      "oen": 1312,
      "Ã¨s": 1313,
      "ederland": 1314,
      "Ġauch": 1315,
      "elen": 1316,
      "Ġplay": 1317,
      "ÐºÐ°": 1318,
      "Ġ14": 1319,
      "ĠBr": 1320,
      "ink": 1321,
      "ÑĥÑİ": 1322,
      "Ġout": 1323,
      "Ġmed": 1324,
      "ugh": 1325,
      "ĠÃ¼ber": 1326,
      "Ġloc": 1327,
      "ĠEuro": 1328,
      "con": 1329,
      "hen": 1330,
      "do": 1331,
      "ĠÐ¿ÐµÑĢ": 1332,
      "ĠX": 1333,
      "Ġup": 1334,
      "ruik": 1335,
      "ÐµÐ½Ð¸Ðµ": 1336,
      "Ġ192": 1337,
      "iÃ³n": 1338,
      "ette": 1339,
      "Ġafter": 1340,
      "ĠâĢŀ": 1341,
      "ĠJahr": 1342,
      "ĠAb": 1343,
      "ĠAmer": 1344,
      "ÑĢÐµÐ´": 1345,
      "air": 1346,
      "ĠÐ·Ð°": 1347,
      "Ð¾Ð¿": 1348,
      "cia": 1349,
      "ister": 1350,
      "Ġserv": 1351,
      "ÐµÑģÑĤ": 1352,
      "Ġform": 1353,
      "Ġkw": 1354,
      "ict": 1355,
      "Ġgra": 1356,
      "Ġplus": 1357,
      "Ġste": 1358,
      "Ġpo": 1359,
      "ler": 1360,
      "Ġandere": 1361,
      "ium": 1362,
      "ico": 1363,
      "Ġap": 1364,
      "hed": 1365,
      "idad": 1366,
      "iek": 1367,
      "ĠQ": 1368,
      "ÑģÐ¿": 1369,
      "ief": 1370,
      "Ġcan": 1371,
      "ĠGr": 1372,
      "Ġdire": 1373,
      "bo": 1374,
      "ional": 1375,
      "ĠCar": 1376,
      "ents": 1377,
      "acht": 1378,
      "Ġ13": 1379,
      "omp": 1380,
      "Ġthey": 1381,
      "ĠGe": 1382,
      "oth": 1383,
      "ussen": 1384,
      "bum": 1385,
      "Ð½Ð°": 1386,
      "ijden": 1387,
      "Ġtegen": 1388,
      "Ġshe": 1389,
      "vis": 1390,
      "Ġacc": 1391,
      "etz": 1392,
      "Ãº": 1393,
      "zo": 1394,
      "ĠNederland": 1395,
      "ĠâĢĵ": 1396,
      "ular": 1397,
      "Ġmon": 1398,
      "Ġbei": 1399,
      "Ġavec": 1400,
      "ero": 1401,
      "stell": 1402,
      "wer": 1403,
      "schaft": 1404,
      "Ġmen": 1405,
      "Ã¤t": 1406,
      "lu": 1407,
      "ando": 1408,
      "Ġgew": 1409,
      "ĠOn": 1410,
      "Ġnew": 1411,
      "Ġbec": 1412,
      "Ã¡s": 1413,
      "Ã¶r": 1414,
      "aak": 1415,
      "Ġwork": 1416,
      "eden": 1417,
      "hip": 1418,
      "Ġdit": 1419,
      "ieu": 1420,
      "ased": 1421,
      "gt": 1422,
      "ais": 1423,
      "ĠCon": 1424,
      "ĠMe": 1425,
      "ĠÐĳ": 1426,
      "Ġbek": 1427,
      "Ġtrans": 1428,
      "ĠBo": 1429,
      "itÃ©": 1430,
      "ough": 1431,
      "Ġdies": 1432,
      "ĠÐ±ÑĭÐ»": 1433,
      "Ġother": 1434,
      "Ġtwee": 1435,
      "gest": 1436,
      "Ð´Ð°": 1437,
      "elde": 1438,
      "ĠÑĢÐµ": 1439,
      "Ġzum": 1440,
      "Ġsub": 1441,
      "stand": 1442,
      "rijk": 1443,
      "ific": 1444,
      "anu": 1445,
      "Ġass": 1446,
      "aut": 1447,
      "lin": 1448,
      "ĠCol": 1449,
      "Ġbu": 1450,
      "Ġdec": 1451,
      "Ġart": 1452,
      "Ġfe": 1453,
      "vers": 1454,
      "aj": 1455,
      "Ġsind": 1456,
      "chen": 1457,
      "ĠÐ³Ð¾Ð´Ñĥ": 1458,
      "Ġnum": 1459,
      "ĠÐ¶": 1460,
      "alt": 1461,
      "uk": 1462,
      "atur": 1463,
      "way": 1464,
      "Ġinto": 1465,
      "ject": 1466,
      "eral": 1467,
      "iones": 1468,
      "ĠHo": 1469,
      "ras": 1470,
      "gens": 1471,
      "ande": 1472,
      "vin": 1473,
      "Ġeiner": 1474,
      "Ð¸ÑĩÐµÑģÐº": 1475,
      "no": 1476,
      "Ġgebruik": 1477,
      "ĠIl": 1478,
      "Ð½ÑĭÐ¹": 1479,
      "Ġmus": 1480,
      "ence": 1481,
      "tro": 1482,
      "ster": 1483,
      "uc": 1484,
      "ungs": 1485,
      "ants": 1486,
      "Ġclub": 1487,
      "Ġhim": 1488,
      "uz": 1489,
      "ĠÐĿ": 1490,
      "emp": 1491,
      "orp": 1492,
      "ÑĤÐ°": 1493,
      "ret": 1494,
      "illa": 1495,
      "burg": 1496,
      "Ġpas": 1497,
      "Ġges": 1498,
      "Ð¾Ð²Ð°Ð½": 1499,
      "gram": 1500,
      "Ġdurch": 1501,
      "Ġtime": 1502,
      "ĠBer": 1503,
      "istor": 1504,
      "ĠII": 1505,
      "racht": 1506,
      "Ġ11": 1507,
      "ĠÐł": 1508,
      "stru": 1509,
      "ets": 1510,
      "Ġzur": 1511,
      "Ġfamil": 1512,
      "Ð¸ÑģÑĤ": 1513,
      "ÐµÑģ": 1514,
      "Ġnom": 1515,
      "Ġlang": 1516,
      "Ã©es": 1517,
      "aire": 1518,
      "Ð½Ð¾ÑģÑĤ": 1519,
      "Ð»ÑĮ": 1520,
      "Ġpop": 1521,
      "Ġhab": 1522,
      "Ġum": 1523,
      "ife": 1524,
      "Ġnam": 1525,
      "Ġplaats": 1526,
      "go": 1527,
      "Ġbro": 1528,
      "Ġinclud": 1529,
      "Ð½ÑĭÐ¼": 1530,
      "ake": 1531,
      "bert": 1532,
      "Ġ191": 1533,
      "Ð½ÑĭÐµ": 1534,
      "inal": 1535,
      "Ġbef": 1536,
      "ÑĢÐ°Ð½": 1537,
      "ĠÑģÐ²": 1538,
      "Ð½Ð¸Ðº": 1539,
      "Ġvor": 1540,
      "Ġed": 1541,
      "ÑĥÑĢ": 1542,
      "ĠPr": 1543,
      "berg": 1544,
      "Ð°Ñģ": 1545,
      "Ġzou": 1546,
      "Ð¸ÑĨ": 1547,
      "Ġcap": 1548,
      "orth": 1549,
      "lag": 1550,
      "ctor": 1551,
      "za": 1552,
      "Ġpolit": 1553,
      "ino": 1554,
      "Ġhat": 1555,
      "Ġzw": 1556,
      "Ġentre": 1557,
      "Ġunder": 1558,
      "eten": 1559,
      "ĠAf": 1560,
      "idd": 1561,
      "Ġcre": 1562,
      "ĠÐĶ": 1563,
      "ieden": 1564,
      "yn": 1565,
      "vern": 1566,
      "ÐŁ": 1567,
      "Ġorgan": 1568,
      "ĠÐŀ": 1569,
      "tra": 1570,
      "ĠOp": 1571,
      "chn": 1572,
      "Het": 1573,
      "Ġwerk": 1574,
      "Ġten": 1575,
      "urch": 1576,
      "Ġind": 1577,
      "Ġwould": 1578,
      "ĠZe": 1579,
      "Ġdist": 1580,
      "euw": 1581,
      "lan": 1582,
      "Ġhun": 1583,
      "aken": 1584,
      "ĠIs": 1585,
      "Ġfue": 1586,
      "arb": 1587,
      "ĠÐĵ": 1588,
      "iff": 1589,
      "Ġversch": 1590,
      "La": 1591,
      "ĠHer": 1592,
      "len": 1593,
      "ersch": 1594,
      "ĠVan": 1595,
      "Ð¸Ð´": 1596,
      "Ġwhen": 1597,
      "ios": 1598,
      "mb": 1599,
      "Ġperson": 1600,
      "ĠAd": 1601,
      "Ġwon": 1602,
      "Ġteam": 1603,
      "ichte": 1604,
      "ument": 1605,
      "ÑģÐºÐ¾Ð³Ð¾": 1606,
      "Ġkun": 1607,
      "Ġwel": 1608,
      "Ð»Ðµ": 1609,
      "ars": 1610,
      "iam": 1611,
      "ĠPh": 1612,
      "Ġ2010": 1613,
      "Ġverb": 1614,
      "ĠÐ¿Ð¾Ð»": 1615,
      "Ġinc": 1616,
      "Ġou": 1617,
      "tember": 1618,
      "onden": 1619,
      "ida": 1620,
      "Ã§": 1621,
      ")._": 1622,
      "aint": 1623,
      "Ġyears": 1624,
      "Ġmore": 1625,
      "Ġrem": 1626,
      "ÑģÐºÐ¾Ð¹": 1627,
      "Ġkan": 1628,
      "dition": 1629,
      "org": 1630,
      "iÃ¨": 1631,
      "Ġkle": 1632,
      "ĠAs": 1633,
      "Ġih": 1634,
      "Ð¾ÑĤÐ¾ÑĢ": 1635,
      "Ġagain": 1636,
      "ĠWest": 1637,
      "ason": 1638,
      "iert": 1639,
      "Ġbesch": 1640,
      "son": 1641,
      "Ġbeh": 1642,
      "ados": 1643,
      "Ã¡n": 1644,
      "any": 1645,
      "los": 1646,
      "log": 1647,
      "Ġdef": 1648,
      "ÐµÐ·": 1649,
      "ism": 1650,
      "Ġ190": 1651,
      "ograf": 1652,
      "Ã¤r": 1653,
      "Ġverk": 1654,
      "ican": 1655,
      "Ð°Ð´": 1656,
      "ution": 1657,
      "ÐµÐ½ÑĤ": 1658,
      "\".": 1659,
      "Ġwhere": 1660,
      "Ġdon": 1661,
      "ior": 1662,
      "ark": 1663,
      "ÑĢÐ°Ð²": 1664,
      "Ġkn": 1665,
      "rough": 1666,
      "Ġschool": 1667,
      "iteit": 1668,
      "ha": 1669,
      "sk": 1670,
      "ĠCl": 1671,
      "ĠChr": 1672,
      "ĠÐ¢": 1673,
      "Ġhand": 1674,
      "ous": 1675,
      "Ġpartic": 1676,
      "ĠUnited": 1677,
      "iÃ³": 1678,
      "wa": 1679,
      "Ġdeel": 1680,
      "Ġunter": 1681,
      "Ġhem": 1682,
      "rag": 1683,
      "Ġprem": 1684,
      "ider": 1685,
      "\",": 1686,
      "ious": 1687,
      "ĠJohn": 1688,
      "Ġhier": 1689,
      "oci": 1690,
      "Ġ2011": 1691,
      "Ġke": 1692,
      "ace": 1693,
      "ĠGro": 1694,
      "pril": 1695,
      "rÃ©": 1696,
      "Ð°ÑģÑĤ": 1697,
      "..": 1698,
      "ics": 1699,
      "ison": 1700,
      "Ã¼ck": 1701,
      "ijdens": 1702,
      "Ġprof": 1703,
      "iding": 1704,
      "ĠFl": 1705,
      "ograph": 1706,
      "ames": 1707,
      "ÐµÑģÑĤÐ²": 1708,
      "Ġinv": 1709,
      "ley": 1710,
      "Ġeinem": 1711,
      "Ġnicht": 1712,
      "Ġpublic": 1713,
      "Ġtit": 1714,
      "ĠSte": 1715,
      "ĠNe": 1716,
      "Ġconf": 1717,
      "ween": 1718,
      "ieder": 1719,
      "Ġprim": 1720,
      "cent": 1721,
      "Ġexp": 1722,
      "ished": 1723,
      "rad": 1724,
      "arm": 1725,
      "Ġ2012": 1726,
      "ĠBel": 1727,
      "werk": 1728,
      "dat": 1729,
      "Ġ2009": 1730,
      "Ġrest": 1731,
      "ange": 1732,
      "velop": 1733,
      "Ġ2006": 1734,
      "Ġsont": 1735,
      "ield": 1736,
      "ĠÐ¿Ð¾Ð´": 1737,
      "iste": 1738,
      "Ġ2008": 1739,
      "oud": 1740,
      "innen": 1741,
      "ule": 1742,
      "Ġlar": 1743,
      "iver": 1744,
      "ried": 1745,
      "let": 1746,
      "ÑıÑĤ": 1747,
      "Ġtussen": 1748,
      "Ã¯": 1749,
      "wij": 1750,
      "ÑĥÐ´": 1751,
      "ÑĥÑĤ": 1752,
      "Ġrep": 1753,
      "arly": 1754,
      "itz": 1755,
      "ĠJul": 1756,
      "Ġfl": 1757,
      "ovember": 1758,
      "Ã¼hr": 1759,
      "Ġbed": 1760,
      "lichen": 1761,
      "Ð¸Ñİ": 1762,
      "Ð°ÐµÑĤ": 1763,
      "ara": 1764,
      "Ġgesch": 1765,
      "ĠInd": 1766,
      "ash": 1767,
      "ury": 1768,
      "Die": 1769,
      "Ġant": 1770,
      "Ã©t": 1771,
      "Ġbr": 1772,
      "ble": 1773,
      "Ð°ÑĤÑĮ": 1774,
      "ÐµÑĢÐ°": 1775,
      "igt": 1776,
      "Ġbas": 1777,
      ".\"": 1778,
      "ines": 1779,
      "Ġtijd": 1780,
      "Ġsucc": 1781,
      "Ġsign": 1782,
      "Ġduring": 1783,
      "aux": 1784,
      "Ġmost": 1785,
      "Ġ2014": 1786,
      "ĠBrit": 1787,
      "Ġ25": 1788,
      "Ġsamen": 1789,
      "lex": 1790,
      "ÑħÐ¾Ð´": 1791,
      "uid": 1792,
      "ÑĥÑĩ": 1793,
      "ader": 1794,
      "Ġvier": 1795,
      "Ġ2013": 1796,
      "alen": 1797,
      "An": 1798,
      "Ġph": 1799,
      "Ġ2007": 1800,
      "Ð¾Ñĩ": 1801,
      "Ġend": 1802,
      "iÃ¨re": 1803,
      "Ġmat": 1804,
      "ĠUniversity": 1805,
      "Ġonly": 1806,
      "ÐºÐ¸": 1807,
      "ker": 1808,
      "omb": 1809,
      "cept": 1810,
      "ĠWe": 1811,
      "ative": 1812,
      "och": 1813,
      "Al": 1814,
      "Ġsus": 1815,
      "Ġ189": 1816,
      "amm": 1817,
      "Ġband": 1818,
      "ĠPol": 1819,
      "ĠGer": 1820,
      "Ġeigen": 1821,
      "Ġalbum": 1822,
      "ever": 1823,
      "ui": 1824,
      "pect": 1825,
      "Ġmade": 1826,
      "Ġopen": 1827,
      "ĠÑĢ": 1828,
      "Ġthere": 1829,
      "Ġintern": 1830,
      "ĠÑĢÐ°Ð·": 1831,
      "ator": 1832,
      "ĠDer": 1833,
      "Ġheb": 1834,
      "iter": 1835,
      "ĠÐºÐ¾ÑĤÐ¾ÑĢ": 1836,
      "ĠFor": 1837,
      "cer": 1838,
      "Ġfr": 1839,
      "oten": 1840,
      "Ġthen": 1841,
      "Ġveel": 1842,
      "iques": 1843,
      "ĠAt": 1844,
      "Ġins": 1845,
      "ura": 1846,
      "Ġ30": 1847,
      "ating": 1848,
      "aron": 1849,
      "Ġgeh": 1850,
      "leg": 1851,
      "ene": 1852,
      "Ġinf": 1853,
      "ollow": 1854,
      "Ġoffic": 1855,
      "ros": 1856,
      "Ð»ÐµÐ½": 1857,
      "Ġdeb": 1858,
      "ĠIm": 1859,
      "Ġaant": 1860,
      "Ġterug": 1861,
      "uy": 1862,
      "isten": 1863,
      "ana": 1864,
      "iers": 1865,
      "aard": 1866,
      "ĠLand": 1867,
      "Ġbl": 1868,
      "utsch": 1869,
      "ĠReg": 1870,
      "Ġce": 1871,
      "ivis": 1872,
      "Ġ2015": 1873,
      "tend": 1874,
      "ane": 1875,
      "Ġjaren": 1876,
      "Ġthem": 1877,
      "Ġvro": 1878,
      "Ġthrough": 1879,
      "Ġmay": 1880,
      "voor": 1881,
      "Ð¶Ðµ": 1882,
      "Ġenc": 1883,
      "ays": 1884,
      "ĠPa": 1885,
      "ĠAug": 1886,
      "Ġsol": 1887,
      "ĠÐĺ": 1888,
      "ving": 1889,
      "po": 1890,
      "ĠÐ¿ÑĢÐ¾": 1891,
      "ours": 1892,
      "ĠShe": 1893,
      "val": 1894,
      "ieren": 1895,
      "ores": 1896,
      "Ġstad": 1897,
      "outh": 1898,
      "Ġbetween": 1899,
      "Ġhebben": 1900,
      "Ġprin": 1901,
      "km": 1902,
      "lt": 1903,
      "200": 1904,
      "ester": 1905,
      "Ġsupp": 1906,
      "Ġwird": 1907,
      "adt": 1908,
      "ieuwe": 1909,
      "ÑĢÐµÐ¼": 1910,
      "cip": 1911,
      "orte": 1912,
      "17": 1913,
      "Ġgel": 1914,
      "las": 1915,
      "Ġje": 1916,
      "stem": 1917,
      "Ã¶n": 1918,
      "Ġhigh": 1919,
      "ott": 1920,
      "Ġdep": 1921,
      "ĠmÃ¡s": 1922,
      "Ġabout": 1923,
      "eng": 1924,
      "Ġmaak": 1925,
      "Ġeinen": 1926,
      "Ġeff": 1927,
      "ebru": 1928,
      "Ð¸Ð¾Ð½": 1929,
      "Ġsecond": 1930,
      "Ġsuch": 1931,
      "ieuw": 1932,
      "ower": 1933,
      "Ã´": 1934,
      "Â»,": 1935,
      "eling": 1936,
      "ÑİÑĤ": 1937,
      "ius": 1938,
      "Ġbecame": 1939,
      "ike": 1940,
      "ract": 1941,
      "II": 1942,
      "10": 1943,
      "Ġorig": 1944,
      "cy": 1945,
      "Ġ2000": 1946,
      "round": 1947,
      "Ġged": 1948,
      "ĠGre": 1949,
      "Ġzij": 1950,
      "El": 1951,
      "ĠÐĽ": 1952,
      "Ġmov": 1953,
      "eds": 1954,
      "ĠĠĠĠ": 1955,
      "Ġthree": 1956,
      "ĠThis": 1957,
      "arn": 1958,
      "itie": 1959,
      "ĠNa": 1960,
      "Ġkwam": 1961,
      "Ġ0": 1962,
      "iger": 1963,
      "Ġcontin": 1964,
      "ived": 1965,
      "inder": 1966,
      "ues": 1967,
      "Ġused": 1968,
      "ital": 1969,
      "uel": 1970,
      "ather": 1971,
      "Ġzwe": 1972,
      "ĠComm": 1973,
      "Ġunt": 1974,
      "bij": 1975,
      "rum": 1976,
      "ission": 1977,
      "Ð¸Ð³": 1978,
      "On": 1979,
      "Ðļ": 1980,
      "Ð°Ð¼Ð¸": 1981,
      "Ġpass": 1982,
      "Ġ2016": 1983,
      "Ġchar": 1984,
      "Ġelect": 1985,
      "ival": 1986,
      "Ġechter": 1987,
      "Ġcommun": 1988,
      "off": 1989,
      "Ġprogram": 1990,
      "ities": 1991,
      "eerd": 1992,
      "Ð°Ð·": 1993,
      "Ġverl": 1994,
      "ible": 1995,
      "Ġmod": 1996,
      "ade": 1997,
      "yp": 1998,
      "ÐºÑĤ": 1999,
      "ĠSo": 2000,
      "Ġrele": 2001,
      "ĠYork": 2002,
      "ald": 2003,
      "ĠMo": 2004,
      "ilt": 2005,
      "Ġgeme": 2006,
      "Ġwater": 2007,
      "ĠMit": 2008,
      "Ġsome": 2009,
      "ures": 2010,
      "anz": 2011,
      "igde": 2012,
      "cul": 2013,
      "allen": 2014,
      "ils": 2015,
      "arr": 2016,
      "Ð¾Ðµ": 2017,
      "ĠAugust": 2018,
      "ĠEin": 2019,
      "hem": 2020,
      "ellen": 2021,
      "ĠaÃ±": 2022,
      "pa": 2023,
      "Ġkre": 2024,
      "Ġaantal": 2025,
      "iew": 2026,
      "Ġgeen": 2027,
      "ÑĥÐ±": 2028,
      "Ġlong": 2029,
      "ople": 2030,
      "Ġthan": 2031,
      "ĠWor": 2032,
      "Ġfound": 2033,
      "ĠCent": 2034,
      "Ġmot": 2035,
      "Ġtre": 2036,
      "Ġben": 2037,
      "eerde": 2038,
      "ĠÑĩÑĤÐ¾": 2039,
      "Ã¢": 2040,
      "Ġvis": 2041,
      "Ġ188": 2042,
      "Ġaux": 2043,
      "rent": 2044,
      "ĠUS": 2045,
      "50": 2046,
      "ĠÐ¿Ð¾Ñģ": 2047,
      "erg": 2048,
      "weg": 2049,
      "atz": 2050,
      "ĠGen": 2051,
      "ĠStates": 2052,
      "ekt": 2053,
      "ĠMan": 2054,
      "erst": 2055,
      "Ġsit": 2056,
      "ierte": 2057,
      "Ġstart": 2058,
      "mente": 2059,
      "Ġcall": 2060,
      "ĠÐºÐ¾Ð¼": 2061,
      "chts": 2062,
      "Ð°Ñħ": 2063,
      "Ġnieuwe": 2064,
      "ÑĨÐ¸Ð¸": 2065,
      "ka": 2066,
      "Ġwell": 2067,
      "ĠÑħ": 2068,
      "ander": 2069,
      "Ġwie": 2070,
      "Ð½Ðµ": 2071,
      "anden": 2072,
      "Ã©d": 2073,
      "ĠDeze": 2074,
      "ĠCan": 2075,
      "lect": 2076,
      "ince": 2077,
      "teur": 2078,
      "Ġnaam": 2079,
      "lement": 2080,
      "ĠÑĤÐ°Ðº": 2081,
      "Ġsing": 2082,
      "Ġgroot": 2083,
      "pre": 2084,
      "rol": 2085,
      "Ð½Ð¾Ð¼": 2086,
      "ĠMus": 2087,
      "ofd": 2088,
      "jor": 2089,
      "Ġoder": 2090,
      "ĠDit": 2091,
      "St": 2092,
      "Ġwurden": 2093,
      "ĠEx": 2094,
      "Ġbev": 2095,
      "Ġlie": 2096,
      "Ð°Ð½Ð´": 2097,
      "ĠWar": 2098,
      "Ġging": 2099,
      "Ð¶Ð´": 2100,
      "Ġrecord": 2101,
      "auf": 2102,
      "ĠÑı": 2103,
      "Un": 2104,
      "Ġzelf": 2105,
      "áµ": 2106,
      "agn": 2107,
      "Ġjun": 2108,
      "Ġtoen": 2109,
      "Ġgem": 2110,
      "oem": 2111,
      "Â».": 2112,
      "Ġ2005": 2113,
      "Ġref": 2114,
      "ally": 2115,
      "Ġbeing": 2116,
      "Ð¸ÑĤÐµÐ»ÑĮ": 2117,
      "ages": 2118,
      "ling": 2119,
      "Ã¤hr": 2120,
      "Ð½Ð°Ñı": 2121,
      "ball": 2122,
      "16": 2123,
      "Ġeeuw": 2124,
      "cess": 2125,
      "xt": 2126,
      "ĠNach": 2127,
      "Ġmilit": 2128,
      "ÐºÐ¾Ð²": 2129,
      "ÑģÐºÐ¸Ð¹": 2130,
      "iment": 2131,
      "Ġ187": 2132,
      "Ġ2017": 2133,
      "dern": 2134,
      "ram": 2135,
      "ĠAnd": 2136,
      "ĠÃ©tÃ©": 2137,
      "ague": 2138,
      "ĠAust": 2139,
      "ives": 2140,
      "ĠPl": 2141,
      "ĠSan": 2142,
      "hel": 2143,
      "ĠChrist": 2144,
      "Ġcu": 2145,
      "Ġ24": 2146,
      "chten": 2147,
      "Ġdass": 2148,
      "ĠJe": 2149,
      "Ġwat": 2150,
      "istory": 2151,
      "Ġ186": 2152,
      "Ġgez": 2153,
      "Ġesc": 2154,
      "ĠSep": 2155,
      "led": 2156,
      "rans": 2157,
      "nel": 2158,
      "15": 2159,
      "ĠÑĪ": 2160,
      "Ġeven": 2161,
      "Ġseason": 2162,
      "Ġdrie": 2163,
      "Ġagainst": 2164,
      "Ġweer": 2165,
      "Ġemp": 2166,
      "br": 2167,
      "ĠGo": 2168,
      "Ġgrote": 2169,
      "ature": 2170,
      "Ġses": 2171,
      "ĠMon": 2172,
      "liche": 2173,
      "ÑĭÐ²": 2174,
      "ÑĭÑħ": 2175,
      "Ġfour": 2176,
      "ones": 2177,
      "Ġzoals": 2178,
      "arl": 2179,
      "ĠRa": 2180,
      "owever": 2181,
      "ĠAus": 2182,
      "Â²": 2183,
      "ined": 2184,
      "Ġarr": 2185,
      "Ġfollow": 2186,
      "rich": 2187,
      "Ġmis": 2188,
      "lam": 2189,
      "Ġann": 2190,
      "hn": 2191,
      "Ġverd": 2192,
      "rab": 2193,
      "ĠNational": 2194,
      "over": 2195,
      "Ġdeux": 2196,
      "ĠBro": 2197,
      "ĠMay": 2198,
      "ĠMin": 2199,
      "ĠÐ¸Ð¼": 2200,
      "ĠEen": 2201,
      "Ġsim": 2202,
      "rug": 2203,
      "ax": 2204,
      "Ġshow": 2205,
      "Ġcomme": 2206,
      "Ġinst": 2207,
      "aanse": 2208,
      "ĠEs": 2209,
      "ĠDuit": 2210,
      "Ġtoe": 2211,
      "oon": 2212,
      "ÐĲ": 2213,
      "Ġcamp": 2214,
      "ÑĭÐµ": 2215,
      "ved": 2216,
      "ĠSchool": 2217,
      "Ġkom": 2218,
      "ĠGu": 2219,
      "ĠFrank": 2220,
      "Ġwill": 2221,
      "ĠÐ¿ÑĢÐµÐ´": 2222,
      "orf": 2223,
      "Ġbre": 2224,
      "ai": 2225,
      "ains": 2226,
      "Ġhistor": 2227,
      "lege": 2228,
      "Ġoper": 2229,
      "ĠÐ¾Ð½": 2230,
      "ĠdÃ©c": 2231,
      "sh": 2232,
      "Ġmany": 2233,
      "ÑĢÐ¾": 2234,
      "ĠEd": 2235,
      "ĠÑĨ": 2236,
      "Ġincluding": 2237,
      "izoen": 2238,
      "Ġtemp": 2239,
      "ÑĥÐ¿": 2240,
      "Ġappe": 2241,
      "ĠWorld": 2242,
      "kken": 2243,
      "Ġhel": 2244,
      "Ðł": 2245,
      "ĠFre": 2246,
      "ched": 2247,
      "ĠSc": 2248,
      "conom": 2249,
      "ec": 2250,
      "Ġbefore": 2251,
      "Ġmil": 2252,
      "Ġdesc": 2253,
      "get": 2254,
      "Ġlaat": 2255,
      "Ð°Ð¹": 2256,
      "kte": 2257,
      "ĠKon": 2258,
      "Ġpopul": 2259,
      "áµī": 2260,
      "Ġav": 2261,
      "Ġ&": 2262,
      "sel": 2263,
      "Ġcult": 2264,
      "Ġble": 2265,
      "ĠBelg": 2266,
      "Ġgev": 2267,
      "kom": 2268,
      "ografie": 2269,
      "oy": 2270,
      "ĠMet": 2271,
      "ĠÑįÑĤ": 2272,
      "ait": 2273,
      "sy": 2274,
      "Ġgest": 2275,
      "12": 2276,
      "ĠJanu": 2277,
      "ÐµÑĩ": 2278,
      "ĠWill": 2279,
      "ĠSeptember": 2280,
      "aff": 2281,
      "ÑĭÐ¹": 2282,
      "mann": 2283,
      "Ġcor": 2284,
      "Ġbere": 2285,
      "Ġconstru": 2286,
      "Ġleg": 2287,
      "Ġ2004": 2288,
      "irt": 2289,
      "Ġreal": 2290,
      "ano": 2291,
      "ioen": 2292,
      "Ġgroup": 2293,
      "reich": 2294,
      "Ġwhile": 2295,
      "Ġachter": 2296,
      "cted": 2297,
      "Ð°Ð»Ð°": 2298,
      "ĠItal": 2299,
      "jes": 2300,
      "ĠEst": 2301,
      "under": 2302,
      "Ġget": 2303,
      "ave": 2304,
      "ists": 2305,
      "uen": 2306,
      "Ġfran": 2307,
      "ĠOok": 2308,
      "__": 2309,
      "Ð»ÐµÐ´": 2310,
      "rijd": 2311,
      "ĠLes": 2312,
      "Ġ2018": 2313,
      "Ġda": 2314,
      "ĠÐ¾Ñģ": 2315,
      "Ġren": 2316,
      "Ġname": 2317,
      "Ġbekend": 2318,
      "ull": 2319,
      "fol": 2320,
      "ony": 2321,
      "ĠDaar": 2322,
      "Ġvorm": 2323,
      "abl": 2324,
      "vens": 2325,
      "Ġkunnen": 2326,
      "Ġkm": 2327,
      "Ġstand": 2328,
      "king": 2329,
      "ÑĢÐ¾Ð²": 2330,
      "ĠÐºÐ¾Ð½": 2331,
      "igd": 2332,
      "ahl": 2333,
      "Ġ22": 2334,
      "aur": 2335,
      "door": 2336,
      "Ġprincip": 2337,
      "ĠÐµÐ³Ð¾": 2338,
      "Ġsow": 2339,
      "ÑĢÑı": 2340,
      "ouden": 2341,
      "ĠApril": 2342,
      "riÃ¨re": 2343,
      "ĠCal": 2344,
      "Ġpat": 2345,
      "Ġ21": 2346,
      "Ġint": 2347,
      "ĠSy": 2348,
      "amente": 2349,
      "Ð°Ð»Ð¸": 2350,
      "bor": 2351,
      "este": 2352,
      "Ġjo": 2353,
      "inter": 2354,
      "Ġdevelop": 2355,
      "fic": 2356,
      "Ġimp": 2357,
      "met": 2358,
      "oort": 2359,
      "Ġenk": 2360,
      "Ġuntil": 2361,
      "Ġevent": 2362,
      "uiten": 2363,
      "Ġeind": 2364,
      "aba": 2365,
      "cle": 2366,
      "amer": 2367,
      "Ġmill": 2368,
      "Ġimport": 2369,
      "ĠÐ¾Ð´": 2370,
      "Ġweit": 2371,
      "Ġconc": 2372,
      "ex": 2373,
      "uren": 2374,
      "Ð½Ð¾Ð²": 2375,
      "Ġgre": 2376,
      "Ġport": 2377,
      "ĠBar": 2378,
      "uring": 2379,
      "Ð¼Ð¸": 2380,
      "inen": 2381,
      "ĠAmerican": 2382,
      "ĠQu": 2383,
      "ahn": 2384,
      "Ġtweede": 2385,
      "Ġcas": 2386,
      "Ġihr": 2387,
      "Ġtijdens": 2388,
      "olf": 2389,
      "oot": 2390,
      "Ġsm": 2391,
      "ationale": 2392,
      "ÃŁen": 2393,
      "Ġpost": 2394,
      "bal": 2395,
      "ering": 2396,
      "Ġseizoen": 2397,
      "Ð±Ð¾ÑĤ": 2398,
      "ĠÐºÐ°Ðº": 2399,
      "ĠÐ´Ð»Ñı": 2400,
      "Ġ23": 2401,
      "rict": 2402,
      "fl": 2403,
      "ĠHol": 2404,
      "Ġpubl": 2405,
      "vernment": 2406,
      "vert": 2407,
      "Ġkreeg": 2408,
      "ĠJap": 2409,
      "elb": 2410,
      "Ġboth": 2411,
      "imes": 2412,
      "ĠIntern": 2413,
      "Ġwest": 2414,
      "oph": 2415,
      "keit": 2416,
      "ĠAls": 2417,
      "med": 2418,
      "sche": 2419,
      "Ġknown": 2420,
      "aw": 2421,
      "ĠWh": 2422,
      "Ġfinal": 2423,
      "Ġdra": 2424,
      "ĠÑģÐ¾": 2425,
      "ĠÑģÐ¾ÑģÑĤ": 2426,
      "Ġsl": 2427,
      "Ġ100": 2428,
      "Ġfun": 2429,
      "useum": 2430,
      "ĠJah": 2431,
      "ko": 2432,
      "gesch": 2433,
      "Ġactiv": 2434,
      "Ġcount": 2435,
      "cher": 2436,
      "ischer": 2437,
      "Ġocc": 2438,
      "ador": 2439,
      "ĠNovember": 2440,
      "ijf": 2441,
      "ket": 2442,
      "ĠÑĥÑĩ": 2443,
      "Ġlife": 2444,
      "ista": 2445,
      "Ġhal": 2446,
      "reg": 2447,
      "onde": 2448,
      "ctie": 2449,
      "Ã©c": 2450,
      "Ġbez": 2451,
      "ĠRep": 2452,
      "ock": 2453,
      "Ġrece": 2454,
      "Ge": 2455,
      "ĠPart": 2456,
      "onn": 2457,
      "oss": 2458,
      "ĠZeit": 2459,
      "Ġbelang": 2460,
      "Ð¾Ñı": 2461,
      "ĠÐ²Ð¾": 2462,
      "ired": 2463,
      "isme": 2464,
      "ÑĢÐ°Ð·": 2465,
      "Ð¸ÑĤÑĮ": 2466,
      "ĠÐ¤": 2467,
      "Ġperform": 2468,
      "iedenis": 2469,
      "Ð½Ñı": 2470,
      "ourn": 2471,
      "stra": 2472,
      "Ġlocal": 2473,
      "dust": 2474,
      "ÑĥÑģ": 2475,
      "ĠMal": 2476,
      "Ġrond": 2477,
      "Ġsever": 2478,
      "Ġhoog": 2479,
      "14": 2480,
      "Ġcr": 2481,
      "ĠSie": 2482,
      "ÑĤÐ¾ÑĢ": 2483,
      "ham": 2484,
      "Ġdien": 2485,
      "my": 2486,
      "Ġprov": 2487,
      "Ġback": 2488,
      "ĠAuf": 2489,
      "gende": 2490,
      "Ġseiner": 2491,
      "ĠPhil": 2492,
      "ĠMed": 2493,
      "by": 2494,
      "Ġrad": 2495,
      "ikk": 2496,
      "Ġplace": 2497,
      "ÑĳÐ½": 2498,
      "eth": 2499,
      "Gesch": 2500,
      "anten": 2501,
      "ĠHier": 2502,
      "osten": 2503,
      "lass": 2504,
      "ampioen": 2505,
      "ĠVol": 2506,
      "enten": 2507,
      "uth": 2508,
      "jo": 2509,
      "Ġcour": 2510,
      "Ġpeople": 2511,
      "zelf": 2512,
      "Ġmaakte": 2513,
      "ĠChar": 2514,
      "Ġfut": 2515,
      "Ġdesign": 2516,
      "tober": 2517,
      "Ð½Ð¾Ðµ": 2518,
      "Ġju": 2519,
      "Ġtele": 2520,
      "ĠAss": 2521,
      "icha": 2522,
      "Ġown": 2523,
      "iÃ©n": 2524,
      "Ã©l": 2525,
      "ross": 2526,
      "ches": 2527,
      "Ġbuild": 2528,
      "ato": 2529,
      "urt": 2530,
      "Ġresult": 2531,
      "ÐµÐµ": 2532,
      "ologie": 2533,
      "ized": 2534,
      "ĠÐ´Ð²": 2535,
      "rei": 2536,
      "mal": 2537,
      "ktober": 2538,
      "ey": 2539,
      "Ġhoofd": 2540,
      "riend": 2541,
      "ĠJos": 2542,
      "Ġpresent": 2543,
      "other": 2544,
      "oman": 2545,
      "13": 2546,
      "Ð¸ÑģÑĮ": 2547,
      "ĠJo": 2548,
      "ĠEurope": 2549,
      "ÑĥÐ½": 2550,
      "won": 2551,
      "Ġstaat": 2552,
      "Ġdest": 2553,
      "xim": 2554,
      "ĠâĢĶ": 2555,
      "ĠCity": 2556,
      "ĠAll": 2557,
      "prÃ¨s": 2558,
      "rem": 2559,
      "ained": 2560,
      "Ġtechn": 2561,
      "ata": 2562,
      "ÐĿ": 2563,
      "ode": 2564,
      "Op": 2565,
      "Ġreturn": 2566,
      "ged": 2567,
      "Ðŀ": 2568,
      "antes": 2569,
      "Ġwrit": 2570,
      "edst": 2571,
      "Ġ2003": 2572,
      "Ġverh": 2573,
      "Ġ26": 2574,
      "ario": 2575,
      "Ġgebouw": 2576,
      "itions": 2577,
      "Ġbegon": 2578,
      "Ġmain": 2579,
      "ois": 2580,
      "Ġ28": 2581,
      "Ġverschill": 2582,
      "ĠGra": 2583,
      "Ġmusic": 2584,
      "Ġspeci": 2585,
      "ves": 2586,
      "ĠArt": 2587,
      "iento": 2588,
      "Ð¾ÑĢÐ¾Ð´": 2589,
      "ias": 2590,
      "ijs": 2591,
      "ÑĥÐ¶": 2592,
      "issen": 2593,
      "Ġpu": 2594,
      "ÑĢÐ°ÑĤ": 2595,
      "resent": 2596,
      "ĠRuss": 2597,
      "beeld": 2598,
      "Ġclass": 2599,
      "zoek": 2600,
      "ivid": 2601,
      "ÑĢÑĥÐ³": 2602,
      "adas": 2603,
      "Ã®": 2604,
      "part": 2605,
      "Ġvrij": 2606,
      "opt": 2607,
      "ĠDes": 2608,
      "Ġmais": 2609,
      "Ġuitge": 2610,
      "Th": 2611,
      "erm": 2612,
      "Ġarch": 2613,
      "Ġsitu": 2614,
      "ĠPaul": 2615,
      "Ġdif": 2616,
      "Ar": 2617,
      "Ġlead": 2618,
      "ira": 2619,
      "Ġarea": 2620,
      "aking": 2621,
      "199": 2622,
      "Ġseine": 2623,
      "ĠÐ¿ÑĢÐ¸": 2624,
      "âĢĿ": 2625,
      "gend": 2626,
      "ruct": 2627,
      "He": 2628,
      "Ġ27": 2629,
      "Ġcalled": 2630,
      "mee": 2631,
      "iem": 2632,
      "Ġgebruikt": 2633,
      "Ġstation": 2634,
      "jet": 2635,
      "Ġsupport": 2636,
      "Ġvrouw": 2637,
      "Ðĳ": 2638,
      "emen": 2639,
      "rop": 2640,
      "erie": 2641,
      "the": 2642,
      "Ġnoch": 2643,
      "Ġ$": 2644,
      "Ġnumber": 2645,
      "temp": 2646,
      "bel": 2647,
      "Bi": 2648,
      "fe": 2649,
      "Ð¸Ð»ÑĮ": 2650,
      "ĠDas": 2651,
      "ÐºÐ¾": 2652,
      "ĠMc": 2653,
      "Ġvia": 2654,
      "ĠTra": 2655,
      "Ġwereld": 2656,
      "oemd": 2657,
      "iten": 2658,
      "ĠSal": 2659,
      "elegen": 2660,
      "aÃ±": 2661,
      "Ġster": 2662,
      "ually": 2663,
      "bl": 2664,
      "ĠÐ£": 2665,
      "gra": 2666,
      "ona": 2667,
      "ĠÐ´Ð¾": 2668,
      "Ġprop": 2669,
      "Ġ1990": 2670,
      "ĠÃ©t": 2671,
      "ĠFebru": 2672,
      "Ġontw": 2673,
      "Ġbus": 2674,
      "ÃŁe": 2675,
      "aande": 2676,
      "nam": 2677,
      "inden": 2678,
      "beit": 2679,
      "ora": 2680,
      "Ġbegan": 2681,
      "ĠÑģÐ¿": 2682,
      "Ġseries": 2683,
      "Ġhum": 2684,
      "Ġsystem": 2685,
      "ful": 2686,
      "ney": 2687,
      "iven": 2688,
      "30": 2689,
      "omin": 2690,
      "mot": 2691,
      "unic": 2692,
      "Ġdar": 2693,
      "Ġequ": 2694,
      "Ġpers": 2695,
      "Ġearly": 2696,
      "Ð»Ð°Ð²": 2697,
      "Ġmehr": 2698,
      "Ġsowie": 2699,
      "ĠAustral": 2700,
      "Ġ2002": 2701,
      "ieke": 2702,
      "Ġnational": 2703,
      "Ġappear": 2704,
      "Ðĺ": 2705,
      "ĠStadt": 2706,
      "ries": 2707,
      "Ġspeelde": 2708,
      "ĠEng": 2709,
      "Ġsong": 2710,
      "aster": 2711,
      "Ġdam": 2712,
      "cto": 2713,
      "iner": 2714,
      "ĠCom": 2715,
      "iving": 2716,
      "Ġsame": 2717,
      "ĠAir": 2718,
      "Ð½Ð¾ÑģÑĤÑĮ": 2719,
      "ĠÐ¸Ð½": 2720,
      "ei": 2721,
      "ÑģÐµ": 2722,
      "rip": 2723,
      "Ġfait": 2724,
      "lack": 2725,
      "atsen": 2726,
      "iber": 2727,
      "Ġnur": 2728,
      "ology": 2729,
      "Ġ2001": 2730,
      "Ġsom": 2731,
      "esse": 2732,
      "ices": 2733,
      "Ġhatte": 2734,
      "Ãł": 2735,
      "ĠHar": 2736,
      "ĠDav": 2737,
      "for": 2738,
      "Ġmens": 2739,
      "Ġsep": 2740,
      "ĠComp": 2741,
      "dere": 2742,
      "Ġdiff": 2743,
      "Ġ184": 2744,
      "ĠBl": 2745,
      "Ġ50": 2746,
      "Ġcomb": 2747,
      "ht": 2748,
      "ublic": 2749,
      "Ġverw": 2750,
      "baar": 2751,
      "Ã¼d": 2752,
      "gar": 2753,
      "Ġvom": 2754,
      "Ġoriginal": 2755,
      "apt": 2756,
      "ÑĢÐ¸": 2757,
      "ĠFrance": 2758,
      "ambiÃ©n": 2759,
      "ued": 2760,
      "esten": 2761,
      "ĠPal": 2762,
      "Ġrun": 2763,
      "Ġvar": 2764,
      "Ð°Ð½Ð¸Ðµ": 2765,
      "ms": 2766,
      "Ġsche": 2767,
      "Ġdev": 2768,
      "Ġseveral": 2769,
      "ĠÐ²ÑĢÐµÐ¼": 2770,
      "Ð½Ð¾ÑģÑĤÐ¸": 2771,
      "rik": 2772,
      "Ġtop": 2773,
      "ĠSouth": 2774,
      "ĠKir": 2775,
      "Ðľ": 2776,
      "teil": 2777,
      "Ġchild": 2778,
      "ĠPer": 2779,
      "Ġomdat": 2780,
      "ĠHa": 2781,
      "Ġeng": 2782,
      "ility": 2783,
      "Ġgegen": 2784,
      "Ġmemb": 2785,
      "orge": 2786,
      "ript": 2787,
      "oo": 2788,
      "Ġuse": 2789,
      "ĠPort": 2790,
      "Ġthese": 2791,
      "ĠCount": 2792,
      "sc": 2793,
      "iod": 2794,
      "Ġcareer": 2795,
      "woord": 2796,
      "ua": 2797,
      "Ġmuch": 2798,
      "ĠJu": 2799,
      "Ġany": 2800,
      "ĠSaint": 2801,
      "ĠLu": 2802,
      "ĠâĢľ": 2803,
      "ural": 2804,
      "Ġkerk": 2805,
      "Ġbinnen": 2806,
      "ĠÐ½Ð°Ñĩ": 2807,
      "app": 2808,
      "ĠGerman": 2809,
      "stelling": 2810,
      "Ġlaatste": 2811,
      "Ã¼t": 2812,
      "str": 2813,
      "Ġcompet": 2814,
      "Ġblo": 2815,
      "Ġche": 2816,
      "ampions": 2817,
      "Ġgeneral": 2818,
      "gro": 2819,
      "Ġverschillende": 2820,
      "ĠJapan": 2821,
      "arch": 2822,
      "ĠLos": 2823,
      "Ð¾ÑĢÐ°": 2824,
      "Ġfamily": 2825,
      "ense": 2826,
      "athol": 2827,
      "Ġval": 2828,
      "ammen": 2829,
      "Ġgrand": 2830,
      "ĠMart": 2831,
      "Ġnombre": 2832,
      "Der": 2833,
      "annt": 2834,
      "ĠHis": 2835,
      "Ġvari": 2836,
      "Ġdid": 2837,
      "estig": 2838,
      "aakt": 2839,
      "11": 2840,
      "Ġelle": 2841,
      "itte": 2842,
      "ama": 2843,
      "ĠAu": 2844,
      "zeit": 2845,
      "Ġaber": 2846,
      "uv": 2847,
      "Ġorganis": 2848,
      "Ġvilla": 2849,
      "Ġprovin": 2850,
      "Ġresp": 2851,
      "irc": 2852,
      "Ġwil": 2853,
      "Ġvert": 2854,
      "Ġ1999": 2855,
      "Ġcou": 2856,
      "ĠLond": 2857,
      "Ġfac": 2858,
      "Ch": 2859,
      "Ð¸Ð»Ð¸": 2860,
      "ements": 2861,
      "aties": 2862,
      "ĠStre": 2863,
      "ĠWilliam": 2864,
      "chte": 2865,
      "ĠJahre": 2866,
      "itect": 2867,
      "ĠAfter": 2868,
      "Ãªme": 2869,
      "iqu": 2870,
      "Ġsle": 2871,
      "Ġsuccess": 2872,
      "Ġ185": 2873,
      "atuur": 2874,
      "ĠÐ¾Ðº": 2875,
      "ĠStud": 2876,
      "ita": 2877,
      "da": 2878,
      "Ġdro": 2879,
      "util": 2880,
      "Ã¤h": 2881,
      "view": 2882,
      "ago": 2883,
      "ipp": 2884,
      "ides": 2885,
      "Ð°Ð³": 2886,
      "ÐµÐ¿": 2887,
      "ÑĢÑĭ": 2888,
      "ena": 2889,
      "Ġenkele": 2890,
      "wards": 2891,
      "Ġtien": 2892,
      "aciones": 2893,
      "ÐĶ": 2894,
      "inde": 2895,
      "Ġcity": 2896,
      "Ġprofess": 2897,
      "ĠMarch": 2898,
      "Ġnov": 2899,
      "cis": 2900,
      "heim": 2901,
      "Ġreleased": 2902,
      "Ġaff": 2903,
      "aalde": 2904,
      "Ġalg": 2905,
      "Ġplan": 2906,
      "Ð°Ð½Ð¸Ñı": 2907,
      "iga": 2908,
      "Ġmajor": 2909,
      "ivision": 2910,
      "ativ": 2911,
      "Ġdisc": 2912,
      "ĠÑģÐ²Ð¾": 2913,
      "Ġplayed": 2914,
      "Ġcette": 2915,
      "Ġsold": 2916,
      "ament": 2917,
      "mar": 2918,
      "Ġonge": 2919,
      "gal": 2920,
      "Ġcur": 2921,
      "een": 2922,
      "Ġ29": 2923,
      "ĠMor": 2924,
      "Ġsingle": 2925,
      "Ð¾Ð½Ð°": 2926,
      "ĠÐ¿ÑĢÐµ": 2927,
      "ments": 2928,
      "cadem": 2929,
      "minist": 2930,
      "Ð½ÑĥÑİ": 2931,
      "Ġnet": 2932,
      "Ġexper": 2933,
      "ĠLeague": 2934,
      "iol": 2935,
      "stre": 2936,
      "ĠThey": 2937,
      "Ġgovernment": 2938,
      "ĠÐ²Ð¾Ð·": 2939,
      "ÑĥÐ¼": 2940,
      "Ġaang": 2941,
      "gang": 2942,
      "mes": 2943,
      "ĠAnt": 2944,
      "Ġparticip": 2945,
      "ĠÑģÐ»": 2946,
      "uest": 2947,
      "Ð°ÑĢÑĤ": 2948,
      "Ð¸Ð½Ð°": 2949,
      "ĠDec": 2950,
      "Ġfig": 2951,
      "ĠJune": 2952,
      "Ġ1980": 2953,
      "ĠWil": 2954,
      "hern": 2955,
      "Ġbelangrijk": 2956,
      "ĠHen": 2957,
      "imm": 2958,
      "lijke": 2959,
      "ĠNorth": 2960,
      "estival": 2961,
      "ize": 2962,
      "ĠÐ¾Ð¿": 2963,
      "ĠVal": 2964,
      "Ġtotal": 2965,
      "Ã©m": 2966,
      "yd": 2967,
      "Ġcompos": 2968,
      "Ġboven": 2969,
      "Ġposs": 2970,
      "eks": 2971,
      "cause": 2972,
      "ĠLou": 2973,
      "uten": 2974,
      "Ġinform": 2975,
      "ÐµÐ³": 2976,
      "assen": 2977,
      "ĠWer": 2978,
      "utz": 2979,
      "Ġcat": 2980,
      "Â°": 2981,
      "ots": 2982,
      "ford": 2983,
      "ĠSup": 2984,
      "Ġsuper": 2985,
      "Ġstra": 2986,
      "ĠBra": 2987,
      "yal": 2988,
      "ĠÐĹ": 2989,
      "Ġelk": 2990,
      "ĠDen": 2991,
      "Ãī": 2992,
      "ĠÃ©ta": 2993,
      "Ġru": 2994,
      "uite": 2995,
      "ctober": 2996,
      "Ġgroep": 2997,
      "Ġdr": 2998,
      "Ġfre": 2999,
      "iety": 3000,
      "Ġkomt": 3001,
      "ington": 3002,
      "ÑĥÐ»ÑĮ": 3003,
      "ÑģÑĤÐ²ÐµÐ½": 3004,
      "Ġtw": 3005,
      "zet": 3006,
      "Ð¾Ð³ÑĢÐ°": 3007,
      "ÑİÑī": 3008,
      "ĠTur": 3009,
      "Ġeing": 3010,
      "akt": 3011,
      "vangen": 3012,
      "Ġstate": 3013,
      "unc": 3014,
      "ily": 3015,
      "Ġproject": 3016,
      "cks": 3017,
      "Ã¤ter": 3018,
      "aving": 3019,
      "band": 3020,
      "ards": 3021,
      "piel": 3022,
      "ĠUnter": 3023,
      "Ã©ri": 3024,
      "Ġcould": 3025,
      "Ã¤ch": 3026,
      "ĠÐŃ": 3027,
      "ty": 3028,
      "raft": 3029,
      "uziek": 3030,
      "ÐµÐ±": 3031,
      "ĠCollege": 3032,
      "tens": 3033,
      "Ġalong": 3034,
      "anne": 3035,
      "ÑģÑģ": 3036,
      "ĠNederlandse": 3037,
      "lem": 3038,
      "Ġunivers": 3039,
      "ĠKing": 3040,
      "Ġeffect": 3041,
      "Ġstat": 3042,
      "ĠJanuary": 3043,
      "Ġlui": 3044,
      "open": 3045,
      "zeich": 3046,
      "Ġgame": 3047,
      "ĠÐ¥": 3048,
      "Af": 3049,
      "ĠTer": 3050,
      "rid": 3051,
      "Ġseg": 3052,
      "Ġpriv": 3053,
      "acter": 3054,
      "ĠDan": 3055,
      "ĠJuly": 3056,
      "pend": 3057,
      "Ð¸ÑĢÐ¾Ð²": 3058,
      "Ð°Ð½Ð¾Ð²": 3059,
      "Ð´Ðµ": 3060,
      "ĠAmerik": 3061,
      "Ġdi": 3062,
      "rÃ¤": 3063,
      "ams": 3064,
      "genomen": 3065,
      "Ġzwei": 3066,
      "ĠMad": 3067,
      "ĠBij": 3068,
      "Ġsla": 3069,
      "ĠOctober": 3070,
      "Ġleven": 3071,
      "Ġdivers": 3072,
      "ÐµÑĤÑģÑı": 3073,
      "Ġhead": 3074,
      "augh": 3075,
      "Ġcrit": 3076,
      "haus": 3077,
      "ĠParis": 3078,
      "elles": 3079,
      "oung": 3080,
      "ĠBritish": 3081,
      "Ġ1970": 3082,
      "very": 3083,
      "duc": 3084,
      "richt": 3085,
      "Ġnon": 3086,
      "Ġ1998": 3087,
      "lung": 3088,
      "yl": 3089,
      "aden": 3090,
      "Ġconsider": 3091,
      "tet": 3092,
      "hor": 3093,
      "Ġbook": 3094,
      "stitut": 3095,
      "ĠJoh": 3096,
      "Ġtook": 3097,
      "ume": 3098,
      "ville": 3099,
      "Ð½Ð¸": 3100,
      "ĠKar": 3101,
      "unde": 3102,
      "ilder": 3103,
      "oire": 3104,
      "iens": 3105,
      "Ġava": 3106,
      "ining": 3107,
      "ĠSant": 3108,
      "Ġdos": 3109,
      "bar": 3110,
      "ÑģÑĤÐ°Ð²": 3111,
      "ÐµÐºÑĤ": 3112,
      ".âĢĭ_": 3113,
      "Ġsig": 3114,
      "Ð»Ñİ": 3115,
      "iets": 3116,
      "Ġmag": 3117,
      "Ġhouse": 3118,
      "net": 3119,
      "ÐµÑĨ": 3120,
      "Ã¼h": 3121,
      "Ġnou": 3122,
      "ÑģÐºÐ¸Ñħ": 3123,
      "idos": 3124,
      "entes": 3125,
      "Ã©g": 3126,
      "ĠBen": 3127,
      "gew": 3128,
      "Ġ40": 3129,
      "Ġsmall": 3130,
      "aart": 3131,
      "ĠÐ°Ð²": 3132,
      "ĠFilm": 3133,
      "Ã¼nd": 3134,
      "lymp": 3135,
      "rieg": 3136,
      "Ġide": 3137,
      "Ã¤nd": 3138,
      "Ġreport": 3139,
      "lieÃŁ": 3140,
      "Ġdoc": 3141,
      "alls": 3142,
      "ĠPe": 3143,
      "lagen": 3144,
      "Ġjust": 3145,
      "alis": 3146,
      "Ġsince": 3147,
      "ĠÑĢÐ°Ð±Ð¾ÑĤ": 3148,
      "Ġtown": 3149,
      "reis": 3150,
      "ically": 3151,
      "Ġwieder": 3152,
      "ĠMont": 3153,
      "ĠGeb": 3154,
      "iging": 3155,
      "Ġrom": 3156,
      "jar": 3157,
      "Ġdirect": 3158,
      "eken": 3159,
      "dien": 3160,
      "hof": 3161,
      "leich": 3162,
      "lay": 3163,
      "quent": 3164,
      "Ġtelevis": 3165,
      "inning": 3166,
      "ĠMen": 3167,
      "etzt": 3168,
      "Na": 3169,
      "ĠprÃ©": 3170,
      "ÐµÐ½Ð°": 3171,
      "Ġmid": 3172,
      "Ġopn": 3173,
      "ood": 3174,
      "ÑĥÑī": 3175,
      "Ġjul": 3176,
      "ÑģÐºÐ¾Ð¼": 3177,
      "Ġsal": 3178,
      "ogelijk": 3179,
      "ĠJun": 3180,
      "kende": 3181,
      "ĠDies": 3182,
      "Ġhome": 3183,
      "Ġfem": 3184,
      "Ġalt": 3185,
      "ola": 3186,
      "erb": 3187,
      "Ġmater": 3188,
      "elden": 3189,
      "Ġmaken": 3190,
      "Ġpri": 3191,
      "Car": 3192,
      "ĠTo": 3193,
      "Ġeines": 3194,
      "aste": 3195,
      "asta": 3196,
      "Ð°Ð±": 3197,
      "inds": 3198,
      "ureau": 3199,
      "veer": 3200,
      "iness": 3201,
      "Ġindust": 3202,
      "nes": 3203,
      "Ġperiod": 3204,
      "ager": 3205,
      "Ġatta": 3206,
      "Ġrepresent": 3207,
      "ferent": 3208,
      "Ġgehe": 3209,
      "Ġsocial": 3210,
      "Ġrequ": 3211,
      "oment": 3212,
      "ĠZijn": 3213,
      "Ġlast": 3214,
      "Ð¾Ð»ÑĮÑĪ": 3215,
      "Ġline": 3216,
      "Ġvast": 3217,
      "ĠaÃ±os": 3218,
      "fin": 3219,
      "Ġbouw": 3220,
      "ple": 3221,
      "Ġpremier": 3222,
      "omas": 3223,
      "ĠÑģÐ¾ÑģÑĤÐ°Ð²": 3224,
      "ÑģÑĤÐ²Ð°": 3225,
      "ĠÐ½Ð°Ð·": 3226,
      "ians": 3227,
      "Ġsix": 3228,
      "Ġep": 3229,
      "egd": 3230,
      "Ã¹": 3231,
      "Ġmidd": 3232,
      "Ġdown": 3233,
      "com": 3234,
      ".,": 3235,
      "ares": 3236,
      "rica": 3237,
      "Ġrelig": 3238,
      "heden": 3239,
      "ÐµÑħ": 3240,
      "Ġestabl": 3241,
      "ournal": 3242,
      "Ġformer": 3243,
      "Ġlarge": 3244,
      "ja": 3245,
      "ĠDecember": 3246,
      "ype": 3247,
      "ĠDeutsch": 3248,
      "Ġcompany": 3249,
      "ires": 3250,
      "ĠZw": 3251,
      "kelijk": 3252,
      "ĠRes": 3253,
      "Ġnamed": 3254,
      "zien": 3255,
      "Ġgoed": 3256,
      "hand": 3257,
      "ĠÑĩÐ°ÑģÑĤ": 3258,
      "Ġnab": 3259,
      "Ġeach": 3260,
      "ĠGeneral": 3261,
      "lim": 3262,
      "iode": 3263,
      "ĠÐķ": 3264,
      "ĠHigh": 3265,
      "iat": 3266,
      "reven": 3267,
      "rist": 3268,
      "Ġger": 3269,
      "198": 3270,
      "ops": 3271,
      "Ð¼ÐµÑĢ": 3272,
      "Ġproble": 3273,
      "nis": 3274,
      "fÃ¼hr": 3275,
      "itter": 3276,
      "Ġprot": 3277,
      "opp": 3278,
      "zelfde": 3279,
      "ĠVor": 3280,
      "ya": 3281,
      "ĠLondon": 3282,
      "Ġera": 3283,
      "ĠHowever": 3284,
      "woners": 3285,
      "Ġ2019": 3286,
      "ĠWal": 3287,
      "row": 3288,
      "ĠPark": 3289,
      "volg": 3290,
      "rift": 3291,
      "ĠEm": 3292,
      "Ġheld": 3293,
      "Ġbar": 3294,
      "Ġneg": 3295,
      "ĠState": 3296,
      "Ġnu": 3297,
      "ĠRich": 3298,
      "ĠÃī": 3299,
      "Ġtour": 3300,
      "ban": 3301,
      "Ġutil": 3302,
      "ape": 3303,
      "ided": 3304,
      "Ġaround": 3305,
      "ierung": 3306,
      "Ġset": 3307,
      "Ġred": 3308,
      "ĠPres": 3309,
      "tes": 3310,
      "ĠÐ¿ÐµÑĢÐ²": 3311,
      "oma": 3312,
      "ĠÐ°ÑĢ": 3313,
      "itÃ¤t": 3314,
      "Ġzwischen": 3315,
      "Ġeerst": 3316,
      "Ġinit": 3317,
      "iendo": 3318,
      "ito": 3319,
      "Ġond": 3320,
      "ody": 3321,
      "ĠNo": 3322,
      "Ġdieser": 3323,
      "Ġalleen": 3324,
      "alth": 3325,
      "anc": 3326,
      "Ġcert": 3327,
      "oorden": 3328,
      "Ġreceived": 3329,
      "ights": 3330,
      "ĠGeme": 3331,
      "pecial": 3332,
      "Ġontwikk": 3333,
      "Ġcomplet": 3334,
      "Ġcla": 3335,
      "ĠÐ³Ð¾ÑĢÐ¾Ð´": 3336,
      "Ġjed": 3337,
      "Ð¸ÑĤÐµÐ»": 3338,
      "Ġworld": 3339,
      "anger": 3340,
      "Ġamb": 3341,
      "Ð¸Ð»ÑģÑı": 3342,
      "ensus": 3343,
      "Ġlib": 3344,
      "Ðĵ": 3345,
      "ĠÃ©Ã©n": 3346,
      "Ġweg": 3347,
      "ĠSw": 3348,
      "earch": 3349,
      "Ġvooral": 3350,
      "Ġ1997": 3351,
      "Ġsaid": 3352,
      "Ġservice": 3353,
      "ÑĭÐ¼": 3354,
      "ga": 3355,
      "ucht": 3356,
      "Ġgaan": 3357,
      "Ġ1960": 3358,
      "ĠJahren": 3359,
      "ÃŃt": 3360,
      "Ġbeste": 3361,
      "cord": 3362,
      "Ġnow": 3363,
      "umb": 3364,
      "dic": 3365,
      "Ġ1996": 3366,
      "ĠPat": 3367,
      "Ġemb": 3368,
      "osp": 3369,
      "sterd": 3370,
      "Ġage": 3371,
      "arde": 3372,
      "Ġleft": 3373,
      "Ġwaarin": 3374,
      "ration": 3375,
      "unst": 3376,
      "Ġcal": 3377,
      "Ð°Ð¿": 3378,
      "ÐºÐµ": 3379,
      "ÑĥÐ·": 3380,
      "Ġfund": 3381,
      "unicip": 3382,
      "ows": 3383,
      "Ġfol": 3384,
      "25": 3385,
      "Ġev": 3386,
      "...": 3387,
      "wick": 3388,
      "nah": 3389,
      "iller": 3390,
      "ilom": 3391,
      "Ġatt": 3392,
      "Ġligt": 3393,
      "âĤ": 3394,
      "Ð°ÑĨ": 3395,
      "Ġmeter": 3396,
      "orlog": 3397,
      "ĠÑĢÑĥ": 3398,
      "inc": 3399,
      "Ġsous": 3400,
      "ĠÑĤÐ°ÐºÐ¶Ðµ": 3401,
      "ielt": 3402,
      "Ġvoet": 3403,
      "ox": 3404,
      "Ġfollowing": 3405,
      "oit": 3406,
      "Ġwaarbij": 3407,
      "ivil": 3408,
      "utes": 3409,
      "Ġ1995": 3410,
      "Ġbecause": 3411,
      "Ġleur": 3412,
      "Ð»Ð¾": 3413,
      "igkeit": 3414,
      "ÃŃn": 3415,
      "ganis": 3416,
      "ampionship": 3417,
      "Ġsoci": 3418,
      "Ġnabij": 3419,
      "ÐºÑĥ": 3420,
      "agne": 3421,
      "Ġident": 3422,
      "Ġpopulation": 3423,
      "Ġmach": 3424,
      "ift": 3425,
      "rijf": 3426,
      "ances": 3427,
      "Ġappro": 3428,
      "Ġbuiten": 3429,
      "Ġontst": 3430,
      "Ġmembers": 3431,
      "ĠAlex": 3432,
      "ĠRad": 3433,
      "Ġmee": 3434,
      "ĠÐ±ÑĭÐ»Ð°": 3435,
      "mit": 3436,
      "Ġgek": 3437,
      "isen": 3438,
      "ĠInternational": 3439,
      "Ð½Ð°Ñĩ": 3440,
      "Ġvaak": 3441,
      "ĠÐ±ÑĭÐ»Ð¸": 3442,
      "ĠIr": 3443,
      "uÃ©s": 3444,
      "Ġled": 3445,
      "ĠtambiÃ©n": 3446,
      "Ã¶l": 3447,
      "Ġdesp": 3448,
      "Ġeconom": 3449,
      "Ġverz": 3450,
      "yle": 3451,
      "Ġtradition": 3452,
      "ĠÑģÐ¾Ð²": 3453,
      "ĠFC": 3454,
      "unter": 3455,
      "Ġdue": 3456,
      "Ð¾ÑģÑĮ": 3457,
      "ĠgÃ©n": 3458,
      "usammen": 3459,
      "Een": 3460,
      "gent": 3461,
      "Ġ183": 3462,
      "Ġmei": 3463,
      "uses": 3464,
      "eert": 3465,
      "Ã©rie": 3466,
      "Ġlat": 3467,
      "izen": 3468,
      "though": 3469,
      "Ġlaw": 3470,
      "anuari": 3471,
      "Ġmoment": 3472,
      "Ġborn": 3473,
      "ĠCounty": 3474,
      "Ġserved": 3475,
      "ym": 3476,
      "Ġsobre": 3477,
      "uck": 3478,
      "lor": 3479,
      "ela": 3480,
      "Ġoud": 3481,
      "Ġcentury": 3482,
      "Ð¢": 3483,
      "sterdam": 3484,
      "40": 3485,
      "Ġ1994": 3486,
      "ored": 3487,
      "Ġ31": 3488,
      "Ġday": 3489,
      "oorlog": 3490,
      "ÃŃan": 3491,
      "Pro": 3492,
      "Ð¾ÑĢÐ¼": 3493,
      "li": 3494,
      "ĠÐ¸ÑģÐ¿": 3495,
      "Geschiedenis": 3496,
      "Ġbegin": 3497,
      "Ġmeest": 3498,
      "ĠKe": 3499,
      "Ġans": 3500,
      "Ġbuilt": 3501,
      "bouw": 3502,
      "andid": 3503,
      "Ġvanaf": 3504,
      "Ġvijf": 3505,
      "ĠÐ±ÑĭÐ»Ð¾": 3506,
      "Ġindivid": 3507,
      "Ġjanuari": 3508,
      "dom": 3509,
      "Ð¸Ð±": 3510,
      "ima": 3511,
      "Ġander": 3512,
      "atre": 3513,
      "insi": 3514,
      "Im": 3515,
      "Ġlim": 3516,
      "Ġaug": 3517,
      "ĠoÃ¹": 3518,
      "alk": 3519,
      "ove": 3520,
      "Ġdeath": 3521,
      "Ġongeveer": 3522,
      "Ġeduc": 3523,
      "Ġ1992": 3524,
      "Ġgebied": 3525,
      "ini": 3526,
      "hunder": 3527,
      "ole": 3528,
      "Ġgener": 3529,
      "iron": 3530,
      "anci": 3531,
      "ĠÐ¿Ð¾ÑģÑĤ": 3532,
      "Ġorder": 3533,
      "Ġ1945": 3534,
      "iele": 3535,
      "lands": 3536,
      "Ġkomen": 3537,
      "Ġ[": 3538,
      "geven": 3539,
      "ĠSm": 3540,
      "orpor": 3541,
      "Ð´ÐµÐ»": 3542,
      "rim": 3543,
      "ĠVoor": 3544,
      "Ġstre": 3545,
      "gericht": 3546,
      "ĠRome": 3547,
      "fen": 3548,
      "ĠBerlin": 3549,
      "iles": 3550,
      "Ġpero": 3551,
      "ĠCup": 3552,
      "Ġple": 3553,
      "Ġgenoemd": 3554,
      "ĠBau": 3555,
      "Ð°ÑİÑĤ": 3556,
      "Ġjuni": 3557,
      "Ġmember": 3558,
      "roll": 3559,
      "ociation": 3560,
      "endant": 3561,
      "ĠspÃ¤ter": 3562,
      "ampioenschap": 3563,
      "Ã¤hrend": 3564,
      "Ġlors": 3565,
      "uge": 3566,
      "ÑĥÐ»": 3567,
      "ĠNord": 3568,
      "Ġdag": 3569,
      "ĠGes": 3570,
      "Ġfact": 3571,
      "icos": 3572,
      "ĠÐ²ÑĢÐµÐ¼Ñı": 3573,
      "west": 3574,
      "orden": 3575,
      "ording": 3576,
      "Ġincre": 3577,
      "Ġiss": 3578,
      "ĠDel": 3579,
      "Ġfuer": 3580,
      "ades": 3581,
      "Ġmatch": 3582,
      "Ġprote": 3583,
      "Ġseit": 3584,
      "Ġstill": 3585,
      "uj": 3586,
      "car": 3587,
      "60": 3588,
      "ĠFebruary": 3589,
      "cho": 3590,
      "Ãºn": 3591,
      "Ġdied": 3592,
      "ÐµÐ³Ð¾": 3593,
      "ĠStra": 3594,
      "ÑĢÑĥÐ¿": 3595,
      "ĠSec": 3596,
      "Er": 3597,
      "Ġwedst": 3598,
      "ĠrÃ©g": 3599,
      "Ġhasta": 3600,
      "ÐµÑĤÐ°": 3601,
      "heit": 3602,
      "oint": 3603,
      "ipe": 3604,
      "Ð°ÑĢÐ°": 3605,
      "197": 3606,
      "ĠMag": 3607,
      "Ġzoon": 3608,
      "Ġverm": 3609,
      "ĠDem": 3610,
      "Ġpresident": 3611,
      "Des": 3612,
      "Am": 3613,
      "iud": 3614,
      "cel": 3615,
      "Ð°ÑĤÐµÐ»ÑĮ": 3616,
      "Ġseptember": 3617,
      "sb": 3618,
      "ĠGar": 3619,
      "ÑĬ": 3620,
      "Ð¸Ð¿": 3621,
      "Ġhom": 3622,
      "Ġmogelijk": 3623,
      "ragen": 3624,
      "volution": 3625,
      "istische": 3626,
      "ummer": 3627,
      "ussi": 3628,
      "ĠÑģÐ°Ð¼": 3629,
      "Ġinternational": 3630,
      "Ġhelp": 3631,
      "ĠÐ¿ÑĢÐ°Ð²": 3632,
      "ĠDon": 3633,
      "ĠmÃªme": 3634,
      "ĠBas": 3635,
      "Il": 3636,
      "Ġjedoch": 3637,
      "schapp": 3638,
      "iforn": 3639,
      "ÑģÑĤÐ¾ÑĢ": 3640,
      "Ð½ÑĭÐ¼Ð¸": 3641,
      "Ġkrij": 3642,
      "ĠJean": 3643,
      "lijn": 3644,
      "Ġpa": 3645,
      "ictor": 3646,
      "isc": 3647,
      "zig": 3648,
      "Ġbew": 3649,
      "Ġbuilding": 3650,
      "Ġerh": 3651,
      "Ġca": 3652,
      "Ġfur": 3653,
      "Ġsk": 3654,
      "Ġinwoners": 3655,
      "loy": 3656,
      "acional": 3657,
      "Ġpopular": 3658,
      "Ġintro": 3659,
      "mat": 3660,
      "ffen": 3661,
      "Ġkeer": 3662,
      "annen": 3663,
      "ĠAg": 3664,
      "Ġ1991": 3665,
      "ĠWelt": 3666,
      "Ġlate": 3667,
      "ĠSen": 3668,
      "rieb": 3669,
      "ĠDavid": 3670,
      "Ġsteeds": 3671,
      "Ð¸Ð¼Ð¸": 3672,
      "Ġcontract": 3673,
      "ĠGeorge": 3674,
      "ideo": 3675,
      "Ġqual": 3676,
      "Ġdonde": 3677,
      "Ġdont": 3678,
      "Ð»Ð°ÑģÑĤ": 3679,
      "Ġ180": 3680,
      "Ġterm": 3681,
      "ging": 3682,
      "ein": 3683,
      "itor": 3684,
      "Ġanno": 3685,
      "ĠTor": 3686,
      "Ð°ÐµÑĤÑģÑı": 3687,
      "Ġmy": 3688,
      "Ġlike": 3689,
      "cciÃ³n": 3690,
      "Ġbra": 3691,
      "ush": 3692,
      "geme": 3693,
      "nte": 3694,
      "ised": 3695,
      "Ġsinds": 3696,
      "ÐµÐ½ÑĮ": 3697,
      "Les": 3698,
      "Ġmoved": 3699,
      "Ġ1993": 3700,
      "atal": 3701,
      "ĠÃ©tait": 3702,
      "ÑĢÐ¸ÑĤ": 3703,
      "ĠAmsterdam": 3704,
      "ĠSk": 3705,
      "Ġsem": 3706,
      "Ð¾ÑģÑģ": 3707,
      "ĠIII": 3708,
      "Ġersten": 3709,
      "aam": 3710,
      ":_": 3711,
      "undes": 3712,
      "Ġ(*": 3713,
      "bra": 3714,
      "Ġgemeente": 3715,
      "Ġsnel": 3716,
      "Ð°Ð½Ð°": 3717,
      "embre": 3718,
      "serv": 3719,
      "ÃŁer": 3720,
      "Ġaange": 3721,
      "ĠÐ§": 3722,
      "Ġprob": 3723,
      "Ġalors": 3724,
      "Ġcual": 3725,
      "akes": 3726,
      "icas": 3727,
      "ommen": 3728,
      "indelijk": 3729,
      "Ġpower": 3730,
      "Ġlig": 3731,
      "attle": 3732,
      "ubl": 3733,
      "Ġmoest": 3734,
      "erc": 3735,
      "Ġ179": 3736,
      "ikt": 3737,
      "weise": 3738,
      "adat": 3739,
      "ĠJames": 3740,
      "ĠDuits": 3741,
      "lasse": 3742,
      "ielen": 3743,
      "ĠTwe": 3744,
      "ÃŃs": 3745,
      "ĠClub": 3746,
      "neh": 3747,
      "ĠaÃ±o": 3748,
      "Das": 3749,
      "aged": 3750,
      "unk": 3751,
      "aupt": 3752,
      "ĠFin": 3753,
      "Ġadd": 3754,
      "Ġproduct": 3755,
      "aats": 3756,
      "ÑģÑĤÐ²Ð¾": 3757,
      "ĠVeren": 3758,
      "ĠBre": 3759,
      "ĠÐ¼ÐµÑģÑĤ": 3760,
      "Ġchildren": 3761,
      "orie": 3762,
      "geving": 3763,
      "Ġnue": 3764,
      "thers": 3765,
      "onne": 3766,
      "Ġgaat": 3767,
      "olo": 3768,
      "Ġfil": 3769,
      "gesteld": 3770,
      "glich": 3771,
      "ization": 3772,
      "Ġpoint": 3773,
      "Ġsci": 3774,
      "Ġoktober": 3775,
      "rench": 3776,
      "uent": 3777,
      "Ġrepr": 3778,
      "Ġeste": 3779,
      "Ġvery": 3780,
      "ÑĳÑĤ": 3781,
      "Ġparte": 3782,
      "Ġelkaar": 3783,
      "ĠBay": 3784,
      "Ġstr": 3785,
      "olen": 3786,
      "ateur": 3787,
      "Ð¾Ð³ÑĢÐ°ÑĦ": 3788,
      "Ð»Ð°Ð´": 3789,
      "Ġair": 3790,
      "ĠTeil": 3791,
      "Ġdood": 3792,
      "Ð°ÑģÑĮ": 3793,
      "enen": 3794,
      "erder": 3795,
      "ĠOm": 3796,
      "ĠSchw": 3797,
      "ĠGesch": 3798,
      "ints": 3799,
      "huis": 3800,
      "side": 3801,
      "Ġincluded": 3802,
      "voir": 3803,
      "eph": 3804,
      "Ð³ÑĢÐ°": 3805,
      "Ġanother": 3806,
      "Ġvader": 3807,
      "ĠÃ©gal": 3808,
      "Ġkleine": 3809,
      "mitt": 3810,
      "ÐµÑĢÐ²": 3811,
      "Ð¸Ð»Ð°": 3812,
      "ĠLouis": 3813,
      "aires": 3814,
      "Ġenter": 3815,
      "tended": 3816,
      "ured": 3817,
      "ĠÐ²Ð¾Ð¹": 3818,
      "iche": 3819,
      "ĠprÃ©s": 3820,
      "ĠEngel": 3821,
      "ĠFr": 3822,
      "Ġ1950": 3823,
      "ustus": 3824,
      "Ġbleef": 3825,
      "ĠÐ´ÑĢÑĥÐ³": 3826,
      "Ġtod": 3827,
      "ĠDuitse": 3828,
      "ĠOlymp": 3829,
      "eland": 3830,
      "ĠJan": 3831,
      "ĠCor": 3832,
      "Ġverder": 3833,
      "zer": 3834,
      "tt": 3835,
      "ociety": 3836,
      "ĠEurop": 3837,
      "Ġhadden": 3838,
      "Ġ1989": 3839,
      "ĠÐ¾ÑĢ": 3840,
      "ĠSu": 3841,
      "Ġmuziek": 3842,
      "ĠThere": 3843,
      "put": 3844,
      "Ġpublished": 3845,
      "Ġgu": 3846,
      "ographie": 3847,
      "Ġsite": 3848,
      "Ġfort": 3849,
      "ĠÐ¿ÑĢÐ¾ÑĤ": 3850,
      "Ġdifferent": 3851,
      "ĠBes": 3852,
      "ĠCharles": 3853,
      "ala": 3854,
      "Ð¸ÑĢÐ¾Ð²Ð°Ð½": 3855,
      "ĠÐ½Ð¾": 3856,
      "History": 3857,
      "ĠPet": 3858,
      "Ġthose": 3859,
      "indt": 3860,
      "ĠJohann": 3861,
      "Ġwaardoor": 3862,
      "Ġfive": 3863,
      "Ġprocess": 3864,
      "ĠPri": 3865,
      "Ġkinder": 3866,
      "ÑĥÐ»ÑĮÑĤ": 3867,
      "ĠWereld": 3868,
      "uut": 3869,
      "aften": 3870,
      "aald": 3871,
      "ruk": 3872,
      "Ġem": 3873,
      "ÑģÑĤÑĥÐ¿": 3874,
      "orts": 3875,
      "Ġaussi": 3876,
      "ÐºÐ°Ð·": 3877,
      "illes": 3878,
      "anks": 3879,
      "ĠÐ¿ÑĢÐ¸Ð½": 3880,
      "Ġpuis": 3881,
      "bau": 3882,
      "yr": 3883,
      "Ġwithin": 3884,
      "Ġwin": 3885,
      "Ġlid": 3886,
      "Ġber": 3887,
      "Ġtri": 3888,
      "ĠAut": 3889,
      "ention": 3890,
      "irk": 3891,
      "Ġmaart": 3892,
      "iciÃ³n": 3893,
      "Ġhalf": 3894,
      "ĠInter": 3895,
      "Ġvillage": 3896,
      "Ġterrit": 3897,
      "Ð²Ð»Ñı": 3898,
      "Mar": 3899,
      "Ġif": 3900,
      "ÑģÐºÐ°Ñı": 3901,
      "Ġmensen": 3902,
      "ĠÃ©galement": 3903,
      "arte": 3904,
      "Ġprimer": 3905,
      "ady": 3906,
      "iro": 3907,
      "ĠSpan": 3908,
      "Ġderde": 3909,
      "ĠRiver": 3910,
      "Ġjuli": 3911,
      "ÑĢÐ¾Ð¼": 3912,
      "ieve": 3913,
      "ified": 3914,
      "ĠZwe": 3915,
      "amt": 3916,
      "ĠPeter": 3917,
      "ÑĥÑģÑĤ": 3918,
      "orps": 3919,
      "Ġtyp": 3920,
      "Ġsent": 3921,
      "ips": 3922,
      "Ġainsi": 3923,
      "ĠRobert": 3924,
      "ĠDr": 3925,
      "Ġfam": 3926,
      "ĠSim": 3927,
      "Ġcaus": 3928,
      "folg": 3929,
      "unden": 3930,
      "Ġstruct": 3931,
      "oper": 3932,
      "Ġdeutsch": 3933,
      "ffent": 3934,
      "ĠEuropa": 3935,
      "Ġens": 3936,
      "lev": 3937,
      "Ġmake": 3938,
      "ĠaprÃ¨s": 3939,
      "nem": 3940,
      "Re": 3941,
      "olit": 3942,
      "Åĵ": 3943,
      "Ġopge": 3944,
      "Ġinflu": 3945,
      "ially": 3946,
      "wood": 3947,
      "ĠBureau": 3948,
      "Ġbased": 3949,
      "arbeit": 3950,
      "Ð¿ÑĢÐ°Ð²": 3951,
      "loten": 3952,
      "Ġ60": 3953,
      "ĠHouse": 3954,
      "ĠMac": 3955,
      "Ġtest": 3956,
      "Ġexist": 3957,
      "fess": 3958,
      "Ġgeboren": 3959,
      "Ġseinem": 3960,
      "ÑĳÐ»": 3961,
      "iano": 3962,
      "ness": 3963,
      "Ġanderen": 3964,
      "Ġkoning": 3965,
      "upe": 3966,
      "ĠArch": 3967,
      "enden": 3968,
      "Ġaugustus": 3969,
      "ula": 3970,
      "Ġchang": 3971,
      "Ġdecember": 3972,
      "ination": 3973,
      "ĠÑģÐ¾Ð±": 3974,
      "aille": 3975,
      "Ġfather": 3976,
      "Ġweek": 3977,
      "Ġguer": 3978,
      "ĠzurÃ¼ck": 3979,
      "Ġenv": 3980,
      "lav": 3981,
      "Ð°Ð»ÑģÑı": 3982,
      "uncil": 3983,
      "Ġapril": 3984,
      "Sch": 3985,
      "rier": 3986,
      "80": 3987,
      "Ġaddition": 3988,
      "Ð¾ÑĢÑĤ": 3989,
      "ĠCour": 3990,
      "epen": 3991,
      "ktion": 3992,
      "ĠRed": 3993,
      "cript": 3994,
      "Ġlocated": 3995,
      "ichael": 3996,
      "Ã¤s": 3997,
      "ilar": 3998,
      "ĠJac": 3999,
      "hib": 4000,
      "Ġgrond": 4001,
      "ĠJahrhunder": 4002,
      "Ġpap": 4003,
      "ÐµÑĢÐ½": 4004,
      "Ġthough": 4005,
      "Ġko": 4006,
      "iana": 4007,
      "ĠSam": 4008,
      "glied": 4009,
      "Ġcontrol": 4010,
      "Ġadv": 4011,
      "ĠEngl": 4012,
      "ÐµÑĢÐ¶": 4013,
      "Ġlog": 4014,
      "oto": 4015,
      "izer": 4016,
      "23": 4017,
      "ĠFra": 4018,
      "ichting": 4019,
      "ĠpremiÃ¨re": 4020,
      "Ġnear": 4021,
      "Ġerst": 4022,
      "Ġtrad": 4023,
      "Ð¾Ð»ÑĮÐºÐ¾": 4024,
      "ĠMuseum": 4025,
      "ĠÐ¨": 4026,
      "ĠMos": 4027,
      "iÃ©": 4028,
      "ound": 4029,
      "Ver": 4030,
      "owel": 4031,
      "aker": 4032,
      "ids": 4033,
      "Ġside": 4034,
      "ads": 4035,
      "ĠÐ²ÑģÐµ": 4036,
      "ersche": 4037,
      "21": 4038,
      "Ġkam": 4039,
      "raag": 4040,
      "ÐµÐ½Ð¸Ð¸": 4041,
      "yer": 4042,
      "Ġgemaakt": 4043,
      "ĠUm": 4044,
      "Ġtrois": 4045,
      "vla": 4046,
      "Ġzeer": 4047,
      "Ġturn": 4048,
      "Ġdrei": 4049,
      "loot": 4050,
      "ĠfÃ¼hr": 4051,
      "Ġrespect": 4052,
      "Ð°Ð½ÑĤ": 4053,
      "Ġproduction": 4054,
      "24": 4055,
      "Ġsele": 4056,
      "Ġwhat": 4057,
      "ÑĥÑħ": 4058,
      "Ġsqu": 4059,
      "ises": 4060,
      "eln": 4061,
      "Ġcin": 4062,
      "ĠCast": 4063,
      "Ġhabit": 4064,
      "unced": 4065,
      "Ġplant": 4066,
      "idge": 4067,
      "Ġnatur": 4068,
      "Ġcame": 4069,
      "Van": 4070,
      "Ġmult": 4071,
      "Ġmonth": 4072,
      "iker": 4073,
      "Or": 4074,
      "ĠJack": 4075,
      "ĠOl": 4076,
      "Ġallem": 4077,
      "ĠZo": 4078,
      "Ġhistory": 4079,
      "kl": 4080,
      "orspr": 4081,
      "produ": 4082,
      "ĠCaliforn": 4083,
      "Ġotro": 4084,
      "Ġshort": 4085,
      "zij": 4086,
      "han": 4087,
      "ĠFrancis": 4088,
      "ppen": 4089,
      "ÑıÐ½": 4090,
      "ĠElle": 4091,
      "ĠÃ¡": 4092,
      "isk": 4093,
      "Ġmunicip": 4094,
      "Ġconse": 4095,
      "ĠDu": 4096,
      "Ġfoot": 4097,
      "oms": 4098,
      "rote": 4099,
      "line": 4100,
      "Ġmillion": 4101,
      "arth": 4102,
      "iudad": 4103,
      "Ġhuis": 4104,
      "iland": 4105,
      "ribut": 4106,
      "Ġinclude": 4107,
      "Ġwerken": 4108,
      "ope": 4109,
      "Ġseinen": 4110,
      "Ġopnieuw": 4111,
      "Ã¶nig": 4112,
      "Ġnorth": 4113,
      "ography": 4114,
      "ĠBet": 4115,
      "Bij": 4116,
      "cont": 4117,
      "Ġposition": 4118,
      "ĠÃľ": 4119,
      "komen": 4120,
      "ĠThomas": 4121,
      "Ġinvol": 4122,
      "ĠSer": 4123,
      "ctions": 4124,
      "anda": 4125,
      "ĠFrench": 4126,
      "Ġperiode": 4127,
      "ĠÐ¿Ð¾Ð»ÑĥÑĩ": 4128,
      "ĠOber": 4129,
      "ĠRos": 4130,
      "Ġsoll": 4131,
      "Ð¼Ð°": 4132,
      "ĠAcadem": 4133,
      "agen": 4134,
      "ĠTour": 4135,
      "Ġwent": 4136,
      "ĠRoyal": 4137,
      "Ġinde": 4138,
      "ĠForm": 4139,
      "isse": 4140,
      "ĠAngel": 4141,
      "Ġarchitect": 4142,
      "Ġzien": 4143,
      "ajo": 4144,
      "Ġthird": 4145,
      "zw": 4146,
      "Ġcapt": 4147,
      "ĠHall": 4148,
      "Ġtem": 4149,
      "Ġnovember": 4150,
      "Ã»": 4151,
      "Ġ1944": 4152,
      "loss": 4153,
      "Ġanim": 4154,
      "lection": 4155,
      "ichten": 4156,
      "Ġoften": 4157,
      "Ð¾Ð·Ð´": 4158,
      "ĠAng": 4159,
      "ĠKa": 4160,
      "Ġadminist": 4161,
      "oles": 4162,
      "Ð¾Ð»Ð¶": 4163,
      "Ġoorlog": 4164,
      "Ġ1988": 4165,
      "iveau": 4166,
      "ĠBa": 4167,
      "Ġbasis": 4168,
      "agement": 4169,
      "BC": 4170,
      "deel": 4171,
      "Ġstarted": 4172,
      "Ġ1940": 4173,
      "ÐµÑĢÑģ": 4174,
      "sych": 4175,
      "Ġamong": 4176,
      "ĠBy": 4177,
      "ĠEngland": 4178,
      "Ã«n": 4179,
      "gebracht": 4180,
      "ÐµÐ½Ñĭ": 4181,
      "Ġkl": 4182,
      "lage": 4183,
      "22": 4184,
      "Ġradio": 4185,
      "ps": 4186,
      "ĠFranse": 4187,
      "Ġetwa": 4188,
      "Ġnieuw": 4189,
      "Ġserie": 4190,
      "Ġexpl": 4191,
      "Ð¸ÐºÐ¸": 4192,
      "ĠDist": 4193,
      "Ġcontra": 4194,
      "ĠMann": 4195,
      "vious": 4196,
      "Ġallow": 4197,
      "Ã©ral": 4198,
      "inger": 4199,
      "Ġcommand": 4200,
      "Ġvoll": 4201,
      "fahr": 4202,
      "Ġrol": 4203,
      "ĠGrand": 4204,
      "Ð»Ð¾Ð²": 4205,
      "Ġdebut": 4206,
      "Ġtal": 4207,
      "ĠPf": 4208,
      "iente": 4209,
      "ning": 4210,
      "Ġbeide": 4211,
      "ÑĤÐ¸": 4212,
      "Ġgradu": 4213,
      "ared": 4214,
      "ivo": 4215,
      "field": 4216,
      "Ġsett": 4217,
      "ĠSur": 4218,
      "ods": 4219,
      "ĠÐºÐ¾ÑĢ": 4220,
      "Ġcountry": 4221,
      "cing": 4222,
      "ÑĮÑİ": 4223,
      "oster": 4224,
      "Ġpun": 4225,
      "komst": 4226,
      "ĠDaarna": 4227,
      "ĠSeit": 4228,
      "Ġpromot": 4229,
      "Ġacht": 4230,
      "As": 4231,
      "Ġsen": 4232,
      "Ġcommer": 4233,
      "ĠMat": 4234,
      "Ġnorm": 4235,
      "Ġmodern": 4236,
      "Ġclaim": 4237,
      "Ġvolg": 4238,
      "ĠCensus": 4239,
      "Ġcontre": 4240,
      "Ġfinale": 4241,
      "stein": 4242,
      "una": 4243,
      "Ġmoet": 4244,
      "ba": 4245,
      "Ġbestaat": 4246,
      "erence": 4247,
      "Ġgere": 4248,
      "ĠChina": 4249,
      "utt": 4250,
      "ression": 4251,
      "Ġsucces": 4252,
      "gem": 4253,
      "Ã¤l": 4254,
      "Ġpropos": 4255,
      "Ġwaarvan": 4256,
      "ĠLat": 4257,
      "ĠdÃ©b": 4258,
      "ĠHand": 4259,
      "pun": 4260,
      "Ġdou": 4261,
      "bes": 4262,
      "Ġuite": 4263,
      "Ġabs": 4264,
      "Ġplaatsen": 4265,
      "ĠMex": 4266,
      "reef": 4267,
      "Ġdir": 4268,
      "wijl": 4269,
      "Ġstond": 4270,
      "ipl": 4271,
      "avy": 4272,
      "ieron": 4273,
      "itel": 4274,
      "Ġjus": 4275,
      "Ġdescrib": 4276,
      "Ġspel": 4277,
      "Ġfront": 4278,
      "Ġhon": 4279,
      "ĠChurch": 4280,
      "27": 4281,
      "Ð°Ñĩ": 4282,
      "ÑıÐ±": 4283,
      "ijen": 4284,
      "Ġspecial": 4285,
      "Ġbusiness": 4286,
      "iÃ¨cle": 4287,
      "essen": 4288,
      "Ġpet": 4289,
      "ĠInstit": 4290,
      "ĠFried": 4291,
      "Åį": 4292,
      "Ġdus": 4293,
      "Ġold": 4294,
      "Ġ1986": 4295,
      "ĠÃª": 4296,
      "ount": 4297,
      "Ġprincipal": 4298,
      "Ġgebouwd": 4299,
      "ĠStreet": 4300,
      "ĠSport": 4301,
      "ĠSa": 4302,
      "Ġcab": 4303,
      "Ġdesde": 4304,
      "ppe": 4305,
      "ĠMil": 4306,
      "wege": 4307,
      "Ġdocument": 4308,
      "iÃ¨me": 4309,
      "Ġbep": 4310,
      "ĠcrÃ©": 4311,
      "Ġyoung": 4312,
      "ĠArbeit": 4313,
      "Ġverg": 4314,
      "Ġconstit": 4315,
      "Ġkunst": 4316,
      "Ġonderzoek": 4317,
      "aly": 4318,
      "uter": 4319,
      "Ġrole": 4320,
      "azz": 4321,
      "ĠBern": 4322,
      "uÃŁ": 4323,
      "Ġwomen": 4324,
      "ĠBeg": 4325,
      "Ġkill": 4326,
      "alle": 4327,
      "enz": 4328,
      "ĠXV": 4329,
      "loop": 4330,
      "eleid": 4331,
      "Ð¾Ð»ÑĮÐ·": 4332,
      "Ġbien": 4333,
      "Ġ1987": 4334,
      "Â«": 4335,
      "stant": 4336,
      "ĠBundes": 4337,
      "hol": 4338,
      "ĠÃº": 4339,
      "Ġrecht": 4340,
      "Ġjou": 4341,
      "Ð½ÐµÐ¹": 4342,
      "Ġboek": 4343,
      "ewel": 4344,
      "ierre": 4345,
      "ellt": 4346,
      "Ġcollect": 4347,
      "ĠFe": 4348,
      "ĠMer": 4349,
      "Ġoude": 4350,
      "erse": 4351,
      "ĠEnglish": 4352,
      "Ġbeim": 4353,
      "Ġverko": 4354,
      "Ġtu": 4355,
      "Ġklein": 4356,
      "rew": 4357,
      "Ġfamilie": 4358,
      "Se": 4359,
      "Ġsouth": 4360,
      "ĠDar": 4361,
      "oe": 4362,
      "Ġintrodu": 4363,
      "Ġequip": 4364,
      "196": 4365,
      "oz": 4366,
      "ĠÐ¸Ð»Ð¸": 4367,
      "ĠAmerikaanse": 4368,
      "ibt": 4369,
      "ĠgehÃ¶r": 4370,
      "Ġjoined": 4371,
      "ella": 4372,
      "Ġsoort": 4373,
      "ĠDa": 4374,
      "ĠFil": 4375,
      "ĠBru": 4376,
      "work": 4377,
      "Ġfav": 4378,
      "ĠTr": 4379,
      "ĠÑĢÐ°Ð¹": 4380,
      "asse": 4381,
      "Ð½Ð°Ðº": 4382,
      "Ð°ÑĪ": 4383,
      "ĠCong": 4384,
      "Ġcost": 4385,
      "ĠÃªtre": 4386,
      "Ġbecome": 4387,
      "ÐĽ": 4388,
      "Ġ1985": 4389,
      "Ð»ÐµÐº": 4390,
      "ÐµÐ¶": 4391,
      "ieurs": 4392,
      "iva": 4393,
      "rijden": 4394,
      "Ġdaarna": 4395,
      "ately": 4396,
      "28": 4397,
      "nung": 4398,
      "Ġannounced": 4399,
      "ĠSpiel": 4400,
      "ĠQue": 4401,
      "Ð¾Ð»Ð¾Ð³": 4402,
      "omer": 4403,
      "Ġihre": 4404,
      "Ã¶s": 4405,
      "ĠDoor": 4406,
      "Ġgran": 4407,
      "ĠÐºÐ¾Ð»": 4408,
      "Ġliter": 4409,
      "Ð¾Ð³Ð´Ð°": 4410,
      "Ġestablished": 4411,
      "ĠÑĢÐ°ÑģÐ¿": 4412,
      "26": 4413,
      "Ġdecl": 4414,
      "ying": 4415,
      "Ġeuro": 4416,
      "Ġleeft": 4417,
      "ĠÐ¶Ðµ": 4418,
      "Ġdiese": 4419,
      "Ġreturned": 4420,
      "Ġihm": 4421,
      "Ġevery": 4422,
      "ĠOne": 4423,
      "ĠTrans": 4424,
      "ÑıÐ·": 4425,
      "ĠÐºÐ¾Ð¼Ð°Ð½Ð´": 4426,
      "iled": 4427,
      "Ġchurch": 4428,
      "ĠSint": 4429,
      "ĠFamil": 4430,
      "Ġworked": 4431,
      "tement": 4432,
      "indet": 4433,
      "Ġrepla": 4434,
      "ĠÐ¿Ð¾ÑģÐ»Ðµ": 4435,
      "ĠChampionship": 4436,
      "Ġsyn": 4437,
      "Ġcover": 4438,
      "ĠAct": 4439,
      "rand": 4440,
      "Ġsin": 4441,
      "ĠIndia": 4442,
      "bed": 4443,
      "'t": 4444,
      "Ġway": 4445,
      "bro": 4446,
      "ites": 4447,
      "Ġkann": 4448,
      "Ġ1930": 4449,
      "recht": 4450,
      "Ġ1984": 4451,
      "It": 4452,
      "ĠNoord": 4453,
      "ĠCanada": 4454,
      "Ġviol": 4455,
      "gebied": 4456,
      "oorde": 4457,
      "ĠÐ¿ÑĢÐ¾Ð²": 4458,
      "Ġrecon": 4459,
      "onie": 4460,
      "inos": 4461,
      "ĠEast": 4462,
      "ĠTro": 4463,
      "Ġarm": 4464,
      "aria": 4465,
      "Ġnext": 4466,
      "ĠUr": 4467,
      "ĠBor": 4468,
      "aval": 4469,
      "organis": 4470,
      "igheid": 4471,
      "29": 4472,
      "Ġwant": 4473,
      "Ġenige": 4474,
      "bach": 4475,
      "irtschaft": 4476,
      "Ġpra": 4477,
      "ĠAward": 4478,
      "cast": 4479,
      "ĠÃ¶": 4480,
      "iez": 4481,
      "ÑĢÐ¾Ð½": 4482,
      "Ġmayor": 4483,
      "cteur": 4484,
      "itÃ©s": 4485,
      "Ġmarried": 4486,
      "Ġfew": 4487,
      "Ã¤d": 4488,
      "olgens": 4489,
      "ĠÃ©l": 4490,
      "Ġesta": 4491,
      "Ġ80": 4492,
      "70": 4493,
      "Ġnummer": 4494,
      "iale": 4495,
      "ebruari": 4496,
      "voorbeeld": 4497,
      "Ġdurante": 4498,
      "Ġimportant": 4499,
      "uve": 4500,
      "Ġversion": 4501,
      "iende": 4502,
      "ĠRecord": 4503,
      "Ġcharacter": 4504,
      "erve": 4505,
      "Ġleng": 4506,
      "ÐµÑĪ": 4507,
      "ĠFir": 4508,
      "aring": 4509,
      "iembre": 4510,
      "Ã©tÃ©": 4511,
      "After": 4512,
      "inig": 4513,
      "Ġpartie": 4514,
      "Ð¾ÑĢÐ¾Ð½": 4515,
      "ijnen": 4516,
      "Ð»ÑİÑĩ": 4517,
      "Ġappoint": 4518,
      "Ð¸Ð½Ñĭ": 4519,
      "Ġesp": 4520,
      "lant": 4521,
      "Ġoct": 4522,
      "ences": 4523,
      "ĠOb": 4524,
      "Ġstudents": 4525,
      "ulp": 4526,
      "ohl": 4527,
      "ĠĠĠĠĠĠĠĠ": 4528,
      "Ġfebruari": 4529,
      "ĠRoman": 4530,
      "ĠfranÃ§": 4531,
      "Ġopper": 4532,
      "ÐµÐ»Ð¾Ð²": 4533,
      "ĠVla": 4534,
      "ĠOff": 4535,
      "ĠÐ¾Ð±ÑĢÐ°Ð·": 4536,
      "ĠÐ·Ð°Ð²": 4537,
      "Ġruim": 4538,
      "iere": 4539,
      "Ð°Ð½Ð¸Ð¸": 4540,
      "ĠBand": 4541,
      "etter": 4542,
      "etten": 4543,
      "wijk": 4544,
      "enne": 4545,
      "rick": 4546,
      "istoire": 4547,
      "imiento": 4548,
      "ming": 4549,
      "Ġ.": 4550,
      "ĠWereldoorlog": 4551,
      "Ġtake": 4552,
      "Ġ1920": 4553,
      "idence": 4554,
      "Ġcast": 4555,
      "Ġdoel": 4556,
      "Ġdort": 4557,
      "ĠMaria": 4558,
      "ĠBlack": 4559,
      "ego": 4560,
      "gin": 4561,
      "Ġregion": 4562,
      "ĠrÃ©s": 4563,
      "ĠÐ·Ð°Ðº": 4564,
      "Ġauthor": 4565,
      "ril": 4566,
      "Ġextra": 4567,
      "iÄ": 4568,
      "Ġcurrent": 4569,
      "ĠÐ·Ð°Ð¿": 4570,
      "Ġrev": 4571,
      "Ġoppos": 4572,
      "ĠMichael": 4573,
      "ria": 4574,
      "Ð¾Ð²Ð°Ð»": 4575,
      "Ġfilms": 4576,
      "ĠEnde": 4577,
      "Ð¾Ð´Ð°": 4578,
      "ĠCompany": 4579,
      "Ġ1975": 4580,
      "aars": 4581,
      "fect": 4582,
      "irl": 4583,
      "ienne": 4584,
      "Ð¸ÐºÐ°": 4585,
      "Ġhowever": 4586,
      "aris": 4587,
      "ev": 4588,
      "Ġlange": 4589,
      "Ġnationale": 4590,
      "Ġmodel": 4591,
      "Ġ1982": 4592,
      "urger": 4593,
      "Ð¾Ð½Ñĩ": 4594,
      "ĠFern": 4595,
      "Ġdevelopment": 4596,
      "Ġmass": 4597,
      "Ġopgericht": 4598,
      "cha": 4599,
      "Ġworks": 4600,
      "ĠEnt": 4601,
      "mm": 4602,
      "ĠÑįÐº": 4603,
      "ili": 4604,
      "aban": 4605,
      "ijl": 4606,
      "ris": 4607,
      "luit": 4608,
      "cie": 4609,
      "Nach": 4610,
      "ĠIsra": 4611,
      "ĠTweede": 4612,
      "kend": 4613,
      "Ġassist": 4614,
      "Ġzes": 4615,
      "Ð³Ð°Ð½": 4616,
      "Ġhuman": 4617,
      "Ð¸Ð·Ð²": 4618,
      "ouver": 4619,
      "elling": 4620,
      "Ġces": 4621,
      "ciÃ³": 4622,
      "ĠMinister": 4623,
      "Ġ1983": 4624,
      "loed": 4625,
      "aison": 4626,
      "ittle": 4627,
      "Ġhuid": 4628,
      "ÐµÐ¶Ð´": 4629,
      "bare": 4630,
      "ĠÐ»ÐµÑĤ": 4631,
      "ring": 4632,
      "ĠTod": 4633,
      "ĠcarriÃ¨re": 4634,
      "ĠMusic": 4635,
      "ĠannÃ©es": 4636,
      "Ġgreat": 4637,
      "Ġartist": 4638,
      "Â»._": 4639,
      "ĠMy": 4640,
      "Ġzonder": 4641,
      "ĠVere": 4642,
      "Ġdeg": 4643,
      "ered": 4644,
      "halten": 4645,
      "Ġkonnte": 4646,
      "Ġepis": 4647,
      "ĠZuid": 4648,
      "ĠkÃ¶n": 4649,
      "Ġ1968": 4650,
      "Ġblij": 4651,
      "ĠTre": 4652,
      "Ġmal": 4653,
      "III": 4654,
      "Ġfeature": 4655,
      "Ġconstruction": 4656,
      "Ġ1972": 4657,
      "ĠDuring": 4658,
      "ÐµÑģÑĤÐ²ÐµÐ½": 4659,
      "Ġgelegen": 4660,
      "ÑĥÑĪ": 4661,
      "Ġgames": 4662,
      "lig": 4663,
      "appen": 4664,
      "ocrat": 4665,
      "ÃŃas": 4666,
      "Ġmont": 4667,
      "ĠServ": 4668,
      "waar": 4669,
      "ĠhabÃŃa": 4670,
      "apen": 4671,
      "ierten": 4672,
      "ota": 4673,
      "Ð»ÐµÐ½Ð¸Ñı": 4674,
      "ĠLater": 4675,
      "Ð£": 4676,
      "elingen": 4677,
      "Ġclos": 4678,
      "Ġmeet": 4679,
      "angen": 4680,
      "Ġparticular": 4681,
      "used": 4682,
      "ĠAnton": 4683,
      "ÑĳÐ¼": 4684,
      "ih": 4685,
      "ĠÐ½Ð¾Ð²": 4686,
      "cio": 4687,
      "Ð¾Ð¼Ñĥ": 4688,
      "Ã¨ne": 4689,
      "Ġeinde": 4690,
      "ĠUnion": 4691,
      "plaats": 4692,
      "clus": 4693,
      "ĠÃ©c": 4694,
      "Ġhaving": 4695,
      "Ġzal": 4696,
      "45": 4697,
      "Ġslechts": 4698,
      "Ð¿ÑĢ": 4699,
      "Ġconserv": 4700,
      "ashington": 4701,
      "Ġ1974": 4702,
      "ilver": 4703,
      "Ġimm": 4704,
      "Ġweten": 4705,
      "Ġsel": 4706,
      "Ġwrote": 4707,
      "Ġzowel": 4708,
      "mi": 4709,
      "Ġ1979": 4710,
      "zel": 4711,
      "Ġcer": 4712,
      "Ġpract": 4713,
      "ĠCamp": 4714,
      "ĠSov": 4715,
      "Ġ1941": 4716,
      "Ġdirector": 4717,
      "ĠRichard": 4718,
      "ÑĥÑİÑī": 4719,
      "ĠÑıÐ²Ð»Ñı": 4720,
      "Ġtitel": 4721,
      "Ġregel": 4722,
      "Ġvarious": 4723,
      "ĠDire": 4724,
      "iken": 4725,
      "Ġang": 4726,
      "Ġtype": 4727,
      "Ġzod": 4728,
      "dam": 4729,
      "Ġusing": 4730,
      "Ġriv": 4731,
      "uls": 4732,
      "Ð¾ÑģÐº": 4733,
      "Ġsignific": 4734,
      "ugd": 4735,
      "rijven": 4736,
      "ĠCons": 4737,
      "rouw": 4738,
      "ĠWhen": 4739,
      "ĠGeorg": 4740,
      "oorten": 4741,
      "ĠÐ±Ð¾Ð»ÑĮÑĪ": 4742,
      "onnen": 4743,
      "Ġciudad": 4744,
      "Ġtrav": 4745,
      "Ġcontinued": 4746,
      "Ġâ": 4747,
      "volgens": 4748,
      "Ġobt": 4749,
      "Ġlag": 4750,
      "Ð¸Ð°Ð»ÑĮ": 4751,
      "Ġkilom": 4752,
      "rest": 4753,
      "Ġsn": 4754,
      "Dem": 4755,
      "emble": 4756,
      "Ġoorspr": 4757,
      "Ġvond": 4758,
      "iaan": 4759,
      "jarige": 4760,
      "ki": 4761,
      "ĠÃĸ": 4762,
      "Ġ1981": 4763,
      "Ġerste": 4764,
      "ÑĢÐ°Ð¶": 4765,
      "Ġleid": 4766,
      "ĠMot": 4767,
      "Ġtant": 4768,
      "ĠStaten": 4769,
      "Ġgeheel": 4770,
      "ĠHaupt": 4771,
      "Ġaward": 4772,
      "ĠGal": 4773,
      "stad": 4774,
      "ĠTom": 4775,
      "Ġ1978": 4776,
      "Ġprevious": 4777,
      "voerd": 4778,
      "Ġmilj": 4779,
      "ĠMill": 4780,
      "vang": 4781,
      "Ġvideo": 4782,
      "Ġtrab": 4783,
      "ritt": 4784,
      "Ð±Ð¾ÑĢ": 4785,
      "Ġrace": 4786,
      "ĠÐ¾Ð±Ñī": 4787,
      "zonder": 4788,
      "siÃ¨cle": 4789,
      "ĠXI": 4790,
      "stadt": 4791,
      "ĠDivision": 4792,
      "Ġ1976": 4793,
      "arse": 4794,
      "35": 4795,
      "Ġbedrijf": 4796,
      "Ġur": 4797,
      "Ġattack": 4798,
      "\"._": 4799,
      "emor": 4800,
      "Ġ1977": 4801,
      "fr": 4802,
      "ruck": 4803,
      "ĠÑģÑĤÐ°Ð»": 4804,
      "Ġvoetbal": 4805,
      "eller": 4806,
      "ĠGod": 4807,
      "Ð¸Ð¶": 4808,
      "Ġjournal": 4809,
      "mon": 4810,
      "ĠHill": 4811,
      "onds": 4812,
      "Ġoverle": 4813,
      "ĠKÃ¶nig": 4814,
      "anneer": 4815,
      "geh": 4816,
      "Ġdistrict": 4817,
      "Ð¤": 4818,
      "oir": 4819,
      "ĠÑģÐº": 4820,
      "Ġ35": 4821,
      "ilway": 4822,
      "Ġ1973": 4823,
      "ÑĢÐµÑĤ": 4824,
      "Ġville": 4825,
      "rale": 4826,
      "ĠPresident": 4827,
      "ÑĢÑĥÐ¿Ð¿": 4828,
      "werp": 4829,
      "Ġbase": 4830,
      "auer": 4831,
      "ables": 4832,
      "ĠÐ½Ð°Ñģ": 4833,
      "ĠBest": 4834,
      "ray": 4835,
      "ĠArmy": 4836,
      "elte": 4837,
      "Ð¾Ð»ÐµÐµ": 4838,
      "ĠÐ¿Ð¾Ðº": 4839,
      "elbst": 4840,
      "Ġgiven": 4841,
      "ĠÐ¼Ð°ÑĤ": 4842,
      "Ġfriend": 4843,
      "hab": 4844,
      "aling": 4845,
      "Ġcommunity": 4846,
      "ĠKn": 4847,
      "Ġ1971": 4848,
      "ĠZij": 4849,
      "Ġinterest": 4850,
      "ĠCalifornia": 4851,
      "ÐµÐ½Ð¸ÐµÐ¼": 4852,
      "ĠMary": 4853,
      "Ġtitle": 4854,
      "uits": 4855,
      "Ã¤lt": 4856,
      "Ġgrootste": 4857,
      "Ġmaterial": 4858,
      "Ġbi": 4859,
      "ĠVon": 4860,
      "Ġdefe": 4861,
      "Ġcam": 4862,
      "Ġ70": 4863,
      "Ġfield": 4864,
      "ĠVir": 4865,
      "plaat": 4866,
      "Ġdern": 4867,
      "Ġjusqu": 4868,
      "Ġespecial": 4869,
      "vor": 4870,
      "Ã¤rz": 4871,
      "bahn": 4872,
      "ĠRob": 4873,
      "ĠSci": 4874,
      "ruis": 4875,
      "Ġgef": 4876,
      "ote": 4877,
      "ĠJoseph": 4878,
      "Ġbor": 4879,
      "AS": 4880,
      "Ġminder": 4881,
      "Ġomgeving": 4882,
      "Ġtempor": 4883,
      "ĠWashington": 4884,
      "Ð°ÑĤÐµÐ»": 4885,
      "aud": 4886,
      "Ġavant": 4887,
      "Ġleger": 4888,
      "inese": 4889,
      "Ġsex": 4890,
      "Ġjon": 4891,
      "vorm": 4892,
      "Ġweiter": 4893,
      "ĠÐ¸Ñİ": 4894,
      "ogn": 4895,
      "rian": 4896,
      "Ġpoints": 4897,
      "cke": 4898,
      "Ġcontact": 4899,
      "Fran": 4900,
      "Ġopt": 4901,
      "Ġ1969": 4902,
      "Ã¯n": 4903,
      "ijst": 4904,
      "cas": 4905,
      "Ġ1942": 4906,
      "Ġhor": 4907,
      "Ġmer": 4908,
      "licher": 4909,
      "Ġpeut": 4910,
      "Ġvoort": 4911,
      "ĠJuni": 4912,
      "Ġgewe": 4913,
      "ÐµÐ¼Ð¿": 4914,
      "ĠReich": 4915,
      "ĠBill": 4916,
      "Ġhost": 4917,
      "ĠThese": 4918,
      "Ġkinderen": 4919,
      "otel": 4920,
      "ĠDo": 4921,
      "ĠsÃ©": 4922,
      "Ġcreated": 4923,
      "Ġ1943": 4924,
      "resp": 4925,
      "ĠMartin": 4926,
      "Ġihn": 4927,
      "Ġattemp": 4928,
      "midd": 4929,
      "Ġcommon": 4930,
      "aining": 4931,
      "Ġlist": 4932,
      "Ġgaf": 4933,
      "otte": 4934,
      "Ġ1939": 4935,
      "Ð¼ÐµÐ½": 4936,
      "ĠÑģÑĢÐµÐ´": 4937,
      "chan": 4938,
      "Ġpal": 4939,
      "ells": 4940,
      "Ġord": 4941,
      "Ġminister": 4942,
      "Ġsimilar": 4943,
      "ika": 4944,
      "Ġuiteindelijk": 4945,
      "ĠAssociation": 4946,
      "Be": 4947,
      "ouv": 4948,
      "195": 4949,
      "Ġven": 4950,
      "ĠEuropean": 4951,
      "ĠdespuÃ©s": 4952,
      "ĠRock": 4953,
      "Ġwerkte": 4954,
      "ĠEg": 4955,
      "bek": 4956,
      "Ġphys": 4957,
      "Ġrespons": 4958,
      "lad": 4959,
      "Ġresearch": 4960,
      "Ġbeiden": 4961,
      "undo": 4962,
      "ĠÑģÐµÑĢ": 4963,
      "ĠSpe": 4964,
      "Ġill": 4965,
      "ĠCla": 4966,
      "ÑģÐ°": 4967,
      "ampion": 4968,
      "ĠÐ¿Ð»": 4969,
      "Ġpartir": 4970,
      "Ġsepar": 4971,
      "het": 4972,
      "ĠFort": 4973,
      "ÐĹ": 4974,
      "ception": 4975,
      "Ġsuff": 4976,
      "ĠEsp": 4977,
      "onen": 4978,
      "Ġwithout": 4979,
      "Ð¸ÑĢÐ°": 4980,
      "ĠLas": 4981,
      "ski": 4982,
      "ernoo": 4983,
      "Ġverst": 4984,
      "Ġliegt": 4985,
      "Ð²ÐµÑĤ": 4986,
      "Ġ1967": 4987,
      "room": 4988,
      "ĠNor": 4989,
      "ĠÐºÐ¾Ð¼Ð¿": 4990,
      "cias": 4991,
      "ĠÐ¿ÑĢÐ¾ÑĤÐ¸Ð²": 4992,
      "Ġpolitical": 4993,
      "ÐµÐ½Ð¸": 4994,
      "isl": 4995,
      "cken": 4996,
      "Ġversche": 4997,
      "ĠVerenigde": 4998,
      "abe": 4999,
      "ĠMiss": 5000,
      "Ġremp": 5001,
      "schen": 5002,
      "Ġbron": 5003,
      "Ġsug": 5004,
      "ĠChristian": 5005,
      "aller": 5006,
      "Ġzusammen": 5007,
      "Ġgep": 5008,
      "Chr": 5009,
      "ĠSol": 5010,
      "Ġencuent": 5011,
      "ĠÐ½Ð°ÑĩÐ°Ð»": 5012,
      "Ġbrand": 5013,
      "ĠMark": 5014,
      "ĠParty": 5015,
      "Ġ90": 5016,
      "bens": 5017,
      "Ġviel": 5018,
      "cte": 5019,
      "ĠMÃ¼n": 5020,
      "ĠMitglied": 5021,
      "idades": 5022,
      "Ġtermin": 5023,
      "Ġdann": 5024,
      "ccording": 5025,
      "ĠRot": 5026,
      "Ġpeu": 5027,
      "Als": 5028,
      "Ġbereits": 5029,
      "Ġsour": 5030,
      "ici": 5031,
      "ĠÑĩÐµÐ»Ð¾Ð²": 5032,
      "ĠCouncil": 5033,
      "Ġconv": 5034,
      "ospital": 5035,
      "Ġlive": 5036,
      "wing": 5037,
      "halb": 5038,
      "geben": 5039,
      "ÐµÐ½Ð¸Ð¹": 5040,
      "Ġmoder": 5041,
      "ĠSuper": 5042,
      "atief": 5043,
      "ĠFrankrijk": 5044,
      ".\"_": 5045,
      "Ġhaben": 5046,
      ".)": 5047,
      "Ġbete": 5048,
      "Ġround": 5049,
      "ware": 5050,
      "ĠÐ¿ÑĢÐ¾Ð´": 5051,
      "ĠÐ³Ð´Ðµ": 5052,
      "Ġlleg": 5053,
      "zie": 5054,
      "ĠVictor": 5055,
      "Ð¾ÑģÐ»Ðµ": 5056,
      "Ġdays": 5057,
      "ĠCap": 5058,
      "cu": 5059,
      "Ġinsp": 5060,
      "Ġtoege": 5061,
      "Ð»Ð¸Ñĩ": 5062,
      "Ġsou": 5063,
      "ample": 5064,
      "Ð·Ð°": 5065,
      "aign": 5066,
      "ror": 5067,
      "teen": 5068,
      "edig": 5069,
      "ĠMai": 5070,
      "ĠOper": 5071,
      "Ġoppervla": 5072,
      "Ġ1965": 5073,
      "cÃ©": 5074,
      "ĠtrÃ¨s": 5075,
      "wh": 5076,
      "Ġleeftijd": 5077,
      "ÑģÐºÐ¸Ðµ": 5078,
      "Ġihrer": 5079,
      "Ġpot": 5080,
      "ification": 5081,
      "Ġsho": 5082,
      "Ġnatuur": 5083,
      "Ġdefin": 5084,
      "ĠGemeinde": 5085,
      "ĠPrem": 5086,
      "lucht": 5087,
      "Ġbetre": 5088,
      "ĠFeder": 5089,
      "atic": 5090,
      "akte": 5091,
      "werpen": 5092,
      "Ġnord": 5093,
      "Ð²ÐµÑĢ": 5094,
      "Ð°Ð²ÑĪ": 5095,
      "ÑĮÑı": 5096,
      "Ġfab": 5097,
      "ĠFestival": 5098,
      "Ġgab": 5099,
      "pon": 5100,
      "ask": 5101,
      "abei": 5102,
      "cos": 5103,
      "ĠAmerica": 5104,
      "Ġsi": 5105,
      "aine": 5106,
      "ÑĨÐ°": 5107,
      "ÑĨÐ¸Ð¾Ð½": 5108,
      "arts": 5109,
      "ĠÐ¾ÑģÑĤ": 5110,
      "icial": 5111,
      "ĠLeg": 5112,
      "Ġrealiz": 5113,
      "Ġlangu": 5114,
      "azine": 5115,
      "ĠMic": 5116,
      "Ã¡t": 5117,
      "Ġcirc": 5118,
      "ĠÐ°Ð½": 5119,
      "Ġconne": 5120,
      "ĠJust": 5121,
      "ĠSing": 5122,
      "Amer": 5123,
      "Ġ/": 5124,
      "Ġsolo": 5125,
      "Ġsigned": 5126,
      "Ð»Ð°Ñģ": 5127,
      "olle": 5128,
      "Ð°ÑİÑī": 5129,
      "ĠTijdens": 5130,
      "Ġdiverse": 5131,
      "udeerde": 5132,
      "ÑĢÐ¾Ð¿": 5133,
      "atures": 5134,
      "Ġfueron": 5135,
      "ĠSÃ¼d": 5136,
      "ĠChe": 5137,
      "Ġmilitary": 5138,
      "ĠGru": 5139,
      "Ġmes": 5140,
      "Ġbijvoorbeeld": 5141,
      "ĠÐ·Ð°Ð½": 5142,
      "Ġcuando": 5143,
      "ikan": 5144,
      "laat": 5145,
      "Ġnoord": 5146,
      "Ġmiss": 5147,
      "ĠLab": 5148,
      "ĠCre": 5149,
      "war": 5150,
      "ĠHal": 5151,
      "Ġstaan": 5152,
      "riek": 5153,
      "Ġvolgende": 5154,
      "Ġtrat": 5155,
      "ĠSociety": 5156,
      "riff": 5157,
      "Ġpast": 5158,
      "ften": 5159,
      "Ġcant": 5160,
      "uh": 5161,
      "Ġofficial": 5162,
      "Ġcir": 5163,
      "cies": 5164,
      "Ġemploy": 5165,
      "ieg": 5166,
      "self": 5167,
      "zent": 5168,
      "Ġassoci": 5169,
      "ston": 5170,
      "Ġcentral": 5171,
      "uns": 5172,
      "ĠÐ¸Ñħ": 5173,
      "ĠGrund": 5174,
      "oney": 5175,
      "gelegen": 5176,
      "amiento": 5177,
      "Ġtimes": 5178,
      "odes": 5179,
      "ĠIsland": 5180,
      "Ġschreef": 5181,
      "Con": 5182,
      "ively": 5183,
      "ugar": 5184,
      "lang": 5185,
      "ĠNet": 5186,
      "Ġterwijl": 5187,
      "Ġrelations": 5188,
      "iest": 5189,
      "ision": 5190,
      "wel": 5191,
      "schrift": 5192,
      "ÑĥÐº": 5193,
      "Ġsport": 5194,
      "oi": 5195,
      "Ġgar": 5196,
      "ental": 5197,
      "eros": 5198,
      "Ġ1964": 5199,
      "icle": 5200,
      "Ġerhielt": 5201,
      "Ġdaugh": 5202,
      "ĠTex": 5203,
      "asc": 5204,
      "ĠÐłÐ¾ÑģÑģ": 5205,
      "ĠÑĥÑĩÐ°ÑģÑĤ": 5206,
      "Ġdisco": 5207,
      "Ġlost": 5208,
      "blic": 5209,
      "Ġanci": 5210,
      "Ġtout": 5211,
      "Ġschilder": 5212,
      "ĠHenry": 5213,
      "Ġmedia": 5214,
      "ĠÐµÑĳ": 5215,
      "rokken": 5216,
      "ĠÐĲÐ½": 5217,
      "Ġfus": 5218,
      "ĠÐĶÐ¶": 5219,
      "gebouw": 5220,
      "Ã¤chst": 5221,
      "ĠBur": 5222,
      "Ġopened": 5223,
      "Ġya": 5224,
      "Ġ500": 5225,
      "Ġroute": 5226,
      "ĠRecords": 5227,
      "Ġvele": 5228,
      "hi": 5229,
      "Ġvervolgens": 5230,
      "egt": 5231,
      "Ġplusieurs": 5232,
      "ĠSom": 5233,
      "ete": 5234,
      "pel": 5235,
      "gress": 5236,
      "Ġcompr": 5237,
      "Ġvolk": 5238,
      "atten": 5239,
      "Ġfull": 5240,
      "Ġtransport": 5241,
      "ĠÐ¿Ð¾Ð¼": 5242,
      "ĠVers": 5243,
      "ichts": 5244,
      "Ð½Ð¸ÐºÐ¾Ð²": 5245,
      "Ġrestaur": 5246,
      "adores": 5247,
      "leiding": 5248,
      "day": 5249,
      "malige": 5250,
      "Ġstar": 5251,
      "Ġprimera": 5252,
      "ither": 5253,
      "istersch": 5254,
      "Ġplat": 5255,
      "asser": 5256,
      "Ġservices": 5257,
      "Ġacqu": 5258,
      "Ġlaten": 5259,
      "ĠTV": 5260,
      "Ġwaaronder": 5261,
      "Ð¸ÑĤÑģÑı": 5262,
      "Ġmidden": 5263,
      "bers": 5264,
      "Ġfurther": 5265,
      "Ġobserv": 5266,
      "Ġstory": 5267,
      "mond": 5268,
      "Ġspre": 5269,
      "orthern": 5270,
      "Ġeducation": 5271,
      "Ġdomin": 5272,
      "Ġir": 5273,
      "Ġsterk": 5274,
      "ĠÐ´Ðµ": 5275,
      "Ġtoget": 5276,
      "90": 5277,
      "Ġtogether": 5278,
      "punt": 5279,
      "Ġworking": 5280,
      "zt": 5281,
      "ferred": 5282,
      "Ġ1946": 5283,
      "Ã±o": 5284,
      "Ġzelfs": 5285,
      "ological": 5286,
      "ĠJer": 5287,
      "liek": 5288,
      "ories": 5289,
      "Ġ1966": 5290,
      "Ġtie": 5291,
      "Ð¼ÐµÑģÑĤ": 5292,
      "ĠOktober": 5293,
      "loeg": 5294,
      "ĠÐ¾ÑģÐ½Ð¾Ð²": 5295,
      "onk": 5296,
      "Ġenerg": 5297,
      "igr": 5298,
      "Ġeran": 5299,
      "ising": 5300,
      "ĠâĢł": 5301,
      "Ġvolgde": 5302,
      "Ð¾Ð²Ð°Ð½Ð¸Ñı": 5303,
      "Ġhoe": 5304,
      "genwoord": 5305,
      "75": 5306,
      "Ġken": 5307,
      "iction": 5308,
      "Ġspr": 5309,
      "ÑĢÐ°Ñģ": 5310,
      "Ġproduced": 5311,
      "ĠÐ¾Ð±Ð»Ð°ÑģÑĤ": 5312,
      "des": 5313,
      "Ã©v": 5314,
      "ÐµÑī": 5315,
      "ĠKle": 5316,
      "Ġwife": 5317,
      "Ġdom": 5318,
      "ĠÑİ": 5319,
      "33": 5320,
      "Ġvot": 5321,
      "Ġfootball": 5322,
      "Ġgeld": 5323,
      "Ġcy": 5324,
      "Ġcivil": 5325,
      "ĠDat": 5326,
      "ĠLib": 5327,
      "Ġheute": 5328,
      "Ġgelijk": 5329,
      "Ġcours": 5330,
      "Ġvie": 5331,
      "dert": 5332,
      "ership": 5333,
      "ĠwÃ¤hrend": 5334,
      "Ġaver": 5335,
      "Hij": 5336,
      "Ġcondu": 5337,
      "ÃŃo": 5338,
      "ĠRom": 5339,
      "ably": 5340,
      "Ġweb": 5341,
      "Ġfond": 5342,
      "hold": 5343,
      "ÑĭÑĤ": 5344,
      "ĠAustralia": 5345,
      "Ġvlie": 5346,
      "ules": 5347,
      "ĠRen": 5348,
      "ĠProdu": 5349,
      "feld": 5350,
      "Ġ(\"": 5351,
      "ĠÐ¡ÑĤ": 5352,
      "Ġtourn": 5353,
      "Ġforces": 5354,
      "ĠCont": 5355,
      "Ġengine": 5356,
      "Ġgru": 5357,
      "ae": 5358,
      "ani": 5359,
      "astern": 5360,
      "hin": 5361,
      "orter": 5362,
      "atro": 5363,
      "ĠLaw": 5364,
      "Geografie": 5365,
      "ĠPre": 5366,
      "issance": 5367,
      "Ġcit": 5368,
      "ĠâĢĺ": 5369,
      "Ġpel": 5370,
      ");": 5371,
      "ÐµÑģÑģ": 5372,
      "ĠTechn": 5373,
      "Ã¨me": 5374,
      "Ġcompon": 5375,
      "Ġzouden": 5376,
      "ĠIV": 5377,
      "rief": 5378,
      "hard": 5379,
      "amment": 5380,
      "Ã¤ng": 5381,
      "ismo": 5382,
      "ishing": 5383,
      "ĠBelgiÃ«": 5384,
      "bild": 5385,
      "year": 5386,
      "Ġappeared": 5387,
      "ÐµÐ´Ð¸Ð½": 5388,
      "Leben": 5389,
      "Ġ178": 5390,
      "Ġdepuis": 5391,
      "urz": 5392,
      "Ġteach": 5393,
      "Ġpil": 5394,
      "ÃŃcul": 5395,
      "Ġcop": 5396,
      "grund": 5397,
      "Ġappointed": 5398,
      "Ġhimself": 5399,
      "Ġwedstrijd": 5400,
      "Ġarg": 5401,
      "Ã´t": 5402,
      "uff": 5403,
      "ĠAp": 5404,
      "Ġreger": 5405,
      "adre": 5406,
      "imo": 5407,
      "ĠChic": 5408,
      "kant": 5409,
      "schaften": 5410,
      "fte": 5411,
      "Ġview": 5412,
      "ĠLin": 5413,
      "Ð¼Ñĥ": 5414,
      "Ġdienst": 5415,
      "Ġsout": 5416,
      "ĠÑĩÐµÐ»Ð¾Ð²ÐµÐº": 5417,
      "Ð½Ð¸ÐºÐ°": 5418,
      "Ġproper": 5419,
      "Ð¸Ð½Ð³": 5420,
      "Ð¾Ð³ÑĢÐ°ÑĦÐ¸Ñı": 5421,
      "At": 5422,
      "ĠÑģÐµÐ¼": 5423,
      "ground": 5424,
      "uciÃ³n": 5425,
      "enk": 5426,
      "Ġobject": 5427,
      "Ġ1963": 5428,
      "ĠWerk": 5429,
      "Ġ45": 5430,
      "Ġcoach": 5431,
      "Ġmor": 5432,
      "Ġrock": 5433,
      "film": 5434,
      "Ð»ÑĥÐ±": 5435,
      "Ġorigin": 5436,
      "apel": 5437,
      "Ð°ÑĢÑı": 5438,
      "ĠCenter": 5439,
      "Ġgroupe": 5440,
      "Ġcolla": 5441,
      "enta": 5442,
      "ĠÐ¸Ð³": 5443,
      "48": 5444,
      "ĠCam": 5445,
      "Å¡": 5446,
      "Ġrapp": 5447,
      "ĠProfess": 5448,
      "ĠGroup": 5449,
      "ĠProvin": 5450,
      "ĠYou": 5451,
      "Ġright": 5452,
      "fang": 5453,
      "ÐµÑĢÐµÐ²": 5454,
      "ĠKirche": 5455,
      "iÄĩ": 5456,
      "Ġyou": 5457,
      "ellow": 5458,
      "onia": 5459,
      "Ġhuidige": 5460,
      "Ġgan": 5461,
      "Ð¾Ð»Ð½": 5462,
      "Ð¾ÑģÑĥÐ´": 5463,
      "Ġ1948": 5464,
      "Ġllam": 5465,
      "AC": 5466,
      "Ġpob": 5467,
      "Ġpunt": 5468,
      "Ġvroeg": 5469,
      "ĠEuropese": 5470,
      "Ġbestaande": 5471,
      "ĠWith": 5472,
      "ĠestÃ¡": 5473,
      "ĠÐ³ÑĢÑĥÐ¿Ð¿": 5474,
      "falls": 5475,
      "ĠAan": 5476,
      "Ġ1962": 5477,
      "Ġstyle": 5478,
      "iÃ¨res": 5479,
      "ĠJuli": 5480,
      "ĠÐ¸ÑģÐ¿Ð¾Ð»ÑĮÐ·": 5481,
      "ÑĢÐ¾Ñģ": 5482,
      "Ġerfolg": 5483,
      "Ġcond": 5484,
      "Ġless": 5485,
      "Ġhit": 5486,
      "ĠOrt": 5487,
      "isation": 5488,
      "ĠÃ©p": 5489,
      "itten": 5490,
      "ÅĤ": 5491,
      "aines": 5492,
      "ĠSin": 5493,
      "ĠÐºÐ¾ÑĤÐ¾ÑĢÑĭÐ¹": 5494,
      "ĠInstitute": 5495,
      "Ġinte": 5496,
      "ĠKunst": 5497,
      "Ð¸ÑĪ": 5498,
      "ĠFlor": 5499,
      "ÐµÐ¹ÑģÑĤÐ²": 5500,
      "eta": 5501,
      "Ġprom": 5502,
      "cep": 5503,
      "mas": 5504,
      "ĠChinese": 5505,
      "ĠÐ²ÑĭÐ¿": 5506,
      "Ġcomplex": 5507,
      "Ġmort": 5508,
      "udes": 5509,
      "Ġexperien": 5510,
      "ĠOt": 5511,
      "vention": 5512,
      "Ġsw": 5513,
      "ending": 5514,
      "Ġconsidered": 5515,
      "ĠEmp": 5516,
      "Ġpark": 5517,
      "ĠRoad": 5518,
      "Ġcle": 5519,
      "ĠJanuar": 5520,
      "Ġvij": 5521,
      "ÑıÐ²": 5522,
      "Ġ1938": 5523,
      "Ġforma": 5524,
      "ĠMÃ¤rz": 5525,
      "Ġkwamen": 5526,
      "Ġtaken": 5527,
      "Ġmusical": 5528,
      "Ġcandid": 5529,
      "Ġsans": 5530,
      "Ġvict": 5531,
      "igu": 5532,
      "Ġeindigde": 5533,
      "ielte": 5534,
      "ourg": 5535,
      "ÑĭÑĪ": 5536,
      "ĠnÃ©": 5537,
      "Ġgevolg": 5538,
      "Ġnouve": 5539,
      "ĠmÃ©": 5540,
      "Ð¾Ð¶Ð´": 5541,
      "illo": 5542,
      "ases": 5543,
      "Ġinvestig": 5544,
      "ĠÐ¿Ð¾Ð²": 5545,
      "Ġspecies": 5546,
      "Ġlevel": 5547,
      "Ġsecret": 5548,
      "Ġdessen": 5549,
      "aul": 5550,
      "ittee": 5551,
      "38": 5552,
      "ĠDre": 5553,
      "ÐµÐ½Ð¸Ñİ": 5554,
      "deren": 5555,
      "ÑĢÑĥÐ´": 5556,
      "ĠFer": 5557,
      "ĠOs": 5558,
      "âĢ¦": 5559,
      "Euro": 5560,
      "roy": 5561,
      "Ð¸ÐµÐ¹": 5562,
      "zaam": 5563,
      "Ġelection": 5564,
      "Ġprotest": 5565,
      "ĠMount": 5566,
      "Ġess": 5567,
      "ografÃŃa": 5568,
      "Ġarbeit": 5569,
      "Ġotros": 5570,
      "luss": 5571,
      "acy": 5572,
      "ĠIndian": 5573,
      "36": 5574,
      "istes": 5575,
      "Ġmismo": 5576,
      "Ã¶ÃŁ": 5577,
      "Ġmiljoen": 5578,
      "rea": 5579,
      "ĠSaison": 5580,
      "Ġhen": 5581,
      "hank": 5582,
      "ĠSon": 5583,
      "Ġreported": 5584,
      "Ġ1958": 5585,
      "ĠRepublic": 5586,
      "cription": 5587,
      "Ġliet": 5588,
      "chs": 5589,
      "ĠSeg": 5590,
      "ĠMitt": 5591,
      "quently": 5592,
      "ship": 5593,
      "ĠÐĿÐ°": 5594,
      "ĠÐ½Ð°ÑħÐ¾Ð´": 5595,
      "ÐµÐ²ÐµÑĢ": 5596,
      "Ġmeeste": 5597,
      "igent": 5598,
      "ÑĨÐ¸Ñı": 5599,
      "othe": 5600,
      "Ġcontinu": 5601,
      ",âĢĭ": 5602,
      "ĠHans": 5603,
      "Ġmark": 5604,
      "Ġsort": 5605,
      "ĠCe": 5606,
      "ĠgÃ©nÃ©ral": 5607,
      "chsel": 5608,
      "Ġpersonal": 5609,
      "Ġmaking": 5610,
      "Ġfois": 5611,
      "Ġsat": 5612,
      "ĠPan": 5613,
      "Ġdescribed": 5614,
      "Ġreb": 5615,
      "Ġfer": 5616,
      "utsche": 5617,
      "Ð¸ÑģÐº": 5618,
      "ĠVen": 5619,
      "vision": 5620,
      "ahm": 5621,
      "Ġvinden": 5622,
      "itch": 5623,
      "idelijk": 5624,
      "imin": 5625,
      "ĠDepart": 5626,
      "Ġ1961": 5627,
      "Ãªte": 5628,
      "Ġbijn": 5629,
      "ĠZu": 5630,
      "Ġ1918": 5631,
      "ĠFol": 5632,
      "ĠVolks": 5633,
      "Ġonts": 5634,
      "ÐºÐ¾Ð»": 5635,
      "Ġtras": 5636,
      "Ġoffice": 5637,
      "Ð¾Ð²Ð°": 5638,
      "ands": 5639,
      "Ġdiesem": 5640,
      "itive": 5641,
      "Ġpod": 5642,
      "ĠÑįÑĤÐ¾": 5643,
      "ĠÑĥÑģÑĤ": 5644,
      "Ġtrava": 5645,
      "ĠNederlands": 5646,
      "verd": 5647,
      "ĠRadio": 5648,
      "rice": 5649,
      "etting": 5650,
      "riv": 5651,
      "ĠDis": 5652,
      "ĠAngeles": 5653,
      "Ð¨": 5654,
      "Ġpays": 5655,
      "zember": 5656,
      "win": 5657,
      "Ġelekt": 5658,
      "ennis": 5659,
      "Ġfounded": 5660,
      "Ġrelease": 5661,
      "ÐµÐ½Ð½Ð¾": 5662,
      "ĠBut": 5663,
      "ĠÐ¾Ð±ÑĬ": 5664,
      "ÑĳÑĢ": 5665,
      "Ġgleich": 5666,
      "Ġinternationale": 5667,
      "Ġfoc": 5668,
      "ĠKarl": 5669,
      "Ġafge": 5670,
      "Ġhard": 5671,
      "tres": 5672,
      "ĠGold": 5673,
      "ĠPo": 5674,
      "inding": 5675,
      "Ġstop": 5676,
      "zu": 5677,
      "Ġjud": 5678,
      "cup": 5679,
      "ĠÑĤÐµÑĢ": 5680,
      "Ð°ÑĨÐ¸Ð¸": 5681,
      "Ġalc": 5682,
      "abeth": 5683,
      "neur": 5684,
      "Ġbrit": 5685,
      "ÑģÐºÐ¸Ð¼": 5686,
      "Ġgede": 5687,
      "Ġstudeerde": 5688,
      "ĠÐ²ÑĭÑģ": 5689,
      "stellung": 5690,
      "unÃ¤chst": 5691,
      "esp": 5692,
      "Ġneed": 5693,
      "37": 5694,
      "ecut": 5695,
      "oger": 5696,
      "ĠGreen": 5697,
      "Ġenf": 5698,
      "Ġestud": 5699,
      "Ġdeed": 5700,
      "dete": 5701,
      "ĠÑģÐ¾Ð·Ð´": 5702,
      "Ġdochter": 5703,
      "NA": 5704,
      "Ġstem": 5705,
      "Ġspelen": 5706,
      "Ġperm": 5707,
      "wijs": 5708,
      "Ġpolic": 5709,
      "Ġcel": 5710,
      "ieken": 5711,
      "ye": 5712,
      "anning": 5713,
      "ĠWhite": 5714,
      "ĠSmith": 5715,
      "Ġparty": 5716,
      ")_": 5717,
      "Ã¶ffent": 5718,
      "ĠCro": 5719,
      "steem": 5720,
      "osoph": 5721,
      "ĠCarol": 5722,
      "bere": 5723,
      "Ð¾ÑģÑĥÐ´Ð°ÑĢ": 5724,
      "Ġothers": 5725,
      "Ġplayer": 5726,
      "helm": 5727,
      "ĠDistrict": 5728,
      "44": 5729,
      "unn": 5730,
      "Ġpsych": 5731,
      "ĠKrieg": 5732,
      "ÐµÐ½Ð¾": 5733,
      "Ġ1956": 5734,
      "ently": 5735,
      "Ġareas": 5736,
      "col": 5737,
      "ĠDuitsland": 5738,
      "Ġ1947": 5739,
      "Ġkant": 5740,
      "Ġimpro": 5741,
      "ways": 5742,
      "Ġrap": 5743,
      "eil": 5744,
      "mals": 5745,
      "Ġredu": 5746,
      "ĠCourt": 5747,
      "Ġleiding": 5748,
      "staande": 5749,
      "ump": 5750,
      "oute": 5751,
      "Ġmiles": 5752,
      "Ġ1933": 5753,
      "Ġoppervlakte": 5754,
      "Ġteil": 5755,
      "Ġvern": 5756,
      "aÃ±a": 5757,
      "Ġwilde": 5758,
      "39": 5759,
      "vier": 5760,
      "hu": 5761,
      "FA": 5762,
      "Ġnemen": 5763,
      "bt": 5764,
      "illem": 5765,
      "Ġents": 5766,
      "Early": 5767,
      "Ġbank": 5768,
      "Ġpaint": 5769,
      "lacht": 5770,
      "zi": 5771,
      "ÑģÐºÐ¾Ðµ": 5772,
      "Ġcapital": 5773,
      "Ġavait": 5774,
      "Ġhold": 5775,
      "ĠMur": 5776,
      "ĠChicago": 5777,
      "ĠCD": 5778,
      "ĠCentral": 5779,
      "ĠAcademy": 5780,
      "Ġautor": 5781,
      "Ġsuiv": 5782,
      "ĠConf": 5783,
      "ĠÐ²Ð¸Ð´": 5784,
      "ĠkÃ¶nnen": 5785,
      "Ġlanden": 5786,
      "Ġoccup": 5787,
      "ached": 5788,
      "issenschaft": 5789,
      "Ġformed": 5790,
      "ĠÐ¿ÑĢÐµÐ´ÑģÑĤÐ°Ð²": 5791,
      "iÃ«n": 5792,
      "ĠSil": 5793,
      "ĠGuer": 5794,
      "66": 5795,
      "chel": 5796,
      "face": 5797,
      "Ġsud": 5798,
      "Ġorganiz": 5799,
      "ĠBerg": 5800,
      "Ġcase": 5801,
      "Ġcentre": 5802,
      "Ġnever": 5803,
      "Ð°ÑĢÑĮ": 5804,
      "Ð¾ÑĪ": 5805,
      "Ġfu": 5806,
      "Ġground": 5807,
      "Ġing": 5808,
      "itu": 5809,
      "Ġhow": 5810,
      "ĠAth": 5811,
      "ĠdÃ©but": 5812,
      "Ã©ro": 5813,
      "Ġvolgens": 5814,
      "lock": 5815,
      "Ġ1959": 5816,
      "Ġdepart": 5817,
      "istas": 5818,
      "Ġcele": 5819,
      "Ġgave": 5820,
      "Ð½Ð°ÐºÐ¾": 5821,
      "Ġshould": 5822,
      "bit": 5823,
      "Ġaand": 5824,
      "ĠCanad": 5825,
      "Ġcorresp": 5826,
      "47": 5827,
      "ernooi": 5828,
      "Ġdeter": 5829,
      "Ġrijk": 5830,
      "ĠÐ¼Ð½": 5831,
      "Ġgebe": 5832,
      "Ġface": 5833,
      "ÑıÑī": 5834,
      "ĠKonink": 5835,
      "Ġtek": 5836,
      "Ġbody": 5837,
      "Ġfight": 5838,
      "Ġdoes": 5839,
      "Ġminist": 5840,
      "ĠÐ·Ð°Ð¼": 5841,
      "Ð¸ÑĩÐµÑģÐºÐ¾Ð¹": 5842,
      "Ġfire": 5843,
      "Ġcapac": 5844,
      "Ġcross": 5845,
      "ĠBei": 5846,
      "Ġmother": 5847,
      "Ġtraining": 5848,
      "ĠDeutschland": 5849,
      "Ã©qu": 5850,
      "dra": 5851,
      "ĠÐ¿Ð¾Ð¿": 5852,
      "Ġembar": 5853,
      "Ġerg": 5854,
      "Histor": 5855,
      "Geschichte": 5856,
      "Ġmur": 5857,
      "Ġ1949": 5858,
      "ionen": 5859,
      "ĠÑĢÐ°Ñģ": 5860,
      "Ġcampaign": 5861,
      "Ġol": 5862,
      "ĠStar": 5863,
      "Ġdorp": 5864,
      "ĠPla": 5865,
      "rig": 5866,
      "Ð¾Ð»Ð¾Ð¶": 5867,
      "Ġexample": 5868,
      "Cl": 5869,
      "hne": 5870,
      "Ġverlie": 5871,
      "ĠFrans": 5872,
      "kn": 5873,
      "Ġalthough": 5874,
      "Ġburg": 5875,
      "Ð²ÐµÑģÑĤ": 5876,
      "ĠPlatz": 5877,
      "ĠÑĢÐ¾Ð´": 5878,
      "kk": 5879,
      "Ġvez": 5880,
      "Ġdeveloped": 5881,
      "Ġbestaan": 5882,
      "Ġbelangrijke": 5883,
      "Ġenviron": 5884,
      "icus": 5885,
      "oke": 5886,
      "Ġelement": 5887,
      "ĠCas": 5888,
      "ĠUniversitÃ¤t": 5889,
      "Ġsuccessful": 5890,
      "ĠHaus": 5891,
      "ĠDam": 5892,
      "Ġot": 5893,
      ".âĢĭâĢĭ": 5894,
      "ĠPortug": 5895,
      "halt": 5896,
      "ĠUniversiteit": 5897,
      "stead": 5898,
      "ail": 5899,
      "Ġelected": 5900,
      "ducation": 5901,
      "ĠHÃ¶": 5902,
      "rain": 5903,
      "Ġgevangen": 5904,
      "Ġpartij": 5905,
      "ova": 5906,
      "Ġselbst": 5907,
      "Ġball": 5908,
      "ichtet": 5909,
      "Ġstrat": 5910,
      "Ġtiene": 5911,
      "Ġteams": 5912,
      "arios": 5913,
      "comp": 5914,
      "Ð²Ð¾Ð»": 5915,
      "Ġstrong": 5916,
      "ĠFÃ¼r": 5917,
      "Ġpur": 5918,
      "34": 5919,
      "ĠAv": 5920,
      "Ġaway": 5921,
      "Ã¤nger": 5922,
      "most": 5923,
      "iteiten": 5924,
      "Ġwen": 5925,
      "Ġay": 5926,
      "ĠOver": 5927,
      "Ġ1957": 5928,
      "ĠNic": 5929,
      "kw": 5930,
      "Ġmeestal": 5931,
      "grond": 5932,
      "Ġmotor": 5933,
      "idas": 5934,
      "ought": 5935,
      "Ð»Ð¸Ð½": 5936,
      "ĠSpr": 5937,
      "Ġ1936": 5938,
      "Ð¸ÑģÑģ": 5939,
      "Ġzodat": 5940,
      "Ġ1954": 5941,
      "ÑĨÐµÐ²": 5942,
      "ĠLo": 5943,
      "Ġcontr": 5944,
      "ÐºÐ¾Ð¼": 5945,
      "ĠHong": 5946,
      "Ġindividu": 5947,
      "osa": 5948,
      "ĠKap": 5949,
      "ĠLim": 5950,
      "peeld": 5951,
      "Ġjong": 5952,
      "Ã©ra": 5953,
      "Ġ1919": 5954,
      "Ð¾Ð²Ð°Ð½Ð¸Ðµ": 5955,
      "houd": 5956,
      "ĠTown": 5957,
      "Ġregular": 5958,
      "Ġmoeder": 5959,
      "uman": 5960,
      "sterreich": 5961,
      "ĠdÃ©s": 5962,
      "Ġaanwe": 5963,
      "Ġperman": 5964,
      "ĠTru": 5965,
      "rs": 5966,
      "Ġperformance": 5967,
      "Ġmonths": 5968,
      "ĠVanaf": 5969,
      "ÐµÑĢÑĤ": 5970,
      "ĠVert": 5971,
      "Ġpress": 5972,
      "Ġbren": 5973,
      "ÐºÐ¾Ð¹": 5974,
      "ĠLi": 5975,
      "stal": 5976,
      "ĠFrancisco": 5977,
      "Ð¾Ñħ": 5978,
      "Ġmarket": 5979,
      "ationaal": 5980,
      "ĠÐ¼ÐµÐ¶Ð´": 5981,
      "Ġautom": 5982,
      "Ġpolice": 5983,
      "Ġonce": 5984,
      "Ġavail": 5985,
      "Ġverv": 5986,
      "ĠGew": 5987,
      "oming": 5988,
      "Ð¸Ð²ÑĪ": 5989,
      "Ð¡Ðł": 5990,
      "ĠMass": 5991,
      "Ã±a": 5992,
      "die": 5993,
      "Ġlow": 5994,
      "Ġable": 5995,
      "ĠHoch": 5996,
      "Ġblack": 5997,
      "Ġsurv": 5998,
      "Ġactief": 5999,
      "zy": 6000,
      "inet": 6001,
      "31": 6002,
      "ĠArgent": 6003,
      "ĠDezember": 6004,
      "ĠSanta": 6005,
      "Ġej": 6006,
      "ĠToen": 6007,
      "aka": 6008,
      "Ġaccess": 6009,
      "igung": 6010,
      "Ġletz": 6011,
      "Ġmaakt": 6012,
      "Ġleden": 6013,
      "ĠMidd": 6014,
      "Ġ1955": 6015,
      "ÑıÐ±ÑĢÑı": 6016,
      "Ġreci": 6017,
      "elo": 6018,
      "Ġmaxim": 6019,
      "Ã¶glich": 6020,
      "ĠAz": 6021,
      "velle": 6022,
      "Ad": 6023,
      "ĠStand": 6024,
      "Ġmilitaire": 6025,
      "Ġgroe": 6026,
      "ĠÐ¿ÑĢÐ¾Ð¸Ð·Ð²": 6027,
      "ĠBos": 6028,
      "ĠÃľber": 6029,
      "ension": 6030,
      "ĠJuan": 6031,
      "dens": 6032,
      "ĠBal": 6033,
      "ĠÐ¦": 6034,
      "Ġfree": 6035,
      "Ġdaughter": 6036,
      "Ġpromo": 6037,
      "Ġtoont": 6038,
      "32": 6039,
      "Ġcro": 6040,
      "Ġtrouw": 6041,
      "auw": 6042,
      "Ġagre": 6043,
      "Ãºblic": 6044,
      "iders": 6045,
      "Je": 6046,
      "Ð¾Ð½Ð¾Ð¼": 6047,
      "schappen": 6048,
      "Ġbeeld": 6049,
      "Ġdiffic": 6050,
      "Ġput": 6051,
      "Ġrecorded": 6052,
      "Ġvanuit": 6053,
      "ĠScott": 6054,
      "ĠÑĩÐ¸Ñģ": 6055,
      "ĠBurg": 6056,
      "ĠKaas": 6057,
      "rak": 6058,
      "zeichnet": 6059,
      "46": 6060,
      "eens": 6061,
      "ĠÅ": 6062,
      "Ġdoen": 6063,
      "Ġmuy": 6064,
      "Ġ1952": 6065,
      "Ġwritten": 6066,
      "Ġ1953": 6067,
      "Ġdezelfde": 6068,
      "Ġcontro": 6069,
      "ĠHaar": 6070,
      "ĠLie": 6071,
      "ĠÐ»Ñİ": 6072,
      "TV": 6073,
      "Ġtoeg": 6074,
      "Ġliber": 6075,
      "ÐµÐ¼Ð¿Ð¸Ð¾Ð½": 6076,
      "Ġcourt": 6077,
      "Ġtrop": 6078,
      "Ġdipl": 6079,
      "nehmen": 6080,
      "Ġremained": 6081,
      "ĠÐ½Ð°Ð·Ð²": 6082,
      "Ġlaun": 6083,
      "Ġvisit": 6084,
      "ĠÐ¯": 6085,
      "schlieÃŁ": 6086,
      "Ġlight": 6087,
      "Ð¾Ð±Ñĭ": 6088,
      "ĠArab": 6089,
      "Ġappar": 6090,
      "Ġfollowed": 6091,
      "ismus": 6092,
      "ĠKre": 6093,
      "ĠÐ³Ð»Ð°Ð²": 6094,
      "Ġ1937": 6095,
      "Ð¿Ð¸Ñģ": 6096,
      "ribution": 6097,
      "iaanse": 6098,
      "urb": 6099,
      "ĠÐ¿Ð¾Ð·": 6100,
      "chester": 6101,
      "Ġdivis": 6102,
      "ĠSar": 6103,
      "Ġcolon": 6104,
      "Ġaltern": 6105,
      "Ġinstall": 6106,
      "Ġacross": 6107,
      "ĠAlf": 6108,
      "ĠMusik": 6109,
      "ĠTeam": 6110,
      "Ġlangs": 6111,
      "ĠTs": 6112,
      "Ġtemps": 6113,
      "ĠGroÃŁ": 6114,
      "Ġsuite": 6115,
      "sm": 6116,
      "Ġplaying": 6117,
      "Ã¤uf": 6118,
      "ellschaft": 6119,
      "Ġabsol": 6120,
      "Ġliving": 6121,
      "zitter": 6122,
      "ĠBelgische": 6123,
      "Ġsymb": 6124,
      "Ġquel": 6125,
      "ĠBank": 6126,
      "Ġwij": 6127,
      "Ġconflic": 6128,
      "Ġsens": 6129,
      "Ġspoor": 6130,
      "ĠÑĢÐµÐ·": 6131,
      "Ġ150": 6132,
      "endo": 6133,
      "schijn": 6134,
      "Ġhuw": 6135,
      "Ġaverage": 6136,
      "Ġmonde": 6137,
      "Ġmuseum": 6138,
      "Ġphot": 6139,
      "ĠDur": 6140,
      "Ġextens": 6141,
      "pret": 6142,
      "Ġsuggest": 6143,
      "reen": 6144,
      "water": 6145,
      "Ġactual": 6146,
      "Ġtiemp": 6147,
      "Ġattempt": 6148,
      "ĠTal": 6149,
      "Ġtext": 6150,
      "ĠMel": 6151,
      "Ġconoc": 6152,
      "ĠDiese": 6153,
      "Ġpen": 6154,
      "Ãºs": 6155,
      "Ġmoeten": 6156,
      "Ġbelie": 6157,
      "Ġexpos": 6158,
      "igned": 6159,
      "Volgens": 6160,
      "ĠÐ´Ð¾Ð¼": 6161,
      "ĠBritse": 6162,
      "Ġmond": 6163,
      "ĠArts": 6164,
      "ĠKo": 6165,
      "49": 6166,
      "walt": 6167,
      "ibli": 6168,
      "tere": 6169,
      "schule": 6170,
      "ĠMilit": 6171,
      "Ġwind": 6172,
      "bei": 6173,
      "Ġkonden": 6174,
      "lossen": 6175,
      "ĠBere": 6176,
      "Ã¨res": 6177,
      "Ġjeugd": 6178,
      "veren": 6179,
      "ĠSohn": 6180,
      "ky": 6181,
      "Ð³Ð¾Ð´": 6182,
      "ĠLang": 6183,
      "ÑĥÑīÐµÑģÑĤÐ²": 6184,
      "mers": 6185,
      "ationen": 6186,
      "zijde": 6187,
      "Ġontde": 6188,
      "ĠÐ²Ñģ": 6189,
      "Ġjur": 6190,
      "Ġquest": 6191,
      "ÑĢÐµÐ½": 6192,
      "Ġbomb": 6193,
      "wedst": 6194,
      "Ġopgenomen": 6195,
      "aya": 6196,
      "Ġbracht": 6197,
      ",\"": 6198,
      "ĠOost": 6199,
      "ĠFrom": 6200,
      "Ġsup": 6201,
      "Ġbevol": 6202,
      "ÑĥÐ±Ð»": 6203,
      "Ab": 6204,
      "Ġstatt": 6205,
      "ĠÑĢÐ°Ð·Ð²": 6206,
      "ĠÑĥÐ½": 6207,
      "Ã¼rger": 6208,
      "Ġutilis": 6209,
      "ĠÑĤÐ¾Ð¼": 6210,
      "ienst": 6211,
      "iar": 6212,
      "Ġgeven": 6213,
      "Ġuno": 6214,
      "ello": 6215,
      "eding": 6216,
      "ĠÐ¾ÑĢÐ³Ð°Ð½": 6217,
      "Ġverschieden": 6218,
      "ĠNap": 6219,
      "ĠÐ±Ð¾Ð»ÐµÐµ": 6220,
      "Ã¤ft": 6221,
      "Ġvrouwen": 6222,
      "ĠKinder": 6223,
      "unes": 6224,
      "Ġvertro": 6225,
      "ila": 6226,
      "ĠOpen": 6227,
      "Ġersch": 6228,
      "ĠÐ®": 6229,
      "Ġconcern": 6230,
      "Biografie": 6231,
      "Ġeast": 6232,
      "teurs": 6233,
      "Ð°ÑĢÐ´": 6234,
      "uela": 6235,
      "ĠJahrhundert": 6236,
      "Ġvanwege": 6237,
      "Ð¾Ð½Ðµ": 6238,
      "kampioenschap": 6239,
      "ilities": 6240,
      "zug": 6241,
      "Ġbekannt": 6242,
      "Ġext": 6243,
      "Ġlucht": 6244,
      "Ġstuk": 6245,
      "chest": 6246,
      "ĠAnn": 6247,
      "65": 6248,
      "bew": 6249,
      "ÑģÐ¾Ð²": 6250,
      "ĠLandes": 6251,
      "ĠLy": 6252,
      "ĠÐ´ÐµÑĢÐµÐ²": 6253,
      "ultur": 6254,
      "Ð½Ð¸Ð¼": 6255,
      "ulo": 6256,
      "Ġpossible": 6257,
      "Ġmeth": 6258,
      "Ġcommen": 6259,
      "Ġtelevision": 6260,
      "atte": 6261,
      "leven": 6262,
      "Ġeerder": 6263,
      "idente": 6264,
      "istan": 6265,
      "mont": 6266,
      "ĠzunÃ¤chst": 6267,
      "Ġverand": 6268,
      "Ð¸Ð°Ð»": 6269,
      "Ġgood": 6270,
      "wegen": 6271,
      "Ġcompleted": 6272,
      "Ġcommune": 6273,
      "Ġ65": 6274,
      "Ġlin": 6275,
      "Ġespa": 6276,
      "Ġverscheen": 6277,
      "Ð¾ÑģÑĤÐ¸": 6278,
      "Ġculture": 6279,
      "lauf": 6280,
      "Ġdre": 6281,
      "utter": 6282,
      "unque": 6283,
      "Ġautres": 6284,
      "ĠPlay": 6285,
      "less": 6286,
      "ĠÑĤÐ¾": 6287,
      "Ġtent": 6288,
      "Ġprison": 6289,
      "Ġforce": 6290,
      "fÃ¼": 6291,
      "Ġdig": 6292,
      "Ġinn": 6293,
      "asteel": 6294,
      "ĠÐ¸ÑģÑĤÐ¾ÑĢ": 6295,
      "Ġricht": 6296,
      "Ġzeven": 6297,
      "Ġaltijd": 6298,
      "nst": 6299,
      "ĠFriedrich": 6300,
      "Ġtax": 6301,
      "wig": 6302,
      "rence": 6303,
      "Ġbroad": 6304,
      "rel": 6305,
      "Ġjug": 6306,
      "Ġalgun": 6307,
      "iev": 6308,
      "unda": 6309,
      "Ġwaarna": 6310,
      "Ġperformed": 6311,
      "lit": 6312,
      "oca": 6313,
      "ĠÐºÐ¾Ð½ÑĨ": 6314,
      "Ã³r": 6315,
      "Ġtres": 6316,
      "Ġmust": 6317,
      "Ġleurs": 6318,
      "Ne": 6319,
      "Ġerw": 6320,
      "aug": 6321,
      "erden": 6322,
      "demÃ¡s": 6323,
      "'.": 6324,
      "Ġnaast": 6325,
      "krieg": 6326,
      "Ġmacht": 6327,
      "anen": 6328,
      "Ġindustri": 6329,
      "Ġcomple": 6330,
      "Ġlok": 6331,
      "Ġgrande": 6332,
      "rÃ³": 6333,
      "Ġnotamment": 6334,
      "ĠAlexander": 6335,
      "ept": 6336,
      "Ġbehaalde": 6337,
      "ĠÐ´Ð¾ÑģÑĤ": 6338,
      "dag": 6339,
      "Ã©ration": 6340,
      "Ġgezien": 6341,
      "rieben": 6342,
      "Ġconcent": 6343,
      "eel": 6344,
      "Ġanal": 6345,
      "Ġdamit": 6346,
      "Ġnadat": 6347,
      "ĠBul": 6348,
      "Ġexc": 6349,
      "emt": 6350,
      "Ġgeworden": 6351,
      "ĠGreat": 6352,
      "Ġfeder": 6353,
      "benfalls": 6354,
      "ators": 6355,
      "illet": 6356,
      "agon": 6357,
      "Ġsomm": 6358,
      "atter": 6359,
      "icher": 6360,
      "lied": 6361,
      "kehr": 6362,
      "Ġdram": 6363,
      "Ġfest": 6364,
      "Ġgeweest": 6365,
      "Ġklass": 6366,
      "ĠSir": 6367,
      "Ġprivate": 6368,
      "Ġbal": 6369,
      "Ġlink": 6370,
      "ĠStaats": 6371,
      "ĠÃºlt": 6372,
      "ĠBruss": 6373,
      "ĠPolit": 6374,
      "ĠmÃ©d": 6375,
      "ifs": 6376,
      "ĠSand": 6377,
      "ĠPap": 6378,
      "Ġeventually": 6379,
      "ciones": 6380,
      "Ġtrack": 6381,
      "Ġgibt": 6382,
      "ĠDepartment": 6383,
      "Ð³Ð»": 6384,
      "ugen": 6385,
      "ential": 6386,
      "SC": 6387,
      "baan": 6388,
      "ĠFirst": 6389,
      "pendent": 6390,
      "iament": 6391,
      "ÃŃst": 6392,
      "Ð°ÑĤÐ°": 6393,
      "ested": 6394,
      "ĠBol": 6395,
      "ÑĤÑĮ": 6396,
      "Ġ1914": 6397,
      "album": 6398,
      "ĠasÃŃ": 6399,
      "Ġaband": 6400,
      "empl": 6401,
      "ĠTop": 6402,
      "ierno": 6403,
      "Ð·Ñĭ": 6404,
      "Ġcha": 6405,
      "ĠHend": 6406,
      "Ã©ric": 6407,
      "ĠDay": 6408,
      "ĠMid": 6409,
      "ĠRam": 6410,
      "head": 6411,
      "Äģ": 6412,
      "ĠVirgin": 6413,
      "ĠHor": 6414,
      "Ġfaire": 6415,
      "ĠApp": 6416,
      "rar": 6417,
      "igte": 6418,
      "Ġregering": 6419,
      "Ã¤hn": 6420,
      "Ġbrother": 6421,
      "Ġconsist": 6422,
      "Ġroad": 6423,
      "zil": 6424,
      "42": 6425,
      "Ġdagen": 6426,
      "Ã¤ude": 6427,
      "Ġtrib": 6428,
      "umn": 6429,
      "Ġsehr": 6430,
      "Ġpay": 6431,
      "straÃŁe": 6432,
      "Ġavailable": 6433,
      "Ġaccept": 6434,
      "Ġwaarmee": 6435,
      "Ġvastgesteld": 6436,
      "Ġavoir": 6437,
      "ught": 6438,
      "Ġbegann": 6439,
      "Ġfavor": 6440,
      "SA": 6441,
      "Ð¸ÑĩÐµÑģÐºÐ¸Ñħ": 6442,
      "Ġverloren": 6443,
      "Ġlicht": 6444,
      "Ġmunicipal": 6445,
      "Ġnav": 6446,
      "Ġlijn": 6447,
      "ĠGermany": 6448,
      "atives": 6449,
      "ÐµÑĢÑĪ": 6450,
      "Ġstudies": 6451,
      "Ġstudio": 6452,
      "ĠNot": 6453,
      "Ġstudy": 6454,
      "pan": 6455,
      "iant": 6456,
      "ĠÐ²ÐµÐº": 6457,
      "Ã¼nst": 6458,
      "ĠÐ´ÐµÐ»": 6459,
      "Ġship": 6460,
      "Ex": 6461,
      "Ð²Ð°": 6462,
      "ĠDaarnaast": 6463,
      "uigen": 6464,
      "Ġtemper": 6465,
      "board": 6466,
      "Ġresident": 6467,
      "Ġfiguur": 6468,
      "Ġni": 6469,
      "ĠKat": 6470,
      "Ġ1934": 6471,
      "Ġ1951": 6472,
      "Ġihren": 6473,
      "Ġentstand": 6474,
      "Ã»t": 6475,
      "erous": 6476,
      "Ġ300": 6477,
      "ĠÐ´Ð¾Ð»Ð¶": 6478,
      "quel": 6479,
      "ardo": 6480,
      "Ġschools": 6481,
      "ĠÐ¿Ð¾ÑĤ": 6482,
      "rique": 6483,
      "ĠRijk": 6484,
      "genden": 6485,
      "ĠÃīt": 6486,
      "Ð°Ð»Ð¸ÑģÑĮ": 6487,
      "Voor": 6488,
      "rupt": 6489,
      "Ġerr": 6490,
      "egen": 6491,
      "erland": 6492,
      "Ġ32": 6493,
      "rika": 6494,
      "issement": 6495,
      "ĠÐ°ÐºÑĤ": 6496,
      "ĠFebruar": 6497,
      "Ġbero": 6498,
      "Ġbur": 6499,
      "Ġ1935": 6500,
      "Ġach": 6501,
      "ĠBus": 6502,
      "Ġseen": 6503,
      "ĠÃĢ": 6504,
      "Ġinstr": 6505,
      "ĠUSA": 6506,
      "plaatst": 6507,
      "cut": 6508,
      "ĠÐ¼Ð¾Ð¶": 6509,
      "Ġblan": 6510,
      "ĠÐ²Ð¾Ñģ": 6511,
      "ĠNamen": 6512,
      "ĠWillem": 6513,
      "nÃ©": 6514,
      "Ġmission": 6515,
      "ĠCa": 6516,
      "hm": 6517,
      "ĠCorn": 6518,
      "ĠMod": 6519,
      "Ġkind": 6520,
      "arg": 6521,
      "Ġnooit": 6522,
      "Ġfinanci": 6523,
      "55": 6524,
      "Ġinj": 6525,
      "ĠLuc": 6526,
      "Ġslag": 6527,
      "edy": 6528,
      "rican": 6529,
      "ĠÑģÐ²ÑıÐ·": 6530,
      "ĠAtlant": 6531,
      "cement": 6532,
      "Ġdevient": 6533,
      "ĠHel": 6534,
      "leur": 6535,
      "Ġdate": 6536,
      "Ġwegen": 6537,
      "Ã¤hlt": 6538,
      "liament": 6539,
      "Ġquien": 6540,
      "ÐµÑĢÐ±": 6541,
      "ÐŃ": 6542,
      "Ð¸Ð½Ð¸ÑģÑĤ": 6543,
      "Ġreview": 6544,
      "ĠfÃ¼n": 6545,
      "Ġoverleed": 6546,
      "ÐºÑĢÐ°": 6547,
      "Ġlev": 6548,
      "ikte": 6549,
      "Pl": 6550,
      "Ġnod": 6551,
      "ÑĦÐ¾ÑĢÐ¼": 6552,
      "ĠJew": 6553,
      "78": 6554,
      "ĠMas": 6555,
      "Ġfinished": 6556,
      "Ġcateg": 6557,
      "Ġ1929": 6558,
      "Ġinstrument": 6559,
      "ĠCarl": 6560,
      "ierra": 6561,
      "pf": 6562,
      "olon": 6563,
      "esen": 6564,
      "Ġthroughout": 6565,
      "ĠÃ©qu": 6566,
      "ĠDurch": 6567,
      "âĢľ,": 6568,
      "ĠdÃ©f": 6569,
      "Ġloop": 6570,
      "ability": 6571,
      "Ġsac": 6572,
      "Ġchange": 6573,
      "raal": 6574,
      "ĠJosÃ©": 6575,
      "ĠIsrael": 6576,
      "Ġerre": 6577,
      "ĠUK": 6578,
      "uelle": 6579,
      "Pla": 6580,
      "ĠHein": 6581,
      "itude": 6582,
      "Ġverte": 6583,
      "ĠÐ¿ÐµÑĢÐµÐ´": 6584,
      "Ġevents": 6585,
      "190": 6586,
      "ĠReal": 6587,
      "Ð¾Ñī": 6588,
      "atory": 6589,
      "Ð»ÐµÐ½Ð¸Ðµ": 6590,
      "Ġcru": 6591,
      "Ġfon": 6592,
      "ĠRod": 6593,
      "ĠAlbert": 6594,
      "gte": 6595,
      "Ġderen": 6596,
      "Ġencore": 6597,
      "Ġgas": 6598,
      "ĠÐ¼Ð°ÑĢ": 6599,
      "rÃ¡": 6600,
      "Ġniveau": 6601,
      "hl": 6602,
      "ieten": 6603,
      "Biographie": 6604,
      "ĠÑĤÐ¾Ð³Ð¾": 6605,
      "elk": 6606,
      "ĠÐ°Ð¿": 6607,
      "back": 6608,
      "Ġ1917": 6609,
      "Ġnatural": 6610,
      "Ġsido": 6611,
      "Ġkrijgen": 6612,
      "ĠTexas": 6613,
      "Ġbijna": 6614,
      "ĠStaat": 6615,
      "Ġpaar": 6616,
      "Ġvic": 6617,
      "urende": 6618,
      "ĠLord": 6619,
      "onom": 6620,
      "aro": 6621,
      "schijnlijk": 6622,
      "Ġseven": 6623,
      "ieel": 6624,
      "Ġinvolved": 6625,
      "Ġlanguage": 6626,
      "dracht": 6627,
      "Ġsubse": 6628,
      "ĠLake": 6629,
      "ĠMax": 6630,
      "Ġvierde": 6631,
      "rot": 6632,
      "venue": 6633,
      "zeug": 6634,
      "ĠPost": 6635,
      "well": 6636,
      "Ġbestuur": 6637,
      "Ġkop": 6638,
      "ĠDou": 6639,
      "ĠPas": 6640,
      "uan": 6641,
      "nd": 6642,
      "ĠgrÃ¶ÃŁ": 6643,
      "amed": 6644,
      "Ã«l": 6645,
      "anter": 6646,
      "Ġkeine": 6647,
      "Ġlugar": 6648,
      "ĠPenn": 6649,
      "Ġsoorten": 6650,
      "Ġsoms": 6651,
      "maal": 6652,
      "obre": 6653,
      "ÑĢÐ¾Ð´": 6654,
      "Ġpersoon": 6655,
      "500": 6656,
      "comm": 6657,
      "vey": 6658,
      "ĠÐ¼ÑĥÐ·": 6659,
      "ĠWestern": 6660,
      "ĠsÃ¼d": 6661,
      "Ġbelangrijkste": 6662,
      "ĠBahn": 6663,
      "ĠOnder": 6664,
      "ÑĢÐµÑģÑĤ": 6665,
      "41": 6666,
      "Ġmix": 6667,
      "Ġdise": 6668,
      "\")": 6669,
      "ĠBob": 6670,
      "ading": 6671,
      "ĠHamb": 6672,
      "Ġkorte": 6673,
      "Ġ36": 6674,
      "ĠfranÃ§ais": 6675,
      "Ġetc": 6676,
      "Ġmonument": 6677,
      "Ġinge": 6678,
      "ĠJim": 6679,
      "ÑĢÐµÐ±": 6680,
      "uil": 6681,
      "Ġverwij": 6682,
      "ĠBrown": 6683,
      "Ġsignificant": 6684,
      "Ð¸Ñī": 6685,
      "ems": 6686,
      "ĠGl": 6687,
      "âĢľ.": 6688,
      "Ġfar": 6689,
      "ÐµÑĢÐ³": 6690,
      "Ġondersche": 6691,
      "Ġ400": 6692,
      "rant": 6693,
      "Ġphil": 6694,
      "ĠJacob": 6695,
      "hang": 6696,
      "Ð»ÐµÐºÑģ": 6697,
      "udd": 6698,
      "Ġwist": 6699,
      "Ġearl": 6700,
      "ĠArm": 6701,
      "ĠÑĢÐµÑĪ": 6702,
      "Ġast": 6703,
      "Ġearn": 6704,
      "Ġgehouden": 6705,
      "Ġnun": 6706,
      "Ġdesigned": 6707,
      "ichter": 6708,
      "ĠHistor": 6709,
      "hankelijk": 6710,
      "Ġvormen": 6711,
      "Ġstage": 6712,
      "iezingen": 6713,
      "Ġbos": 6714,
      "stellen": 6715,
      "dienst": 6716,
      "Ġleading": 6717,
      "Ġtoch": 6718,
      "Ġgespeeld": 6719,
      "Ġdiv": 6720,
      "adel": 6721,
      "ije": 6722,
      "Ġiets": 6723,
      "ĠParijs": 6724,
      "Ġaanwezig": 6725,
      "ĠTen": 6726,
      "ĠTot": 6727,
      "Ġmeerdere": 6728,
      "aise": 6729,
      "ientras": 6730,
      "Ġopening": 6731,
      "verse": 6732,
      "ÑĥÑĢÐ³": 6733,
      "cific": 6734,
      "ĠÐľÐ¾ÑģÐº": 6735,
      "Ġkampioenschap": 6736,
      "Ġdivision": 6737,
      "ulture": 6738,
      "ĠAle": 6739,
      "zicht": 6740,
      "Ġwapen": 6741,
      "uig": 6742,
      "kir": 6743,
      "ĠPlan": 6744,
      "aves": 6745,
      "mus": 6746,
      "annte": 6747,
      "Ð¸ÑĢÑĥ": 6748,
      "Ġoverl": 6749,
      "Ã¢t": 6750,
      "Ġverkl": 6751,
      "Ġhoogte": 6752,
      "Ġnouveau": 6753,
      "Ġvoc": 6754,
      "Ġextre": 6755,
      "Ġsiglo": 6756,
      "ĠÐ¶ÐµÐ½": 6757,
      "ĠÐ°ÑĢÐ¼": 6758,
      "Ġsound": 6759,
      "aps": 6760,
      "ĠPop": 6761,
      "ĠÐ¼ÐµÑĤ": 6762,
      "ĠBuch": 6763,
      "cole": 6764,
      "Ġkort": 6765,
      "ĠdÃ©velop": 6766,
      "ĠÑĪÐºÐ¾Ð»": 6767,
      "ĠÑģÑĭ": 6768,
      "pose": 6769,
      "ĠÐ¾ÑĤÐ½Ð¾": 6770,
      "ĠÑĥÐ´": 6771,
      "uurt": 6772,
      "Ġknow": 6773,
      "ÑĨÑĭ": 6774,
      "Ġgoal": 6775,
      "ĠMaar": 6776,
      "gaan": 6777,
      "ĠKal": 6778,
      "Ġsaison": 6779,
      "ĠÑĤÐ¾Ð»ÑĮÐºÐ¾": 6780,
      "Ġweinig": 6781,
      "Wh": 6782,
      "Ġprofession": 6783,
      "Ġdisp": 6784,
      "BA": 6785,
      "bol": 6786,
      "ĠAlt": 6787,
      "Ġsum": 6788,
      "43": 6789,
      "cm": 6790,
      "ensive": 6791,
      "program": 6792,
      "Ġjoue": 6793,
      "ĠPerson": 6794,
      "cker": 6795,
      "ĠVilla": 6796,
      "Ġnabijgelegen": 6797,
      "Ġauto": 6798,
      "ĠFranÃ§": 6799,
      "airs": 6800,
      "ologische": 6801,
      "Ġsubject": 6802,
      "Ġinformation": 6803,
      "76": 6804,
      "ymn": 6805,
      "Ġkilled": 6806,
      "Ð¸ÑĦ": 6807,
      "ĠXX": 6808,
      "ĠÑĤÐµ": 6809,
      "Ġindic": 6810,
      "oco": 6811,
      "',": 6812,
      "Ġchampion": 6813,
      "Ã¤nde": 6814,
      "ĠMexico": 6815,
      "ĠWien": 6816,
      "Ġweitere": 6817,
      "glise": 6818,
      "time": 6819,
      "Ġcritic": 6820,
      "Ġtiempo": 6821,
      "Ġestim": 6822,
      "Ð½Ð¸Ðµ": 6823,
      "Ð¸Ð·Ð½": 6824,
      "ĠWhile": 6825,
      "Ġ1932": 6826,
      "Ġsaw": 6827,
      "asing": 6828,
      "ĠHof": 6829,
      "Ġtard": 6830,
      "Ġstated": 6831,
      "ÑĥÐ³": 6832,
      "orpen": 6833,
      "ulation": 6834,
      "Ġfeatured": 6835,
      "ĠWilhelm": 6836,
      "Ġembargo": 6837,
      "ĠÐ¾Ñĩ": 6838,
      "Ġsera": 6839,
      "ĠÑĩÐµÐ¼Ð¿Ð¸Ð¾Ð½": 6840,
      "wend": 6841,
      "Ġhoge": 6842,
      "ĠÐ¿Ð¾ÑģÐ»ÐµÐ´": 6843,
      "ĠNorm": 6844,
      "inst": 6845,
      "ĠÐ½ÐµÑģÐº": 6846,
      "encia": 6847,
      "haal": 6848,
      "itar": 6849,
      "verb": 6850,
      "atieve": 6851,
      "ĠÑĨÐµÐ½ÑĤ": 6852,
      "action": 6853,
      "rey": 6854,
      "ube": 6855,
      "ĠAustralian": 6856,
      "imeter": 6857,
      "Ġbefindet": 6858,
      "Ph": 6859,
      "Ġrug": 6860,
      "Ġdelen": 6861,
      "ĠSong": 6862,
      "Ġparticul": 6863,
      "itation": 6864,
      "Ġtrabaj": 6865,
      "ĠOst": 6866,
      "Ð¼Ð°Ð½": 6867,
      "ny": 6868,
      "Ġprovided": 6869,
      "ouvern": 6870,
      "Ġpuede": 6871,
      "Ġupon": 6872,
      "schop": 6873,
      "Ġ,": 6874,
      "Ġfeit": 6875,
      "Ð½ÐµÐµ": 6876,
      "Ð¾ÑĦ": 6877,
      "fort": 6878,
      "Ð¸Ð²ÐµÑĢÑģ": 6879,
      "Ġlit": 6880,
      "ĠSche": 6881,
      "ÑıÑĤÑĮ": 6882,
      "rach": 6883,
      "voer": 6884,
      "Ġlijk": 6885,
      "Ġhealth": 6886,
      "trecht": 6887,
      "Ġblijk": 6888,
      "Ġleague": 6889,
      "Ġclubs": 6890,
      "Ġecht": 6891,
      "laciÃ³n": 6892,
      "Ġanti": 6893,
      "zÃ¶s": 6894,
      "ĠpaÃŃs": 6895,
      "99": 6896,
      "Ġlook": 6897,
      "rer": 6898,
      "Ġpou": 6899,
      "Ġvriend": 6900,
      "Ġ=": 6901,
      "ĠSus": 6902,
      "ser": 6903,
      "Ġpan": 6904,
      "Ġeiland": 6905,
      "endre": 6906,
      "Ġaller": 6907,
      "Ġdirecteur": 6908,
      "ĠCommission": 6909,
      "Ã©p": 6910,
      "zial": 6911,
      "Ġsquare": 6912,
      "position": 6913,
      "ĠAuch": 6914,
      "vest": 6915,
      "Ġ1928": 6916,
      "ĠSub": 6917,
      "Ġlearn": 6918,
      "Ġdegree": 6919,
      "Ġsection": 6920,
      "Ġguerre": 6921,
      "Ġdecided": 6922,
      "Ġtous": 6923,
      "iance": 6924,
      "ĠForce": 6925,
      "Ġbroer": 6926,
      "ÐµÑĤÑĭ": 6927,
      "Ġinterview": 6928,
      "iÃ«le": 6929,
      "MS": 6930,
      "Ġsee": 6931,
      "Ġnight": 6932,
      "grÃ¼nd": 6933,
      "straat": 6934,
      "Ġinvloed": 6935,
      "kund": 6936,
      "Ġtom": 6937,
      "Ð¸Ð»Ð°ÑģÑĮ": 6938,
      "ĠÐºÐ¾ÑĤÐ¾ÑĢÑĭÐµ": 6939,
      "Ġprofessional": 6940,
      "Ġverhaal": 6941,
      "Ġtru": 6942,
      "Ġsept": 6943,
      "Ġexhib": 6944,
      "ĠSchwe": 6945,
      "Ġcommercial": 6946,
      "ÐµÑĢÑħ": 6947,
      "CA": 6948,
      "Ġrecogn": 6949,
      "Ġhol": 6950,
      "aven": 6951,
      "emple": 6952,
      "Ġsongs": 6953,
      "amin": 6954,
      "ĠÐ´Ð°Ð½": 6955,
      "ÑģÐºÑĥÑİ": 6956,
      "ĠProfessor": 6957,
      "Ġbevindt": 6958,
      "ĠMadrid": 6959,
      "Ġtevens": 6960,
      "ĠÐŀÐ´": 6961,
      "Ġcourse": 6962,
      "Ġtrain": 6963,
      "ech": 6964,
      "Ã¤ÃŁ": 6965,
      "ĠHeil": 6966,
      "Ġcertain": 6967,
      "ĠÐ³Ð¾Ð»": 6968,
      "ĠÑģÐµÐ»": 6969,
      "ĠÐ²ÑĤÐ¾ÑĢ": 6970,
      "liga": 6971,
      "Ġnahm": 6972,
      "ĠÐ³Ð¾ÑģÑĥÐ´Ð°ÑĢ": 6973,
      "ateurs": 6974,
      "Ġhele": 6975,
      "ĠgeÃ¯n": 6976,
      "abel": 6977,
      "ĠÑģÑĩ": 6978,
      "Ġclose": 6979,
      "rang": 6980,
      "ĠWood": 6981,
      "ĠPrin": 6982,
      "ĠInf": 6983,
      "aben": 6984,
      "Ġconfir": 6985,
      "85": 6986,
      "Ġspielte": 6987,
      "Ġaans": 6988,
      "ĠRus": 6989,
      "Ġadopt": 6990,
      "ĠÐ±ÐµÐ·": 6991,
      "Ġ1921": 6992,
      "riz": 6993,
      "Ġlic": 6994,
      "Ġ-_": 6995,
      "ÑıÐ»": 6996,
      "Ġcollabor": 6997,
      "been": 6998,
      "Ġvervangen": 6999,
      "Ġshows": 7000,
      "Ġgeko": 7001,
      "Ġutiliz": 7002,
      "ĠBon": 7003,
      "Ġaanv": 7004,
      "gers": 7005,
      "akter": 7006,
      "spe": 7007,
      "obierno": 7008,
      "Ð°ÑĤÑĮÑģÑı": 7009,
      "Ġheel": 7010,
      "Ġstructure": 7011,
      "ĠÐ²Ð¾Ð´": 7012,
      "Ġscient": 7013,
      "ĠHil": 7014,
      "Ê³": 7015,
      "Ġattended": 7016,
      "Ð¸ÑĩÐµÑģÐºÐ¾Ð³Ð¾": 7017,
      "ĠNatur": 7018,
      "Ġtor": 7019,
      "Ġgeschiedenis": 7020,
      "Ġsay": 7021,
      "ĠRel": 7022,
      "Ġbegra": 7023,
      "namelijk": 7024,
      "Ġviv": 7025,
      "ulf": 7026,
      "Ġlu": 7027,
      "ÑĢÐ°Ð¼": 7028,
      "Ġprogramma": 7029,
      "ĠÑıÐ²Ð»ÑıÐµÑĤÑģÑı": 7030,
      "Ġproces": 7031,
      "ĠFahr": 7032,
      "ĠSud": 7033,
      "ĠÐ¾ÑĤÐº": 7034,
      "ĠrÃ©alis": 7035,
      "ÐµÐ»Ð¸": 7036,
      "meister": 7037,
      "Ġgroups": 7038,
      "Ġ1900": 7039,
      "Ð¾Ð²Ð¾ÑĢ": 7040,
      "ĠSystem": 7041,
      "ÐĺÑģÑĤÐ¾ÑĢ": 7042,
      "Ã®t": 7043,
      "ĠTri": 7044,
      "ÑĭÑģ": 7045,
      "Ġcommunic": 7046,
      "icles": 7047,
      "Ġwhite": 7048,
      "Ġfunction": 7049,
      "Ġebenfalls": 7050,
      "Ġaction": 7051,
      "Ġehem": 7052,
      "verk": 7053,
      "ĠTw": 7054,
      "Ġvle": 7055,
      "Ã¼b": 7056,
      "Ġchem": 7057,
      "ĠPierre": 7058,
      "Ġkeizer": 7059,
      "ispiel": 7060,
      "Ã´le": 7061,
      "Ġ1924": 7062,
      "Ġfle": 7063,
      "ĠRay": 7064,
      "ĠMain": 7065,
      "Ġdiscuss": 7066,
      "rein": 7067,
      "club": 7068,
      "ĠÎ": 7069,
      "Ġlieu": 7070,
      "ĠRh": 7071,
      "ÐµÑĢÐµÐ·": 7072,
      "ĠlÃŃ": 7073,
      "ĠVerb": 7074,
      "low": 7075,
      "Ġencuentra": 7076,
      "ii": 7077,
      "now": 7078,
      "ogel": 7079,
      "best": 7080,
      "Ġvest": 7081,
      "ĠÑģÐ¾ÑģÑĤÐ¾Ñı": 7082,
      "Ġtodo": 7083,
      "Ġlicha": 7084,
      "SS": 7085,
      "rary": 7086,
      "Ġgevonden": 7087,
      "Ġhouden": 7088,
      "Ġkathol": 7089,
      "Ã©sent": 7090,
      "Ġuur": 7091,
      "ÑĤÐµÑĢ": 7092,
      "oring": 7093,
      "ĠHu": 7094,
      "ÐĳÐ¸": 7095,
      "ĠLud": 7096,
      "Ġwid": 7097,
      "olden": 7098,
      "Ġanderem": 7099,
      "Ġbatt": 7100,
      "Ã¤sident": 7101,
      "Ġmagn": 7102,
      "Ġfarm": 7103,
      "Ġhan": 7104,
      "uso": 7105,
      "mph": 7106,
      "Ãªtre": 7107,
      "vernor": 7108,
      "Ġstraal": 7109,
      "Ã©lÃ©": 7110,
      "Ġdirig": 7111,
      "ĠMarie": 7112,
      "ĠÐ¸ÑģÐº": 7113,
      "werken": 7114,
      "cion": 7115,
      "zas": 7116,
      "Ãīt": 7117,
      "fore": 7118,
      "Ð¸Ð»Ð¸ÑģÑĮ": 7119,
      "ĠÃĦ": 7120,
      ".âĢľ": 7121,
      "âĢ²": 7122,
      "77": 7123,
      "95": 7124,
      "istic": 7125,
      "Ġeight": 7126,
      "Ġstatus": 7127,
      "TA": 7128,
      "hren": 7129,
      "Ã¡nd": 7130,
      "jaar": 7131,
      "Ġmars": 7132,
      "Ġvermo": 7133,
      "gestellt": 7134,
      "Ġreplaced": 7135,
      "Ġcollege": 7136,
      "Ġils": 7137,
      "ilo": 7138,
      "ĠRÃ¼ck": 7139,
      "ÑĢÐ¸ÑĤÐ¾ÑĢ": 7140,
      "ols": 7141,
      "Ġbeslaat": 7142,
      "Ð°ÑĤÐµ": 7143,
      "Ġstudent": 7144,
      "Ġonderdeel": 7145,
      "landse": 7146,
      "edd": 7147,
      "ĠÐ¿Ð¾Ð±": 7148,
      "Ġ1931": 7149,
      "Ġpendant": 7150,
      "riere": 7151,
      "ÑıÐ´": 7152,
      "Ġblijven": 7153,
      "Ġtaal": 7154,
      "ĠÐ½Ð°Ð´": 7155,
      "mans": 7156,
      "ĠWolf": 7157,
      "werking": 7158,
      "partement": 7159,
      "Åĵuv": 7160,
      "Ã¸": 7161,
      "Ġbill": 7162,
      "play": 7163,
      "orig": 7164,
      "tempor": 7165,
      "Ġletter": 7166,
      "Ġ1922": 7167,
      "ĠBig": 7168,
      "ĠStad": 7169,
      "lak": 7170,
      "Ġepisode": 7171,
      "ourne": 7172,
      "Ġ1927": 7173,
      "ĠDi": 7174,
      "ÐµÑģÐ¿": 7175,
      "Ġsigu": 7176,
      "ĠÐŁÐ¾": 7177,
      "ÑĮÐµ": 7178,
      "ĠWind": 7179,
      "Ġpie": 7180,
      "ÐµÑģÑĤÐ²Ð¾": 7181,
      "ĠÐ¾Ð½Ð°": 7182,
      "achsen": 7183,
      "pÃ©": 7184,
      "ĠÐ¾ÑĢÐ³Ð°Ð½Ð¸Ð·": 7185,
      "ÐµÐ¼Ñĥ": 7186,
      "gebiet": 7187,
      "Ġ1925": 7188,
      "FC": 7189,
      "Ġequipo": 7190,
      "fÃ¼hrt": 7191,
      "Ġcause": 7192,
      "Ġadded": 7193,
      "aks": 7194,
      "Ã¼tz": 7195,
      "gere": 7196,
      "mark": 7197,
      "halen": 7198,
      "ĠKl": 7199,
      "stÃ¤nd": 7200,
      "ĠStan": 7201,
      "Ġacadem": 7202,
      "Ġmic": 7203,
      "68": 7204,
      "Ġwhe": 7205,
      "Ġmaanden": 7206,
      "Ġeither": 7207,
      "ĠEerste": 7208,
      "Sh": 7209,
      "Ð°ÑĤÐµÐ¼": 7210,
      "Ġnar": 7211,
      "Ġbrought": 7212,
      "thur": 7213,
      "teau": 7214,
      "ĠÑįÑĤÐ¾Ð³Ð¾": 7215,
      "ieur": 7216,
      "Ġronde": 7217,
      "Ã¤nder": 7218,
      "Ġrange": 7219,
      "Ġglo": 7220,
      "ierf": 7221,
      "bon": 7222,
      "Ġmaint": 7223,
      "mos": 7224,
      "ĠÐ¸Ð¼Ðµ": 7225,
      "ĠBrazil": 7226,
      "Ã£": 7227,
      "ĠLee": 7228,
      "Ð°Ð»Ð¾ÑģÑĮ": 7229,
      "ĠBad": 7230,
      "ĠÐ²ÑĭÑģÑĤÑĥÐ¿": 7231,
      "ĠNacional": 7232,
      "can": 7233,
      "Ġverover": 7234,
      "ati": 7235,
      "Ġoverw": 7236,
      "Ġschrij": 7237,
      "Ġproduce": 7238,
      "Ġafkomst": 7239,
      "ĠSqu": 7240,
      "Ġleer": 7241,
      "uts": 7242,
      "ÐµÐ»Ð¸Ðº": 7243,
      "name": 7244,
      "ĠIndust": 7245,
      "bet": 7246,
      "Ġjuin": 7247,
      "Ġbla": 7248,
      "ĠCat": 7249,
      "ĠpolÃŃt": 7250,
      "Ġ1910": 7251,
      "Ġconcept": 7252,
      "Ġairc": 7253,
      "goed": 7254,
      "Ġdeutschen": 7255,
      "Ġiniti": 7256,
      "ĠKomm": 7257,
      "During": 7258,
      "autres": 7259,
      "izo": 7260,
      "ema": 7261,
      "ĠCommun": 7262,
      "veld": 7263,
      "Ġhuwelijk": 7264,
      "Ġdaarop": 7265,
      "annel": 7266,
      "Ġdifficult": 7267,
      "Ġfeatures": 7268,
      "Ġbenoemd": 7269,
      "ĠTim": 7270,
      "Ġawarded": 7271,
      "uras": 7272,
      "Ġgot": 7273,
      "illy": 7274,
      "Ð²Ð¾ÑĢ": 7275,
      "Ġital": 7276,
      "Ð±Ñĭ": 7277,
      "ĠÐ²Ð¿": 7278,
      "Ġconsid": 7279,
      "ĠSinds": 7280,
      "Demografie": 7281,
      "Ġgeschreven": 7282,
      "Ġoriginally": 7283,
      "Ġdesar": 7284,
      "Ġ1926": 7285,
      "Ġloss": 7286,
      "fass": 7287,
      "ĠArn": 7288,
      "eign": 7289,
      "achten": 7290,
      "mir": 7291,
      "ĠSchul": 7292,
      "Ã«le": 7293,
      "Ġvoornamelijk": 7294,
      "Ã¼s": 7295,
      "Ġtotaal": 7296,
      "Ġ1923": 7297,
      "Ġdata": 7298,
      "Ġtitre": 7299,
      "Ġjunto": 7300,
      "lei": 7301,
      "Ġvolkstelling": 7302,
      "igan": 7303,
      "ĠÐ´ÐµÐº": 7304,
      "ĠKenn": 7305,
      "ĠÐ²Ð¾Ð¹Ð½Ñĭ": 7306,
      "raad": 7307,
      "Ġpes": 7308,
      "uwe": 7309,
      "Ġnabije": 7310,
      "Ġbrief": 7311,
      "Ġrechts": 7312,
      "Ġcollection": 7313,
      "Los": 7314,
      "Ġexperiment": 7315,
      "ĠverÃ¶ffent": 7316,
      "onse": 7317,
      "ishop": 7318,
      "ĠÐ¸Ð·Ð²ÐµÑģÑĤ": 7319,
      "Ġfind": 7320,
      "Ġduidelijk": 7321,
      "ressed": 7322,
      "Ġdedic": 7323,
      "Ġwedstrijden": 7324,
      "Ġdeta": 7325,
      "Ġboard": 7326,
      "Ġmagazine": 7327,
      "wan": 7328,
      "Ġmann": 7329,
      "Ġbem": 7330,
      "Ð¾Ð²Ð¾Ð¹": 7331,
      "tembre": 7332,
      "Ġlargest": 7333,
      "Ġprovide": 7334,
      "ÐĳÐ¸Ð¾Ð³ÑĢÐ°ÑĦÐ¸Ñı": 7335,
      "79": 7336,
      "ession": 7337,
      "ĠÐ¿ÑĢÐ¸Ð²": 7338,
      "ĠÑģÐ¼": 7339,
      "ĠÐºÐ¾Ð½ÑĤ": 7340,
      "estigd": 7341,
      "ingt": 7342,
      "punkt": 7343,
      "Ġinstit": 7344,
      "Ð½Ð¸ÑĨ": 7345,
      "Ġ38": 7346,
      "Ġestaba": 7347,
      "ĠAfrican": 7348,
      "ĠEins": 7349,
      "ĠLong": 7350,
      "Her": 7351,
      "Ġprepar": 7352,
      "ĠSome": 7353,
      "Te": 7354,
      "Ð¸Ð²ÐµÑĢÑģÐ¸ÑĤ": 7355,
      "cs": 7356,
      "Ġbeschouw": 7357,
      "Ġveren": 7358,
      "ĠEle": 7359,
      "ĠBu": 7360,
      "ÑĢÐ¾Ðº": 7361,
      "Ġrelativ": 7362,
      "Ġpurch": 7363,
      "Ġmount": 7364,
      "ĠBild": 7365,
      "Ġgeeft": 7366,
      "ĠOosten": 7367,
      "ĠBrussel": 7368,
      "asons": 7369,
      "Ġinterpret": 7370,
      "Ð¸Ð½Ðµ": 7371,
      "formation": 7372,
      "ums": 7373,
      "ults": 7374,
      "gency": 7375,
      "72": 7376,
      "ĠBla": 7377,
      "Ð¡Ð¡Ðł": 7378,
      "voegd": 7379,
      "Ġmention": 7380,
      "Ġsoon": 7381,
      "Ġhin": 7382,
      "Ġcommission": 7383,
      "Ã©rica": 7384,
      "ĠCathol": 7385,
      "ĠFar": 7386,
      "Ġrights": 7387,
      "aga": 7388,
      "univers": 7389,
      "Ġjonge": 7390,
      "uvo": 7391,
      "64": 7392,
      "arter": 7393,
      "inse": 7394,
      "ĠgehÃ¶rte": 7395,
      "ynam": 7396,
      "100": 7397,
      "born": 7398,
      "inas": 7399,
      "âĢŀ": 7400,
      "ÑĥÑĢÐ°": 7401,
      "ĠKan": 7402,
      "Ġguit": 7403,
      "Ġbegonnen": 7404,
      "ÐĺÑģÑĤÐ¾ÑĢÐ¸Ñı": 7405,
      "Ġzogen": 7406,
      "ckey": 7407,
      "ĠÐĲÑĢ": 7408,
      "Ġschip": 7409,
      "nahme": 7410,
      "Ġeveneens": 7411,
      "hood": 7412,
      "ĠCop": 7413,
      "ĠpÃ©ri": 7414,
      "ĠÐ¾Ð½Ð¸": 7415,
      "cou": 7416,
      "aja": 7417,
      "Est": 7418,
      "ĠÐºÐ°": 7419,
      "Ġfra": 7420,
      "Ġconvert": 7421,
      "Ġontstaan": 7422,
      "igne": 7423,
      "ÑĤÐ¾ÑĢÐ°": 7424,
      "fab": 7425,
      "Ġreve": 7426,
      "Ð¥": 7427,
      "house": 7428,
      "ĠÃģ": 7429,
      "Ã¤us": 7430,
      "ĠJapanese": 7431,
      "ĠDaniel": 7432,
      "Ð´Ð¸": 7433,
      "erdings": 7434,
      "ĠConserv": 7435,
      "Ġrank": 7436,
      "Ġprior": 7437,
      "ĠÐ½Ð°ÑģÐµÐ»": 7438,
      "ftal": 7439,
      "ĠColumb": 7440,
      "Ð¾ÑĤÐ¾Ð²": 7441,
      "kel": 7442,
      "Ġreach": 7443,
      "Ġstrijd": 7444,
      "rente": 7445,
      "Ġgewann": 7446,
      "Ġba": 7447,
      "ĠÐ´ÐµÐ¹ÑģÑĤÐ²": 7448,
      "ĠTheater": 7449,
      "Ġban": 7450,
      "ĠJud": 7451,
      "olis": 7452,
      "Ġaircraft": 7453,
      "Es": 7454,
      "irit": 7455,
      "Plaatsen": 7456,
      "%).": 7457,
      "ĠCamb": 7458,
      "ĠBarb": 7459,
      "Ġjan": 7460,
      "itzen": 7461,
      "Univers": 7462,
      "Ġdenen": 7463,
      "Ġneuen": 7464,
      "ĠHam": 7465,
      "iling": 7466,
      "reng": 7467,
      "Ġever": 7468,
      "Ġstations": 7469,
      "rada": 7470,
      "vre": 7471,
      "Ġcolor": 7472,
      "Ġverzam": 7473,
      "Com": 7474,
      "Ġfast": 7475,
      "Ġliv": 7476,
      "asion": 7477,
      "ĠFreder": 7478,
      "ÑıÑĤÐµÐ»ÑĮ": 7479,
      "ÑĥÐµÑĤ": 7480,
      "Ġpunten": 7481,
      "reib": 7482,
      "Ġonderstaande": 7483,
      "DR": 7484,
      "ĠMah": 7485,
      "wal": 7486,
      "ĠYear": 7487,
      "urity": 7488,
      "Ġemer": 7489,
      "Ġseptembre": 7490,
      "Ġbestond": 7491,
      "ufact": 7492,
      "Ġmai": 7493,
      "Ġintroduced": 7494,
      "ypt": 7495,
      "inf": 7496,
      "ava": 7497,
      "penden": 7498,
      "ĠÑĤÐµÐ»": 7499,
      "Ġdemon": 7500,
      "ueb": 7501,
      "Ġusually": 7502,
      "Ġdirection": 7503,
      "raak": 7504,
      "Ġclim": 7505,
      "ÑİÑĤÑģÑı": 7506,
      "ĠfÃ¼nf": 7507,
      "Ġregard": 7508,
      "Ġbleek": 7509,
      "Ġplayers": 7510,
      "ĠAlle": 7511,
      "Ġdabei": 7512,
      "Ġbehind": 7513,
      "Ġran": 7514,
      "Ġsoit": 7515,
      "Ġzul": 7516,
      "cles": 7517,
      "Ġplaced": 7518,
      "ĠFoot": 7519,
      "Ġgebracht": 7520,
      "ĠUtrecht": 7521,
      "Ð½Ð¾Ð¼Ñĥ": 7522,
      "vi": 7523,
      "Ġehemal": 7524,
      "ceed": 7525,
      "vankelijk": 7526,
      "Ġkasteel": 7527,
      "ĠDesp": 7528,
      "Ġspace": 7529,
      "matig": 7530,
      "ĠÑĦÐ¸Ð»ÑĮ": 7531,
      "schluss": 7532,
      "iser": 7533,
      "Ġattra": 7534,
      "Ġcho": 7535,
      "ÑĢÐµÑĩ": 7536,
      "Ġgingen": 7537,
      "Ġmob": 7538,
      "Ġgoede": 7539,
      "ĠÐ¾ÐºÐ¾Ð½Ñĩ": 7540,
      "Ġu": 7541,
      "Ð´Ð¸Ð½": 7542,
      "Ġlabor": 7543,
      "ĠAccording": 7544,
      "Ġdebuut": 7545,
      "Ġgrow": 7546,
      "ĠFamilie": 7547,
      "Ġcountries": 7548,
      "Ġconcert": 7549,
      "ydro": 7550,
      "enste": 7551,
      "ancial": 7552,
      "ĠTitel": 7553,
      "naam": 7554,
      "Ġhonor": 7555,
      "Ġfamilies": 7556,
      "ĠHaag": 7557,
      "icio": 7558,
      "Ġklo": 7559,
      "Ġhac": 7560,
      "Ġese": 7561,
      "Ġrather": 7562,
      "ĠÐ·Ð´": 7563,
      "Ð³ÑĥÑģÑĤ": 7564,
      "kerk": 7565,
      "Ġmand": 7566,
      "staat": 7567,
      "Ġzuid": 7568,
      "road": 7569,
      "Ġplaat": 7570,
      "omot": 7571,
      "eda": 7572,
      "irth": 7573,
      "ĠÐºÐ»ÑĥÐ±": 7574,
      "ĠÐ·Ð²": 7575,
      "bas": 7576,
      "Ġmie": 7577,
      "uchte": 7578,
      "Ġstates": 7579,
      "urrent": 7580,
      "ĠWater": 7581,
      "Ġnoorden": 7582,
      "ĠPor": 7583,
      "Ġohne": 7584,
      "lever": 7585,
      "Ġimmer": 7586,
      "Ġrang": 7587,
      "Ġnovel": 7588,
      "Ġoccur": 7589,
      "using": 7590,
      "pped": 7591,
      "ĠKr": 7592,
      "Ġproductie": 7593,
      "Ãªt": 7594,
      "groep": 7595,
      "ĠpoblaciÃ³n": 7596,
      "Ġpred": 7597,
      "ĠÐłÐ¾ÑģÑģÐ¸Ð¸": 7598,
      "ollowing": 7599,
      "Ð°Ð»Ð¾": 7600,
      "iy": 7601,
      "licht": 7602,
      "Ġspeelt": 7603,
      "Ġotras": 7604,
      "ĠSocial": 7605,
      "Ã©ta": 7606,
      "ĠTurk": 7607,
      "ĠGran": 7608,
      "Ġ1912": 7609,
      "plant": 7610,
      "ĠÑįÑĤÐ¾Ð¼": 7611,
      "Ġvoorzien": 7612,
      "ĠEngeland": 7613,
      "Ġausge": 7614,
      "Ġpolitieke": 7615,
      "ĠÐ¿ÑĢÐ¸Ð¼": 7616,
      "ĠTimes": 7617,
      "ĠÑĥÑģ": 7618,
      "Ġdub": 7619,
      "ĠKong": 7620,
      "ĠJohannes": 7621,
      "Ġverkocht": 7622,
      "And": 7623,
      "AF": 7624,
      "Ġmultip": 7625,
      "minister": 7626,
      "olas": 7627,
      "ĠÐ²Ð·": 7628,
      "Ġvent": 7629,
      "Ġlabel": 7630,
      "Ġnomin": 7631,
      "ĠPrim": 7632,
      "sur": 7633,
      "ÑĢÐ°Ñī": 7634,
      "ÑĤÐ¾Ð¼": 7635,
      "ĠÐ¼Ð¾Ð³": 7636,
      "change": 7637,
      "sw": 7638,
      "oston": 7639,
      "ĠBall": 7640,
      "Ġteken": 7641,
      "Ġreached": 7642,
      "Ġgrupo": 7643,
      "ĠMÃ¼nchen": 7644,
      "gener": 7645,
      "Ġdiss": 7646,
      "ĠRu": 7647,
      "dorf": 7648,
      "terdam": 7649,
      "intig": 7650,
      "ĠrÃ©gion": 7651,
      "For": 7652,
      "IS": 7653,
      "ĠHan": 7654,
      "Ð½Ñĥ": 7655,
      "heb": 7656,
      "Ġbran": 7657,
      "Ġschon": 7658,
      "Ġtreat": 7659,
      "Ġjanvier": 7660,
      "onto": 7661,
      "ĠÐ¾Ð±Ð»Ð°ÑģÑĤÐ¸": 7662,
      "orgen": 7663,
      "Ġscored": 7664,
      "Ġkrijgt": 7665,
      "Ġestado": 7666,
      "ĠCette": 7667,
      "ĠHerr": 7668,
      "ĠAlbum": 7669,
      "ĠÑĤÐµÑĢÑĢÐ¸ÑĤÐ¾ÑĢ": 7670,
      "Ġactive": 7671,
      "ouvernement": 7672,
      "Ġleast": 7673,
      "Ġlittle": 7674,
      "ĠÐ±ÑĥÐ´": 7675,
      "aled": 7676,
      "Ġcart": 7677,
      "iÃŁ": 7678,
      "ovend": 7679,
      "Ġincludes": 7680,
      "Ġdeal": 7681,
      "ĠÑģÐ»ÑĥÐ¶": 7682,
      "Ġindividual": 7683,
      "Ġabove": 7684,
      "Sp": 7685,
      "Ġinstead": 7686,
      "ynast": 7687,
      "ilen": 7688,
      "ÐµÑĢÐ°ÑĤ": 7689,
      "stof": 7690,
      "There": 7691,
      "Ã¶rd": 7692,
      "Ġnomm": 7693,
      "Ġfall": 7694,
      "vania": 7695,
      "ĠJones": 7696,
      "Ġgewonnen": 7697,
      "iaal": 7698,
      "Ġversie": 7699,
      "98": 7700,
      "Ġparents": 7701,
      "Ġmoins": 7702,
      "Ġreact": 7703,
      "Ġfamille": 7704,
      "ĠJon": 7705,
      "Ġbekende": 7706,
      "ĠLiber": 7707,
      "ÑĨÐµÐ½": 7708,
      "weging": 7709,
      "Ġalmost": 7710,
      "ĠEstados": 7711,
      "Ġexecut": 7712,
      "ims": 7713,
      "isches": 7714,
      "eker": 7715,
      "Ġcelui": 7716,
      "ĠÐ´ÐµÑĤ": 7717,
      "imal": 7718,
      "Ġpermet": 7719,
      "onte": 7720,
      "agd": 7721,
      "ritten": 7722,
      "Ġsea": 7723,
      "acc": 7724,
      "ĠDans": 7725,
      "ĠIll": 7726,
      "syl": 7727,
      "overs": 7728,
      "Ġklasse": 7729,
      "Ġroman": 7730,
      "poque": 7731,
      "ĠCommittee": 7732,
      "ĠSecret": 7733,
      "Ġnuevo": 7734,
      "Ġdoctor": 7735,
      "Ġrelationship": 7736,
      "Ġterritor": 7737,
      "Ġcamb": 7738,
      "kent": 7739,
      "Ġnamen": 7740,
      "Ð¸ÐºÐ¾Ð²": 7741,
      "igo": 7742,
      "site": 7743,
      "Ġkar": 7744,
      "Ġforme": 7745,
      "Ġbesloot": 7746,
      "Ġapplic": 7747,
      "ĠGent": 7748,
      "ĠGren": 7749,
      "Ġtoo": 7750,
      "Ġwaarop": 7751,
      "Ð¾ÑĢÐ¾Ð²": 7752,
      "ĠAfrica": 7753,
      "ÑīÑĳ": 7754,
      "Ġbevolking": 7755,
      "wezen": 7756,
      "ĠIg": 7757,
      "58": 7758,
      "eler": 7759,
      "heer": 7760,
      "ĠMich": 7761,
      "Ġbajo": 7762,
      "Ġkeerde": 7763,
      "ĠÐ¢Ð°Ðº": 7764,
      "ĠLove": 7765,
      "Ġva": 7766,
      "ĠÐľÐ°ÑĢ": 7767,
      "Ġleidde": 7768,
      "ĠSout": 7769,
      "Ġneue": 7770,
      "aca": 7771,
      "Ġkeep": 7772,
      "udo": 7773,
      "azu": 7774,
      "igers": 7775,
      "ĠÑıÐ·Ñĭ": 7776,
      "Ġnouvelle": 7777,
      "ĠUnidos": 7778,
      "Ġvertre": 7779,
      "ĠShow": 7780,
      "Ð¾ÑĢÐµ": 7781,
      "iler": 7782,
      "Ġstell": 7783,
      "ÑĤÐ¾Ð±Ñĭ": 7784,
      "Ġgele": 7785,
      "Ã¨tres": 7786,
      "ÐµÑģÑĤÐ²Ð°": 7787,
      "ĠLeit": 7788,
      "Ġchanged": 7789,
      "ĠprÃ©sen": 7790,
      "ĠJes": 7791,
      "usion": 7792,
      "ĠDef": 7793,
      "kreis": 7794,
      "ÃŁerdem": 7795,
      "Ġencont": 7796,
      "Ġhousehold": 7797,
      "Ġhanden": 7798,
      "56": 7799,
      "ĠEdward": 7800,
      "Ġjuillet": 7801,
      "Ġcompetitie": 7802,
      "Ġmeas": 7803,
      "rado": 7804,
      "gev": 7805,
      "Ġlief": 7806,
      "Ġparts": 7807,
      "ĠDor": 7808,
      "reichen": 7809,
      "Ġ33": 7810,
      "fois": 7811,
      "ĠÑģÐ»ÐµÐ´": 7812,
      "BS": 7813,
      "CarriÃ¨re": 7814,
      "ĠMarc": 7815,
      "ĠEnd": 7816,
      "ĠKore": 7817,
      "ÑĢÐ°Ð±Ð¾ÑĤ": 7818,
      "Ġmannen": 7819,
      "isterschaft": 7820,
      "Ġgold": 7821,
      "Ġcompan": 7822,
      "Ġqualif": 7823,
      "ftware": 7824,
      "Ġhoogste": 7825,
      "carriÃ¨re": 7826,
      "Ð°Ð»Ð°ÑģÑĮ": 7827,
      "Ġsize": 7828,
      "ĠreprÃ©sent": 7829,
      "ĠYoung": 7830,
      "Ġbrengen": 7831,
      "ĠÐ¼Ð¾Ð½": 7832,
      "schn": 7833,
      "ĠHann": 7834,
      "ĠÑģÐµÐ»ÑĮ": 7835,
      "etro": 7836,
      "74": 7837,
      "Ġseines": 7838,
      "bos": 7839,
      "Ġamp": 7840,
      "Ġabandon": 7841,
      "ĠLebens": 7842,
      "ampf": 7843,
      "Ġwechsel": 7844,
      "Ġllev": 7845,
      "iene": 7846,
      "Ġhout": 7847,
      "Ġprofessor": 7848,
      "ĠWilliams": 7849,
      "Ġfirm": 7850,
      "Ġoutside": 7851,
      "ĠÐ³ÑĢÐ°": 7852,
      "ĠVerd": 7853,
      "annten": 7854,
      "emeen": 7855,
      "Ġadapt": 7856,
      "ĠUniversidad": 7857,
      "Ã¨rent": 7858,
      "Ġdarauf": 7859,
      "Is": 7860,
      "ÑĢÑĥÐ¶": 7861,
      "Ġverant": 7862,
      "Ġzuiden": 7863,
      "This": 7864,
      "Ġreden": 7865,
      "ĠPhilip": 7866,
      "Ġindustry": 7867,
      "spr": 7868,
      "rait": 7869,
      "ĠRussian": 7870,
      "itÃ¤": 7871,
      "ĠHow": 7872,
      "ĠÑģÐ±Ð¾ÑĢ": 7873,
      "lieb": 7874,
      "Ġkap": 7875,
      "kan": 7876,
      "Ġintegr": 7877,
      "Ġlower": 7878,
      "Ġtravel": 7879,
      "Ġallowed": 7880,
      "Ã±os": 7881,
      "Ġmanager": 7882,
      "Ð¸ÑģÑĤÐµÐ¼": 7883,
      "Ð¸ÑĤÑĥ": 7884,
      "ĠÐ³Ð¾ÑĢÐ¾Ð´Ð°": 7885,
      "yan": 7886,
      "amse": 7887,
      "Ġfunctie": 7888,
      "ĠGa": 7889,
      "Ġopdracht": 7890,
      "uerto": 7891,
      "stuk": 7892,
      "Ġsei": 7893,
      "abb": 7894,
      "ĠWat": 7895,
      "terior": 7896,
      "iges": 7897,
      "Ġcontribut": 7898,
      "Ġdonc": 7899,
      "Ġsummer": 7900,
      "Ġfemale": 7901,
      "igade": 7902,
      "ĠÐŁÐ¾ÑģÐ»Ðµ": 7903,
      "71": 7904,
      "Ġcomment": 7905,
      "Ã£o": 7906,
      "Ġpositie": 7907,
      "62": 7908,
      "Ġherv": 7909,
      "ĠBell": 7910,
      "ĠFound": 7911,
      "Ġerschien": 7912,
      "Ġwhose": 7913,
      "Ġverhuis": 7914,
      "Ġerf": 7915,
      "Ð¸ÐºÐ°Ð½": 7916,
      "riage": 7917,
      "riften": 7918,
      "Ġmovement": 7919,
      "Ġdruk": 7920,
      "ĠGef": 7921,
      "akers": 7922,
      "ĠProgram": 7923,
      "ientos": 7924,
      "ĠMaur": 7925,
      "ĠÐ¿Ð°ÑĢÑĤ": 7926,
      "ĠÐķÐ²": 7927,
      "Ġgal": 7928,
      "ĠStation": 7929,
      "prise": 7930,
      "Ġjour": 7931,
      "Ġwriting": 7932,
      "Ġquelques": 7933,
      "ĠMÃ©": 7934,
      "Ġlied": 7935,
      "Ġenth": 7936,
      "Ġerstmals": 7937,
      "Ġbzw": 7938,
      "oneel": 7939,
      "Ġ160": 7940,
      "ĠItalian": 7941,
      "Ġquatre": 7942,
      "Ġbot": 7943,
      "Ġstudierte": 7944,
      "Ð»ÐµÑĤ": 7945,
      "erende": 7946,
      "gs": 7947,
      "ĠKam": 7948,
      "Ġoptre": 7949,
      "Ġpromin": 7950,
      "ĠInde": 7951,
      "Ġfestival": 7952,
      "Ġmiddel": 7953,
      "ĠthÃ©": 7954,
      "Ġminor": 7955,
      "tz": 7956,
      "aught": 7957,
      "ĠPhilipp": 7958,
      "Ġvida": 7959,
      "ĠOld": 7960,
      "Ġult": 7961,
      "Ġontstond": 7962,
      "ischof": 7963,
      "utch": 7964,
      "hre": 7965,
      "ĠÐ²Ðº": 7966,
      "Ġwanneer": 7967,
      "Ġchef": 7968,
      "ĠÐ¿Ð°ÑĢ": 7969,
      "Ġmechan": 7970,
      "key": 7971,
      "Ġmoderne": 7972,
      "etzung": 7973,
      "aries": 7974,
      "ĠMatt": 7975,
      "ĠÐ¼Ð°ÑĤÑĩ": 7976,
      "Ġespe": 7977,
      "ÑĢÐ°Ð»ÑĮ": 7978,
      "Ġsomet": 7979,
      "Ġking": 7980,
      "ĠOostenrijk": 7981,
      "inte": 7982,
      "ĠBoston": 7983,
      "ĠDub": 7984,
      "Ġcome": 7985,
      "ĠHerz": 7986,
      "ĠZent": 7987,
      "Ġmean": 7988,
      "Ġlik": 7989,
      "Ġfuture": 7990,
      "Ġarbeitete": 7991,
      "Ġenkel": 7992,
      "Ġ75": 7993,
      "Ġdaarom": 7994,
      "Ġkwal": 7995,
      "ĠFel": 7996,
      "Ġprovincie": 7997,
      "VD": 7998,
      "ĠTele": 7999,
      "Ð»ÐµÐºÑĤ": 8000,
      "Ġzahl": 8001,
      "Ġ1913": 8002,
      "ĠÐ¼ÐµÐ´": 8003,
      "ĠBat": 8004,
      "ancia": 8005,
      "Gen": 8006,
      "ÑĢÑĭÑĤ": 8007,
      "yth": 8008,
      "ĠLonden": 8009,
      "endet": 8010,
      "ÑĢÐ¾Ð¹": 8011,
      "ourd": 8012,
      "oÃ»t": 8013,
      "ĠPrix": 8014,
      "range": 8015,
      "88": 8016,
      "ER": 8017,
      "Ġspent": 8018,
      "ĠVirginia": 8019,
      "ĠHit": 8020,
      "Ġschw": 8021,
      "ĠĠĠ": 8022,
      "ĠZusammen": 8023,
      "ogen": 8024,
      "ĠMenschen": 8025,
      "ĠAnna": 8026,
      "Ġwet": 8027,
      "ĠExp": 8028,
      "Ġbuildings": 8029,
      "ĠAst": 8030,
      "Ġkilometer": 8031,
      "Ġcenter": 8032,
      "Ġattend": 8033,
      "hausen": 8034,
      "Ġwhom": 8035,
      "ĠÑĤÐµÑħ": 8036,
      "ratie": 8037,
      "ĠÐĸ": 8038,
      "ĠSpanish": 8039,
      "Ġzorg": 8040,
      "ĠScience": 8041,
      "oof": 8042,
      "ctive": 8043,
      "ĠHon": 8044,
      "ĠKh": 8045,
      "ÐµÐ½Ð½ÑĭÑħ": 8046,
      "Ġitself": 8047,
      "ests": 8048,
      "ready": 8049,
      "67": 8050,
      "ÐºÐ¾Ð²Ð¾Ð´": 8051,
      "ĠhÃ¶": 8052,
      "ĠÃītats": 8053,
      "kunde": 8054,
      "nahm": 8055,
      "rage": 8056,
      "Ġaspect": 8057,
      "ĠSecond": 8058,
      "gre": 8059,
      "ĠPed": 8060,
      "Ð¸ÑĤÐµÐ»ÐµÐ¹": 8061,
      "Ġarmy": 8062,
      "ĠdÃ©cembre": 8063,
      "Ġbeginning": 8064,
      "schappelijke": 8065,
      "Ġmoney": 8066,
      "Ġkampioen": 8067,
      "ĠBlo": 8068,
      "oks": 8069,
      "Ġunits": 8070,
      "ĠTel": 8071,
      "phen": 8072,
      "ĠVI": 8073,
      "ĠÐ½ÐµÐ¼": 8074,
      "Ġhert": 8075,
      "ĠXIX": 8076,
      "gru": 8077,
      "Ġtaking": 8078,
      "Ð´Ð¶": 8079,
      "69": 8080,
      "ÐµÑģÑĤÐ²Ðµ": 8081,
      "Ġriver": 8082,
      "illon": 8083,
      "ĠService": 8084,
      "ĠMcC": 8085,
      "ĠAk": 8086,
      "ulpt": 8087,
      "arily": 8088,
      "emd": 8089,
      "ĠGel": 8090,
      "uste": 8091,
      "rukt": 8092,
      "Ġgrandes": 8093,
      "Ġremov": 8094,
      "Ġvolledig": 8095,
      "ĠBoard": 8096,
      "ĠRotterdam": 8097,
      "ĠEine": 8098,
      "Ġalles": 8099,
      "ĠÐ½ÐµÐº": 8100,
      "Ġgirl": 8101,
      "merken": 8102,
      "stoff": 8103,
      "ĠÐ¼ÐµÐ¶Ð´Ñĥ": 8104,
      "Ð½Ð¸ÐºÐ¸": 8105,
      "teren": 8106,
      "Ġadministrat": 8107,
      "owers": 8108,
      "ĠKen": 8109,
      "tain": 8110,
      "ucle": 8111,
      "stel": 8112,
      "Ġorient": 8113,
      "Ġreform": 8114,
      "isa": 8115,
      "John": 8116,
      "Ġvoormalige": 8117,
      "ĠKais": 8118,
      "Ð¾ÐµÐ²": 8119,
      "ĠHarr": 8120,
      "ĠFranz": 8121,
      "Ġconn": 8122,
      "atus": 8123,
      "59": 8124,
      "Ġsondern": 8125,
      "Ð°ÑģÑģ": 8126,
      "ÑĥÑĢÑĭ": 8127,
      "Ġkrit": 8128,
      "ĠÐºÐ¾Ð³Ð´Ð°": 8129,
      "Ġstri": 8130,
      "orporation": 8131,
      "Ġcred": 8132,
      "ersp": 8133,
      "ĠUl": 8134,
      "ijds": 8135,
      "ridge": 8136,
      "abor": 8137,
      "inson": 8138,
      "llen": 8139,
      "Ġschol": 8140,
      "edeut": 8141,
      "ĠRailway": 8142,
      "rijving": 8143,
      "ĠDom": 8144,
      "Ġprogress": 8145,
      "rank": 8146,
      "Ġsiendo": 8147,
      "alter": 8148,
      "Ġwaarschijnlijk": 8149,
      "agt": 8150,
      "ĠCanadian": 8151,
      "Ġconflict": 8152,
      "ĠSeine": 8153,
      "ĠOx": 8154,
      "ĠClass": 8155,
      "ĠDemocrat": 8156,
      "OS": 8157,
      "Ã¼ss": 8158,
      "ĠInstitut": 8159,
      "inner": 8160,
      "ĠÐ¿Ð¾Ñĩ": 8161,
      "%)": 8162,
      "ĠParte": 8163,
      "Ġoperations": 8164,
      "eto": 8165,
      "Ã©rÃ©": 8166,
      "Me": 8167,
      "ĠÑģÑĤÐ°ÑĢ": 8168,
      "Ġrencont": 8169,
      "Ġtodos": 8170,
      "ĠDeutschen": 8171,
      "ĠÑģÐµÐ½ÑĤ": 8172,
      "Ġagric": 8173,
      "áµīÊ³": 8174,
      "Ġstudied": 8175,
      "ĠCentre": 8176,
      "ĠEp": 8177,
      "ĠfÃ¼hrte": 8178,
      "Ġregul": 8179,
      "ologÃŃa": 8180,
      "ĠNavy": 8181,
      "ĠVerk": 8182,
      "ĠBarcel": 8183,
      "Ġgraaf": 8184,
      "Career": 8185,
      "Ġ1915": 8186,
      "yes": 8187,
      "ji": 8188,
      "ĠprÃ©c": 8189,
      "Ġhacia": 8190,
      "Ġthre": 8191,
      "Ġig": 8192,
      "ĠÑĦÐ¾ÑĢÐ¼": 8193,
      "Ð°ÑİÑĤÑģÑı": 8194,
      "orks": 8195,
      "Ġ1911": 8196,
      "Ġproduc": 8197,
      "Ġbijzonder": 8198,
      "ĠDort": 8199,
      "Ð´ÐµÑĢÐ¶": 8200,
      "Ġoctobre": 8201,
      "ĠCongress": 8202,
      "ĠÑıÐ½": 8203,
      "Ġrichting": 8204,
      "ĠFlorida": 8205,
      "Ġmedian": 8206,
      "ĠHart": 8207,
      "Ġpersonn": 8208,
      "Ġvoorzitter": 8209,
      "Ġrequired": 8210,
      "ĠKingdom": 8211,
      "Ġsurface": 8212,
      "Ġdaarmee": 8213,
      "platz": 8214,
      "Ġtowards": 8215,
      "aute": 8216,
      ",_": 8217,
      "spap": 8218,
      "Ġx": 8219,
      "akken": 8220,
      "lichkeit": 8221,
      "uments": 8222,
      "Ġlegal": 8223,
      "urde": 8224,
      "Ġbooks": 8225,
      "gu": 8226,
      "Ð½Ð¸Ð¹": 8227,
      "ender": 8228,
      "ĠWales": 8229,
      "Ġespecially": 8230,
      "Ġdio": 8231,
      "Ã¶lker": 8232,
      "Description": 8233,
      "ĠJournal": 8234,
      "icaciÃ³n": 8235,
      "onkelijk": 8236,
      "ÑĢÐµÐ²": 8237,
      "Ġveld": 8238,
      "lying": 8239,
      "Ġentwick": 8240,
      "Ġbig": 8241,
      "73": 8242,
      "ĠÑģÐµÐ·": 8243,
      "Ġmientras": 8244,
      "utie": 8245,
      "ĠÐ¿ÑĢÐ¸Ñģ": 8246,
      "Ġaffect": 8247,
      "ahmen": 8248,
      "Levens": 8249,
      "Ġensuite": 8250,
      "otland": 8251,
      "Ġpens": 8252,
      "ĠÐ°Ð²Ð³ÑĥÑģÑĤ": 8253,
      "ĠKur": 8254,
      "ĠSun": 8255,
      "hein": 8256,
      "ĠgegrÃ¼nd": 8257,
      "aland": 8258,
      "ĠCatholic": 8259,
      "ĠnÃº": 8260,
      "ĠEt": 8261,
      "Ġended": 8262,
      "artier": 8263,
      "iep": 8264,
      "Ġscience": 8265,
      "Ð½Ð¾ÑģÑĤÑĮÑİ": 8266,
      "elli": 8267,
      "inois": 8268,
      "ÑĭÐ¼Ð¸": 8269,
      "Ð§": 8270,
      "bury": 8271,
      "Ġsan": 8272,
      "ovendien": 8273,
      "Ġnature": 8274,
      "Ġgene": 8275,
      "ĠÐ¾ÐºÑĤ": 8276,
      "Ġcelle": 8277,
      "macht": 8278,
      "ÑĥÑģÐº": 8279,
      "Ġdieren": 8280,
      "elled": 8281,
      "Histoire": 8282,
      "Ã¶st": 8283,
      "emeester": 8284,
      "ĠÑģÑĤÐ¾ÑĢÐ¾Ð½": 8285,
      "rische": 8286,
      "Dist": 8287,
      "Ġcelebr": 8288,
      "Äį": 8289,
      "Ġbepaalde": 8290,
      "Ġtel": 8291,
      "ĠMr": 8292,
      "ÑĢÐ°ÐºÑĤ": 8293,
      "Ġaunque": 8294,
      "Ġdic": 8295,
      "Ġ1916": 8296,
      "ĠMittel": 8297,
      "ĠÐ²Ð¼ÐµÑģÑĤ": 8298,
      "cre": 8299,
      "aamd": 8300,
      "emde": 8301,
      "Ġlove": 8302,
      "ĠFinal": 8303,
      "ĠÑĨÐµÑĢ": 8304,
      "ĠWeit": 8305,
      "ĠOut": 8306,
      "ĠpelÃŃcul": 8307,
      "ĠÐ³Ð¾Ð´Ð°Ñħ": 8308,
      "Ġonderste": 8309,
      "Ġonaf": 8310,
      "Ð»ÐµÐ¼": 8311,
      "olk": 8312,
      "âĢ³": 8313,
      "ĠprÃ©sent": 8314,
      "veel": 8315,
      "ientes": 8316,
      "Au": 8317,
      "cide": 8318,
      "Ġtar": 8319,
      "Ġtoute": 8320,
      "burgh": 8321,
      "Ġnodig": 8322,
      "Ġretro": 8323,
      "lah": 8324,
      "Ġkregen": 8325,
      "hire": 8326,
      "osen": 8327,
      "63": 8328,
      "Ġveh": 8329,
      "ĠUnt": 8330,
      "Ġdens": 8331,
      "Ġneben": 8332,
      "ĠÐĲÐ»ÐµÐºÑģ": 8333,
      "ĠLehr": 8334,
      "Ġzet": 8335,
      "Ind": 8336,
      "Ġneigh": 8337,
      "ĠsÃ©rie": 8338,
      "Ġwit": 8339,
      "Ġ1905": 8340,
      "Ġmanier": 8341,
      "genommen": 8342,
      "ended": 8343,
      "ollen": 8344,
      "ĠÑĥÐ¿": 8345,
      "ĠfrÃ¼": 8346,
      "Ġpolitique": 8347,
      "Man": 8348,
      "ills": 8349,
      "ondere": 8350,
      "ependant": 8351,
      "ÐºÐ°Ñħ": 8352,
      "Ġperd": 8353,
      "Ã©ment": 8354,
      "ĠÐ¾Ð´Ð¸Ð½": 8355,
      "ĠÑĥÐ½Ð¸Ð²ÐµÑĢÑģÐ¸ÑĤ": 8356,
      "rus": 8357,
      "Ġhu": 8358,
      "Ġtraditional": 8359,
      "Ð¸ÑĩÐµÑģÐºÐ¸Ðµ": 8360,
      "Ġtanto": 8361,
      "Par": 8362,
      "pass": 8363,
      "rin": 8364,
      "etzte": 8365,
      "ÑıÐ¼": 8366,
      "ĠÑĩÑĤÐ¾Ð±Ñĭ": 8367,
      "ĠJackson": 8368,
      "voud": 8369,
      "ĠLeon": 8370,
      "Ġschepen": 8371,
      "Ġbezoek": 8372,
      "Ġleader": 8373,
      "Ġeinige": 8374,
      "ĠSav": 8375,
      "ĠLiga": 8376,
      "vaart": 8377,
      "Ġillust": 8378,
      "ibliothe": 8379,
      "Ġcomplete": 8380,
      "Ã¢teau": 8381,
      "Ġisland": 8382,
      "Ã¶m": 8383,
      "Ġstandard": 8384,
      "Ġcorrespond": 8385,
      "bern": 8386,
      "Ġwoord": 8387,
      "bank": 8388,
      "dire": 8389,
      "abil": 8390,
      "ĠUnder": 8391,
      "Ġvlucht": 8392,
      "Ġvit": 8393,
      "Ġcoast": 8394,
      "52": 8395,
      "Ġdefeated": 8396,
      "ĠTok": 8397,
      "ĠAlthough": 8398,
      "Ġgeschat": 8399,
      "ouder": 8400,
      "Ð¼Ðµ": 8401,
      "Ġnovembre": 8402,
      "icia": 8403,
      "Ġbesl": 8404,
      "ĠValley": 8405,
      "Ð¸ÑĩÐµÑģÐºÐ¸Ð¹": 8406,
      "ĠResearch": 8407,
      "oden": 8408,
      "uin": 8409,
      "Ġhulp": 8410,
      "Ġliggen": 8411,
      "quier": 8412,
      "struction": 8413,
      "Ġformation": 8414,
      "Ġbattle": 8415,
      "Ġleef": 8416,
      "opend": 8417,
      "Ġissues": 8418,
      "Ġcada": 8419,
      "Ġgenomen": 8420,
      "Ġtip": 8421,
      "Ġcontinue": 8422,
      "ĠÐŀÑĤ": 8423,
      "Ġorganization": 8424,
      "ÑĥÐ»Ñı": 8425,
      "Ð»ÑĮÐ±": 8426,
      "Ġantes": 8427,
      "Ġwinning": 8428,
      "alo": 8429,
      "embly": 8430,
      "ĠAntonio": 8431,
      "sylvania": 8432,
      "Ġjob": 8433,
      "Ġpercent": 8434,
      "uurd": 8435,
      "Ġrend": 8436,
      "gef": 8437,
      "ĠKamer": 8438,
      "Ġ170": 8439,
      "Ġly": 8440,
      "Ġneu": 8441,
      "IA": 8442,
      "Ġexpand": 8443,
      "omet": 8444,
      "iza": 8445,
      "Ġstijl": 8446,
      "ĠÐŀÐ½": 8447,
      "Ġfeet": 8448,
      "Ġcomenz": 8449,
      "ublik": 8450,
      "cier": 8451,
      "Ġ34": 8452,
      "ĠSS": 8453,
      "ee": 8454,
      "ĠÑĩÐ»ÐµÐ½": 8455,
      "bs": 8456,
      "Ġkleur": 8457,
      "ĠGlo": 8458,
      "ĠÑģÐµÐ±": 8459,
      "iments": 8460,
      "ĠPremier": 8461,
      "Ġwinter": 8462,
      "ĠBou": 8463,
      "ijnse": 8464,
      "ĠStock": 8465,
      "Ġkunsten": 8466,
      "ibility": 8467,
      "var": 8468,
      "Ġzug": 8469,
      "Ð¼Ð¾Ð¶": 8470,
      "Ġverloor": 8471,
      "ĠtÃ¤t": 8472,
      "like": 8473,
      "61": 8474,
      "ĠÐ·ÐµÐ¼": 8475,
      "ĠCle": 8476,
      "Ġdeutscher": 8477,
      "Ġzwaar": 8478,
      "ultural": 8479,
      "Ð»Ð¸Ð²": 8480,
      "real": 8481,
      "Ġprod": 8482,
      "Ġlived": 8483,
      "Tijdens": 8484,
      "Ġgeval": 8485,
      "Ð¸Ð»Ð¾": 8486,
      "rying": 8487,
      "yect": 8488,
      "Ġidea": 8489,
      "ÑĢÐµÐ¹": 8490,
      "Ġminutes": 8491,
      "Ġscore": 8492,
      "ĠCy": 8493,
      "ÃĢ": 8494,
      "Ġconcl": 8495,
      "Ġtheater": 8496,
      "Ġmitt": 8497,
      "Ġbetrokken": 8498,
      "ĠHay": 8499,
      "ĠWeltkrieg": 8500,
      "Person": 8501,
      "Ġconditions": 8502,
      "Ġihrem": 8503,
      "techn": 8504,
      "appe": 8505,
      "ĠPers": 8506,
      "ĠÐ·Ð°Ð½Ð¸Ð¼": 8507,
      "Ġcaract": 8508,
      "Ġ#": 8509,
      "Ġmove": 8510,
      "wand": 8511,
      "Ġmanufact": 8512,
      "Ġdiscover": 8513,
      "Ġgl": 8514,
      "ÑĪÐ¸Ñħ": 8515,
      "Ġblijkt": 8516,
      "arÃŃa": 8517,
      "Verhaal": 8518,
      "ĠGh": 8519,
      "issie": 8520,
      "aces": 8521,
      "zocht": 8522,
      "Ã¤tz": 8523,
      "Ġstellen": 8524,
      "ĠHeinrich": 8525,
      "Ġerne": 8526,
      "ĠNieuw": 8527,
      "istry": 8528,
      "Ġarts": 8529,
      "Ġvindt": 8530,
      "Ã¤ss": 8531,
      "Ġautre": 8532,
      "Ġfif": 8533,
      "ĠThat": 8534,
      "Ġsource": 8535,
      "furt": 8536,
      "sters": 8537,
      "ĠfranzÃ¶s": 8538,
      "Ġalready": 8539,
      "Ġnetwork": 8540,
      "ĠÐ¶ÐµÐ»": 8541,
      "Ġspecif": 8542,
      "wedstrijd": 8543,
      "Ġcust": 8544,
      "ujer": 8545,
      "Ġalgemeen": 8546,
      "She": 8547,
      "crit": 8548,
      "Ð°ÐºÑĤ": 8549,
      "Ro": 8550,
      "Ġpractice": 8551,
      "Ġ48": 8552,
      "pert": 8553,
      "ĠFootball": 8554,
      "ĠÃ©v": 8555,
      "ĠGeschichte": 8556,
      "ĠRegion": 8557,
      "ĠHamburg": 8558,
      "Ġkey": 8559,
      "anderen": 8560,
      "ĠÐ¼Ð¾Ð»": 8561,
      "Ġspect": 8562,
      "Ã³m": 8563,
      "Ġdicht": 8564,
      "Ġask": 8565,
      "West": 8566,
      "ĠÑĢÐµÐ·ÑĥÐ»ÑĮÑĤ": 8567,
      "jun": 8568,
      "park": 8569,
      "Ġhigher": 8570,
      "ĠEngelse": 8571,
      "zing": 8572,
      "Ġcombat": 8573,
      "Ġfils": 8574,
      "Ġinvest": 8575,
      "ĠaoÃ»t": 8576,
      "Ġcell": 8577,
      "54": 8578,
      "add": 8579,
      "ĠAwards": 8580,
      "Ġontwikkeling": 8581,
      "Ġfourth": 8582,
      "atri": 8583,
      "heids": 8584,
      "Ġself": 8585,
      "Ġbass": 8586,
      "Ġdetermin": 8587,
      "Ġtroepen": 8588,
      "ĠCarlos": 8589,
      "based": 8590,
      "Ġbroadcast": 8591,
      "raum": 8592,
      "Ġbevor": 8593,
      "Ã¶ff": 8594,
      "ĠCru": 8595,
      "Ġbeper": 8596,
      "Ġgeplaatst": 8597,
      "Ð¾Ð»Ð¾": 8598,
      "ĠÐ´ÐµÐºÐ°Ð±": 8599,
      "ĠPublic": 8600,
      "ĠTa": 8601,
      "erin": 8602,
      "Ġcompetition": 8603,
      "Ġobten": 8604,
      "ĠEnter": 8605,
      "ĠGovernment": 8606,
      "ĠJahrhunderts": 8607,
      "Ġ1908": 8608,
      "ikel": 8609,
      "rÃ©e": 8610,
      "aging": 8611,
      "Ġtemporada": 8612,
      "Ġloopt": 8613,
      "ĠDorf": 8614,
      "Ġgouvernement": 8615,
      "ĠRang": 8616,
      "Ġhetzelfde": 8617,
      "anned": 8618,
      "ĠÑĥÐ¶Ðµ": 8619,
      "ĠÐ·Ð½Ð°Ñĩ": 8620,
      "will": 8621,
      "ĠNieder": 8622,
      "lywood": 8623,
      "rero": 8624,
      "Ġzus": 8625,
      "ĠÐ¡Ð¾Ð²": 8626,
      "ĠÐ¡Ð¡Ð¡Ðł": 8627,
      "ĠTwo": 8628,
      "Ġkomm": 8629,
      "ĠSem": 8630,
      "tonces": 8631,
      "ĠprÃ©sident": 8632,
      "Ġtrok": 8633,
      "Ġchrist": 8634,
      "Ġhospital": 8635,
      "Ġrejo": 8636,
      "Ð°ÑĢÐ¾Ð´": 8637,
      "Ġsenior": 8638,
      "bus": 8639,
      "Ġeditor": 8640,
      "ĠPass": 8641,
      "ÐµÐ·Ð´": 8642,
      "Ġsystems": 8643,
      "Ð¸ÐµÐ¼": 8644,
      "Ġbeschik": 8645,
      "ĠdiffÃ©r": 8646,
      "pol": 8647,
      "ĠInn": 8648,
      "Ġappel": 8649,
      "ÐµÐ½ÑĤÐ°": 8650,
      "Ġmanagement": 8651,
      "ĠOrts": 8652,
      "Ġthus": 8653,
      "ichen": 8654,
      "Ġmoesten": 8655,
      "Ġstudie": 8656,
      "ĠMol": 8657,
      "lieÃŁlich": 8658,
      "âģ": 8659,
      "esis": 8660,
      "usband": 8661,
      "orme": 8662,
      "indust": 8663,
      "ĠKirchen": 8664,
      "Ġthought": 8665,
      "MA": 8666,
      "iegel": 8667,
      "ersey": 8668,
      "Ġstrateg": 8669,
      "Ġprimary": 8670,
      "ĠVerder": 8671,
      "Ġstaff": 8672,
      "ĠTag": 8673,
      "Ġdestroy": 8674,
      "ifest": 8675,
      "Ġactivities": 8676,
      "Ġavril": 8677,
      "iti": 8678,
      "ietnam": 8679,
      "96": 8680,
      "uda": 8681,
      "law": 8682,
      "ollar": 8683,
      "53": 8684,
      "ardin": 8685,
      "Ã¡r": 8686,
      "Ġbenef": 8687,
      "Ġintens": 8688,
      "ĠIreland": 8689,
      "Ġ(Â«": 8690,
      "Ġjazz": 8691,
      "Ġimportante": 8692,
      "Ġbedo": 8693,
      "Ġincorpor": 8694,
      "ĠBow": 8695,
      "wicklung": 8696,
      "Ġzweiten": 8697,
      "Ġgoals": 8698,
      "Ġselon": 8699,
      "Ġnation": 8700,
      "ĠVolgens": 8701,
      "ĠÑĥÐ±": 8702,
      "jÃ¤hr": 8703,
      "Ġlength": 8704,
      "92": 8705,
      "Ð½Ð¸ÐºÐ¾Ð¼": 8706,
      "Ġruns": 8707,
      "Ġwir": 8708,
      "Ã¨de": 8709,
      "ĠLar": 8710,
      "programma": 8711,
      "fall": 8712,
      "ĠSoci": 8713,
      "ĠQueen": 8714,
      "ĠdÃŃa": 8715,
      "Ġdernier": 8716,
      "Ġbehand": 8717,
      "ÐµÑĢÐµ": 8718,
      "Ġgobierno": 8719,
      "Ġcm": 8720,
      "wagen": 8721,
      "Ġtrouve": 8722,
      "ĠBÃ¼rger": 8723,
      "Ġinner": 8724,
      "Ġvraag": 8725,
      "ends": 8726,
      "ĠspÃ©": 8727,
      "Ġmarch": 8728,
      "Ġscen": 8729,
      "pez": 8730,
      "ubliek": 8731,
      "ehr": 8732,
      "Ġlever": 8733,
      "Ġchap": 8734,
      "Ġaccording": 8735,
      "Ã¤nge": 8736,
      "Ġlocation": 8737,
      "Ġrailway": 8738,
      "ĠKlo": 8739,
      "Ġvre": 8740,
      "Ġgekozen": 8741,
      "Ġroi": 8742,
      "Ġ44": 8743,
      "ĠÑĢÐ°ÑģÐ¿Ð¾Ð»Ð¾Ð¶": 8744,
      "ĠespaÃ±": 8745,
      "ĠÑģÐ¸ÑģÑĤÐµÐ¼": 8746,
      "ĠÑģÐ¾ÑģÑĤÐ°Ð²Ðµ": 8747,
      "Ġproperty": 8748,
      "Ġparlement": 8749,
      "blad": 8750,
      "asy": 8751,
      "ĠKom": 8752,
      "ĠWo": 8753,
      "affen": 8754,
      "Ġmocht": 8755,
      "ĠWomen": 8756,
      "vall": 8757,
      "ĠÑģÐ¾Ð²ÐµÑĤ": 8758,
      "Ġcurrently": 8759,
      "Ġlichaam": 8760,
      "ients": 8761,
      "Ġwoman": 8762,
      "ĠBan": 8763,
      "Ġdieses": 8764,
      "Ð°Ð¶": 8765,
      "ĠEspaÃ±a": 8766,
      "ĠGab": 8767,
      "izabeth": 8768,
      "ĠLiter": 8769,
      "Ġmas": 8770,
      "ÐµÑĢÐ¾Ð¼": 8771,
      "Ġ120": 8772,
      "--": 8773,
      "Ġsurround": 8774,
      "Ġheut": 8775,
      "Ġadvoc": 8776,
      "Ġneer": 8777,
      "ĠCou": 8778,
      "ĠÐ³Ð¾Ð´Ñĭ": 8779,
      "angel": 8780,
      "Ð»Ð¸Ð·": 8781,
      "ĠRud": 8782,
      "ĠJugend": 8783,
      "Ġdecor": 8784,
      "gele": 8785,
      "51": 8786,
      "Ġquestion": 8787,
      "Ð»Ð°Ð³": 8788,
      "demie": 8789,
      "tende": 8790,
      "ubre": 8791,
      "Ġalbums": 8792,
      "ĠGi": 8793,
      "Ġincreased": 8794,
      "ÑĢÐ°ÑģÑĤ": 8795,
      "ĠÐ°Ð¿ÑĢÐµ": 8796,
      "Ġearlier": 8797,
      "ivos": 8798,
      "ĠÂ£": 8799,
      "Ġissue": 8800,
      "-,": 8801,
      "eff": 8802,
      "Ġzomer": 8803,
      "Ġcoup": 8804,
      "ĠÐºÐ°Ñĩ": 8805,
      "ĠLig": 8806,
      "Ġeinz": 8807,
      "Ġ1907": 8808,
      "ook": 8809,
      "Ġid": 8810,
      "reiche": 8811,
      "ĠÑĢÐ°Ð¹Ð¾Ð½": 8812,
      "ĠBattle": 8813,
      "unds": 8814,
      "Ġentire": 8815,
      "ĠÐ¸Ð¼Ð¿": 8816,
      "Ġoost": 8817,
      "ĠPak": 8818,
      "Ġdistin": 8819,
      "ĠRussische": 8820,
      "erkt": 8821,
      "Ġparall": 8822,
      "izaciÃ³n": 8823,
      "Ġthuis": 8824,
      "Ġentered": 8825,
      "unnel": 8826,
      "ibles": 8827,
      "Ð½ÑĥÑĤ": 8828,
      "Unis": 8829,
      "antie": 8830,
      "Ġaud": 8831,
      "hemat": 8832,
      "Ġ1906": 8833,
      "Ã¼cke": 8834,
      "Ġapproxim": 8835,
      "ĠBBC": 8836,
      "genoot": 8837,
      "Ġbil": 8838,
      "Ġnine": 8839,
      "aurus": 8840,
      "geord": 8841,
      "ÑģÑĤÐ²Ð¾Ð¼": 8842,
      "ĠÐµÑīÑĳ": 8843,
      "usse": 8844,
      "ĠCra": 8845,
      "ĠGott": 8846,
      "Ð°ÑĨÐ¸Ð¾Ð½": 8847,
      "Ġuns": 8848,
      "ĠMichel": 8849,
      "ohner": 8850,
      "bildung": 8851,
      "fach": 8852,
      "ĠWahl": 8853,
      "ĠÐºÐ¾ÑĤÐ¾ÑĢÑĭÑħ": 8854,
      "ĠHy": 8855,
      "ĠSoviet": 8856,
      "ĠintÃ©": 8857,
      "Ġcharge": 8858,
      "ÑģÑģÐ»ÐµÐ´": 8859,
      "westen": 8860,
      "ĠreÃ§": 8861,
      "Ã³g": 8862,
      "school": 8863,
      "ĠVo": 8864,
      "proken": 8865,
      "Ġaqu": 8866,
      "ĠCarolina": 8867,
      "ÑĢÐ°Ð»": 8868,
      "Ġbord": 8869,
      "Ġmois": 8870,
      "ĠCes": 8871,
      "Ġsimp": 8872,
      "ĠÑĢÑĥÐºÐ¾Ð²Ð¾Ð´": 8873,
      "New": 8874,
      "Ġsommige": 8875,
      "ĠPen": 8876,
      "eman": 8877,
      "Ð¸Ð½Ñĥ": 8878,
      "ĠVictoria": 8879,
      "ĠOh": 8880,
      "Ġnewspap": 8881,
      "97": 8882,
      "ohen": 8883,
      "ĠBir": 8884,
      "Ġmeans": 8885,
      "Ġcompanies": 8886,
      "oorn": 8887,
      "ÑĪÐ¸Ð¹": 8888,
      "Ġgast": 8889,
      "ĠInt": 8890,
      "etters": 8891,
      "ĠTheatre": 8892,
      "inkel": 8893,
      "Ġfood": 8894,
      "Ġhatten": 8895,
      "aki": 8896,
      "ĠÐ¼Ð½Ð¾Ð³": 8897,
      "Ġmachine": 8898,
      "Ġseule": 8899,
      "ÑĦÐ¸ÑĨ": 8900,
      "Ġforced": 8901,
      "Ġafstand": 8902,
      "ĠKreis": 8903,
      "Ġimmed": 8904,
      "Met": 8905,
      "Ġligne": 8906,
      "aamde": 8907,
      "uster": 8908,
      "ĠÐ¸Ð½ÑģÑĤ": 8909,
      "ĠLew": 8910,
      "Ġruimte": 8911,
      "Levensloop": 8912,
      "Ġ1000": 8913,
      "Ġunit": 8914,
      "Ð°ÐµÐ¼": 8915,
      "ĠÑģÑĤÑĢÐ¾": 8916,
      "Ġtoernooi": 8917,
      "unts": 8918,
      "ĠNik": 8919,
      "ĠLuis": 8920,
      "Ġelke": 8921,
      "Ðķ": 8922,
      "ĠRoss": 8923,
      "Ġzeg": 8924,
      "ielle": 8925,
      "Ġsimple": 8926,
      "ouverneur": 8927,
      "Ġsaf": 8928,
      "iate": 8929,
      "rog": 8930,
      "Ġaccomp": 8931,
      "rera": 8932,
      "Ġobjet": 8933,
      "oral": 8934,
      "ĠFoundation": 8935,
      "arian": 8936,
      "ĠLife": 8937,
      "ĠRechts": 8938,
      "Ġgrant": 8939,
      "uÃ©": 8940,
      "RA": 8941,
      "Ġrapport": 8942,
      "ĠNov": 8943,
      "ĠHeim": 8944,
      "Ġjewe": 8945,
      "ĠGron": 8946,
      "ĠÑģÐµÐ²ÐµÑĢ": 8947,
      "ceerd": 8948,
      "bru": 8949,
      "Ġexped": 8950,
      "Ġ250": 8951,
      "Ġnombreux": 8952,
      "Ġorganisatie": 8953,
      "Ġsollte": 8954,
      "Ġinfluence": 8955,
      "Ġtur": 8956,
      "ÐµÐ½ÐµÑĢÐ°": 8957,
      "ĠItaliÃ«": 8958,
      "Ð¸ÑĤÐµÐ»ÑĮÐ½Ð¾": 8959,
      "hoven": 8960,
      "ĠdÃ©m": 8961,
      "Ġgrens": 8962,
      "ags": 8963,
      "spiel": 8964,
      "Ġnamelijk": 8965,
      "inand": 8966,
      "ĠJohnson": 8967,
      "jekt": 8968,
      "ĠÐºÐ¾ÑĤ": 8969,
      "utenant": 8970,
      "orde": 8971,
      "Ġgebas": 8972,
      "irement": 8973,
      "Ġdecision": 8974,
      "ĠTar": 8975,
      "Ð½Ð¸Ð³": 8976,
      "Ġenvironment": 8977,
      "ĠFrau": 8978,
      "Ġprevent": 8979,
      "Ġstaats": 8980,
      "aarde": 8981,
      "Ġzone": 8982,
      "phy": 8983,
      "nete": 8984,
      "uset": 8985,
      "ulen": 8986,
      "schappij": 8987,
      "uther": 8988,
      "pers": 8989,
      "Ġ37": 8990,
      "Reg": 8991,
      "isis": 8992,
      "ĠÐ´Ð²Ð°": 8993,
      "anos": 8994,
      "orb": 8995,
      "ĠdÃ©cl": 8996,
      "Ã©vrier": 8997,
      "eters": 8998,
      "Ð¾ÑģÑĤÑĮ": 8999,
      "Ð¾Ð·Ñı": 9000,
      "Ġpreviously": 9001,
      "emorial": 9002,
      "Ġdiam": 9003,
      "venir": 9004,
      "Ġlaunched": 9005,
      "ĠÑģÑĥÐ´": 9006,
      "cties": 9007,
      "Ġdemand": 9008,
      "lers": 9009,
      "Ġclosed": 9010,
      "ĠtÃ¤tig": 9011,
      "iation": 9012,
      "ĠProt": 9013,
      "aming": 9014,
      "auspiel": 9015,
      "fica": 9016,
      "Ġrivier": 9017,
      "Ã¤u": 9018,
      "ĠBlue": 9019,
      "ĠSimon": 9020,
      "ĠÐ°ÑĢÑħ": 9021,
      "57": 9022,
      "ĠWel": 9023,
      "Ġerhalten": 9024,
      "ÑĥÑĢÐ½": 9025,
      "Ġtransl": 9026,
      "Ġgren": 9027,
      "ĠÐĿÐ¸Ðº": 9028,
      "Ġvoorkomen": 9029,
      "ÐĿÐ°": 9030,
      "ĠPortugal": 9031,
      "Ġpeque": 9032,
      "Ġcombin": 9033,
      "Ġprijs": 9034,
      "Ġverbonden": 9035,
      "Ġrund": 9036,
      "Ġintent": 9037,
      "Ġindependent": 9038,
      "ĠPrince": 9039,
      "Ġpassed": 9040,
      "Ġrechten": 9041,
      "Ġapare": 9042,
      "uzik": 9043,
      "ĠÑĢÐµÐ³": 9044,
      "middels": 9045,
      "edo": 9046,
      "fern": 9047,
      "ĠUp": 9048,
      "bez": 9049,
      "Ð°Ð»ÑĮÐ½Ð¾Ð¹": 9050,
      "Ġgoing": 9051,
      "Ġdouble": 9052,
      "see": 9053,
      "Ġlatere": 9054,
      "Ġguitar": 9055,
      "Ġinitial": 9056,
      "entre": 9057,
      "ĠgroÃŁen": 9058,
      "ĠÑģÐ¿ÐµÑĨ": 9059,
      "ĠSÃ¼": 9060,
      "Ġreis": 9061,
      "ĠKerk": 9062,
      "Ġlanz": 9063,
      "ĠSein": 9064,
      "Ġinspir": 9065,
      "Ġfand": 9066,
      "shire": 9067,
      "ĠWohn": 9068,
      "zogen": 9069,
      "Ġsav": 9070,
      "uerte": 9071,
      "Ġrot": 9072,
      "Ġmut": 9073,
      "Ġpersonas": 9074,
      "ĠBarcelona": 9075,
      "Ġervan": 9076,
      "Ġplans": 9077,
      "ĠHolland": 9078,
      "Ġoudste": 9079,
      "Ġgemeins": 9080,
      "ĠVater": 9081,
      "ĠBroad": 9082,
      "Ġbox": 9083,
      "Ġsouthern": 9084,
      "schlieÃŁend": 9085,
      "Ġevidence": 9086,
      "Ġtuvo": 9087,
      "ÑıÐ¼Ð¸": 9088,
      "ogue": 9089,
      "Ġshot": 9090,
      "ĠOther": 9091,
      "bu": 9092,
      "ĠTit": 9093,
      "Ð°Ð½Ñĭ": 9094,
      "past": 9095,
      "omes": 9096,
      "Ġrul": 9097,
      "ĠÐ¿Ð¾Ð»Ð¸ÑĤ": 9098,
      "Ġrecent": 9099,
      "ivel": 9100,
      "Ġapart": 9101,
      "Ġnorthern": 9102,
      "Ġmejor": 9103,
      "Ġhusband": 9104,
      "pected": 9105,
      "Ġdrug": 9106,
      "ĠÐ¿Ð¾Ð»ÑĥÑĩÐ¸Ð»": 9107,
      "ulte": 9108,
      "ĠSel": 9109,
      "Ġcaused": 9110,
      "ĠPennsylvania": 9111,
      "Ġsector": 9112,
      "Ġzichzelf": 9113,
      "Ġgive": 9114,
      "ĠEisen": 9115,
      "Ġdrum": 9116,
      "ĠÐ¼ÑĥÐ·Ñĭ": 9117,
      "Ð¨ÐĲ": 9118,
      "kking": 9119,
      "ĠBron": 9120,
      "Ġ1890": 9121,
      "ĠÐ´Ð¾Ðº": 9122,
      "rez": 9123,
      "Ġfederal": 9124,
      "ĠÐ²Ð¾Ð¹ÑģÐº": 9125,
      "ĠAc": 9126,
      "iot": 9127,
      "ĠCorps": 9128,
      "ĠFuÃŁ": 9129,
      "ĠÑģÑĤÑĢÐ°": 9130,
      "ÐµÐ½Ð´": 9131,
      "rÃŃa": 9132,
      "We": 9133,
      "ĠÑĢÑĥÑģ": 9134,
      "ĠColl": 9135,
      "ĠcÃ´": 9136,
      "ĠCivil": 9137,
      "ĠGil": 9138,
      "aje": 9139,
      "ĠStein": 9140,
      "Ġbetter": 9141,
      "Ġolder": 9142,
      "Ġnumerous": 9143,
      "ĠInc": 9144,
      "94": 9145,
      "Ð¸ÐºÐµ": 9146,
      "Over": 9147,
      "Ġwicht": 9148,
      "Ġsyst": 9149,
      "Ġontmo": 9150,
      "93": 9151,
      "Ã¤che": 9152,
      "Ġgla": 9153,
      "ÐµÐ½Ð½Ð¾Ð¹": 9154,
      "Ġbecoming": 9155,
      "Ġnoted": 9156,
      "ãĥ": 9157,
      "ĠWall": 9158,
      "Ġheil": 9159,
      "Ã¼ndete": 9160,
      "mel": 9161,
      "quer": 9162,
      "Ġregist": 9163,
      "Ġwenn": 9164,
      "Ð¾ÑģÐ¾Ð±": 9165,
      "urer": 9166,
      "rd": 9167,
      "har": 9168,
      "ĠBab": 9169,
      "Jos": 9170,
      "86": 9171,
      "bec": 9172,
      "Ð»Ð¾Ð¶": 9173,
      "ĠWalter": 9174,
      "Ġlack": 9175,
      "Ġmehrere": 9176,
      "ĠArthur": 9177,
      "sex": 9178,
      "Ð²ÐµÐ´": 9179,
      "nten": 9180,
      "Ġsuit": 9181,
      "Ġcoll": 9182,
      "Ġfinish": 9183,
      "ĠMost": 9184,
      "ĠÐ¿ÐµÑĢÐ¸": 9185,
      "Ġgenerally": 9186,
      "atorium": 9187,
      "Ġinstitut": 9188,
      "vinden": 9189,
      "kon": 9190,
      "Ġentonces": 9191,
      "Ġkans": 9192,
      "edt": 9193,
      "Ġblad": 9194,
      "maat": 9195,
      "Ġlegisl": 9196,
      "ÑįÑĤ": 9197,
      "ĠCub": 9198,
      "ĠÑĩÐµÑĢÐµÐ·": 9199,
      "Ġaccount": 9200,
      "aans": 9201,
      "gesamt": 9202,
      "Ġhar": 9203,
      "Ġvictory": 9204,
      "Ġsteden": 9205,
      "cciones": 9206,
      "Ġroom": 9207,
      "oli": 9208,
      "Ġcreate": 9209,
      "Ġconsum": 9210,
      "Ġquick": 9211,
      "Ġzit": 9212,
      "ĠHot": 9213,
      "ĠTay": 9214,
      "Ġ1909": 9215,
      "Ġdirected": 9216,
      "Ġproc": 9217,
      "Ġcoal": 9218,
      "ckt": 9219,
      "enso": 9220,
      "velopment": 9221,
      "ĠÐ½ÐµÑģÐºÐ¾Ð»ÑĮÐºÐ¾": 9222,
      "iesen": 9223,
      "ĠPacific": 9224,
      "Ġbeleg": 9225,
      "ĠÐ¿Ð¾ÑĢ": 9226,
      "ĠÃ©taient": 9227,
      "iedere": 9228,
      "Ġrunning": 9229,
      "ymnas": 9230,
      "Ġsociale": 9231,
      "Ġtrip": 9232,
      "Ð¾Ñİ": 9233,
      "Ġwechselte": 9234,
      "Ġ1904": 9235,
      "ĠpÃ¨re": 9236,
      "atique": 9237,
      "Ġenem": 9238,
      "Ġbescherm": 9239,
      "Ġtrade": 9240,
      "ĠAnfang": 9241,
      "Ġhelft": 9242,
      "Ġgegeven": 9243,
      "Ġpiano": 9244,
      "inary": 9245,
      "ĠWasser": 9246,
      "ĠJoe": 9247,
      "Ġakt": 9248,
      "ÑĥÐ´Ð¾Ð¶": 9249,
      "igur": 9250,
      "Ġmiemb": 9251,
      "Ġdent": 9252,
      "Ġreeds": 9253,
      "ĠGreg": 9254,
      "tainment": 9255,
      "ĠSeries": 9256,
      "ĠLine": 9257,
      "wirtschaft": 9258,
      "Ġdiesen": 9259,
      "acion": 9260,
      "ĠJahres": 9261,
      "Ġmeeting": 9262,
      "was": 9263,
      "wart": 9264,
      "acters": 9265,
      "ĠOf": 9266,
      "ennes": 9267,
      "istisch": 9268,
      "Ġdiplom": 9269,
      "Deze": 9270,
      "Ð¾ÑıÐ±": 9271,
      "Ġoog": 9272,
      "ĠHendrik": 9273,
      "utlich": 9274,
      "Ġappearance": 9275,
      "Ġposter": 9276,
      "Ð¾ÑĤÐ°": 9277,
      "Ġhelped": 9278,
      "erecht": 9279,
      "ĠÃ©crit": 9280,
      "esser": 9281,
      "Ġvlak": 9282,
      "ĠCab": 9283,
      "Ġcomputer": 9284,
      "ĠKont": 9285,
      "Ġclaimed": 9286,
      "cts": 9287,
      "Ġafin": 9288,
      "Ġcultural": 9289,
      "Ġrecib": 9290,
      "ĠfÃ©vrier": 9291,
      "omst": 9292,
      "ĠÐ½Ð°Ð·Ð½Ð°Ñĩ": 9293,
      "ĠDra": 9294,
      "ĠGebÃ¤ude": 9295,
      "umen": 9296,
      "ĠHarry": 9297,
      "Ð²Ðµ": 9298,
      "ĠÐ¼ÑĥÐ¶": 9299,
      "Ġfinancial": 9300,
      "Ġbreak": 9301,
      "Ð·Ð¸Ð´": 9302,
      "right": 9303,
      "Ġallerdings": 9304,
      "famil": 9305,
      "Ġhistoria": 9306,
      "igheden": 9307,
      "ĠDirector": 9308,
      "Ġante": 9309,
      "ĠÑĤÐµÐ¼": 9310,
      "AT": 9311,
      "Ġheer": 9312,
      "berto": 9313,
      "ĠÐ½Ð¾ÑıÐ±": 9314,
      "ori": 9315,
      "Ġour": 9316,
      "ÐµÑĢÐ¼": 9317,
      "roken": 9318,
      "cipl": 9319,
      "lbum": 9320,
      "Ð¾Ð³Ð»Ð°Ñģ": 9321,
      "ĠrÃ©p": 9322,
      "ĠEmpire": 9323,
      "uay": 9324,
      "nent": 9325,
      "Ġsubs": 9326,
      "Ġcontempor": 9327,
      "oemde": 9328,
      "mitted": 9329,
      "idt": 9330,
      "Ð´ÐµÐ¼": 9331,
      "Ġvolks": 9332,
      "standing": 9333,
      "Ġ1870": 9334,
      "ĠNS": 9335,
      "Ġinaug": 9336,
      "onders": 9337,
      "Ġ64": 9338,
      "Ste": 9339,
      "ĠÐ¿ÑĢÐ¾Ð¸Ð·Ð²Ð¾Ð´": 9340,
      "icks": 9341,
      "esto": 9342,
      "Ġhy": 9343,
      "ĠGrie": 9344,
      "istance": 9345,
      "Ġboeken": 9346,
      "Ġwebsite": 9347,
      "Ġestablish": 9348,
      "adron": 9349,
      "cif": 9350,
      "ÑĢÐµÐ´ÐµÐ»": 9351,
      "ĠSchiff": 9352,
      "mpt": 9353,
      "PS": 9354,
      "Ġrecher": 9355,
      "Ġverspre": 9356,
      "Ġeconomic": 9357,
      "Ġli": 9358,
      "ician": 9359,
      "Ġchampionship": 9360,
      "ĠnÃºmer": 9361,
      "Ġrefer": 9362,
      "Ġexclus": 9363,
      "Ġstelde": 9364,
      "ĠElect": 9365,
      "ĠÐ²ÐºÐ»ÑİÑĩ": 9366,
      "ĠSpaanse": 9367,
      "Ġhield": 9368,
      "Ġmujer": 9369,
      "Ġstay": 9370,
      "Ġlokale": 9371,
      "ĠNadat": 9372,
      "plan": 9373,
      "ĠKarel": 9374,
      "Ġinitially": 9375,
      "Ġread": 9376,
      "exp": 9377,
      "Ġsuccesvol": 9378,
      "Ġtroops": 9379,
      "Ð±Ð°": 9380,
      "Ġtand": 9381,
      "Ġlimit": 9382,
      "Ġnob": 9383,
      "Ð°ÑĢÐ¸": 9384,
      "uchten": 9385,
      "Ġsuc": 9386,
      "Ġgebieden": 9387,
      "ĠCreek": 9388,
      "ÐµÐ½Ð½ÑĭÐ¹": 9389,
      "ÑĨÐ¸Ñİ": 9390,
      "Ġ42": 9391,
      "Ġowned": 9392,
      "Ġkruis": 9393,
      "Ġmoy": 9394,
      "Ð¾Ð±Ñī": 9395,
      "ĠÐ²ÑģÑĤ": 9396,
      "ĠgroÃŁe": 9397,
      "Ġvijft": 9398,
      "ĠFun": 9399,
      "chem": 9400,
      "known": 9401,
      "Ġverhuisde": 9402,
      "ÑĢÐµÐ¿": 9403,
      "ĠÑĦÐ¸Ð½": 9404,
      "ĠÐºÐ¾ÑĤÐ¾ÑĢÐ¾Ð¹": 9405,
      "Ġburgemeester": 9406,
      "Ġuitgebre": 9407,
      "odo": 9408,
      "Ġsupported": 9409,
      "Ġgebruiken": 9410,
      "Ġgebaseerd": 9411,
      "ansas": 9412,
      "ĠAlexand": 9413,
      "Ġwide": 9414,
      "odox": 9415,
      "ront": 9416,
      "ĠÐĺÐ½": 9417,
      "Ġuitgebracht": 9418,
      "itting": 9419,
      "wald": 9420,
      "Ã©rit": 9421,
      "lid": 9422,
      "Ġgedaan": 9423,
      "Ã¨te": 9424,
      "Ġnad": 9425,
      "Ġphilosoph": 9426,
      "ĠWK": 9427,
      "Ġartists": 9428,
      "ĠFest": 9429,
      "ĠÐ¡Ð¨ÐĲ": 9430,
      "Ġdiens": 9431,
      "richting": 9432,
      "ĠÐ²ÑĭÑĪ": 9433,
      "Ġvertegenwoord": 9434,
      "ĠBrand": 9435,
      "ÐµÑĤÐµ": 9436,
      "Ġprend": 9437,
      "ĠEinw": 9438,
      "Ġchez": 9439,
      "91": 9440,
      "yo": 9441,
      "Ġmedaille": 9442,
      "Ġgang": 9443,
      "Ġcentrum": 9444,
      "ĠÑĩÐ°ÑģÑĤÐ¸": 9445,
      "Ġtekst": 9446,
      "Ġflu": 9447,
      "osof": 9448,
      "Ġrij": 9449,
      "Ġremains": 9450,
      "lab": 9451,
      "Ġelectric": 9452,
      "ĠSyd": 9453,
      "ĠLudwig": 9454,
      "ĠTest": 9455,
      "Ã¨ve": 9456,
      "Ã©quipe": 9457,
      "ĠLuft": 9458,
      "down": 9459,
      "ĠÐ´Ð¸": 9460,
      "ĠConse": 9461,
      "Ġmaster": 9462,
      "Ġsituation": 9463,
      "ÑģÑĤÐ²Ðµ": 9464,
      "Ġgemeenten": 9465,
      "Ġwijk": 9466,
      "iemand": 9467,
      "Ġapproach": 9468,
      "ÑĢÐ¸ÑģÑĤ": 9469,
      "Ġerfolgte": 9470,
      "Ġsil": 9471,
      "Ġplatform": 9472,
      "ĠZealand": 9473,
      "Ġcare": 9474,
      "Ġsometimes": 9475,
      "2010": 9476,
      "ĠCharl": 9477,
      "Ġincluy": 9478,
      "ctic": 9479,
      "ĠMoor": 9480,
      "ĠWild": 9481,
      "ĠLam": 9482,
      "Ġpoet": 9483,
      "Ġluch": 9484,
      "Ġhertog": 9485,
      "Ġraised": 9486,
      "ĠElizabeth": 9487,
      "ilitÃ©": 9488,
      "ĠPun": 9489,
      "Ein": 9490,
      "Ã¤mp": 9491,
      "perial": 9492,
      "Ġdivid": 9493,
      "Ġnauw": 9494,
      "ĠParliament": 9495,
      "Ġreeks": 9496,
      "Ġfamous": 9497,
      "ansion": 9498,
      "annÃ©e": 9499,
      "ĠNews": 9500,
      "ÐµÑĢÐ¾Ð²": 9501,
      "ĠÐ²ÐµÐºÐ°": 9502,
      "Ġsculpt": 9503,
      "Ġvielen": 9504,
      "Ġgemeent": 9505,
      "selves": 9506,
      "ĠEducation": 9507,
      "Ġtrouwde": 9508,
      "ÑģÑĤÐ¾Ñı": 9509,
      "ĠColumbia": 9510,
      "ĠHospital": 9511,
      "aup": 9512,
      "ÑħÐ¾Ð´Ð¸ÑĤ": 9513,
      "Ġtoday": 9514,
      "Ġverdw": 9515,
      "Ð¼Ñĭ": 9516,
      "ĠÑģÐ¾ÑģÑĤÐ°Ð²Ð»Ñı": 9517,
      "Ġpoder": 9518,
      "Ġjap": 9519,
      "Ð¾ÑĢÐ³": 9520,
      "Ġbad": 9521,
      "ĠSamen": 9522,
      "ÑıÐ¶": 9523,
      "Ġchanges": 9524,
      "Ġadditional": 9525,
      "airman": 9526,
      "Ġgevestigd": 9527,
      "aust": 9528,
      "irat": 9529,
      "Ġleaving": 9530,
[...]
