#version: 0.2
e r
e n
Ġ d
e s
Ġ a
i n
Ġ t
o n
Ġ Ð
a n
Ġ s
Ġ l
Ġd e
a r
Ġ p
Ð ¾
o r
Ġ c
h e
a t
i t
r e
i s
a l
Ð °
Ð µ
u n
e l
Ð ¸
i c
A R
Ġ f
Ġ m
Ġt he
a s
Ð¾ Ð
en t
Ñ Ĥ
Ñ Ģ
Ñ ģ
e d
Ġ w
Ð ½
Ġ o
N E
Ã ©
Ġ in
r o
Ġ b
c h
AR T
u r
q u
Ġ 1
Ġl a
i l
Ġa n
i on
Ġ S
o m
S T
ST ART
Ġ v
Ġ h
o s
e t
Ġ un
a d
u s
o l
Ð »
a m
Ġo f
Ġ A
Ġ n
a c
Ġ i
in g
es t
Ġ C
l e
Ġ el
Ġ M
i e
Ġ en
t e
Ġan d
Ġ e
Ġ g
Ġ B
L I
LI NE
NE W
NEW LINE
Ã ³
Ġt o
Ġ qu
Ġ T
Ð º
r i
u t
Ġ re
Ġ P
Ñ ĥ
Ġ 2
Ġs e
i r
i g
Ġ E
er s
Ġ L
Ġ (
i a
i d
r a
Ġ D
Ġa l
Ð ²
e m
. _
i v
Ġc on
u l
is t
Ġ1 9
s t
Ñ ı
an t
c t
Ñ ĭ
Ð ¼
r es
Ġ R
Ġ G
Ġ F
Ġ H
R A
i Ã³
Ã ł
A G
P H
P AR
RA PH
AG RAPH
PAR AGRAPH
Ġqu e
t er
â Ģ
Ġ I
Ġc om
i m
an d
ic h
Ð ´
E C
O N
T I
S EC
TI ON
SEC TION
o t
Ñģ ÑĤ
Ã Ń
ĠÐ ¿
a b
Ġde l
ĠÐ ²
Ġ2 0
u m
a v
Ġd es
at ion
Ã ¨
Ġd er
Ġt h
Ġ N
Ã ¼
Ġ J
Ġp ro
Ġp er
Ñ Į
Ã© s
g e
Ġf or
Â ł
Ġ W
Ġp ar
Ġ K
Ġb e
o c
Ġ es
Ñ ĩ
ÑĢ Ð°
Ðµ Ð½
d e
Ġw as
Ġun d
Ġ Ñģ
Ġl es
Ġ on
Ġ est
Ð¾Ð ²
or t
Ã ¤
al l
c e
Ġ r
u p
b er
Ġl e
Ġ V
Ð ·
ĠÐ ¸
l a
Ġ y
Ġa s
Ñ ħ
Ġ er
en d
a p
i f
u d
o w
Ġa m
i p
un g
Ġv a
Ð ¿
er e
e c
an s
Ð ¹
Ġs t
o d
o v
ĠÐ ½
el l
i es
Ġd ie
Ġ z
ĠÐ ¾
a g
it h
Ð¾Ð ´
e g
ac iÃ³
Ġ O
o p
u g
u b
Ðµ ÑĢ
Ġ j
Ð ³
Ġ U
o b
Ð ±
en s
m ent
Ġe in
o g
Ð° Ð½
Ġ et
il l
Ġw h
i er
Ġ is
i x
o ur
a y
ĠT he
u c
0 0
Ñģ Ðº
t a
h r
ĠÐ º
t en
t h
Ġa u
Ġw ith
un d
as s
Ġe x
Ġa t
Ð¾ ÑĢ
Ð¾Ð ¼
m p
Ġun a
ad a
Ð¾Ð »
i en
Ð° Ð»
ĠI n
i al
ion s
Ġ he
t s
l y
or d
Ã ²
n e
r an
a ch
v er
I C
Ġ "
u e
L E
Ġ <
es s
ar d
Ġ< /
ART IC
ARTIC LE
Ġ1 8
Ġ20 1
Ġs er
ro m
Ġ20 0
ÑĢ Ðµ
Ġam b
Ġ Ãł
i re
Ġ k
Ġb y
in e
ĠS t
Ñ İ
Ġal s
' s
ĠÐ ³
ic a
er n
at e
Ñ Ĩ
o u
Ð¾Ð ³
at s
ĠÐ ´
e ct
Ã ¶
Ðµ Ð»
Ġth at
Ġ 3
i o
Ð¾Ð ¹
Ð½ Ñĭ
a u
m er
) ,
ar t
m e
al s
i b
Ġt r
i an
Ġcom p
ĠÐ½ Ð°
Ñ Ī
Ġel s
Ð¾Ð ½
Ð ¶
Ġa r
Ðµ ÑĤ
am ent
Ġ ent
Ġv on
Ġpar t
in s
Ã ¡
Ġd u
e it
e w
f f
Ġc h
Ġp r
as t
a k
Ġ or
or s
Ġp l
Ð¸ Ð½
os t
us t
Ġ it
in t
u re
ĠÐ ±
Ð¸ ÑĤ
Ġd en
on t
ĠU n
r it
ĠE l
Ġh is
i qu
Ġf rom
on s
an y
it y
Ġcon t
is ch
Ã §
ĠÐ ¼
an g
in d
Ġi m
i z
y s
ĠE n
is s
Ð° ÑĤ
p r
c l
Ġ ÑĤ
Ġm it
c he
an n
Ġn o
Â «
Â »
it at
e ar
Ð¸ Ð»
p er
e b
on g
a h
ĠA l
Ð¸ Ñı
Ġh av
i k
ĠÐ¿ ÑĢ
Ġ Ã©
ĠC h
ent s
ĠA n
Ġs u
Ġ 4
Ð¾ ÑĤ
Ġa c
) .
l ic
âĢ Ļ
on d
l es
Ġ Z
Ġa b
r u
Ġ Â«
Ã º
v a
Ġa p
Ð¸ Ðµ
ul t
ac t
Ġ âĢ
s e
Ñ Ħ
f or
Ġde m
Ġ res
iv e
e p
ĠL a
i ent
Ð½ Ð¾
Ð¾Ð³ Ð¾
f t
i el
Ġl os
Ġw ur
l ich
Ġm Ã©s
Ð° ÑĢ
ig h
Ġl l
i ed
g r
at ed
Ġs p
Ã¼ r
am p
c ia
s ch
Ġc l
E l
un t
em ent
a in
Ð¾ Ñģ
Ġg r
ig n
ĠÐ ·
o ut
Ġd ur
ĠM ar
ĠS ch
Ġ19 9
Ð¸ Ð¸
Ġv er
Ġre c
Ð¸ Ðº
Ã Ł
Ġa re
ers on
qu est
Ġc ar
am e
Ġp ri
c iÃ³
Ġw ere
Ġc o
am b
h er
Ġp re
ĠH e
Ġse g
1 9
Ñ ī
Ġ 5
iv ers
Ġa d
Ġdel s
Ġ Ñĥ
it z
us e
ÑģÑĤ Ð²
in c
ĠÐ³ Ð¾Ð´
em p
r ic
T he
ĠA r
Ñģ Ñı
Ġ ro
g es
b re
Ġ 6
I n
ar y
v e
at er
Ð» Ð°
ad o
Ġm ar
ol l
d u
o k
ug h
ad es
Ġw ar
Ð° Ðº
Ġd is
Ġcon s
Ġ Ã©s
t o
Ġn om
Ġwur de
Ð¸ Ð¼
w e
ac k
or k
Ðµ Ð¼
e x
Ã© e
Ġh ab
f er
ĠÐ °
Ġau f
u er
in a
isch en
Ñ ĳ
Ġc ap
u al
Ġwh ich
m a
ri b
Ġo b
Ġin ter
or e
Ð¸ Ð¹
ĠL e
is h
Ġre p
d en
o h
ĠT h
m an
Ġp or
el s
Ġf in
Ġ Ñĩ
ro p
it e
Ġd Ã©
Ġn ot
if ic
Ġa ct
Ġz u
l and
Ġt er
Ġd as
ÃŃ a
ĠÐ Ĵ
Ðµ Ð´
an c
id e
en er
Ġa v
a j
Ġs h
Ġp erson
Ġi mp
Ð° Ð¼
or n
all y
Ġ ÑĢÐ°
Ġp res
ion al
Ġer a
Ġf am
Ðµ Ð¹
Ã¨ n
p t
Ã© r
l o
en c
a ge
Ġd on
âĢ ĭ
d er
Ġent re
Ġh i
Ġh er
Ġh ad
Ġa us
Ġ Y
Ð¸ Ñĩ
Ġ19 8
ic al
ic e
Ġh as
Ġd ans
ÑĢ Ñĥ
Ã ±
Ġs ur
ation s
Ġ Ġ
Ġt en
s s
ich t
Ġ _
Ġp os
Ġse u
Ð¸ Ð²
it s
r y
ĠÐ ¡
a is
Ġs ol
Ñ į
r en
m en
ur s
ant s
m in
om e
ation al
Ġv an
Ġc ol
Ġ1 7
p os
er a
ar i
Ġf ir
Ġt e
Ġs o
Ġ Ã
e v
Ġm an
Ã³ n
p ort
al t
Ð° Ð²
Ð¾ ÑģÑĤ
ab le
it ion
L a
qu e
Ġ19 7
Ġals o
Ġs up
ul ar
ac e
ri a
Ġun e
u ch
Ġf Ã¼r
Ð¸ Ñģ
c k
Ġt ra
a hr
Ðµ Ð²
p h
Ã¨ s
ol og
ur a
Ġ 7
g an
il d
er t
f ter
av en
Ġal l
ĠÐ± Ñĭ
ob l
Ġ ist
Ġre g
Ġs ich
aciÃ³ n
Ġn e
Ġ 8
il e
Ġa g
Ġ X
Ġl as
ct ion
a us
Ðµ Ðº
ĠC om
âĢ Ķ
iqu e
Ġs on
Ġap p
Ġp ol
Ġcon st
Ġh a
Ð¾Ð ±
Ġin cl
Ġ19 4
Ġp our
res s
Ð° Ñı
k t
r at
al e
Ġse va
f ic
Ġfor m
Ġre l
Ġs ch
Ġm e
g en
g er
Ġqu i
ĠP ar
ĠÐ¾ ÑĤ
Ġfir st
Ð¸ Ñħ
Ġein e
th er
Ġ19 6
Â ·
n d
is e
Ġc re
ĠE r
ĠF ran
Ġ il
g l
Ġ ÑģÑĤ
id a
i et
Ġ1 5
v en
Ð» Ñı
i Ã¨
ĠÐ ļ
w o
ĠÐ Ł
Ġp la
ad e
it u
âĢ ĵ
s p
Ġes c
i or
l d
Ġcom m
e h
E n
ĠD e
or y
iqu es
Ġes p
ic s
Ġthe ir
u x
Ġb ut
Ġ1 6
te m
Ġ us
t re
Ġc as
us s
Ã ¯
Ġ 9
ÐµÐ» ÑĮ
Ġhav ia
Ġt ro
Ð¾Ð º
ow n
for m
er v
og ra
Ġf a
p l
ul d
ad or
en ce
ĠÐ¾ Ð±
Ġas s
Ġp e
ac ions
Ġm ed
on a
ĠR e
l l
at h
Ð» Ð¸
id ent
an a
Ġc ent
Ġp ub
re t
c a
an ce
Ġs a
im e
z e
m b
Ġit s
it a
Ġg ro
ĠS p
Ġse in
Ã© n
c es
Ġpri mer
il le
un a
o y
igh t
Ð½ Ð¾Ð¹
re e
k e
ri g
on e
Ġy ear
00 0
Ġin d
Ġc an
u f
ĠP ro
Ġ1 0
Ġo c
. âĢĭ
Ð¾Ð ·
Ġ19 3
a z
ĠÐ »
v el
r ie
Ġa ut
Ġ19 5
Ġ1 2
ĠD ie
Ġb is
ar e
Ġse c
r al
un e
ĠI t
Ġan ys
inc ip
em ber
Ġto t
Ġf il
o ol
ĠÐ½ Ðµ
Ð¾Ð» ÑĮ
Ġre t
Ġd if
Ġpar a
ig en
Ð¸ Ð·
av a
ĠV er
ic k
Ġwh o
Ð³ Ð¾
Ġp obl
ĠÐ¸ Ð·
Ġin t
ĠÐ¿ Ð¾
Ġs ub
ur n
t on
Ġon e
Ġ Ñį
Ġ ed
Ġhav e
ar g
ter n
ist a
v ol
iÃ³ n
ĠÐ³Ð¾Ð´ Ð°
Ġtr ans
Ġpr incip
Ġth is
Ã¼ ber
Ġr Ã©
Ġl oc
w n
Ã¨n cia
Ġf o
at t
ĠÐ ľ
et e
Ġa quest
a f
Ġs c
Ġm on
v ent
ob re
ĠB e
em b
Ġn ach
Ð½Ñĭ Ñħ
as e
d uc
ĠÐ µ
1 8
I I
al es
t ic
b en
ĠG r
he d
ar a
Ġc or
Ġw o
Ġ ra
en n
Ġv ers
Ð¾Ð ¶
in es
at es
ĠUn ivers
oh n
Ġser v
âĢ ľ
Ġen c
ÐµÐ½ Ð¸Ñı
ar s
Ġw ork
Ġp el
Ð¸ ÑĢ
is m
Ġe mp
Ġt wo
Ġbe en
is che
el le
it t
2 0
ur es
Ġm od
ol d
c ess
f l
o us
Ġ ÑĦ
Ã¤ n
Ð°Ð» ÑĮ
a i
Ġd ire
r on
ung en
Ġs ie
Ġ Q
Ð½ Ð¾Ð³Ð¾
ĠC o
pr Ã©s
Ġpro v
ĠÐ² Ñĭ
ĠÐ Ĳ
Ġpart ic
ur g
Ġcom o
Ġt amb
ing s
k s
ÑĤ Ð¾
Ġg ener
Ð Ĵ
il it
Ð ¡
an te
t es
ĠN ew
Ġ1 4
el y
Ðµ ÑģÐº
Ġau ch
c on
Ġt emp
Ġ1 3
Ðº Ð°
Ã ª
id o
Ġr est
a ft
Ġpro p
Ġa fter
ir d
Ñĥ Ñİ
ro s
o ch
Ġo ut
Ġde c
Ġm ost
Ġ Ã¼ber
c o
u rop
Ġd ies
p ar
et z
iv es
ic t
ct or
ĠA b
ĠÐ¿ ÐµÑĢ
ĠC ar
ĠS h
b all
Ġ up
ĠJ ahr
Ġpla y
Ð¾Ð ¿
ĠÐ· Ð°
ov ern
Ġp o
Ðµ ÑģÑĤ
im ent
Ġer en
Ġh ist
ÐµÐ½ Ð¸Ðµ
ĠâĢ ŀ
ÑĢÐµ Ð´
in n
Ġex p
a ut
Ġf e
Ġthe y
Ġp ass
os s
Ġd ist
gr am
os e
Ġpl us
Ñģ Ð¿
it ed
w ard
r as
Ġh om
ber t
Ð½ Ð°
Ġs he
Ġpro du
i os
Ġb o
ab l
es ch
ÃŃ l
Ġbe i
Ġin c
Ġest aven
i u
ĠC ol
b e
Ġperson es
Ġav ec
Ġp od
Ġbe c
Ġv iv
Ġ ers
et t
ÃŃ n
Ġm ol
Ġn ew
ĠS e
Ġb l
Ġp ort
re d
Ã¡ s
Ġs obre
le g
out h
Ã¤ t
on n
Ġb et
t Ã©
Ġhab itat
and o
es e
Ġo ver
j ect
un c
Ġm at
ot h
ĠB ar
Ġd os
as ed
ĠO r
u i
Ġd o
il la
ri d
or m
Ġo ther
Ġo p
ort h
Ġde f
ĠÐ ĳ
Ġ200 7
ion es
h ip
Ġ ÑĢÐµ
Ġz um
Ð´ Ð°
ĠI l
Ġqu al
ĠÐ±Ñĭ Ð»
Ġm us
Ġf l
es c
Ġm et
Ġm en
u es
Ãł n
oc i
l er
Ã§ a
Ġg u
ĠC on
Ġw e
oc k
ĠÐ ¶
is te
Ġin to
ĠÐ³Ð¾Ð´ Ñĥ
Ġm in
er c
le m
Ġ1 1
A l
Ġein er
Ð¸Ñĩ ÐµÑģÐº
Ġb u
it Ã©
Ġ19 2
Ġh im
ung s
Ġv ol
p e
en e
Ð½Ñĭ Ð¹
ÑĤ Ð°
Ġl o
Ġf er
Ġfam ÃŃl
ĠÐ Ŀ
Ġal t
en g
Ġdes c
ul a
ta in
Ã¶ r
et s
Ġ200 9
o f
ĠE s
b a
ist er
Ġt ime
Ġdur ch
Ð¾Ð² Ð°Ð½
Ġc r
ĠÐ ł
w ay
Ġt re
Ðµ Ñģ
Ã¼ n
Ġz ur
Ġ um
ĠT e
Ġs ign
ÃŃ s
Ð» ÑĮ
Ġin st
Ð½Ð¾ ÑģÑĤ
Ð¸ ÑģÑĤ
re g
el t
Ġst ud
Ġincl ud
ro ugh
Ġg e
Ġpobl aciÃ³
if e
Ã© es
Ġc amp
Ġpub lic
ian a
Ñĥ ÑĢ
Ð½Ñĭ Ð¼
n er
ens e
is ion
id ad
Ġd i
ĠA m
Ġin s
ib le
ĠÑģ Ð²
Ð½ Ð¸Ðº
ÃŃ t
. .
Ġper Ã²
Ġm ov
ÑĢÐ° Ð½
Ġp op
Ð½Ñĭ Ðµ
Ġf r
u te
i at
m et
l t
" .
ĠP er
en a
Ġre al
Ð° Ñģ
Ġh at
ĠÐ Ķ
Ð¸ ÑĨ
id er
ad os
i us
Ġac c
il s
Ġpro f
um ent
Ġcont in
Ġwo uld
ĠâĢ ĵ
ol a
qu es
Ð Ł
Ġf ins
n a
ĠB er
ĠÐ ŀ
ÃŃ c
Ġc i
Ġf ue
it al
h en
Ġat t
ur ch
Ġcon c
v es
Ġ2 5
" ,
Ġ -
l et
Ġfin al
in al
ch en
v ers
Ð¸ Ð´
Ġn ov
or ld
ell es
Ġwh en
ĠT r
ra g
ĠL es
aj or
in o
Ġpre m
ĠÐ ĵ
u a
et er
ig e
et te
Ġtamb Ã©
on es
g el
Ġd est
ak e
ar r
Ġen d
Ġfil m
ĠC l
ĠÐ¿ Ð¾Ð»
Ð» Ðµ
ÑģÐº Ð¾Ð³Ð¾
Ġyear s
un ic
h a
il y
io us
ĠS ant
i ar
Ġimp ort
an z
o ugh
Ġm ore
qu ip
Ġde p
Ġv or
ÑģÐº Ð¾Ð¹
Ð¾ÑĤ Ð¾ÑĢ
Ġi h
Ġg overn
Ġp as
ĠR o
is hed
Ġre m
ĠG e
Ġres p
Ġan n
Ġag ain
Ġs im
as on
Ġcon f
ĠE st
Ġ19 1
Ġwh ere
ÐµÐ½ ÑĤ
o use
ĠA d
) ._
a ir
ut il
Ðµ Ð·
ĠB r
Ð° Ð´
it ats
Ġs us
ce pt
ĠP l
Ġcl ass
ĠF l
i um
ent e
Ġar t
Ġor gan
Ġse us
ÑĢÐ° Ð²
ĠB l
Ġs uc
om en
Ġg ran
u el
Ġs oc
Ã¤ r
l i
ur al
g un
ĠÐ ¢
Ġf ran
Ġund er
ĠR eg
ier t
Ġf ou
Ġhabitat ges
Ã© t
Ð° ÑģÑĤ
ĠI s
iv a
ĠA s
H ist
b um
Ġein em
ĠS a
at a
Ġs Ã³n
Ġl ater
an k
ogra ph
ru ct
Ðµ ÑģÑĤÐ²
om m
em bre
Ã¡ n
ĠP h
Ġn icht
l ie
Ã¼ ck
in ce
Ġ ri
Ġel ect
ut ion
ĠH er
Ġw er
Ġk n
Ġs ont
y n
Ġs el
at al
ĠÐ¿ Ð¾Ð´
Ġpres ent
Ñĥ ÑĤ
Ġor ig
am es
ro l
it er
Ġe ar
lich en
ĠA mer
ic iÃ³
Ñı ÑĤ
ic o
ch t
Ð° ÐµÑĤ
al d
ic an
l in
Ñĥ Ð´
L e
ĠĠ ĠĠ
ciÃ³ n
ĠIn d
Ġ2 4
Ð¸ Ñİ
Ġg o
Ġo u
Ã¼ hr
Ġp h
Ġp u
ar k
ri ed
Ð°ÑĤ ÑĮ
Ðµ ÑĢÐ°
Ġm ajor
Ġb and
ac ional
we en
Ġdur ing
ter ior
Ã© d
eg en
D ie
Ġ3 0
. "
Ġnom bre
Ð¾ Ñĩ
Ñĥ Ñĩ
Ġs ind
Ġun t
Ġp ot
ĠG u
ĠO n
m es
Ġc u
Ñħ Ð¾Ð´
Â» ,
Ðº Ð¸
Ġon ly
Ġest abl
Ġ19 0
Ġp a
Ġun ter
at re
Ġof f
Ġwer den
h i
e in
es p
A n
is c
res ent
ĠJ ul
Ġth ere
Ġn um
Ġin v
or a
ied er
Ġex t
Ġm ill
ĠÐº Ð¾ÑĤÐ¾ÑĢ
ĠÑĢÐ° Ð·
ĠN ov
Ġdis c
Ġdon es
Ġm ade
end en
Ġ ÑĢ
ber g
Ġs itu
Ġth en
a x
Ġgro up
ate ix
ar b
ge b
Ð» ÐµÐ½
ĠJ ohn
iÃ¨ re
ĠJ an
Ġm ot
Ġdes prÃ©s
is me
Ġl ong
Ġm ay
oll ow
Ġ ord
ch n
Ġtr ad
Ġth rough
Ġ201 0
ĠD er
ur y
ogra f
vel op
Ġd iv
le x
ĠP r
ĠP ol
at ing
v o
ĠM an
ĠÐ ĺ
Ġc e
Ð¶ Ðµ
ay s
Ã¨ re
le y
ri es
ar m
c ies
os a
ul l
ĠS c
o de
ĠÐ¿ÑĢ Ð¾
ent re
ĠG er
ĠE urop
ĠUnivers ity
k m
Ġab out
ĠA ug
Ġbet ween
Ġv is
Ã² ria
h al
f r
Ġf ill
Ġp at
ÑĢÐµ Ð¼
for e
Ġsu ch
Ġfo und
Ġw ird
Ġd ivers
Ġsec ond
at z
Ġpro per
b l
Ġpro gram
ut sch
Ġein en
Ð¸ Ð¾Ð½
Ġm Ã¡s
am m
Ġbec ame
ov er
en z
Ġb est
ĠEl s
e ver
au x
Ġh igh
Ġl i
r uc
Ġthe m
e k
ĠS he
1 0
Ġpartic ip
e i
ro und
Ġth ree
Â» .
A r
Ġinter n
Ġb as
Ãº n
ĠÐ Ľ
Ñİ ÑĤ
w er
ĠTh is
ĠA t
U n
Ð ļ
Ġ201 1
iss ion
Ġt res
Ð¸ Ð³
h t
Ġ20 00
Ã© c
Ġus ed
or g
or es
ers t
ĠI I
le ment
Ã ´
om b
s on
Ã¶ n
ĠM it
st er
Ġ util
our s
at ure
i as
ĠC hr
Ġa ix
Ð° Ð·
y a
ĠF or
Ġan t
at her
Ð°Ð¼ Ð¸
Ġte am
Ġth an
ver t
end a
e an
Ðº ÑĤ
Ġs et
Ġloc al
1 7
Ġ18 9
ow er
Ġprincip al
Ġs ome
id es
Ã¤ h
om in
Ġhom es
Ã¨ r
at ive
Ġdur ant
ĠY ork
ad t
Ġau x
ys tem
Ġc ult
b urg
ĠW est
Ġten ien
Ġc ada
Ġv e
Ġh um
Ġtot al
ier te
Ġz w
Ð¾ Ðµ
Ġre f
Ġan y
ri p
Ġ200 8
Ġo per
Ġa Ã±
Ġ201 2
ĠÐ¿ Ð¾Ñģ
Ġconst ru
ĠQ u
ec ial
ist es
Ġoc up
ĠS te
ĠÑĩ ÑĤÐ¾
om p
Ñĥ Ð±
or ia
a w
s el
av e
Ġre le
as h
ĠB o
ÑĨ Ð¸Ð¸
Ġrec ord
Ġsch ool
ment e
Ð° Ñħ
ĠN ach
er o
it ar
Ġc all
5 0
Ġt it
Ġn ou
Ð½ Ðµ
ik e
ĠI m
ĠC an
ĠL and
ĠÐº Ð¾Ð¼
a ur
ĠE in
ĠE x
2 00
Ġ Ñħ
ol e
v ed
Ġpro duc
Ġwur den
Ġgener al
Ġcons ider
Ġs i
Ġmit j
Ġm ateix
re ich
ĠÑĤ Ð°Ðº
Ġl ie
ĠS an
r ar
Ġo der
iel d
Ð½ Ð¾Ð¼
Ã ¢
Ġg re
ir c
E s
at or
i ol
ĠA pr
Ġ201 4
Ġcont ra
Ġc er
ex t
a quest
im a
ot a
Ġrep resent
Ġde b
ĠU S
Ġj a
Ġ 0
Ġbe ing
Ġpos s
Ġseg Ã¼
Ð¶ Ð´
Ãº s
Ġ201 3
Ġ Ñı
Ġf ut
Ġp et
o is
Ð¸ÑĤ ÐµÐ»ÑĮ
u de
ed er
Ð½ Ð°Ñı
Ðº Ð¾Ð²
ĠAug ust
Ð°Ð½ Ð´
Ġw ell
u en
il t
Ġd ass
ĠdÃ© c
re m
ig a
Ġe v
f e
lic he
ie w
ĠM on
ut s
b ar
Ġcl ub
or p
ĠA us
ĠCom m
á µ
ĠS ep
j a
Ġm il
Ġse ason
Ġch ar
ÑģÐº Ð¸Ð¹
op le
Ġj o
ch aft
Ġg en
z a
uer ra
f ol
Ġest ud
Ġci ut
i ers
Ġ201 5
Ġe ff
Ġf our
ah l
Ġ2 1
Ġ2 2
ĠÃ© tÃ©
ĠUn ited
Ġact iv
p end
Ñĭ Ð²
Ġ18 8
Ġpro b
Ġoc c
Ġc al
Ñĭ Ñħ
he l
d ic
ow ever
Ġ ÑĪ
Ġprimer a
Ġagain st
j o
i am
iv ed
Ġb ar
an ge
Ġf ollow
le ct
Ġsup er
in ed
ap p
a Ã±
Ġcontin u
ĠW ar
Ġs ent
Ġp els
Ġs es
Ġqu als
Ġ2 3
Ġre v
Ġa f
Ġde ux
ĠD es
1 6
ĠC al
res a
Ġpol it
ĠM us
s en
Ġmol t
ac ter
Ġgr and
ĠM in
ant es
ab a
Ġb el
ĠÐ¸ Ð¼
ial s
Ã ī
c el
Ġm ain
Ñĭ Ðµ
Ġm any
tem ber
ĠÐ¾ Ð½
ĠM ay
Ġcom me
ĠP a
Ġseg le
au f
Ġtre ball
Ñĥ Ð¿
il i
Ġalt res
1 5
Ġinclud ing
Ġ200 6
Ð Ĳ
Ġhab it
eit er
ĠN ational
m ar
ĠP ri
1 2
Ġ ÑĨ
ell s
Ġs al
ÑĢ Ð¾
ĠÐ¿ ÑĢÐµÐ´
ĠR om
Ġb ro
it ies
iv er
ot t
s te
Ð° Ð¹
Ġm emb
min ist
Ð ł
eit en
r Ãł
Ġd ia
em ents
ra b
ag es
Ġ1 00
eb en
Ġal gun
l os
u le
ĠAn d
Ġc aus
Ġviv ien
Ġ18 6
he m
Ġc el
Ġbe fore
am a
Ñĭ Ð¹
Ã² n
s h
Ġres ult
Ġle ad
Ġdis p
Ġpro m
ĠÑį ÑĤ
ad as
ĠSep tember
Ġwh ile
Ġad d
a ire
ur ing
Ð°Ð» Ð°
Ġdif er
e y
u it
e er
ĠsegÃ¼ ent
im es
el la
Ġsh ow
Ġde velop
Ġ18 7
Ġof fic
ag n
ĠB rit
áµ ī
Ð» ÐµÐ´
Ðµ Ñĩ
ĠJan u
end o
re i
Ġs ing
Ġm ilit
ĠÐ¾ Ñģ
Ġprof ess
Ġt Ã©
Ġo wn
y p
in k
an o
Ġle g
ist s
Ġgr up
ir es
Ġ201 6
Ġbe g
S t
ĠÐµ Ð³Ð¾
a ix
Ġf und
ĠfamÃŃl ia
ĠÐº Ð¾Ð½
Ġ2 8
Â ²
Ġest at
is on
Ġ2 6
ament e
Ġunt il
ĠApr il
Ġcom b
ÑĢ Ñı
r er
ÑĢ Ð¾Ð²
Ġs ow
ĠF il
Ġd a
Ġdes ign
ĠA ust
Ġo t
Ð¼ Ð¸
Ð½ Ð¾Ð²
ar ia
Ġmed iana
g o
Ġi hr
ĠÐ¾ Ð´
ĠA c
Ð°Ð» Ð¸
ĠR ep
ĠM al
ÃŃ st
s k
ĠJ os
con om
Ġ2 7
Ġdu es
er g
Ġv al
ant a
in ter
Ġfor ma
u k
ĠA quest
m ed
y l
ĠN e
ov e
ĠÐº Ð°Ðº
an e
ĠS al
any a
it es
te mp
ah n
v i
ĠSch ool
O n
ĠP art
Ġm ais
Ġb oth
am ed
Ġn ord
Ġ rom
ar on
ĠW ill
Ġapp ear
Ð± Ð¾ÑĤ
ĠÐ´ Ð»Ñı
uc iÃ³
Ġw ill
or f
ĠM ed
Ġt el
le ge
ĠW orld
ro ss
Ġkn own
ĠE d
ĠCh ar
ire d
ĠG ener
ĠW h
ag ue
ĠJ ah
Ġv o
ĠIn tern
Ġf et
im ents
ĠÑģ Ð¾
Ã¤ hr
Ġl ife
Ġre ce
ĠÃ ī
Ġtemp s
o od
ĠV al
b y
ĠÑģ Ð¾ÑģÑĤ
ĠChr ist
â Ĥ
ul ation
unic ip
ĠNov ember
res es
oc a
on y
ot s
isch er
Ġ '
Ġ200 5
Ġc ur
ĠÑĥ Ñĩ
v al
k en
iv al
ab or
ĠAmer ican
st it
a ff
ĠAl l
k er
Ð½ Ñı
ĠN o
at ge
st en
Ġw ie
ÑĤ Ð¾ÑĢ
b o
ed e
Ð¾ Ñı
ĠC ent
ÑĢÐ° Ð·
ĠÐ² Ð¾
1 4
Ġco unt
Ð¸ÑĤ ÑĮ
Ġm al
Ġpl ace
Ġi d
ĠA uf
1 3
L es
Ġsein er
ĠS outh
ar is
ch er
ĠÐ ¤
Ġb ack
ri pt
g t
ĠB ro
Ġs ig
Ġ201 7
Ġc our
ĠZ eit
Ġv ari
Ġpe ople
Ġn ational
Ġm a
Ġg ew
Ñĳ Ð½
et h
ÃŁ en
Ġc ost
Ġst art
Ġf ac
Ġg ra
fl u
Ġm es
Ðµ Ðµ
all s
ĠW e
iz ed
ĠÐ´ Ð²
Ġm ort
o ff
Ġs ense
Ñĥ Ñģ
or i
Ð½Ð¾ Ðµ
Ġw rit
Ġpro te
n en
Ġbu ild
en Ã§
Ġser ve
Ġse ver
Ġcont r
Ġs te
Ġcomp any
ent ly
Ġman era
Ñĥ Ð½
ĠS ie
Ġdire ct
Ġqu an
ĠâĢ Ķ
ri m
Ð Ŀ
Ġsuc cess
Ġt ant
Ġret urn
u is
ĠM o
Ġl ar
Ġn eg
Ġen g
op h
Ġcomp let
ul es
u ally
Ġpub l
ient o
ĠA ss
Ġcomp os
Ġproper es
ud a
ĠD ec
Ġde v
ig er
ch es
m ann
and er
Ð¸Ñģ ÑĮ
Ġb r
Ð ŀ
ĠP al
el d
Ġl and
it ions
ÑĢÐ° ÑĤ
c le
Ñĥ Ð¶
g est
f ul
B i
ix en
Ġest Ãł
Ġten ia
we i
Ġciut at
l ing
Ġto d
Ġsoc ial
ĠG ro
Ġaquest a
ĠH a
Ġter rit
p ro
ar en
ĠfamÃŃl ies
Ġb us
1 1
Ã© g
ÑĢÑĥ Ð³
est ig
_ _
ĠÃ© t
Ġll oc
Ġd am
ot her
ĠS er
ĠJ o
Ġp ap
ĠL ond
at ur
end er
ec te
Ð¾ÑĢ Ð¾Ð´
eb ru
Ġnum ber
i od
c ed
ĠS o
Ã ®
Ġs m
Ġ $
Ãł r
Ġal bum
Ð ĳ
sch aft
r ich
Ġ2 9
Ġcall ed
Ã¼ nd
en y
Ð¸Ð» ÑĮ
Ġare a
i Ã©n
Ġse ves
u y
up t
Ġf em
ĠÐ¿ÑĢ Ð¸
ol es
ĠD as
Ġse ine
Ġ200 4
ent r
w a
Ġmus ic
ĠN orth
la y
n es
u ir
ric t
ment s
emp reses
Ġr ad
Ðº Ð¾
Ġdes p
Ġex per
ac iones
ĠÐ¸ Ð½
ĠN ord
Ġd oc
Ġn ur
Ġop en
l ed
d em
ĠM e
Ġsup port
or te
Ġear ly
ĠG re
ĠM ad
all a
Ġbe gan
ĠÐ´ Ð¾
at en
ĠÐ £
Ġme hr
Ð»Ð° Ð²
Ġr en
ĠÑģ Ð¿
Ġs ame
Ġsow ie
olog y
Ġj u
m it
o ber
Ãł ria
o ire
Ð ĺ
Ġr enda
ar n
ĠF ebru
Ġ &
et a
ĠV a
ament s
Ġhat te
Ñģ Ðµ
Ġs ystem
T h
ĠX V
ad ors
Ġcomm un
Ġl ang
Ġf re
Ġin form
Ġsever al
Â °
Ġqu atre
Ġs ud
3 0
m y
Ð½Ð¾ÑģÑĤ ÑĮ
p ed
Ġno ch
ĠSt ates
ÑĢ Ð¸
Ġg er
x im
Ġex pl
ar c
Ġc ast
Ġpart ir
ie f
ĠS oc
âĢ Ŀ
ĠCom p
re u
Ġb es
Ġv om
ĠGener al
Ã¼ d
f ord
Ġm o
Ġar rib
Ġm or
Ð½Ð¾ÑģÑĤ Ð¸
Ġth ese
ĠC ity
ĠSa int
ÃŁ e
Ġv eg
Ġch ild
Ð°Ð½ Ð¸Ðµ
Ġg eh
Ġn ame
Ã© m
iv il
ur b
ĠÐ² ÑĢÐµÐ¼
Ġ use
Ġ201 8
Ġpop ular
Ġtra v
Ġj ust
Ġfa it
ic es
Ġg l
ĠS ta
Ð ľ
ĠSt adt
Ġcar eer
: _
Ġm uch
Ġc at
our n
ĠH is
D er
Ġd ar
ak ing
Ġfam ily
Ġd id
Ã¨ c
id ed
um e
h am
ĠFran ce
ut z
ĠG l
Ã¼ t
Ġr un
Ã© l
19 9
il ity
as c
Ġd r
ĠP ort
om ent
i ally
res p
ĠF re
am er
Ġm ater
Ġ5 0
h ab
ich te
Ġs ong
u Ã©s
de pend
Ð¾ ÑĢÐ°
Ġa gr
Ġn ear
Ã¤ nd
i ans
Ã¨n cies
Ġc os
is ed
ra ft
ĠÐ½Ð° Ñĩ
ap t
Ġin f
Ġa ber
ne y
ograf ia
Ġc a
ĠL os
Ġm unicip
Ġt em
Ġrel ig
ad em
b r
Ġfill s
ĠK ar
Ġre fer
Ðµ Ð¿
ĠM art
p iel
ÑĢ Ñĭ
l s
at iv
il ar
ĠJ ap
Ġser ies
Ġe quip
ĠJah re
Ð¸Ð» Ð¸
Ġtemp or
Ġorig inal
ann t
ĠSt re
Ġcont rol
Ġres id
ĠK ir
H e
h an
ub lic
ĠA fter
m s
Ġen v
u v
ĠÐ¾ Ðº
Ġj ug
Ð Ķ
ĠPh il
ĠAr t
Ġimport ant
Ãª me
ĠE sp
Ġcomp et
s erv
ien ce
end re
k et
Ġ199 0
t ica
Ñĥ Ð¼
Ġl le
Ã¤ ch
a it
p en
p s
k eit
ĠMar ch
Ġc ity
Ġg egen
Ġ18 4
Ġpartic ular
Ġpri v
Ġmod ern
Ð¸Ð½ Ð°
Ã© ri
itz ar
ol s
Ġh ome
ĠM c
ĠThe y
or ge
t he
ĠM ont
Ġc he
Ġe mb
k a
ĠO ct
Ð°ÑĢ ÑĤ
ĠâĢ ľ
Ġpr Ã©s
Ġ x
Ġcom enÃ§
ĠÐ¿ ÑĢÐµ
iv id
Ġpro t
Ġel le
Ġc rit
ĠCo unt
ĠÑģÐ² Ð¾
g ress
Ð°Ð½ Ð¸Ñı
it or
Ð° Ð³
en cia
ĠT er
y d
ic ial
s c
Ġdis pos
Ġcon v
Ġt al
Ġed uc
u an
Ġex ist
Ġplay ed
up er
Ġrele ased
Ãº lt
Ð½ ÑĥÑİ
Ġ4 0
as ter
Ġfor t
Ġc ette
ĠÐ² Ð¾Ð·
Ð¾Ð½ Ð°
on st
end ed
Ġsol d
Ġt orn
z eit
ĠC ons
alt res
ĠD av
ĠÑģ Ð»
qu er
ĠÐ¾ Ð¿
Ġw on
Ġind ust
est er
Ġre b
is ation
Ġe ing
ism o
d a
Ġ200 3
Ġl im
os p
ĠJ une
ĠM or
i Ãł
re c
al a
Ġst and
Ġi de
.. .
Ġc op
Ġco uld
ers ch
ÑģÑĤÐ² ÐµÐ½
Ġpl an
a il
Ġp ob
Ð¾Ð³ ÑĢÐ°
ich n
Ñİ Ñī
Ðµ Ð³
Ġv illa
Ã¤ ter
Ġ6 0
Ġh an
ĠÃ© ta
ĠÐ Ĺ
ce p
ward s
en en
Ġz wei
id os
ĠS eg
ill er
ard s
Ġsp ec
ing ton
Ġc ens
Ġbo ok
er en
Ġe p
ĠWill iam
Ġpri m
Ðµ Ð±
c ions
Ñĥ Ð»ÑĮ
Ġal ong
Ġj e
ol f
Ġ18 5
Ġst ate
ĠC ap
amp ions
Ġper iod
ell en
ĠS u
r il
ĠJul y
ĠÐ Ń
ĠÐ ¥
Ġ6 5
Ġin flu
Ġpod er
h or
Ġc in
Ġbe f
Ñģ Ñģ
an Ã§
Ġv ida
Ġgovern ment
p o
ĠJ un
Ð¸ÑĢ Ð¾Ð²
Ġpres ident
he it
Ð´ Ðµ
Ġj un
Ġhe ad
ar io
ĠT or
Ġf uer
Ġon t
ÐµÑĤ ÑģÑı
E st
Ð°Ð½ Ð¾Ð²
Ġa ff
ĠJanu ary
Ġl ui
ĠH ar
t y
ĠSt ud
Ã©r ie
Ġg ame
Ġein es
ut es
o ir
Ġs y
Ð½ Ð¸
Ġrep ort
ra in
o x
c is
f Ã¼hr
ais on
Ġin te
Ġconst ruc
ĠOct ober
.âĢĭ _
Ġt ard
Ġa va
Ġp unt
Ġto ok
ĠÐ° Ð²
em e
ĠEn g
Ġc irc
Ġe vent
Ġs in
am en
ĠPar is
g et
Ġp ost
am il
Ġn ec
l ung
at o
ĠL l
El s
Ã¯ t
Ã¼ h
Ġwar en
ĠS ec
Ġcor resp
b eit
ul s
Ġs ince
ent es
ĠAust ral
Ġmen ys
re is
ĠX I
u j
ÑģÑĤ Ð°Ð²
Ġd av
it ect
Ġ200 2
Ġc la
b or
Ġw ieder
ĠD ies
Ġ200 1
Ġm oment
Ð» Ñİ
st and
ÑģÐº Ð¸Ñħ
Ðµ ÑĨ
ĠC ast
Ġm entre
te ur
ac ed
Ñĥ Ñī
ĠP res
Ã¶ ff
Ã² m
Ġhabit ants
Ġdif fer
k l
Ġ rig
Ġh ouse
Ġto wn
ĠBrit ish
im m
pr Ã¨s
om men
o ung
Ġh and
ĠÑĢÐ° Ð±Ð¾ÑĤ
Ġde cl
la g
f ica
ÑģÐº Ð¾Ð¼
ĠD ep
Ġsm all
Ġ3 1
ÐµÐº ÑĤ
h aus
minist r
Ġj ed
etz t
ĠB el
Ġl ine
ĠT amb
ÐµÐ½ Ð°
Ġb re
Ðµ Ñħ
r est
it o
C h
Ð° Ð±
Ġte chn
Ġe ver
Ġg el
Ġhe l
ĠK ing
Ġresp ons
Ġf un
ĠCol lege
am men
Ġe ach
Ġ198 0
al ement
ac es
r Ã©
Ġs ix
ĠBar cel
ÑģÑĤÐ² Ð°
z en
Ġex emp
itz aciÃ³
Ġun ivers
Ġt ip
ĠH ol
n o
Ġn on
ĠaÃ± os
id en
Ġid ent
Ġs l
w ick
Ġs om
Ð¾Ð»ÑĮ ÑĪ
et en
ĠÑģÐ¾ÑģÑĤ Ð°Ð²
Ġlar ge
Ġpar elles
Ġprodu ct
Ġfor mer
Ġn orth
ĠÐ½Ð° Ð·
Ġenc ara
Ġp al
ĠA u
iv ing
Ġpro ject
Ġn amed
j et
Ġk e
Ġsa id
iv en
Ġper met
ĠH owever
ĠR uss
Ġbe ca
ĠC amp
II I
Ġto p
ĠÐ ķ
ĠG eb
Ġ199 9
g n
c er
Ġst ation
ro w
ec ut
e z
Ġp Ãº
in ess
ĠM a
ĠDec ember
ĠÑĩ Ð°ÑģÑĤ
iel t
Ġtro ba
om a
ar es
u est
f ect
Ã ¹
Ġp oc
Ġinc re
lie ÃŁ
Ġ [
Ð¼ ÐµÑĢ
Ġc ant
Ġun s
ĠC atal
Ġzw ischen
i ens
ad u
. ,
ĠA p
ĠPa ul
Ġf act
ĠP at
ier ung
Ġ â
iss e
Ġa round
Ġpro pos
Ġe m
ĠD iv
2 5
Ġcon vert
s i
ĠÐ¿ÐµÑĢ Ð²
iz e
Ġk m
Ġab s
Ġd own
it ud
Ġint ro
t at
Ð¸ÑĤ ÐµÐ»
Ġviv int
Ġ197 0
ro v
P obl
Ð ĵ
r ent
le ich
gl Ã©s
rie g
ĠIt al
Ġt ri
Ġm ant
Ġesp ecial
Ñĭ Ð¼
Ġf ig
r Ã¤
Ġsol es
ons eg
Ð° Ð¿
Ġrece ived
Ġnom Ã©s
al th
Ġn ow
it Ã¤t
olog ia
Ġw orld
ĠUn ter
ĠJahr en
Ġdies er
c om
Ð¸Ð» ÑģÑı
A m
ir a
ur t
Ġbeca use
on ia
Ġass oci
Ð° ÑĨ
ig t
ix er
Ãł l
Ġemp resa
ĠDe utsch
ear ch
Ġintern ational
Ġd iss
ĠD an
ĠÐ° ÑĢ
ĠÐ³ Ð¾ÑĢÐ¾Ð´
Ġt ÃŃt
Ġind ivid
Ġdire ctor
Ġso us
Ġserv ice
Ñĥ Ð·
Ġ ÑĢÑĥ
Ġqu ed
er ed
h ib
Ġle ft
ab les
Ġa ge
Ġv ar
Ġb ase
g ar
ĠBarcel ona
ient e
Ðº Ðµ
Ġan s
Ġl ib
in i
Ġf ol
Ġf ind
Ġfollow ing
te il
an es
if f
Ġapp ro
n ah
ĠLond on
Ġa qu
uc k
Ġv ict
Ðº Ñĥ
Ġhe ld
iste ma
Ġmemb ers
Ġorig in
end ant
el f
ĠR oy
Ġrest aur
Ġan im
ac c
Ġen s
um b
l oss
4 0
Ġle ur
Ã³ s
Ġf est
ze ichn
o int
ĠÑĤÐ°Ðº Ð¶Ðµ
Ġs outh
Ġd ue
Ġtamb iÃ©n
ges ch
ĠB en
Ġn at
19 8
anc es
ĠSt ate
un ter
Ġcent re
ord s
Ġb at
Ġ4 5
Ġb orn
Ġtr as
ÃŃ an
Ġd ay
Ð» Ð¾
Ġpop ulation
ĠÐ±Ñĭ Ð»Ð°
Ġaix Ã²
th ough
Ġad v
Ġhist or
ur ant
ĠH igh
Ð¾ÑĢ Ð¼
Ġp ers
ĠÐ±Ñĭ Ð»Ð¸
Ġla w
ord ing
ĠÑģ Ð¾Ð²
Ġcent ury
Ġm ass
Ġcent ral
$ .
Ġten ir
ra f
a el
D els
ing en
Ġs ort
Ġin act
ĠLe ague
i ber
ĠR es
ĠL ou
h und
Ġar ch
ist en
ĠC or
v ille
Ġde ath
er k
Ġbu ilt
ÃŃt ica
em ein
ĠFran k
Ġd omin
or ed
Ġpro cess
Ġserv ed
ĠSp iel
Ð½Ð° Ñĩ
Ġw est
Ġaix ÃŃ
op s
Ġg Ã©n
Ġg uerra
ĠR ec
ins i
he im
Ð¾Ñģ ÑĮ
en vol
Ð ¢
Ġdi rig
ier en
r is
Ġra p
Ġl ed
ĠÐ¸ ÑģÐ¿
Ã¤hr end
orp or
Ġim m
un k
Ġl arg
ĠA g
Ġpa ÃŃs
Ġ199 8
Ġsing le
st ell
ĠA ir
Ġact ual
D es
ĠM use
Ġper o
Ð¸ Ð±
6 0
ĠÃ© l
u Ã©
Ġis s
Ġ196 0
Ġd ied
Ġsp Ã¤ter
I m
us ammen
Ġl ors
Ġm ember
ĠM ich
ĠA ut
bl ica
m i
om as
od y
ĠÐ±ÑĭÐ» Ð¾
ub l
ÐµÑĤ Ð°
ic ally
Ã¶ l
ra y
ar ch
ugh t
Ġdoc ument
Ġl ast
Ð´ ÐµÐ»
Ġse it
er es
Ã² b
j ar
ĠÐ¿ Ð¾ÑģÑĤ
Ġo Ã¹
Ñĥ Ð»
Ðµ Ð³Ð¾
ide o
Ġac onseg
I l
Ġb en
ĠÐ²ÑĢÐµÐ¼ Ñı
Ġall ow
ess e
Ġjed och
Ð°ÑĤ ÐµÐ»ÑĮ
Ġin depend
il a
Ġre qu
m o
ĠPar k
Ð° ÑĢÐ°
Ã¨ t
Ġst ill
ÑĢÑĥ Ð¿
ĠR ev
Ð° ÑİÑĤ
rie b
Ġdeb ut
Ġer h
ĠÑģ Ð°Ð¼
Ġt rib
d o
c s
ĠM ag
Ġst at
Ġcon d
Ã² g
ĠÃ© g
ect ed
Ã¤ s
st itu
Ġhas ta
envol up
ent lich
g lich
m itt
Ð¸ Ð¿
Ð»Ð° ÑģÑĤ
ampions hip
Ġsign ific
ĠV or
ĠFebru ary
ach t
Ġse par
ĠV ol
ĠS w
ĠCount y
Ġf us
G e
Ġl iter
ĠR ich
Ñ Ĭ
ent a
Ġm ag
Ġdon de
ĠF r
ĠÐ¿ ÑĢÐ°Ð²
Ġp ed
Ġf ur
ÑģÑĤ Ð¾ÑĢ
Ġcel eb
ie m
ag er
Ġm Ãªme
l ig
Ġv iol
ĠG es
Ġ18 3
Ġg est
Ð°ÐµÑĤ ÑģÑı
ort s
Ġmost ra
Ġcom un
ĠD r
ou ver
ĠIntern ational
Ġt rop
Ð½ÑĭÐ¼ Ð¸
Ġtel ev
ÐµÐ½ ÑĮ
Ġre d
Ð¸Ð¼ Ð¸
il es
Ġm ult
Ġs um
w est
D esc
ĠF est
rid ge
Ġter me
Ġprem ier
ĠEn t
ĠAl s
ĠH en
and id
Ã© v
Ġbuild ing
ĠD em
ic iÃ³n
ĠI II
ip l
is l
Ġmat ch
Ġc ual
Ġrem ain
Ġf av
Ġj unt
Ġfam il
Ġs istema
che d
Ġl leg
l ass
ĠBer lin
ot ball
ĠrÃ© g
r icht
ĠFil m
Ġpar te
Ġl ike
Ġb rit
Ġeff ect
ĠÐ §
f in
ne h
o unc
Ñĳ ÑĤ
Ġc ab
Ġmov ed
ian o
Ġbe k
Ġk onn
fol g
Ġc inc
Ġband a
Ġers ten
Ġh on
Ð°Ð½ Ð°
ĠW elt
os c
and a
Ġtrans port
Ġ( *
p oca
u ge
Ġpre v
lo y
ch o
ill es
Ð¾Ñģ Ñģ
D as
Ġcons erv
ĠF er
ĠK on
Ġw eiter
ĠO l
y le
ĠD o
Ġd ont
Ġt est
if ied
og en
Ġf on
Ġdesc rib
Ġal ors
Ġseg ons
kt ion
iz ation
Ġesp ec
am s
O r
enc es
Ð»Ð° Ð´
in ts
Ġpod en
ri end
we ise
Ġfr ont
Ġest e
P ro
b and
Ġn ue
Ġsim ilar
j e
Ġll arg
ÑģÑĤÐ² Ð¾
Ġp ower
h av
Ð³ ÑĢÐ°
Ġmater ial
Ġb aix
ĠÃ©ta it
in ing
ag en
ag o
Ð¸Ð» Ð°
ĠTe il
w ork
st ant
ÃŁ er
Ġchild ren
Ġn orm
Ġa ir
Ġan other
Ð¾Ð³ÑĢÐ° ÑĦ
ren ch
ĠÐ¼ ÐµÑģÑĤ
Ġver y
Ð°Ñģ ÑĮ
Ġcas a
Ġpubl ished
s er
Ġcap ital
ĠaÃ± o
ĠP e
Hist Ã²ria
an ia
Ġp int
Ġin it
Ġ199 6
Ġdest ac
Ġl ÃŃ
Ġdes envolup
Ġinclud ed
Ġs ota
ÑĢ Ð¸ÑĤ
ĠT ur
Ġin vol
olog ie
ĠÐ´ ÑĢÑĥÐ³
ÐµÑĢ Ð²
19 7
Ġt or
ind er
Ġpo int
ier on
ĠÐ² Ð¾Ð¹
Ġst r
en de
ĠJ ean
ion at
ure d
th ers
enc y
Ġcon du
Ġf ive
ĠCl ub
ent ion
j unt
ro ll
ĠÐ½ Ð¾
ÑģÑĤ ÑĥÐ¿
D e
b st
o und
i ant
Ð¸ÑĢ Ð¾Ð²Ð°Ð½
ere in
Ġto ur
ÑĢ Ð¾Ð¼
att le
Ġth ose
Ġ Ãºlt
Ġw ater
Ġ199 7
ĠTh ere
Ġsh o
and e
Ġch ang
ĠÐ¾ ÑĢ
ĠAn t
ĠJap an
ĠĠĠĠ ĠĠĠĠ
Ġcap t
u ent
Ġmitj Ãł
z o
ĠJos ep
ĠSant a
Ġperson al
Ġi f
" ._
Hist ory
is es
Ġg eb
ĠS ol
ĠÐ¿ÑĢ Ð¾ÑĤ
le in
ograph ie
Ġan omen
ĠS m
if t
Ġc oll
ie g
ĠN or
iet y
Ġconstruc ciÃ³
ip p
2 4
ourn al
p ret
ÃŃc ula
Ġcont rib
Ġr Ã©s
Ġaus si
Ġdivers os
ÑĥÐ»ÑĮ ÑĤ
im s
Ġ4 4
und es
Ġcas es
Ġper form
ĠGer man
Ġwith in
ĠU r
ĠF ra
ac he
H ab
Ġfor ces
f ahr
q Ã¼
Ñĥ ÑģÑĤ
Ġe con
Ġc am
2 3
ĠD el
ĠSch w
ĠR ad
ĠÃ©g alement
Ġse x
ÑģÐº Ð°Ñı
c it
it te
Ġa prÃ¨s
all er
Ġpl anta
od es
Ġsim p
ta ins
id s
Ġprob lem
al f
Ġb ased
Ġm ake
ĠÐ¿ÑĢ Ð¸Ð½
ÐºÐ° Ð·
Ġvilla ge
r act
Ġde dic
ro c
Ġe ven
Ġper d
ir t
af ten
Ð² Ð»Ñı
P er
Ġa insi
Ġc amb
Ġclass ific
Ġf ather
h o
Ġprop iet
Ġ199 5
ĠG esch
Ġde utsch
ĠZ w
ien e
Ġl ate
Ġd re
Ġ18 0
ic he
ad y
Ġar g
ÐµÑĢ Ð½
Ġ3 5
Ġaut om
Ġ199 4
Ġ199 2
Ġsh ort
8 0
ĠB as
ig r
Ġm ur
Ð¿ ÑĢÐ°Ð²
Ð¾ÑĢ ÑĤ
or ies
ra ch
Ð°Ð» ÑģÑı
Ġzur Ã¼ck
Ġar ri
ĠA f
glÃ©s ia
Ġto ts
ĠO k
ĠA ct
Ġsein em
ir k
og rÃł
ĠÐ² ÑģÐµ
Ġs ite
ien ne
ro te
ĠA lex
Ġrep l
Å ĵ
ri er
Ġloc ated
Ġdiffer ent
c i
on i
Ġinv estig
ud ad
Ġmill ion
Ġposs ible
Ġth ough
Ġann ounc
Ġin ic
ro t
Ġz ona
Ġatt ack
ĠEn gl
for man
A c
ĠM et
ĠÐ ¨
Ñĥ Ñħ
ir ts
Ġ201 9
Ġm Ãºs
Ð¾Ð»ÑĮ ÐºÐ¾
b au
ir on
Ġfa Ã§
inn ing
ĠJ ames
ĠO b
Ñĳ Ð»
Ġresp ect
2 2
ĠJahr hund
ÐµÑĢ Ð¶
Ġhist ory
emein de
Ġv ia
ĠÑģ Ð¾Ð±
Ġtro is
ag ne
b es
Ġf Ã¼hr
unc il
aj o
Ġmon th
Ġs oll
Ġprodu ction
Ġpu is
Ġc ame
Ġc atal
ell t
ÐµÐ½ Ð¸Ð¸
el a
ĠF rench
Ġincl ude
ĠC ong
ĠR iver
Ð°Ð½ ÑĤ
n ess
Ġwh at
ĠB es
Ġh ac
Ñı Ð½
om an
Ġ195 0
Ġap ar
c ent
ter min
Ġ194 5
stit ut
Ġd rei
Ġpres s
ĠDav id
Ġ199 1
ĠEurop e
ol it
Ġn i
Ġs ug
and on
ĠU m
ud i
Ġar m
A s
ĠTamb Ã©
r ist
ĠB ay
ĠG ran
re l
Ġth ird
r ad
ĠN av
b le
re a
mp er
ĠG uerra
Ġw ent
ĠGe orge
ath ol
le ction
ĠS k
ĠS en
id d
Ġfin anc
ĠF in
Ð» Ð¾Ð²
Ġp en
ĠÐ¿Ð¾Ð» ÑĥÑĩ
ub re
gl ied
Ġof ten
g a
est e
ograph y
ĠEl le
Ð¾Ð· Ð´
Ġll og
ĠÃ ľ
Ġn Ã©
Ġ17 9
el n
ĠCal if
is iÃ³
osp ital
Ġan c
ĠB au
2 1
Ġsein en
Ġcon ne
Ð¼ Ð°
Ġmod el
ue ix
Ġpos ition
qu Ã¨
Ġdist rib
Ġt urn
v ing
ÐµÑĢ Ñģ
ord en
Ã§ ais
ĠR ed
l en
Ġn av
S eg
Ġet wa
l as
ĠM at
ĠFran cis
2 7
Ġm iss
ÐµÐ½ Ñĭ
Ġs k
im in
f ess
Ġnec ess
Ġdivers es
us h
Ġstart ed
Ġcon eg
Ġs ide
ag ed
eit e
ĠH ouse
ap e
Ġc ivil
ĠP et
Ð¾Ð» Ð¶
al k
op er
in z
an i
ere its
Ġcol or
em a
ÑĤ Ð¸
Ġdire c
Ð¸Ðº Ð¸
Ġ199 3
2 8
is iÃ³n
ĠD ist
Ġdifer ents
ir m
Ġexemp le
Ġpr act
land s
ÃŃ tic
i j
Ġs qu
Ġam ong
ĠAn ton
Ġpobl acions
Ġf isc
ĠG al
ĠMar ia
ĠRo bert
D ist
2 6
ran g
Ð° Ñĩ
Ġd ens
s ide
ÑĮ Ñİ
ĠÐº Ð¾ÑĢ
Ġf ab
d es
h of
ec k
r era
ĠAr ch
ĠN acional
y m
Ġob serv
ĠB ra
Ġers t
or gan
h n
ĠL u
Ã¶n ig
ow s
our t
l ant
Ġab ans
ĠB y
Ġcont re
C ar
ĠPres ident
Ġtempor ada
Ġj us
Ġdef ens
Ġl og
ig ne
og n
ĠC as
Ġt ak
Ġac ab
u als
fr ica
Ġcr Ã©
b ol
ador es
op t
I t
Ġep is
ĠChar les
ĠF ern
Ġde ix
Ġpos terior
o z
Ġun itats
ig ua
iÃ¨ cle
Ã »
Ġh o
Ġb ien
Ġgr adu
Ġdes de
iÃ¨ me
Ġpro c
Ġcaus a
Ġtrav Ã©s
un s
2 9
Â» ._
y ing
um s
ass e
ens ch
ĠP rem
ud es
ĠLou is
a qu
Ġ Ã¨
b lic
Ġy oung
ĠB et
ĠEng land
el e
ĠcomenÃ§ ar
am t
ĠF ried
Ñı Ð±
Ġm as
Ġo ld
Ġob ject
Ġan g
Ġs ett
ĠH i
ig keit
Ġass ist
Ġro le
ar ed
B C
i Ã©
Ð Ľ
ĠdÃ© b
Ġl at
Ġv ot
f ang
Ġf ond
Ġ Ã¡
Ġbus iness
ĠÃ ª
E x
at ers
Ã² r
Ġmus ical
um ents
Ġgeh Ã¶r
ĠH ist
or en
Ġm ach
art ment
Ġord er
Ġp il
u ro
ell er
at ura
ac y
wo od
Ġhum an
ĠD on
ĠÃ Ģ
Ð½ ÐµÐ¹
ion n
es a
ier ten
Ñı Ð·
ra ÃŁe
ĠEngl ish
Ð¾Ð» Ð¾Ð³
ĠÃ© c
ar ly
Ġest a
e ix
Ġprem iÃ¨re
ĠG overn
Ġde g
Ãłn cia
Ġbec ome
i endo
und en
Ġre i
Ġse mb
Ġih re
v or
Ġdef in
Ġvers ch
ge w
ĠÐº Ð¾Ð»
Ġaut or
oci ation
Ġk ill
Ðµ Ð¶
l ar
Ġo ct
ĠS im
Ġcom erc
ĠO t
Ġdies e
Ġever y
ib t
ĠAn gel
u ed
Ġjo ined
gram a
Ġestabl ished
ĠÐ¿Ð¾Ñģ Ð»Ðµ
Ġ198 9
Ð¾Ð³ Ð´Ð°
Ð° ÑĪ
Ð½ Ð°Ðº
ĠÑĢÐ° ÑģÐ¿
Ġe urop
Ð» ÐµÐº
ĠC up
Ġindust ri
f ield
aquest a
ĠStre et
ĠÐ¿ÑĢ Ð¾Ð²
ĠÐ¸ Ð»Ð¸
Ġest ava
Ġreturn ed
Ġbe im
Ġsp e
Ġob ra
ĠM ann
Ð¾Ð»ÑĮ Ð·
Ġocup ats
Ġmay or
Ġinst it
at ely
Ġter min
ĠÑĢÐ° Ð¹
it ional
Ġj ul
ĠCh urch
ate ur
ĠÃª tre
st r
Ġc andid
ĠÐ¶ Ðµ
Ġe vol
un n
ly mp
m m
Ġcl os
Ġch urch
Ġw omen
Ġg et
s y
iem bre
Ġpe u
Ġav ant
Ġpol ic
) ;
Ġn ext
Ġn iv
Ġih m
Ġwork ed
Ġw ay
il itat
Ġk ann
i ri
Ġannounc ed
ĠRoy al
Ãł ct
Ã¤ d
er b
Ġi r
ab an
Ġd ins
in er
Ġm y
Ġv en
ĠD a
Ġmar ried
p ect
ĠS ud
iv o
Å į
Ġvers ion
ÃŃ as
ĠÐºÐ¾Ð¼ Ð°Ð½Ð´
Ġdur ante
ĠM od
oh ann
ĠH all
ĠS am
Ġper quÃ¨
Ġnov embre
7 0
Ġper forman
eg o
r Ã³
Ġf ew
Ã¼ b
Ġcount ry
A fter
Ġchar acter
Ġg uer
Ġper ÃŃ
ra el
Ðµ ÑĪ
Ġapp oint
at ures
und ial
Ġv iel
um p
Ġtro b
ÐµÐ» Ð¾Ð²
ĠQ ue
ĠÐ¾Ð± ÑĢÐ°Ð·
Ġco up
Ġprincip als
ĠComp any
ĠT re
y pe
Ġgr Ãł
ĠgÃ©n Ã©r
Ð¸ Ð½Ñĭ
Ġhabitat ge
Ġf oc
ĠtÃŃt ol
Ġg es
Ġdevelop ment
Ġ .
ĠT o
im iento
ĠX X
er ts
al is
l ine
Ã¶ s
ag ement
Ã¤ l
ĠB a
Ġob ten
h ist
f Ã©r
Ġin sp
ĠAn g
Ġet c
ĠD ire
3 5
g in
Ġw eit
ent al
ap ar
ke hr
Ġsh ip
ĠM il
Ð¸Ðº Ð°
Ġt an
Ġk am
Ġd ort
Ġgu any
re w
ÑĢ Ð¾Ð½
ing er
Ġt ake
Ð»Ñİ Ñĩ
ĠM ill
un ya
ĠTh omas
ript ion
la ge
ĠB ern
Ð°Ð½ Ð¸Ð¸
ion als
Ġpart ie
Ġ3 6
Ã Ģ
Ġhab ÃŃa
Ġc ri
oh l
ĠÐ· Ð°Ð²
A t
ri ff
Ð¾ÑĢ Ð¾Ð½
ific i
ĠI r
Ġgr ans
ik er
Ġaut hor
ĠO ff
Ġw rote
op e
Ġe qu
N ach
ap a
Ġd ro
' t
Ñĥ ÑĪ
il ed
ĠMad rid
c ar
rip ciÃ³
Ġstud ents
Ġconstru ction
Ġs ov
Ġalgun s
and s
ie urs
ut en
ĠE m
Ġe conom
Ġgre at
Ġh owever
ĠÐ· Ð°Ðº
Ġm is
Ġarrib ar
in ation
tain ed
Ġm er
Ġk Ã¶n
Ġfav or
Dist rib
it Ã©s
ĠFl or
Ġutil itz
Ġver b
ĠÐ·Ð° Ð¿
m ica
Ġkonn te
Ġinter pret
ĠD ar
Ġ8 0
Ġar tic
Ġecon Ã²m
i ors
ic os
Ġc es
ĠEn de
Ġne ed
ĠÐ» ÐµÑĤ
ad en
Ð¾Ð² Ð°Ð»
Ġcar acter
Ð» ÐµÐ½Ð¸Ñı
r or
Ñĳ Ð¼
ĠÐ½ Ð¾Ð²
Ġdia grama
Ġhav ing
m al
Ġp es
19 6
Ðµ Ð¶Ð´
Ð¸Ð· Ð²
ĠE ast
ĠF eder
Ð¾Ð´ Ð°
4 5
Ġinte gr
ĠW il
b ahn
Ġv ideo
ou v
us es
ĠD uring
Ġann Ã©es
ĠCalif orn
er d
Ð¾Ð¼ Ñĥ
Ð¾Ð½ Ñĩ
ĠO ne
ic as
z w
Ġnat ural
ash ington
Ġqu Ã¨
w end
o te
cl es
Ġfe ature
Ġn Ãº
Ġc over
ĠTr ans
Ð³ Ð°Ð½
Ã© tÃ©
en k
Ġ193 0
y r
Ġs ob
Ġci udad
u vo
on ne
Ġtip us
Ã³ r
Ġf unc
Ġtr act
Ġst ruct
ĠB ill
u h
ke y
Ġfran Ã§ais
Ġestabl iments
ch a
Ġvar ious
cl us
ct ed
ig u
ĠÑį Ðº
b ach
u ÃŁ
Ġm Ãł
Ġan al
ĠM ac
Ġcontinu ed
at ges
s iÃ¨cle
Ġg ames
amp le
Pobl acions
Ġac cept
ĠMin ister
ÐµÑģÑĤÐ² ÐµÐ½
Ġg esch
ĠPro v
ĠO ber
Ġ194 0
Ġus ing
Ġtreball ar
ĠA mb
ĠR a
Ġt yp
ÑĥÑİ Ñī
ĠR os
Ġreg ular
Ġre vol
Ð¿ ÑĢ
Ð £
ĠF ir
Ð¾ ÑģÐº
ĠB undes
t r
Ġ198 8
ad re
ĠA ix
Ġab andon
ier re
Ġprev ious
Ġers te
g ang
ac hed
ie b
Ġfab ric
te in
ĠÑı Ð²Ð»Ñı
ra w
ĠW hen
y er
Ġent er
Ð ¤
Ġs ens
ĠIn ter
Ġinter est
Ġ3 3
Ġtra b
Ġal lem
il om
ed at
ÃŃ fic
ĠK n
ĠÐ± Ð¾Ð»ÑĮÑĪ
ĠG ar
Ġm Ã³n
Ġn acional
Ġf ield
Ġcap ac
Ġf riend
ĠÑģÑĤ Ð°Ð»
ÑĢÑĥÐ¿ Ð¿
Ġt w
is en
ĠÐ¿ Ð¾Ðº
Ð°ÑĤ ÐµÐ»
Ġa ward
7 5
ĠÑģ Ðº
Ð¸ Ð¶
Ġor ient
R e
Ð¾Ð» ÐµÐµ
ÑĢÐµ ÑĤ
Ġmin ist
Ã¤r z
Ġ19 20
und o
Ġg iven
ÑĢÐ° Ð¶
ĠXI X
h and
Ġb i
Ġes s
Ġj ud
Ã¤ lt
Ð¸ Ð°Ð»ÑĮ
Ġhav er
ĠS uper
Ġit al
ri k
ik an
ĠJ ack
Ġm ai
itt le
ĠÐ¾Ð± Ñī
ĠCatal unya
Ġll i
Ġ3 2
Ġter m
eg r
se qu
Ð± Ð¾ÑĢ
ial e
Ġder n
ĠV ir
Ġrec on
ĠÐ½Ð° Ñģ
S ch
Ġcommun ity
hal ten
Ġcomp l
at ic
r ada
Ġ194 4
ĠCh ampionship
ĠW ashington
ĠR am
p ress
oc up
ag on
ĠTh ese
ĠÐ¼ Ð°ÑĤ
Ġtit le
f il
Ġf eb
Ġdef e
u ve
Ġtr ack
all en
Ġjus qu
Ġ198 6
Ġprom ot
Ġi g
n is
Ķ Ĥ
Ġcre ated
on om
Ġt ext
Ġcontr act
Ġ7 0
ÐµÐ½Ð¸Ðµ Ð¼
Ġdesp uÃ©s
Ġ198 7
ĠP eter
ic i
al ter
Ġpe ut
Ġs Ã¨
Ġpolit ical
l or
ist as
Ġpap er
ĠS ur
Ġd ata
Ġb al
Ġres earch
Ġih n
Ñģ Ð°
ĠG o
Ã² p
Ġpar e
g ent
am iento
E r
ĠD en
Ġop pos
ĠÃ ĸ
Ġe j
Ġap ro
Ġact ives
k i
ĠDes prÃ©s
Ġwith out
Ã©r ica
ĠÐ¸ Ñİ
Ġde termin
ĠZ e
Ġbl anc
Ġer w
ep t
ĠÐºÐ¾Ð¼ Ð¿
Ð¼ ÐµÐ½
ct ions
Ġsp ecial
ĠÑģ ÐµÑĢ
S e
g ra
ÐµÐ¼ Ð¿
u z
un st
ĠH and
ĠUn ion
ĠL as
Ġm em
Ġperson a
Ġconst itu
duc ed
Ġpl ant
ob le
h in
Ġt a
et es
Ġat temp
Ġfisc als
ĠS il
ĠM as
C om
Ġcol on
Ð¸ ÑĢÐ°
Ġcom mer
Ġb ot
ĠM ai
Ġp ens
ĠCaliforn ia
ĠÑģ ÑĢÐµÐ´
ens chaft
Ġre mp
ĠGer m
Ġpo ints
stitu te
Ġext ens
ĠBl ack
ĠK Ã¶nig
id ades
ĠJ ust
Ġd ann
Ġcomm on
un ts
ĠT it
Ġg ab
Ġenc uent
Ġex pos
ĠB re
Ġs is
igh ts
Ġs Ã©
Ġf ull
ĠT od
Ġserve is
au er
Ãł t
ĠGr and
un de
Ġv ille
Ġn uc
air es
emb le
a ug
D em
Ã² l
Ġcomm and
ÐµÐ½ Ð¸
Ġz usammen
3 3
Ġb esch
Ġdon ar
Ġexp ress
u ff
or ial
as es
Ġinact ives
ĠÐ¿ÑĢÐ¾ÑĤ Ð¸Ð²
Ð² ÐµÑĤ
c ording
Ġhab en
Ð² ÐµÑĢ
te ment
in os
ÑĮ Ñı
Ġlie gt
te x
A ct
af ts
b ild
ter a
Ġp ast
Ġb ereits
ĠÑĩ ÐµÐ»Ð¾Ð²
Ð Ĺ
ÑģÐº Ð¸Ðµ
Ġ /
hal b
A S
) _
ĠF e
Ġph ys
Ãī s
Ġsec ret
Ġconst it
Ġel ement
av ors
om s
ĠDiv ision
Ġt ie
Ð¾Ñģ Ð»Ðµ
ar qu
Ġa j
Ġes de
ad er
Ġsu ff
ĠV ict
A b
Ġd ays
Ġro und
Ġt ur
Ġtr Ã¨s
f en
ut er
ĠMit glied
ĠM iss
at ives
ur z
V a
Ġihr er
ib les
ĠÐ¿ÑĢ Ð¾Ð´
Ð» Ð¸Ñĩ
ĠÐ¾ ÑģÑĤ
ĠÐ½Ð°Ñĩ Ð°Ð»
ĠT el
Ġs w
Ġcu ando
Ġmemb res
et work
to ber
ĠCo uncil
ĠRe ich
ĠÐĶ Ð¶
Ġ198 5
ĠF C
." _
Ġbef ind
Ġs our
Ġmunicip al
ĠmÃºs ica
ut t
Ġs ac
Ġest Ã¡
Ġpol ÃŃtica
ÃŃ o
ĠHa upt
ĠMich ael
ĠJo an
Ġint ent
ĠB est
Ġ3 4
ĠRom an
ĠC op
ir at
Ġcons ist
c ial
Ġof fer
ĠGr und
Ġper m
Ġ198 4
ĠG ra
c ion
ĠpÃº blic
ÑĨ Ð¸Ð¾Ð½
ÐµÐ½ Ð¸Ð¹
ab ei
ĠT our
ĠÐ³ Ð´Ðµ
Ġtr at
Ġmilit ary
ĠT ra
ĠAr my
Ġd ir
Ġpar ts
ĠV ers
Ð· Ð°
ĠJ ohann
Ġs an
ÑĨ Ð°
Ġfuer on
ar se
Ġ Â
Ã± o
ÑĢ Ð¾Ð¿
Ġmol ts
ĠÐ¸ Ð³
Ġwork s
Ġact u
cept ion
Ġnov el
ov a
Ġy a
ĠH ill
ac te
9 0
iv ely
ĠMar y
ĠÐ¿ Ð»
ĠM ot
ĠJ uan
Ġs at
ri ft
Ã¨ ne
ĠB or
sel f
ĠM el
Ã¨r cit
ĠB al
us ed
a ign
3 6
ĠAc adem
A d
Ġten en
Ġreal iz
olog ical
Ġlang u
Ð° ÑİÑī
Ġcon oc
Ġc osa
ĠÐµ Ñĳ
Ġeduc ation
Ð°Ð² ÑĪ
ĠB ur
Ġl ist
Ñĥ Ðº
Ġ9 0
uc iÃ³n
ĠCent ral
Ġ197 5
Ġerh ielt
Ġll eng
ugh ter
Ġh ost
Ġc it
Ð»Ð° Ñģ
Ġrad io
Ġnom en
ĠÐ¸ Ñħ
is ing
k ed
Ġesp any
ĠG emeinde
ĠFest ival
ĠPart y
Ġcomp lex
ĠÐ· Ð°Ð½
ree k
ĠS y
ĠB and
ĠAss ociation
Ġsign ed
ĠÐł Ð¾ÑģÑģ
ĠJos Ã©
ass er
Ġrel ations
Ġemp loy
Ġopen ed
Ġ Ãºn
ĠCan ada
Ġto urn
Ġll ib
ĠJ e
Ġcon junt
s che
ĠÐ° Ð½
ĠÐ¾Ð± Ð»Ð°ÑģÑĤ
Ġt imes
ul o
Ġmet res
Ã¨ g
Ġpre par
Ġ198 2
ĠS port
Ġst ory
ĠJ ac
it ants
in en
c ast
ro y
Ġv ier
ĠV on
ith er
Ġto ut
Ã¤ch st
Ġl ost
Ġw el
get her
Ġto gether
ĠRich ard
end ing
Ġm erc
ĠF orm
Ġhel p
Ġplus ieurs
ĠÐ´ Ðµ
ĠT om
Ġproduc ed
Ġc av
Ġpla Ã§a
Ġfur ther
Ġ194 1
Ġesc rit
Ġw ife
Ãł s
ĠRep ublic
ĠD ev
ĠÃī s
Ãł ries
ĠT V
n ing
Ġz un
Ġro ck
Ġsuper ior
ĠChrist ian
ch ts
Ġc Ãłr
Ġ198 3
Ġtrans fer
Ã¶ff entlich
ĠM y
ĠS up
ill o
ĠÑĥÑĩ Ð°ÑģÑĤ
ĠT ex
Ġqu ant
ĠEurop a
Ġ Ñİ
Ġserv ices
ÑĢÐ° Ñģ
Ðµ Ñī
Ġv ie
ut a
Ġcast ell
iÃ¨ res
Ġv iew
as ion
Ġhe ute
ĠÐ¿ Ð¾Ð¼
Ġ197 9
ge ben
Ġte ach
Ġm ont
Ġd om
Ð¸ÑĤ ÑģÑı
ass en
Ã± a
Ġa ver
Ġgo od
ect ion
Ġw Ã¤hrend
y ear
Ð¸Ð½ Ð³
id ence
ogrÃł fica
ĠS Ã¼d
h ol
d ay
Ġer an
Ġ197 2
ĠJul i
Ð½Ð¸Ðº Ð¾Ð²
Ġwork ing
ĠUn its
Ġri u
ĠI V
ĠL uc
Ð¾Ñģ ÑĥÐ´
lich er
ĠUnivers itat
way s
ĠEurop ean
Ġw in
Ġal c
Ġc ours
ÐµÑģ Ñģ
ĠS pr
ÐµÐ´ Ð¸Ð½
ĠAquest a
Ġcons id
ĠK l
Ġme et
d om
am ment
ĠAmer ica
b our
Ġhim self
ĠâĢ ł
ĠS l
19 5
Ð¼ ÐµÑģÑĤ
3 8
Ã© p
ĠL eg
as tern
ĠB eg
Ġest ar
g ed
Ġac qu
ĠÐ¾Ñģ Ð½Ð¾Ð²
Ġf ar
Ġappoint ed
Ġst re
ven ir
ĠÐĲ Ð½
4 8
ord in
Ġdep uis
oc al
Ġ193 9
ĠC he
ĠCh ina
ĠA ward
ĠAustral ia
ri Ã¨re
Ġcost at
ĠEst ats
ĠH al
Ġst ar
Ġappear ed
w ar
Ð¾Ð²Ð°Ð½ Ð¸Ñı
ĠP ac
Ġof icial
ĠÐ¡ ÑĤ
Ãº blica
Ð¼ Ñĥ
ĠOk tober
Ġagr ÃŃc
Ġh ier
Ñĭ ÑĤ
Ġ3 8
Ġ197 4
Ġph ot
Ġrig ht
Ã¤n g
ĠM ex
ric k
L eben
Ġand eren
Ġa ra
c Ã¨s
Ġhist Ã²ria
ĠC ont
Ġfo otball
Ð½Ð¸Ðº Ð°
j ecte
gr und
ĠS om
ĠÐ²Ñĭ Ð¿
ĠP f
Ġs il
le v
ish ing
ist ers
ĠGe org
Ġd in
un kt
ĠInd ia
f ant
ri r
Ġh alf
Ġest an
Ġra il
ĠE mp
Ġb er
Ð¾Ð³ÑĢÐ°ÑĦ Ð¸Ñı
Ġdec id
ific ation
ĠÑĩÐµÐ»Ð¾Ð² ÐµÐº
Ġj ur
ig ung
ĠS el
Ã´ t
Ġ197 6
Ġeng ine
ab ly
Ġsp iel
Ġgroup e
ĠÐ³ ÑĢÑĥÐ¿Ð¿
Ã¨ me
er os
Ġ196 8
ĠS ing
Ġ197 8
v is
ĠÐºÐ¾ÑĤÐ¾ÑĢ ÑĭÐ¹
ĠF ort
Ġex tre
Ġat ac
Ġc ro
Ġret ir
Ð¾Ð» Ð½
ĠS erv
ers hip
Ġind ic
Ġdec or
Ġreal itz
Ġdescrib ed
Ã¼t z
le ar
k n
Ġro ad
ĠF amil
Ġconsider ed
one y
Ġbel ie
3 9
Ġs en
Ġgro w
Ġnov a
Ġ197 3
Ð°ÑĢ Ñı
Ġer folg
ĠAl t
ĠFrancis co
f alls
âĢ ¦
st adt
Ã¶ ÃŁ
Ġst yle
av es
Ġ194 3
ĠM Ã¤rz
ed en
ĠD u
ÑĨ Ð¸Ñı
ĠSoc iety
Ġtem per
Ġocc up
Ġob res
ĠS ov
G esch
ĠIs land
ual ment
ri an
Ġad opt
r Ã¡
Ñĭ ÑĪ
er em
ÑĢ Ð¾Ñģ
Ġcr ist
Ġ198 1
Ġmor ir
mp re
Ġfol g
ĠP os
Ġinst r
itte e
le c
Ã¶ glich
az ine
Ġa ud
ab e
sy ch
Ġest im
Ġdecl ar
aj e
Ġel l
ĠH o
x a
ĠÑģ ÐµÐ¼
ĠPro fess
Ġot ros
eme ins
ÐµÑĢ ÐµÐ²
Ġl ÃŃn
Ð¾ÑģÑĥÐ´ Ð°ÑĢ
ĠO lymp
Ġ194 2
Ġ3 7
Ġch amp
ar de
ĠMus ic
ĠÐ¿ Ð¾Ð²
Ġadd ition
re es
Ġ ill
id as
ze ug
ĠRo ad
Ġcla im
up pe
Ð¸ ÑģÐº
Ð¸ ÑĪ
ĠMuse um
Ġmant en
ah m
3 4
Ġb all
Ð» ÑĥÐ±
a uc
Ġb ran
Ġg al
Ġ197 7
ÑĢÑĥ Ð´
Ġd ri
Ġm ismo
st re
ÐµÐ¹ ÑģÑĤÐ²
l Ã¤
Ġspec ies
Ġreport ed
ĠHen ry
ĠMart in
o ct
Ã¨ ixer
ĠJanu ar
Ġcon temp
Ġac cess
Ġp is
ograf ÃŃa
Ð¾Ð¶ Ð´
Ġf le
du ction
Ġc ed
Ġelect ion
Ġy ou
ion en
Ñı Ð²
Ð¾Ð² Ð°
l ot
Ġp ays
3 7
Ġinc orpor
Ġpob le
Ġd ig
Ġm embre
Ġserve i
Ġform at
Ġcult ure
Ġ urb
ĠKir che
uch t
ard en
Ġveg ada
Ġdav ant
im o
ĠÐ¸ÑģÐ¿ Ð¾Ð»ÑĮÐ·
ĠJosep h
Ġap are
Ġwe ek
ÐµÐ½ Ð¸Ñİ
i ents
Ġpart y
i h
l ÃŃcula
ell ow
Ġaconseg uir
Ã¶ t
Ġnou ve
ĠS on
ĠÐ²Ñĭ Ñģ
Ġo pt
Ġfo is
Ġorgan iz
g round
Ġe igen
Ġel ev
Ð¸Ðµ Ð¹
, âĢĭ
Ġad apt
Ġ( "
Ġdes sen
wer k
it ch
at ro
ĠA v
Ġcat eg
Ġfound ed
Ġm aking
ÐµÐ² ÐµÑĢ
w h
ĠP o
ic ions
Ġsup ort
ĠJun i
ĠfaÃ§ ana
ĠCent er
Ġein z
Ġb omb
ug ar
ĠÐĿ Ð°
at iva
4 7
ĠC la
sk i
ch sel
uel a
ĠW ith
ĠM ic
minist rat
im ens
ĠS in
Ġh ous
Ġtra va
Ġ196 7
om es
Ġex c
Ġoff ice
Ġâ ĶĤ
ĠÑģ Ð¾Ð·Ð´
Ġo l
h alt
ĠF ol
m als
ĠÑĥ ÑģÑĤ
Ġare as
Ġb ord
Ġs ans
ic ult
Ġlle v
ĠS aison
en es
Ġper man
A C
Ġcar rera
ĠÃ© p
ĠÑį ÑĤÐ¾
Ġdies em
v iew
ĠMar k
c m
Ġel ements
ĠM ass
geb iet
Ġp ur
ol Ã²g
ĠM itt
Ġsho uld
Ġpr Ã©
Seg ons
ord n
Ġtorn ar
ĠAr beit
Ġcol lect
Ġ196 9
Ð° ÑĨÐ¸Ð¸
Ġal tre
Ġs ou
Ñĳ ÑĢ
ÐµÐ½ Ð¾
Ġne ver
Ġbe iden
ÐµÐ½ Ð½Ð¾
os oph
Ġ17 8
er ing
ĠCan ad
Ð ¨
Ġw id
ors ch
iss ance
Ġpass ar
Ġrep art
ĠkÃ¶n nen
Ġle vel
ĠPl atz
Ð¾ ÑĪ
Ġabs ol
b Ã©
ĠM er
Ġprofess ional
ÑģÐº Ð¸Ð¼
Ġel la
Ġcas e
i Ä
ĠÐ½Ð° ÑħÐ¾Ð´
Ġ197 1
E arly
E sp
Ġf ire
ĠLa w
ĠUn a
Ġdist rict
Ġam pl
Ġh old
r am
b res
ad ament
Ġdevelop ed
Ġob t
ĠÐ¾Ð± ÑĬ
Ġdo es
om ing
ber ta
Ġo thers
ĠÑĢÐ° Ñģ
ĠT ot
Ġc anc
ĠÐ² Ð¸Ð´
m ir
ĠÐ· Ð°Ð¼
aÃ± a
Ġform ed
ou te
ĠsÃ¨ rie
ĠDe z
Ġd arr
ĠBe i
eh n
Ġsu iv
Ġf arm
Ġll ind
er ia
Ġll am
im p
M ar
ĠB ut
Ãł b
ĠM ur
ot el
Ðº Ð¾Ð»
Ð°ÑĢ ÑĮ
Ġqu ar
ĠÐ¿ Ð¾Ð¿
Ġsol o
is Ã©
ac a
ist ic
Ġh ow
4 6
Ġel ec
ĠR ock
Ġob lig
ĠIn stitute
ĠGro up
Gesch ichte
Ġmil es
ĠD is
Ġmill or
f eld
l uss
et y
m ost
ĠL eb
Ġgro und
Ġvis it
ien st
az z
Ã¶ st
Ġte il
Ġsol s
ak er
w are
t ant
Ġseg u
l am
ĠÐ¿ÑĢÐµÐ´ ÑģÑĤÐ°Ð²
Ġtro bar
ĠP op
ĠL at
ĠC ourt
ut ed
idd le
b el
ÑģÐº Ð¾Ðµ
Ġide a
ĠInd ian
Ġport a
Ġaquest s
Ġmot her
Ġava it
Ġ193 6
Ġm ig
ĠL ib
ĠR od
i ere
irts chaft
on de
ĠR ob
ich ts
arg o
Ġf ace
um an
ĠA k
E urop
ub le
Ġenv iron
on z
ĠÑĤ ÐµÑĢ
Ġbeg ann
ic le
Ġex ample
li ament
Ã¨ l
Ġsel bst
p art
Ġal tern
ĠF o
ĠnÃº mer
Ġse p
Ġal though
Ġm id
Ġcon se
ang el
Ġll avors
is er
Ġm agn
Ġan terior
Ġseg ona
Ð² ÐµÑģÑĤ
f Ã¼
Ġmonth s
Ð½Ð°Ðº Ð¾
ĠH el
ĠÑĢ Ð¾Ð´
Ġstr ong
f te
ĠC ro
Ġres ist
Ġreg ion
Ġava il
ÃŃst ica
er ve
Ġse m
Ġg ave
ari os
ĠD re
fer ence
Ãª te
Ġhon or
Ġles s
6 6
ĠperÃŃ ode
Ġb ene
ĠÐ¼ Ð½
uts che
Ġqu el
Ð¸ÑĩÐµÑģÐº Ð¾Ð¹
Ġelect ed
Ġmilit ar
Ġg an
4 4
ĠK rieg
i ro
a e
Ñı Ñī
ĠDist rict
ĠD urant
it ive
Ġcamp aign
Ġrele ase
ant ed
ĠCh ic
Ġa y
Ġb ody
Ġplay er
un es
Ġr ac
am in
Ġsuccess ful
ĠS ar
Ġl ive
Ġsur v
ch s
ĠAl f
Ġd Ã©s
la gen
Ġperforman ce
ĠM ax
Ġl etz
Ð¾Ð» Ð¾Ð¶
sch lieÃŁ
Ġl et
Ġa way
ĠDez ember
Ġre un
Ã² s
Ġw eb
ĠEs c
Ġped ra
ict ion
Ðº Ð¾Ð¼
Ãł p
Ġtie mp
ĠH aus
Ð» Ð¸Ð½
aut om
ĠAr ts
Ġpa int
Ġwrit ten
a igua
Ġrep ar
ĠR ail
.âĢĭ âĢĭ
ÐµÑĢ ÑĤ
Ġ3 9
Ġ196 4
Ġc ross
ĠV an
Ġconf lic
os ten
Ġ5 00
Ġger m
Ġe fect
5 00
Ġve z
Ġrecord ed
est at
Ġperson n
Ġcour t
Ġseg on
ĠFran Ã§a
Ġt iene
ĠDeutsch land
Ð¾ Ñħ
h old
Ġfran ces
C on
ĠTe chn
ol ars
f ace
ĠO per
Ġmateix a
Ġon ce
ĠÐ¼ ÐµÐ¶Ð´
ruct ura
3 1
Ġcrit ic
Ġa lem
ĠUnivers itÃ¤t
Ð¾Ð²Ð°Ð½ Ð¸Ðµ
Ġda ughter
3 2
duc ation
F ran
Ġal g
Ð² Ð¾Ð»
Ġto ta
Ġc art
Ðº Ð¾Ð¹
Ġhav ien
. )
ĠJ es
Ġ196 5
ol o
Ġcorresp ond
ador a
ĠÐ½Ð°Ð· Ð²
ÑĨ ÐµÐ²
Ġmajor ia
ster reich
ĠC D
ak t
Ġab le
Ġal le
ĠÃľ ber
Ġv eh
ÑıÐ± ÑĢÑı
Ġf ight
Ã¯ s
h ne
Ġj ournal
Ġprot est
Ġve ure
Ð¡ Ðł
Ġap art
Ġb Ã©
Ġmon de
l ament
Ġin n
ce ed
ĠÐ ¯
Ġdif fic
ĠM Ã¼n
ĠSm ith
Ġcom unic
ĠÐ» Ñİ
ist an
Ġpol ice
at u
vent ion
Ġm uy
h ind
ede ut
Ġform ar
ĠJ ew
ĠH och
ĠN ic
Å ¡
Ġconvert ir
Ġnorm al
Ġac ross
neh men
Ġt ax
Ġl ow
ĠÐ¿ÑĢÐ¾ Ð¸Ð·Ð²
zeichn et
ĠP an
av ing
op p
Ð¿ Ð¸Ñģ
Ġre pr
ĠC e
Bi ografia
ug u
Ð¸Ñģ Ñģ
ĠSp an
h y
Ġremain ed
ĠM ol
Ġcomp ar
Ġtrad ition
ĠSt ra
Ġ196 6
able ment
Ġbl ack
Ġn ens
Ġla un
Ġex ecut
Ð¸Ð² ÑĪ
Ġpet it
in at
ĠDies e
ic ament
act ion
man a
oc rat
ĠF Ã¼r
Ġs ÃŃ
Ġfollow ed
ĠÐ¿ Ð¾Ð·
Ð¾Ð± Ñĭ
iss enschaft
ĠÑĢÐµ Ð·
Ġrec ogn
Ġtrans form
ec ciÃ³
Ġc ul
Ġversch ied
Ġn ature
l ess
is ions
ÑĢ ÐµÐ½
4 9
Ġl iving
en ne
Ġ194 6
w eg
ge h
Ġver t
Ġplay ing
if est
ĠH Ã¶
or b
Ġbro ad
Ġindepend ent
und a
rit t
Ġ194 8
Ġaver age
Ġqu est
Ð¾Ð½ Ð¾Ð¼
ĠV erein
ien ces
Ġn a
ĠV ert
ut h
d ia
Ġins c
w alt
quip e
Ġers ch
ĠÐ ¦
ĠChic ago
ĠG od
z er
ÐµÐ¼Ð¿ Ð¸Ð¾Ð½
Ġre ct
Ġ196 2
Ġcre ar
ÑĥÑī ÐµÑģÑĤÐ²
Ð³ Ð¾Ð´
Ġa ch
c ul
Ġcap it
ĠÑĩ Ð¸Ñģ
Ġma ig
r ac
Ġsu ite
ĠAngel es
v ia
Ġt om
ob ra
ĠOr t
ul ts
oc s
ard o
Ġ193 8
ĠPro du
ĠIs rael
A ss
h od
Ġin j
Ġm ic
ier no
er ie
Ġtak en
Ã¼ ss
Ġb ur
ĠÐ± Ð¾Ð»ÐµÐµ
ter es
Ġv ic
ĠY ou
up pen
Ã¨ m
Ġar beit
Ġl ight
k o
Ġattemp t
ĠE ins
ĠÐ³ Ð»Ð°Ð²
j or
Ġs eny
Desc ripciÃ³
ÑĥÐ± Ð»
lo od
ut ions
ism us
Ġf ot
Ã¤h n
ĠS ohn
Ġsug gest
ĠJ ud
and en
Ã²n ia
vel le
Ġw en
ĠB at
Ġbek annt
Ġrel ativ
Ġf ree
ign ed
Ġf eder
or al
es glÃ©sia
Ġtot es
Ġun o
Ġg ir
ĠÐ ®
ĠÐ² Ñģ
ĠÑĥ Ð½
ĠÑĢÐ°Ð· Ð²
Ġm uss
Ġco ach
Ã¨c n
Ġpart it
ĠGre en
ĠMus ik
6 5
e e
Ġsub ject
arb eit
Ġesp Ã¨
Ã¤n der
ur en
ĠG en
it ter
ed a
ilit ies
ĠE g
Ġcomplet ed
av ant
A A
Ġaut res
Ġtelev ision
if s
ĠÐ¾ÑĢ Ð³Ð°Ð½
ĠWh ite
is a
ĠG ew
Ġ196 3
ĠGro ÃŁ
, "
Ġdam it
ĠEn tre
Ġbest eh
Ġbaix a
fÃ¼hr t
Ġprim ers
ur ar
Ġcap ita
onst ru
ub e
Ġg ar
ĠM undial
Ġr ace
ĠJahrhund ert
ĠT own
Ġzun Ã¤chst
Ġcomb at
Ġmar ket
Ġalt ra
Ġe ast
7 8
Ġt ype
k y
Ð½ Ð¸Ð¼
ĠÐ´ Ð¾Ð¼
p p
Ð°ÑĤ Ð°
Ġperform ed
Ġh or
rie ben
ĠC at
un que
Ñģ Ð¾Ð²
ĠL o
ou re
ell ing
ĠÑĤ Ð¾
ĠO s
ar o
Ġed ific
Ð¸ Ð°Ð»
Ġc ert
Ã¼n f
Ġt end
z ug
Ġmed ia
Ġst att
Ġg leich
ĠÐ¸ ÑģÑĤÐ¾ÑĢ
ĠÑĤ Ð¾Ð¼
Ġ15 0
Ġjul iol
ev ol
ĠÐ´ Ð¾ÑģÑĤ
âĤ ¬
Ġnot amment
n ement
j os
Ġavail able
re en
Ġre du
in st
Ġfor en
he ad
Ġr an
Ġse pt
z ie
g u
Ġihr en
Ġconc ern
k rieg
Ã¨r ica
ines e
Ġ19 18
ĠPol it
ĠG old
Ġgrand e
Ġcult ural
ĠRe al
er Ã§
Ð¾Ð½ Ðµ
ĠE v
Ġch a
ess en
Ã¤n ger
la Ã§
Ġro ute
ĠF rom
ĠUn t
n s
Ġtra ining
ust r
Ġr end
Ġse hr
5 5
Ġevent ually
Ð¾ÑģÑĤ Ð¸
Ð°ÑĢ Ð´
fr ont
ĠG ir
Ġqu ien
ĠNov a
ĠÐ´ ÐµÑĢÐµÐ²
as a
ĠAcadem y
E conom
ent ial
Ġjun y
ĠD am
Ġen erg
itu de
Ġas ÃŃ
ĠRev ol
ĠGerm any
Ġfin ished
Ġv i
Ġm Ã©d
Ġcan vi
Ġ193 3
Ġle urs
ben falls
Ġm ission
Ð¸ÑĩÐµÑģÐº Ð¸Ñħ
ĠSc ott
Ġalgun es
Ġ195 6
ĠN ot
Ġper t
ig te
Ġp an
Ġm unt
Ġserv ir
Ġs ab
Ġveg ades
ex p
Ġse en
Ġs oci
med iat
t ats
ruc k
ier ra
ind en
rig ht
Ġfor ce
Ð³ Ð»
ĠÐºÐ¾Ð½ ÑĨ
Ã¼n st
est ra
ch an
ĠÐ´ ÐµÐ»
Ġent stand
Ġrev iew
Ġg ibt
Ġbro ther
ak es
r ing
ri que
ien en
Ġ ,
Ð¸Ð½ Ð¸ÑģÑĤ
ba ix
ĠÐ¿ÐµÑĢ ÐµÐ´
Ġprogram a
ÑĦ Ð¾ÑĢÐ¼
ÐµÑĢ ÑĪ
Ã¤ ude
Ġre prÃ©s
ĠÐ° ÐºÑĤ
Ġstud y
ÐµÑĢ Ð±
ĠM ilit
Ð Ń
Ġse e
Ġ196 1
Ġre ad
ĠJ a
in y
Ġla bor
Ġgr Ã¶ÃŁ
ĠÐ¼ Ð¾Ð¶
Ġd at
Ġ195 8
ident al
ĠP ed
Ġav oir
Ġex hib
Ġcar rer
Ġp ay
Ġam er
Ġl eng
ĠD urch
p a
Ġpro gress
oc he
Ġp ie
Ġevol uc
Ġen f
ĠC entre
Ġarch itect
Ġprofess or
ĠBer g
ĠTex as
ĠS i
la uf
Ġge ogrÃłfica
Ġf all
Ġz e
Ġfa ire
ĠcÃłr rec
4 2
ĠCar ol
ÑĤ ÑĮ
ac ta
ĠÐ² ÐµÐº
ĠK unst
Ġad ministrat
ĠÑģÐ² ÑıÐ·
on ent
ĠFebru ar
Ã²b ils
Ġter ra
ĠE ar
Ġinvol ved
ĠÐ¿ Ð¾ÑĤ
Ġmar c
u ite
y e
l ang
an os
Ġreg ist
Ġd ate
ili ars
ĠC os
Ð· Ñĭ
Ġob stant
hel m
ing u
Ġ194 7
ĠM en
Ġset embre
Ġgra v
S S
ĠF el
ĠLand es
Ġm ust
Ãłn ia
r Ã©s
Ġ4 8
im al
ĠÑĤ Ð¾Ð³Ð¾
hab itat
ministr ation
F A
Ġre form
Ġcom and
9 9
Ġag re
Ġ195 9
x it
Ġpre d
ri z
r ats
Ġph il
Ġder en
is piel
ĠDep artment
Ã© ro
ĠV en
Ġpre c
o est
Ġ =
ÑĢ Ð¾Ð´
ĠS ub
Ġpriv ate
Ġfilm s
Ġpl at
Ġch ange
a ul
ĠF inal
6 8
ĠB urg
ĠAn n
ĠJ er
Ġre bre
ĠC ivil
N A
ul f
irc raft
Ð°Ð» Ð¸ÑģÑĮ
ĠdÃ© f
mer a
Ġtrad ic
Ð² Ð°
Ġdev ient
Ġc urs
ĠB ahn
b an
Ð» ÐµÐ½Ð¸Ðµ
Bi ographie
anÃ§ ant
ĠUS A
Ã¤h lt
ay a
oct ubre
Ġtiemp o
Ġthrough out
ĠÐ² Ð¾Ñģ
ĠC am
Ã¨ res
Ġs ido
Ð¸ ÑĢÑĥ
itz a
Ä ģ
Distrib uciÃ³
Ġver m
Ġm ix
ĠP lay
ĠnÃºmer o
ĠÐ¶ ÐµÐ½
Ġke ine
ĠP erson
ĠÐ´ Ð¾Ð»Ð¶
Ġst ated
Ġc ad
ĠP or
Ġcomm une
Ġt all
ac ion
s hip
ĠRec ords
ri ure
m on
Ġposs ib
Ġindivid ual
Ġl ugar
Ã¼r ger
T V
Ġenc ore
Ġsignific ant
h ard
Ġs Ã¼d
Ġv ent
Ġan ual
at ors
Ġw orden
Ġclassific ades
I s
Ġesc ola
ĠÐ¼ ÑĥÐ·
Ġa ug
ich er
ĠT al
Ġterrit ori
ĠSoc ial
Ġde t
Ġdep art
ĠGre at
ĠRep Ãºblica
E d
ck e
Ġlangu age
ĠAr m
ill et
ĠFir st
ĠÐ° Ð¿
Ġsig lo
Ġev ents
Ð¾ Ñī
âĢľ ,
p or
Ġinform ation
rough t
Ġv ess
Ġm use
ĠL ang
Ġer reich
ient ras
ĠO p
Ġsig u
est re
l Ã©
ud d
ĠÐ³ Ð¾ÑģÑĥÐ´Ð°ÑĢ
Ġ194 9
ĠÑĥ Ð´
Ġdis e
Ġjo ue
ell schaft
ĠW er
Ã» t
Ġ193 7
or ig
Ġ3 00
Ġdesign ed
Ġlead ing
ÐµÑĢ Ð³
Ġconst ruct
Ã¯ da
er ous
Ġsub sequ
Ġpol ÃŃtic
ĠR el
w ig
Ġdest ru
ĠK al
ĠG i
t or
Ġd Ã¨c
Ġsa w
Ġpu ede
Ġexper iment
7 6
Ã²b il
Ġs ay
ĠWest ern
Ġn un
ĠdÃ© velop
Ġt as
c os
Ġc y
um mer
Ã® t
Ġinst al
act ual
ĠÐ¼ Ð°ÑĢ
ĠU K
Ġ19 19
Ġpro ced
ĠÐ¿Ð¾Ñģ Ð»ÐµÐ´
Ġbat alla
as ing
ĠSt ar
ĠL in
Ġf an
Ġ195 7
ol i
âĢ ²
Ġkn ow
ec a
Ġal iment
ar ent
ĠVir gin
Ãª t
Ġintern acional
ol le
Ġs aison
ur as
ĠÑģ Ñĭ
ĠXV III
Ġto us
ĠÑĤ Ð¾Ð»ÑĮÐºÐ¾
ÑĥÑĢ Ð³
stell ung
ĠÐľ Ð¾ÑģÐº
Ġdiv ision
Ð¸ Ñī
ÐµÑĢ Ñħ
âĢľ .
ĠPar ÃŃs
4 1
b ers
Ġpropiet aris
ell o
V er
ÑĢÐµ Ð±
Ġext ra
ĠÐ¾ÑĤ Ð½Ð¾
Ġleg al
ĠK ap
e au
ĠB ank
Ġrest a
ĠÐ¾ Ñĩ
ĠAr gent
ient es
cl am
ĠÑĢÐµ ÑĪ
9 5
Ð¸ ÑĦ
ÐµÑĤ Ñĭ
Ġne u
vo ir
Ġmar Ã§
Ġle arn
ab s
ag a
od en
l an
Ġ12 0
Ġno us
Ġprov ided
Ġp ut
Ð»ÐµÐº Ñģ
Ġent ire
ing ut
Ð¸Ð· Ð½
Ġj ap
ĠW ind
ĠÐ°ÑĢ Ð¼
Ġhe alth
Ġemb argo
Ġ195 4
Ðº ÑĢÐ°
tic o
ĠRom a
ir it
ĠB us
ĠRad io
Ġnouve au
ĠÐ² ÑĤÐ¾ÑĢ
Ġfin als
v ier
Ġen em
ĠS ir
ÐµÐ» Ð¸
ĠWh ile
Ġweit ere
Ġp ou
ation en
em s
Ġhe av
iÄ ĩ
ob ierno
ob al
Ġd ipl
Ð¼ Ð°Ð½
Ġschool s
Ġoffic ial
Ġfeature d
ik a
Ġse ctor
ĠÐ½Ðµ ÑģÐº
egr Ã¼nd
m os
Ġutil iz
ub ic
co unt
ÑĢÐµ ÑģÑĤ
Ġdec ided
Ġup on
ÑĨ Ñĭ
ĠÐ¼ ÐµÑĤ
f ort
k ir
ĠS eit
ĠdÃ©b ut
Ġcol um
Ð½ Ð¸Ðµ
Ã¢ t
Ñĥ Ð³
Ġinst all
e quip
Ġ195 2
Ġgroup s
4 3
Ã¯s os
Ð¸Ð² ÐµÑĢÑģ
ĠA uch
ro ad
Ġlo ok
S A
in te
ĠH ans
ib l
Ġd ip
Ã¤n de
p ut
ĠÃ ģ
ĠgrÃł fic
us o
Ð½Ðµ Ðµ
Ġcour se
ĠTe am
ĠFried rich
w ell
Ġcom erÃ§
Ġel imin
ĠÑģ Ñĩ
Ã¤ ÃŁ
ĠÑĨ ÐµÐ½ÑĤ
w in
ÑıÑĤ ÑĮ
19 0
Ġdif fÃ©r
Ã´ le
o unt
ĠÐ³ ÑĢÐ°
Ġfam iliars
at ory
Ġtrab aj
ĠAf ric
ĠÑĪ ÐºÐ¾Ð»
Ġg ouver
Ġpr ison
Hab itat
ill s
ĠB ild
Ġ195 5
s ur
Ġ Î
Ġm ob
ĠÑĩ ÐµÐ¼Ð¿Ð¸Ð¾Ð½
as i
Ġf ix
h ts
ÃŃst iques
b ra
gr at
Ġdo ctor
Ð¸Ð» Ð°ÑģÑĮ
Ġdes embre
t ime
Ġlim it
ĠÐºÐ¾ÑĤÐ¾ÑĢ ÑĭÐµ
z as
Ġsqu are
Ġw ind
Ġbefind et
iet at
Ð¾ ÑĦ
ĠD i
all es
Ã¼ es
ĠC a
ub il
Ġf Ã¼nf
ĠS and
ĠÑĤ Ðµ
Ġkill ed
B A
Ġleg isl
ĠP enn
Ġin aug
Ãłr qu
Ġle ague
ĠP la
b it
Ġelect ric
ĠC amb
Ġatt ended
z Ã¶s
Ð¸ÑĩÐµÑģÐº Ð¾Ð³Ð¾
Ġn ight
Ġ195 3
ĠL ie
ĠÑģ ÐµÐ»
at ch
p f
em Ã¡s
ok e
Ġdeg ree
ĠF ahr
l bum
Ġact ion
Ġencuent ra
ÃŃ g
Ġcar re
Ġcons um
ot o
ĠSec ret
7 9
Ġstruct ure
ĠD ay
ĠC i
ab ril
ut ter
Ġn ahm
Ġexpl ot
u ego
Ġqu art
Ġt Ã¨cn
Ġtod o
Ġrepar aciÃ³
ĠÐ³ Ð¾Ð»
ĠÐ´ Ð°Ð½
gl ise
f ass
ri v
Ġcon eix
ÑģÐº ÑĥÑİ
ĠL y
ĠÐ± ÐµÐ·
ĠK e
ĠC ab
Ġqu ad
Ġe hem
Ġspiel te
Ġ193 4
ra it
ĠOr gan
ĠT emp
Ġcl ose
Ġgew ann
ĠSt and
Ġn ar
ric s
Ġdiss eny
Ġst age
ĠN amen
Ã©r ation
Ġand erem
Ġsc ient
Ð°ÑĤÑĮ ÑģÑı
Ê ³
ĠM ir
Ġver d
ĠÐŀ Ð´
ĠÐ² Ð¾Ð´
ĠComm ission
end s
ĠL i
ich en
8 5
ab eth
Ġcer tain
Ġwh ite
ĠP ap
up e
Ġreg iÃ³
ve y
ÐµÑĢ ÐµÐ·
Ġrepl aced
Ðĺ ÑģÑĤÐ¾ÑĢ
ac ciÃ³
ess in
ĠB ad
Ġel eg
Ġnom in
ĠÑıÐ²Ð»Ñı ÐµÑĤÑģÑı
Ġord en
ĠSta ats
ĠLond res
Ġe benfalls
ĠCar l
us c
m as
ĠAustral ian
ĠL ake
Ð¾ÑĢ Ð¾Ð²
ec es
ĠFran ces
Ġse ction
Ðĳ Ð¸
Ġpresent a
is i
ag ost
al en
Des prÃ©s
Ġn etwork
ĠOr ts
ĠP re
. âĢľ
Ġdisc over
ĠCh inese
Ġch ap
ĠM r
ÐµÐ¼ Ñĥ
habitat ge
Ġf it
ri ge
Ġg aire
ĠB uch
Ġfor Ã§a
Ġm and
Ñı Ð»
ri gen
air s
l ad
Ñı Ð´
ĠÐ¾ Ð½Ð°
ĠIn t
Ġv ÃŃ
ann te
Ġdens itat
er va
Ġof ic
Ġdes ar
Ġr at
Ġun es
Ã¡ nd
ĠC rist
ĠProfess or
Ð°ÑĤ Ðµ
Ġguer re
Ġse ven
Ġconstru ir
autom Ã²bils
Ġs ond
Ġmult ip
ĠÐ¾ÑĤ Ðº
r ary
n Ã©
c iones
f it
Ġt rip
Ġret ro
7 7
Ġcomerc ial
qu el
ĠO st
Ġw he
A nd
eg a
met re
Ġ191 4
Ġan tic
Ñĭ Ñģ
ÑĤ ÐµÑĢ
S C
Ġar qu
Ġcur rent
es en
ĠÐ¸ ÑģÐº
Ġ191 7
ĠA th
Ġadd ed
ian ce
Ġca use
oc c
Ġceleb r
ĠGeb iet
Ġcl im
Ð°ÑĤ ÐµÐ¼
re ib
Ġcomp r
Ġmon op
Ġe ither
Ã© ta
ÑĮ Ðµ
Ġant i
Act iv
ĠÑģÐ¾ÑģÑĤ Ð¾Ñı
ĠÐ½Ð° Ð´
Ġp ag
ra gen
Ġcol lection
ĠÐ²Ñĭ ÑģÑĤÑĥÐ¿
Ġlong itud
enc ial
Es c
ÐµÑģÑĤÐ² Ð¾
Ġg as
anc a
ĠÐŁ Ð¾
h ood
Ġsong s
mb ol
Ġe ight
ĠÐ² Ð¿
Ġ Ã¼b
ĠP ere
o i
ann el
ĠB ol
Ġb rought
ĠEr n
ĠÐ¸Ð¼ Ðµ
ĠBro wn
ĠKar l
Ġbrit Ãłn
ĠB rig
ste in
uf act
Ð¸Ð» Ð¸ÑģÑĮ
Ġrec uper
Ġ193 5
Ġan ar
Ġ Å
ĠÐ¿ Ð¾Ð±
Ġmar s
ed ifici
ĠU p
Ġepis ode
Ġestud iant
ĠÐ¾ÑĢÐ³Ð°Ð½ Ð¸Ð·
m ark
Ðµ ÑģÐ¿
ĠK r
te urs
Ġil s
Ġe mer
ĠÃ Ħ
Ġden omin
ĠÐ´ ÐµÐº
9 8
6 4
ĠJ ug
Ãª tre
Ġp endant
or ie
Ġrec ent
ĠlÃŃn ia
Ġed itor
inn er
ĠÑįÑĤ Ð¾Ð³Ð¾
ri ere
ĠK h
ish op
Ġgu ard
Ġpri or
Ġr ange
Ġso und
ab el
D uring
id i
m ont
- -
L os
Ġcontemp or
Ð´ Ð¸
Ġdiffic ult
Ġaquest es
id ing
Ġint ens
Ġpr endre
Ġaward ed
Ġa ircraft
m ond
ĠS us
Ġdeutsch en
ed y
ÑĢ Ð¾Ðº
Ġtras ll
Ġpl ans
ew e
ĠAnton io
Ġf os
Ġbo ard
r ently
Ġ192 9
yl v
r and
ĠgÃ©nÃ©r al
Ġz ones
Ġgo al
Ġest aba
ĠÐĲ ÑĢ
Ġparticip ar
r upt
ÑĤÐ¾ ÑĢÐ°
Ġshow s
z ent
n ow
ĠW ien
ĠK omm
Al s
Ġle b
Ġprop or
ĠA le
Ġobten ir
te ad
ĠInd ust
Ġreg ard
Ġlos s
Ġpar ents
Ġprov ide
ĠÑģ Ð¼
p unkt
Ġbe hind
ĠÐ¸Ð· Ð²ÐµÑģÑĤ
Ġteam s
Ġf i
Ġv iat
om er
Ġterrit or
ĠT ro
ĠD Ã©
Ġju in
Ġjunt o
Ð± Ñĭ
Ġp urch
Ġde al
ÐĳÐ¸ Ð¾Ð³ÑĢÐ°ÑĦÐ¸Ñı
ĠD ur
Ġ7 5
Ġfe atures
Åĵ uv
re ad
n ed
Ġorigin ally
Ð¾ÑĤ Ð¾Ð²
Ġconc entr
ĠS ystem
c ol
, _
ĠR Ã¼ck
Ġ4 2
C l
ab en
Ġguany ar
el te
ĠB ell
Ġprot agon
os es
ĠC athol
Ġcon ten
Ð ¥
Ġrig hts
Ġtre at
aut res
un tain
bo ard
ĠÐ²Ð¾Ð¹ Ð½Ñĭ
Ġman ifest
ĠD els
Ġcar b
ĠgehÃ¶r te
enc ed
Ġli ber
ÐµÐ» Ð¸Ðº
Ð°Ð» Ð¾ÑģÑĮ
W h
Ġlie u
ÑĢÐ¸ÑĤ Ð¾ÑĢ
Ġed at
ĠÐ¾Ð½ Ð¸
iv ament
Ġr ather
ĠJ im
Ġequip o
Ã¤s ident
Ñĥ ÑĢÐ°
st raÃŁe
port un
Ġcoll abor
Ã© ra
ĠPl an
Ġcon cl
is Ã©e
Ġb an
Un ivers
Ġ195 1
ĠpÃº blica
ven ue
ĠÐº Ð°
ig es
S h
ĠB on
Ġs yn
ĠJapan ese
b ew
âĤ Ĥ
g ers
ÐĺÑģÑĤÐ¾ÑĢ Ð¸Ñı
ĠS ong
Ġso on
Ġh ospital
Ġm ention
Ġb att
Ð² Ð¾ÑĢ
ab ility
ip s
Ġaug ment
Ġeurop e
rat eg
Ð¸Ð½ Ðµ
Ġmet hod
Ġlarg est
l ier
Ġf ast
Ð¸Ð²ÐµÑĢÑģ Ð¸ÑĤ
ĠL uis
ĠD esp
in as
Ġmitj anÃ§ant
Ð¡ Ð¡Ðł
ri f
ol ar
p ir
Ġc hr
f all
Ġb on
Ġniv ell
p re
Ġs out
ĠO ri
Ġgr atu
Ġne uen
ĠW ood
5 8
Econom ia
Ġre ach
pos ition
Ġk lein
w an
as ons
s pr
ĠÐ¾Ð±Ð»Ð°ÑģÑĤ Ð¸
ol id
ier a
âĢ ŀ
ru it
s a
Ñĥ ÐµÑĤ
ĠM ah
Ġpob resa
Ð¾Ð² Ð¾Ð¹
ĠAc cording
Ġcommer cial
Ġa st
ron ze
ĠSch ul
Ġcomm ission
" )
Ġpl aced
tem bre
it ation
Ġinter ior
Ġprov oc
Ġvol tant
ang ular
Ġach ie
Ġb ill
hr en
Ġdispos aven
Ġtit re
iss iÃ³
Ġehem al
ud o
ĠS ab
ĠÑĤ ÐµÐ»
ĠC oll
ab il
ĠV ic
Ġar rest
Ð½ Ð¸ÑĨ
Ġest il
D urant
ĠÑĦ Ð¸Ð»ÑĮ
ear s
nah me
ÑģÑĤ Ð¸ÑĤ
Ġf ul
Pobl aciÃ³
7 2
Ġch o
ient os
ĠV all
ĠÐºÐ¾Ð½ ÑĤ
ĠV I
ĠM ens
z y
ific aciÃ³
Ġg ain
Ġcount ries
Ġevoluc ionat
Ġot ras
Ð½Ð¾Ð¼ Ñĥ
ĠL or
r ans
b ack
ĠS ome
ĠK ong
Ġl iv
Ġn or
ess ion
ĠĠ Ġ
ÑİÑĤ ÑģÑı
Ġg egrÃ¼nd
Ġden en
Ġs che
Ġintro duced
ĠV illa
Ġst ates
Ã¤ us
ĠT imes
ar ca
Ġcomp te
Ġenc ont
Ġp Ã©ri
ant ic
ĠFor ce
m us
ĠH aw
Ġ193 1
ĠÐ½Ð°Ñģ ÐµÐ»
ĠSch we
Ġocc ur
ĠÐ¼ Ð¾Ð½
ĠÐ· Ð²
ĠM erc
Ġv el
Ġest ado
ĠÑįÑĤ Ð¾Ð¼
Ð´ Ð¸Ð½
Ġle v
S a
Ð½ Ñĥ
act iv
Ġcon cept
at i
ot es
Ġver Ã¶ffentlich
Ġd abei
ĠF ar
orp s
for ma
Ġs ant
Ġm ie
Ġz ahl
ĠXV I
ĠAfric an
Ġgu itar
Ġpobl aciÃ³n
Ð¾Ð² Ð¾ÑĢ
ĠÐ¿ÑĢ Ð¸Ð²
Ġap lic
Ġrep ro
Ġimport ants
ĠVer b
rie f
Ġre ve
Ð³ ÑĥÑģÑĤ
ĠÐ´ ÐµÐ¹ÑģÑĤÐ²
Ġso it
k ing
ĠC ult
ir th
ĠR og
Ġproc Ã©s
Ġfunc ion
Ġr ang
ue b
Ġpres id
ĠÐ¾Ðº Ð¾Ð½Ñĩ
ap s
Ġre ached
Ġle ast
Ġautom Ã²bil
Ġus ually
Ġact ive
Ġb ra
ĠÐłÐ¾ÑģÑģ Ð¸Ð¸
k eiten
Ġs ang
Ġal most
Ġ193 2
Ġj an
ĠeconÃ²m iques
un y
ÑıÑĤ ÐµÐ»ÑĮ
Ġins tead
Ġmot or
gress os
Ġes e
ĠW al
Ġsep tembre
Ġin fer
ĠB ul
h ora
Ġtemp le
Ġinv est
Ġplay ers
ÑĤ Ð¾Ð¼
ur ity
Ġspec ific
ollow ing
sch ule
ĠÑĥ Ñģ
sh ire
Ġmag azine
c y
ot en
ĠR en
Ġin g
M S
Ġnue vo
Ġb ajo
Ã «
Ġmov iment
Ġqual if
ic les
ra cht
Ġne ue
ĠJ u
6 9
Ġg ing
Ġpr Ã©c
est res
ĠB all
ĠÐ± ÑĥÐ´
m Ã©
ĠÑģÐ» ÑĥÐ¶
Ġim mer
ÑĨ ÐµÐ½
Dem ografia
Ġo hne
Ġexp and
ip erson
Ġv it
ĠB ere
Ġd ic
Ġse a
ministr aciÃ³
an ar
Th ere
is k
ens o
Ġig ual
enc ont
ĠTit el
Ġto o
re y
Ġas pect
ĠP ost
ÑĢÑĥ Ð¶
te au
Ġl ik
Ġt ec
ĠT ri
ÑĢÐµ Ñĩ
Ġex erc
Ġactiv itats
Ġh ard
l Ãł
Ġp Ãłrqu
Å Ĥ
Ġinstr ument
e ch
ar ten
ĠpÃłrqu ing
ch ester
app en
ors e
b orn
ÐµÑĢÐ° ÑĤ
r Ã¨s
ri u
ĠÐ· Ð´
Ã¤t z
ad i
Habitat ges
Ġr ank
6 2
Ġdav all
az u
re z
Ġinclud es
ĠC ette
Ġdes ocup
ĠDe f
Ġ192 8
Ġchang ed
6 7
Ġsimp le
Ġge f
Ġcens ats
8 8
r ant
Ġpl ann
Ġjunt ament
Ã¨t res
Ġdire ction
6 3
Ġmol tes
Ġre ma
Ġcap baix
uer to
ĠÐº Ð»ÑĥÐ±
f ois
in et
ĠÐ¿ÑĢ Ð¸Ð¼
ĠW ahl
Ġest able
aj a
f ern
ĠS qu
Ġsom et
Ġfam ille
Ġf ont
Ġrelations hip
ĠD ans
ed ing
Ġfeb rer
Ġo bert
Ġun iperson
ĠK at
iz o
ĠH amb
Ġf ron
ĠÐ¢ Ð°Ðº
Ġex iste
l abor
A quest
Ġsc ored
Ġed ats
ÃŁer dem
Ġllog aters
Ġ4 00
ter iors
Ð°Ð» Ð¾
ĠA st
Hab itants
sp iel
Ġcomp an
Ġ4 1
ch te
Ġmo ins
ol as
Ġl ittle
ĠEst ados
Ġuniperson als
Ð°Ð» Ð°ÑģÑĮ
Ġse mpre
ĠL ord
po que
Ġcel ui
Ġllind ar
ĠComm ittee
Ġjan vier
ad d
Ġab ove
Ġs ize
ÃŃ p
ĠÐ¼ Ð¾Ð³
ĠFamil ie
Ġproduc ciÃ³
es h
ĠÐ² Ð·
Ġdar auf
e ign
me ister
Ġallow ed
Ġl ic
Ġsov int
Ġhum ans
Ġgrup o
Ġmin or
h ost
ĠÑģ Ð»ÐµÐ´
l ia
are er
Ð» ÐµÑĤ
ÑĢÐ° Ñī
it en
w ohn
Ð¸Ðº Ð°Ð½
Ġj our
z og
ĠÑĤ ÐµÑħ
Ġres ol
Ġcorresp onia
ĠDan iel
ĠCar los
Ġdisp ut
ru z
er al
Ġs pr
Ġsch on
ĠÐ¼ ÐµÐ´
uc he
ÐµÑģÑĤÐ² Ð°
ĠC orn
ĠR ome
Ġn atur
ĠÐŁ Ð¾ÑģÐ»Ðµ
ont o
n am
ric e
Ġas c
Ġv ir
Ġ5 5
u ar
ĠÐ´ ÐµÑĤ
Ġreg ional
Ã¤t ig
Ġwrit ing
Ġp le
al ed
Ġacab ar
Ġsin Ã³
Ġb zw
ro g
Ġllog ats
ÑĢÐ° Ð±Ð¾ÑĤ
ĠMitt el
Ġes per
ĠUnivers idad
mp h
Ġ ult
ĠRuss ian
ov en
Ġcon dic
Ãłl ia
Ġrec ib
onn a
ĠÐľ Ð°ÑĢ
Ġse i
ĠA frica
vers e
Ġth Ã©
ac ing
ri age
te i
Ð¾ÑĢ Ðµ
ic ia
ÑĤ Ð¾Ð±Ñĭ
Ġm Ã©
Ġ u
Ġart ist
Ġwh ose
al le
ĠUn idos
ĠreprÃ©s ent
Ġarbeit ete
per t
Ñī Ñĳ
ita ire
Ġindustri al
Ġdon c
Ġproduct es
Ġtra vel
F or
Ġ4 9
Ġsein es
ut y
Ġnom b
Ġmov ement
ĠLeb ens
Ġfir m
Ġfut ure
ĠF und
Ġj ubil
y o
7 1
z u
Ġdisc uss
Ġcont act
Ġstud ierte
Ġseu a
Ġconeg ut
us ion
Ġr u
Ð´ Ð¶
ĠÑĤÐµÑĢ ÑĢÐ¸ÑĤÐ¾ÑĢ
Ġhe ct
ens ive
Ġmar e
ĠB ob
ĠPort ug
Ġ ubic
il er
Ġf rag
ĠMens chen
Ġb ig
Ġseg ones
Ġp sych
etz ung
ĠB ig
Ġresid Ã¨ncies
Ġanomen at
Ġc ust
Ġoc as
Th is
ak a
Ġwh om
Ġl ower
Ġ19 00
ĠL ud
Ġerst mals
Ġcon n
Ġter res
Ġme as
ig an
ĠG ren
Ġhouse hold
Ġval or
Ġdest in
z ahl
ate urs
ĠL ong
Ġc ient
Ã³ g
id el
est a
Ð¼ Ðµ
Ã¨ poca
Ġex clus
S p
Ð¸Ðº Ð¾Ð²
Ġcent er
Ġfre qu
ĠÐķ Ð²
â ģ
Ã¶r der
Ġun its
Ġsp ace
Ġh it
P h
Ġsum mer
Ġquel ques
it Ã¤
Ġrepart ia
ĠSec ond
ig ten
olog ÃŃa
Ġfem ale
ĠÐ³Ð¾ÑĢÐ¾Ð´ Ð°
Ġprov inc
Ġrel aciÃ³
Ġout side
ĠB ru
ch ange
ĠrÃ© alis
Ġ192 4
Ġdist ric
ĠÑı Ð·Ñĭ
ĠMar ÃŃa
Ġnou velle
inn en
Ġwe chsel
Ġg ot
ĠÐ¿ Ð°ÑĢÑĤ
Ġaus ge
ĠT ar
Ġits elf
ĠÑģ ÐµÐ»ÑĮ
Ġg ol
isch es
ĠH il
il ing
Ġ( Â«
Ã± os
Ġapp lic
Ġestud is
and re
ra p
ĠSpan ish
Ġdesenvolup ament
Ġsp ent
Ġclass es
c c
Ġcult ura
Ð°Ñģ Ñģ
Ġju illet
ĠE p
ĠP ierre
Ġn ation
Ġ191 0
ĠdÃ¨c ada
Ãº t
Ġcom e
Ġespecial ment
ÑĢÑĭ ÑĤ
ĠA z
ĠM ajor
âĢ ³
ĠAl bum
A T
Ġfinal ment
Ã¶ h
Ġm oney
Ġnomen at
Ð» ÐµÐºÑĤ
ĠCol umb
ost on
ub a
Ġcas ades
ly ing
Ġ192 2
Ġdist in
Ġf ÃŃs
Ġindust ry
isch of
um en
k reis
ĠÐ¼Ð°ÑĤ Ñĩ
Ġrel acion
ov es
Ġ192 1
Ġbeg inning
Ġcol lege
Ġz ug
ĠLe e
ÑĢÐ° Ð»ÑĮ
re ady
n as
ĠÑģÑĤ Ð°ÑĢ
Ġpartic ul
ra ge
Ġat ur
ĠÐ² Ðº
Ġ6 4
Ġme an
Ġfeder al
Ġsol teres
ĠK enn
ÑĢÐµ Ð²
re land
Ġar my
ĠT op
Ġc ort
Ġgrand es
ĠÐ½ ÐµÐ¼
ĠM ain
ĠÐ¿ Ð°ÑĢ
Ġfo od
Ġbook s
aut or
1 00
Ġs Ã©rie
ĠD eb
nah m
er m
Ġcor on
Ġtod os
Ġc orn
Ġ192 6
Ð¸ÑģÑĤ ÐµÐ¼
ific ar
ÐµÑģÑĤÐ² Ðµ
ĠEsp aÃ±a
ĠÐ½ ÐµÐº
Ġt anc
Ġm ir
Ġsond ern
ÐºÐ¾Ð² Ð¾Ð´
Ġim mediat
ĠCop a
Ġent wick
ÐµÐ½ Ð½ÑĭÑħ
Ġman ufact
Ġmed ian
ĠAl bert
Ġdesocup ats
ĠMin ist
Ġer richt
Ġ ur
Ġt aking
7 4
Ġintro du
Ġsex ual
ass a
Ġ192 5
Ġtra in
tex t
Ð¸ÑĤÐµÐ» ÐµÐ¹
Ġb ast
ĠMan uel
Ñĥ Ð»Ñı
Ġrelig ios
Ġdon a
Ġsub s
Ġto wards
Ġ192 3
min ister
reu z
Ġbuild ings
Ġp ra
qu is
ĠAlex ander
Ã £
Ð¾ ÐµÐ²
erst and
5 9
sp ap
Ġfil s
ĠfÃ¼hr te
Ġh ip
qu ia
ĠSov iet
ÑĢ Ð¾Ð¹
Ġr uss
uch te
Ñĥ ÑģÐº
i i
ĠEs te
U na
ĠW all
u elle
Ġprov ÃŃn
Ġespec ially
our d
ĠBo ard
ĠÐ¼ÐµÐ¶Ð´ Ñĥ
ĠÃ© v
loss en
Ġhac ia
ĠagrÃŃc oles
Ġcan Ã§
Ġk ing
Ġgratu Ã¯t
ĠJ ord
la u
n y
ĠÐº Ð¾Ð³Ð´Ð°
ĠN ap
6 1
Ġde te
ĠAl b
Ġ192 7
ic ans
Ġm ientras
ĠMar c
ĠR ay
Ġsur face
Ġne igh
Ġstud ies
ĠÐ ĸ
ĠT an
ÑĥÑĢ Ñĭ
Ġsi endo
oc key
Ġis land
Ġpro jecte
ĠPro gram
Ġm ax
Ð» ÐµÐ¼
ĠÑĦ Ð¾ÑĢÐ¼
ann ten
Ġelec cions
rit ten
ud em
Ã©rie ur
c an
ĠFlor ida
ĠS un
an cia
ie u
x e
ĠCathol ic
áµī Ê³
Ġc ard
ix ement
Ġri ver
Ġform ation
ĠQu an
N o
Ð»ÑĮ Ð±
ĠÃī tats
ĠBel g
A P
ĠE ine
Ð½Ð¸Ðº Ð¸
om et
Desc ription
Ã¨r ent
at iu
ĠP en
A mer
Ġfor est
Ð §
Ġr encont
ĠdÃ©c embre
Ġinsp ir
Ġstud ied
st a
Ġ +
ĠE t
Ġm ans
th ur
pr ise
Ġtrans l
f ÃŃc
ĠÐ¿ÑĢ Ð¸Ñģ
Ġconc ert
ĠI ll
ig ur
ĠÑģ Ð±Ð¾ÑĢ
ĠR oss
ig o
os os
ah men
ĠprÃ©s ent
Ġun it
Ġens uite
kt ur
Ġrequ ired
Ã¶l ker
Ġcar e
ĠÑĨ ÐµÑĢ
0 8
Ġparticular s
or ing
al and
Ġh ag
ÑĢÐµ Ð¹
Ġdem and
Ġoct obre
Ġnomb ros
ĠÑı Ð½
Ġcon cep
C areer
ĠÐŀ Ð½
Ġreg ul
ĠÑģ ÐµÐ½ÑĤ
Ġinte gra
ĠH ow
A ll
ad el
ĠW erk
Ġk omm
itz at
Ġd raw
ra um
ras il
sch n
Ġcre d
amp f
ere ix
Ġtant o
Ġmit t
o Ã»t
Ð´ ÐµÑĢÐ¶
g ia
Ñĭ Ð¼Ð¸
ĠP as
Ġstand ard
ent h
ri en
Ġtr acta
Ġfr Ã¼
ĠS av
Ġro b
Ġiss ues
Ġc elle
B e
o o
ĠM os
ĠSe ine
Ã¡ r
ĠLe hr
vol ution
ĠSt an
Ġconf ir
Ð°ÑİÑĤ ÑģÑı
Ġimp er
Ġk ein
Ġdem ost
ĠG uer
Ġstud ent
Ġf lo
ĠÐ¾ ÐºÑĤ
itz en
N e
Hist oire
ĠÐ°Ð² Ð³ÑĥÑģÑĤ
ĠÐ³Ð¾Ð´Ð° Ñħ
sch luss
gest ellt
ÑĢÐ° ÐºÑĤ
ing ress
Ã© qu
Ð½ Ð¸Ð¹
if ica
Ġorgan ization
ĠL iber
Ġdefe ated
% )
ult ur
Ġd uc
ct ors
ond ere
Ġlead er
ach sen
ĠÑģ ÐµÐ±
ĠC u
ĠAix Ã²
y es
Ġesp aÃ±
ber e
Ġmater ials
x ic
ĠÑĩ Ð»ÐµÐ½
b i
Ġreal itzar
ĠAl though
iz a
ĠÐ² Ð¼ÐµÑģÑĤ
Ġgrup s
Ã¶r d
ĠDeutsch en
ĠÐ¾Ð´ Ð¸Ð½
Ġend ed
Ð°Ðº ÑĤ
ĠK ur
enn en
la w
Ġan te
x es
Ġan tes
ĠIntern acional
Ġcond itions
ĠB oston
Ġincl o
ĠCong ress
ĠÑģÑĤ Ð¾ÑĢÐ¾Ð½
ing ham
Ð½Ð¾ÑģÑĤÑĮ Ñİ
Ġto ute
Ġtradic ional
ĠVol ks
Ġa unque
Ġfour th
o on
Ġllib re
Ġpr Ãłct
ĠT im
Ġ4 3
ĠÑĥÐ½ Ð¸Ð²ÐµÑĢÑģÐ¸ÑĤ
ĠG ab
Ġper cent
l ike
Ġinter view
ĠWil helm
Ġanim als
ue va
Ġtrasll ad
ĠA rab
ĠÑģ ÐµÐ·
Ġ191 2
ĠH on
ex Ã¨rcit
Ġb ed
ĠÑĥ Ð¿
ell ed
i ate
Ġein ige
ino is
A u
7 3
Ġst op
ep endant
ĠÑĥ Ð±
Ġcom enz
ĠL iter
ov ers
min al
Ġocup ades
Ð¸ÑĩÐµÑģÐº Ð¸Ð¹
Ã¶ m
ur ia
Ġdeix ar
h ar
Ġalem any
lieÃŁ lich
Ġfabric aciÃ³
ch Ã©
Ð°ÑĨ Ð¸Ð¾Ð½
P erson
isters chaft
Ġd iu
ore a
on c
Ġpr Ã²p
Ġrem ov
etz te
ĠSc ience
iz aciÃ³n
ire ment
Ġartic le
ĠÐĲ Ð»ÐµÐºÑģ
al ten
ic ana
um in
Ã³ l
Ġm ut
ĠÐ· ÐµÐ¼
I S
un al
Ãł tica
ingress os
Activ itats
ret ot
ĠÐ¿Ð¾ Ñĩ
Ġbre ak
Ġf if
ĠDire ctor
ĠÐ·Ð°Ð½ Ð¸Ð¼
Ġb ank
ĠÑĩ ÑĤÐ¾Ð±Ñĭ
ow ers
Ġqued ar
ĠÑĢÐµÐ· ÑĥÐ»ÑĮÑĤ
ĠK ais
P ar
Ġl ived
Ġcont ro
Ġcompet ition
Ġpro min
enc ias
Ġtrad itional
d orf
âĤ¬ .
ĠServ ice
ĠÐŀ ÑĤ
anc ed
Ġal ready
ÐºÐ° Ñħ
Ġquals evol
ac io
ĠT a
um a
Ġv oc
Ð¸ÑĩÐµÑģÐº Ð¸Ðµ
Ġd imens
Ġdesc end
Ġdeutsch er
y an
Ġn eben
Ã ¸
r ero
Ġsystem s
j at
ĠWilliam s
ĠI mper
ber n
Ġret orn
Ġpolit ique
Ġst aff
Ġar c
ĠF ound
b ased
Ġm ond
ĠItal ian
y ect
ĠCons erv
ĠVirgin ia
ol is
Ġg em
ĠWelt krieg
Ġke ep
Ġs it
emb ly
ĠC re
l im
Ġj ob
gen ommen
Ã¶ff n
ament al
Ġcan al
Ġoper ations
Ġfor me
Ñı Ð¼
Ġpar c
ĠR h
Ġer ne
y pt
ÐµÐ½ ÑĤÐ°
ĠÐ¼ Ð¾Ð»
v in
Ġro d
ĠM osc
ied ad
b n
ins on
Ġin fl
ĠEn d
Ġde ta
ĠCanad ian
ul pt
stit ution
ĠNav y
Ð°ÑĢ Ð¾Ð´
Ġb attle
p ass
Ġsour ce
Ġth us
Ġd ol
m at
Ã¤n ge
ĠÐ´ÐµÐº Ð°Ð±
Ġfe et
ĠK o
ĠO ld
ar ies
nd ia
Ġl ove
ĠK inder
w ahl
b ro
kt or
Ġpract ice
ĠK ol
Ġin ner
al ta
ag ing
Ġmov e
E R
Ġminist re
Ġan ge
Ġlleng ua
et o
ĠXV II
ĠÐ¡ Ð¾Ð²
Ġapro xim
ĠV ill
Ġcl ar
bild ung
Ġprim ary
Ð» Ð¸Ð²
Ġser ie
iv os
Ġmin utes
Ð¼ Ð¾Ð¶
Ġrev ista
au te
T e
Ð¾Ð» Ð¾
Ġih rem
Ġhigh er
Ġveg et
Ġaut re
Ġl it
ĠJ ones
ĠD orf
Ġa C
qu ier
ĠP ublic
Ġcontin ue
ĠS ev
ÃŃ cia
act Ã©r
ĠG ol
Ã¨ le
ĠK ind
Ġst ell
os en
f ach
om pl
Ġstud io
ĠT ol
ĠJahrhund erts
itz er
ubl ik
Ġd ÃŃa
Ġincre ased
Ð¸Ðµ Ð¼
Ġleng th
Ġm Ã©t
Ġv irt
ĠEd ward
ĠZ u
Ġear lier
ÑĪ Ð¸Ñħ
al o
ĠFran z
Ġgaire bÃ©
ĠM Ã©
Ġsch w
0 9
re iche
j Ã¤h
n ia
re al
Ġla ck
Ġimport ante
ĠB ew
Ġre jo
b et
Ġm ec
el op
ess a
ĠRes earch
ĠP ass
Ġfran zÃ¶s
Ġin icial
ĠÐ¿Ð¾Ð»ÑĥÑĩ Ð¸Ð»
Ġseg uir
ĠComm un
Ġro y
ĠH ong
Ã¨ de
Ġthough t
Ġg obierno
ĠE le
us ch
eg t
ĠHe in
Ġinact ius
Ġapare ix
ant en
Ġmanten ir
S he
Ġacc ording
ĠN ieder
Ġl anz
Ġcom te
Ġdec ision
ĠÐ¡ Ð¡Ð¡Ðł
Ġw oman
ĠÑĥ Ð¶Ðµ
Ġaf ect
Ġconne ct
ĠGesch ichte
d am
uer te
Ġser ia
ĠD ort
te en
Ġp un
Ġw egen
ula ire
Ġ #
Ġl y
Ġmil ions
r d
Ð¼ Ñĭ
ĠprÃ©s ident
itar is
de z
Ð»Ð¸ Ð·
Ġsel f
on ces
ĠGovern ment
ĠdÃ©velop p
Ġintegra ven
ri ques
5 3
ĠZ usammen
ĠB u
Ã¼ck e
A N
ÐµÑĢ Ð¾Ð¼
ĠKing dom
8 9
ÐµÐ· Ð´
ib li
Ġjubil ades
us band
i ation
e ks
Ġro t
Ġaqu ell
ĠP ers
ĠS em
ĠT ag
r up
Ġass um
Ġnot able
Ġatur ades
Ð° Ð¶
ich ten
Ġcur rently
ĠAix ÃŃ
ĠY oung
Ġmed ic
tain ing
Ġsis tem
pos e
5 2
In gressos
Ġdest roy
Ġw inning
ac le
ĠÐ² Ð½
ĠJ ournal
5 6
Ġent rar
Ġd an
ck en
Ġexp lic
ĠC ard
l it
ĠD om
l le
Ã¢ teau
Ġc ou
ĠdÃ© m
Ġr Ãłp
Ġj ou
io te
Ġav ril
Ġdern ier
Ġg emeins
Ġtro uve
ĠÐ· Ð½Ð°Ñĩ
Ġnew spap
Ġrect angular
Ġmon ument
Ġll anÃ§
ur er
ip e
ĠÐº Ð°Ñĩ
ĠÃ¨ poca
Ġdies es
Ġclos ed
a ud
Ġcompan ies
an al
kt iv
Ð½Ð¸Ðº Ð¾Ð¼
Ġver k
Ġappro xim
V D
Ġco ast
Ġv ac
Ġsp ort
st Ã¤nd
Ġhe ut
Ġestabl ir
Ġam Ã©rica
Ġtro ben
Ġloc ation
ĠÑģÐ¾Ð² ÐµÑĤ
wick lung
on ic
ain es
w and
Ġcer ta
c u
ĠnÃ© ixer
ĠÑģÐ¾ÑģÑĤÐ°Ð² Ðµ
ac hel
ĠC orpor
Ġindivid uals
Ġquest ion
Ġcl ima
ĠrÃ©g ion
z ial
ĠR u
l ac
ĠÑĢÐ°ÑģÐ¿ Ð¾Ð»Ð¾Ð¶
Ġand ere
Ġzw eiten
Ġproper ty
Ġopen ing
Ġass ass
Ġc ell
ĠrÃ© c
Ġder rot
Ġactiv ities
im um
ĠCon c
ĠFra u
Ð»Ð° Ð³
Ġsup erv
Ġter c
Ġsoll te
on ents
ater ra
Ġsur round
ĠI reland
Ġprevious ly
ĠB ow
Ġsel on
ĠÐ³Ð¾Ð´ Ñĭ
Ġestud i
ar ian
ĠW ork
Ġac omp
Ġbr ing
la us
ond er
Ġsp Ã©c
ĠH or
ĠSh ow
Ġl Ã©g
ĠrÃ© p
ĠÑĢÐ°Ð¹ Ð¾Ð½
om ot
b ec
ĠÑģ ÐµÐ²ÐµÑĢ
l iga
gun s
ĠH am
ĠPortug al
Ã£ o
ĠC ant
qÃ¼ Ã¨ncia
ar reg
ĠO h
hav ia
ÑģÑģ Ð»ÐµÐ´
Ġh ere
ĠM em
ÑģÑĤÐ² Ð¾Ð¼
Ġa er
Ġob jet
Ġv iu
Ġimp lement
Ġhat ten
Ġa oÃ»t
Ġ191 5
ue ixen
k el
Ġv end
Ġd ent
Ġrun s
Ġer halten
Ġestud iar
Ġinflu ence
Ð° ÐµÐ¼
ÑĪ Ð¸Ð¹
d i
Ġcom ment
od i
Ġj ewe
ÐµÐ½ Ð´
ĠÐ¶ ÐµÐ»
Ñı Ð¼Ð¸
Ġche f
iss en
Ġenviron ment
Ġiss ue
Ġimp ro
ĠCl ass
Ġass ol
ere i
ed es
ĠÐ¿Ð¾Ð» Ð¸ÑĤ
Ġexplot acions
Ġent ered
Ġtem a
ĠUn der
Ġh in
Ġsen ior
ĠVal ley
ÑĢÐ° ÑģÑĤ
Ġrestaur aciÃ³
Ġacc omp
Ã¤ uf
Ã§ ois
og ue
Ġd ret
he in
ĠÐ¼ÑĥÐ· Ñĭ
ĠR ang
ĠÐĿ Ð¸Ðº
Ġl ink
er ne
Ġhist Ã²
ĠSte ph
Ġfor ced
ĠFo otball
un ivers
ĠÐºÐ¾ÑĤÐ¾ÑĢ ÑĭÑħ
ĠÑĢÑĥ ÐºÐ¾Ð²Ð¾Ð´
Ð¸Ð½ Ñĥ
ir s
Ġk ilom
Ð ķ
ur ger
Ġt Ã¤tig
l ers
Ġpe ix
ĠÐ¼Ð½ Ð¾Ð³
ĠL im
ĠÐ´Ð² Ð°
Ġcas os
Ä į
ÐµÐ½ Ð½Ð¾Ð¹
v an
Ġsob retot
d ie
ĠO x
ÑĦ Ð¸ÑĨ
e f
Ġcon vers
Ġpa Ã¯sos
Ġh Ã¶
ÑĥÑĢ Ð½
Ð· Ð¸Ð´
ex ist
Ġfig ures
Ġnot ed
ĠÐº Ð¾ÑĤ
ĠW ohn
ÐµÑĢ Ðµ
u ros
gl aterra
reg ist
an st
ĠÐµ ÑīÑĳ
5 4
ĠPer Ã²
Ġt uvo
Ð¾ÑģÑĤ ÑĮ
j Ãł
Ġr ul
Ð°Ð»ÑĮ Ð½Ð¾Ð¹
iss ement
ĠHer r
ĠG el
ĠC es
la h
gr ad
ĠPed ro
Ġgro ÃŁen
ĠTh at
Ġgo ing
Ġme ans
Ġtor re
Ġsc ience
Ġaf in
Ġlaun ched
Ġro i
D R
Ġcomm unic
Ġapp el
Ġc le
ĠT wo
ĠL ove
Ġnational e
r ÃŃa
Ġpass ed
Ġ4 6
ens ion
ÐĿ Ð°
form ation
al em
Ġk ey
Ġchar ge
iel le
ĠÑģ Ð¸ÑģÑĤÐµÐ¼
ĠC er
re b
Ġhist oria
O b
Ã¨ ria
Ġr Ã¨g
Ġll u
Ġd rop
ĠM att
ta ge
Ġter cer
Ġmat rim
w ald
Ð°Ð½ Ñĭ
ÑĢÐ° Ð»
on en
Ġre Ã§
Ġimp ress
ĠPenn s
n i
Ġh id
Ġcos ta
Ġr und
Ġcor re
Ġrap id
Ġ191 1
ĠF ac
ĠN ik
Ġbet ter
M an
Ġcre u
ersch ied
est o
ĠJug end
ges amt
In stitut
os l
ut ch
ĠÑĢÐµ Ð³
Ġv aria
Ġexp ed
Ġpublic ar
ĠÐ²Ð¾Ð¹ ÑģÐº
Un is
mitt ed
ylv ania
Ġad qu
Ġ5 2
Ġ191 3
ĠÑģÑĤ ÑĢÐ¾
ĠÐ°Ð¿ ÑĢÐµ
ac o
Ġclass e
ĠÑĢÑĥ Ñģ
Ð¸ÑĤÐµÐ»ÑĮ Ð½Ð¾
ad ium
Ð½ Ð¸Ð³
Ġdr am
Ġtrop es
Ġpe que
Ġmehr ere
Ġqu ick
ĠHist or
aus piel
Ġdiv id
Ġbar ri
Ġt arg
uch s
Ġm ois
h ouse
oh en
Ġs av
Ġport ar
Ġsitu ada
aff en
Ġl igne
h Ã¤lt
Ġc Ã´
erd ings
Ð¸Ð» Ð¾
Ġ191 6
ÐµÐ½ ÐµÑĢÐ°
Ġsup p
Ġren ov
ĠPhil ip
Ġnorth ern
9 2
ĠÐ´ Ð¾Ðº
Ġtec n
ĠAn fang
Ġent onces
F C
Ġw enn
ĠSc ot
Ġv est
Ġappro ach
ĠL ab
ra k
Ġman ager
Ġnum erous
ĠdÃ© cl
Ãłb itat
Ġd ial
ut lich
ĠIn v
Ð¸Ðº Ðµ
Ġmes os
Ġm m
Ġprincip is
Ġo ur
kn own
Ġphil osoph
ĠC r
ĠÑĤ ÐµÐ¼
Ġdes apar
ĠIn c
ĠMar ie
Ġmie mb
Ġcre ate
Est at
ran ge
Ġdies en
i y
Ġh usband
Ġt ex
Ġpro hib
Ġdig ital
Ġgouver nement
Ġperson as
qu et
Ġfl u
schlieÃŁ end
Ġmitj ana
Ġcaus ed
5 1
ĠT rain
Ġp ont
ĠV ater
Ġsuper fÃŃc
Ġs or
P S
Ð´ ÐµÐ¼
Ġform al
ĠÑģÐ¿ ÐµÑĨ
l is
ete il
lem anya
Ġfamil ies
Ġpos iciÃ³
ĠH ay
Ġpert any
Ã©v rier
Ġac adem
ĠSchwe iz
ig ues
ĠB BC
Ġ190 5
ÃŃ m
in ar
Ġnombre ux
im on
r ica
Ġver wend
ĠO pen
ĠÐ¿ Ð¾ÑĢ
Ð² ÐµÐ´
Ġestabl ish
Ġtr ade
ĠÐ¼ ÑĥÐ¶
ĠPro t
haus en
Ġ4 7
Ġdo uble
ĠV il
Ð¨ ÐĲ
Ã¤ ft
C ol
En tre
ĠÑĩ ÐµÑĢÐµÐ·
Ġth re
Ġacc ident
et ts
ĠJohn son
Ġbec oming
Ġcontinu ar
kl Ã¤r
Ġsy st
ĠCast ell
j i
ĠC el
ÐµÑĤ Ðµ
le it
ond a
Ã© ment
ĠHe im
at ique
mitt el
Ġev idence
Ã© quipe
r ons
ĠÐ½ÐµÑģÐº Ð¾Ð»ÑĮÐºÐ¾
fahr en
ĠPhil ipp
Ġclaim ed
ĠBro ad
ĠÐ¿ÐµÑĢ Ð¸
yn am
Ġst ark
Ġesc riure
Ġsouth ern
Ġst ay
Ġfest ival
Ġg ent
Ġpet ita
Ġrun ning
Ġol der
Ġn it
l ong
ĠK am
Ġappear ance
ĠQue en
Ð¾Ñı Ð±
Ġagr icult
Ãł ss
ĠÑģ ÑĥÐ´
Ġg ive
Ġgel ang
Ġpet its
ĠÐ¸Ð¼ Ð¿
ĠM ost
ĠH of
Ã¤ che
Ġrom an
Ġw icht
Ġmonop arent
ed o
ĠRe chts
Ð¾ÑĤ Ð°
Ñį ÑĤ
Ð¾ Ñİ
ĠSe in
ig ue
Ġmod els
Ġdirec ciÃ³
ÑĨ Ð¸Ñİ
Ġmonoparent als
Ġv all
Ġgener ally
e ff
Ġsomet imes
ĠF uÃŁ
R eg
Ġd ot
Ð¾Ñģ Ð¾Ð±
Ġall erdings
ĠG il
A D
9 6
ĠT est
e ur
ĠG raf
Ð¸ ÑĢÐµ
fer t
Ġar r
Ġpo et
ĠL ater
Ġco al
Ġk urz
hem at
ac s
et her
ĠX III
ĠT w
ĠW ald
Ġfran cÃ¨s
J ohn
Ġch ampionship
ie ux
ĠMex ico
ĠB uen
Ġdefin it
Ãº st
fol ge
ĠJah res
Ġcin ema
ĠThe atre
ĠÐ½ Ð¾ÑıÐ±
ad ministraciÃ³
ĠT urn
Ð°ÑĢ Ð¸
z t
O S
Ġdirect ed
Ġc ot
Ġpl antes
Ġpr end
Ġgerm Ãł
ĠSte in
Ġwechsel te
al c
Ġm el
ĠÐ²Ñĭ ÑĪ
ĠB an
Ġsupport ed
ĠÂ £
Ġvel oc
Ġch ief
Ð¿ Ð¾Ð´
Ð¾Ð· Ñı
Ġeconom ic
ĠW asser
Ġra ised
ed s
ĠÃ©c rit
Ġcont est
duc ciÃ³
ch afts
ĠB attle
M it
Ġp Ã¨re
Ġche z
Ġm uj
ect or
j an
Ar t
ic io
ĠK reis
ĠI g
und s
eh en
og rÃ¡
F L
ĠBo ok
ess er
9 7
ĠW omen
Ã¨ te
m ateix
e qu
ĠI ts
sel ves
Ġf and
ont in
em per
ĠSt ation
Ġinit ially
ĠB Ã¼rger
Ġimm ob
ĠÐ² ÑģÑĤ
Ġad j
ĠR oll
Ġver l
Ġhel ped
Ġrest es
Ġc hem
ĠS che
or igen
Ġclub s
er in
ĠÑģÑĤ ÑĢÐ°
5 7
ĠM aur
ĠGeb Ã¤ude
b ury
ÑĢÐµÐ´ ÐµÐ»
ĠP ak
H er
en o
Ð¾Ð³ Ð»Ð°Ñģ
ren n
pos a
ĠÐĺ Ð½
Ð¾Ð± Ñī
ĠO ther
ĠÐ¿ÑĢÐ¾ ÑĦ
Ġthem selves
Ã¤ mp
C hr
Ġbelie ved
Ã²n ica
ĠW ales
Ġown ed
Ġpar k
ÃŃc ules
Ġter ren
Ġj ove
ĠRe i
ÑģÑĤ Ð¾Ñı
Ġgo als
ÑħÐ¾Ð´ Ð¸ÑĤ
ĠB is
ÐµÑĢ Ð¾Ð²
ilit Ã©
ĠÐ¿ÑĢÐ¾Ð¸Ð·Ð² Ð¾Ð´
Ġsitu ation
mp t
ĠG reg
ĠW Ã¤hrend
er ca
Ġvict ory
Ġser a
r ado
ille urs
l ungen
k es
Ġvers iÃ³
Ġvers ions
ĠThe ater
Ġurb an
ĠH an
our g
Ġel ls
A M
Ãł tic
8 6
ĠHein rich
v ar
ĠÐºÐ¾ÑĤÐ¾ÑĢ Ð¾Ð¹
ĠÐļ Ð¾Ð½
ĠÐĺ Ð·
Ġmeet ing
Ð² Ðµ
Ġw ide
Ġbroad cast
en Ã§a
ÑģÑĤÐ² Ðµ
ĠA h
Ġsh ot
Ġjug ar
ĠReg ion
Ġf Ã©vrier
Ã¤ ll
Ġerfolg te
Ġartic les
Ġtrans m
ĠÐ¿ÑĢÐ¾Ð´ Ð¾Ð»Ð¶
Ġm ad
ĠH it
ion ar
ĠT rib
Ġparticular ly
on te
Ġprimer es
ers ey
itz ada
Ð» Ð¾Ð¶
Ġro om
Ã©r Ã©
ĠÐ°ÑĢ Ñħ
re cht
alt ra
ĠÑĩÐ°ÑģÑĤ Ð¸
Ġin vent
Ġvari os
ft ware
par tement
ĠCh amp
Ġc m
Ġgro ÃŁe
ell i
Ġman agement
Ġle ct
Ġadd itional
ĠÐ¡ Ð¨ÐĲ
Ġfam ous
ĠS Ã¼
Ġcar Ãłct
Ġposterior ment
al i
ĠÐµ Ð¼Ñĥ
Ġrelig ious
Ġalgun os
ĠZe aland
Ġm oy
ĠC reek
Ġer n
och ter
ĠÃ©ta ient
Ġprodu ir
ies en
Ġrema ins
ord er
B S
ec ciÃ³n
Ġoffer ed
act ers
Ð± Ð°
burg h
ĠW olf
ud er
ĠCh ief
Ġtod ay
id or
iet nam
Ġh ol
Ġh ours
Ġmen or
Ġinf ant
ĠL iga
Ġimp os
ĠÐ²Ðº Ð»ÑİÑĩ
ĠFr ont
av er
ÐµÑĢ Ð¼
l ied
Ġprodu ce
ans as
u ft
ĠÃ¨ xit
em an
Ġmus ul
ĠLe on
aquest s
Ġprob ablement
ann Ã©e
Ġassoci ated
ot he
Ġdipl om
fil m
Ð°ÑĨ Ð¸Ñı
ĠÐ¿ÐµÑĢ Ðµ
ue z
ĠÑģ Ð¸Ð»
h re
ÐµÐ½ Ð½ÑĭÐ¹
Ġart ists
ors itz
w as
Ġbe zeichnet
Ġco berta
Ġsubsequ ently
Ġf res
ĠMon te
Ġchang es
ĠÐ½Ð°Ð· Ð½Ð°Ñĩ
Ġdecid ir
Ġ16 0
g ing
ber to
Ġfamil ia
Ġincre ase
ĠC ur
ĠÑĦ Ð¸Ð½
h ang
ĠIr ish
ĠÐ´Ð² ÑĥÑħ
b at
Ã¨ ct
Ġac count
Ġced its
Ġan unc
Ġg old
ĠEmp ire
Ġarqu itect
ic ian
ĠG reek
at ri
ĠB ret
Ð¼ Ð¾ÑĤ
ad Ã¨m
ĠIn stitut
f urt
ĠD ub
Ġpre fer
Ġ17 0
ĠSal v
Ġle aving
ĠÐ· Ð°ÑĤÐµÐ¼
Ġact or
ĠNew s
ĠÑĦ ÐµÐ²
Ġersch ien
ÑĥÐ´ Ð¾Ð¶
Ġri val
ĠEn ter
a um
Ġv oll
ĠH ospital
ĠH u
Ð°Ð» Ðµ
Ġrel ated
D ans
Ġtro ops
ĠG eg
Ã¼nst ler
tain ment
ocrat ic
kir che
g leich
Ð² Ð¸
ĠN atur
Ġann Ã©e
Ġan gl
ne a
Ãºn ic
ĠZw eiten
ĠPac ific
ĠÐ²ÐµÐº Ð°
Ġlong er
ĠN ou
erst Ã¼tz
o id
ĠÑģÐ²Ð¾ ÐµÐ¹
Ġrail way
9 4
Ġsec und
Ġletz ten
Ġp iano
Ġfoc us
Ġch arg
ĠÑģÐ¾ÑģÑĤÐ°Ð² Ð»Ñı
ĠH ier
Ġprogram s
Ġcompl ete
Ġf Ãł
uten ant
ÑĢ Ð¸ÑģÑĤ
la ub
Ġpre vent
zie h
ĠR ot
Ġll um
Ġla bel
Ġb irth
port s
Ã© rit
Ġprof es
anc y
Ġres erv
ĠY ear
Ġh und
Ġinit ial
ord re
f a
Ġincl uy
m ore
Ġextre m
ĠC E
Ð¸Ð² Ð¸Ð·
Ġdisp ers
Ġvo te
Ġpart ido
Ġc erc
Ñı Ð¶
Person al
Ġr us
Ã® tre
ost o
ag u
ilom eter
ÑĢÐ° Ð¼
ĠÐ¿ ÑĥÑĤ
in cl
Ġf u
Ġprincipal ment
Ð¾ÑĢÐ° Ñı
ĠItal y
Ġatt ract
ĠCarol ina
H is
ĠAn na
ĠB oy
ĠBro ok
ag s
ĠCons ell
ug en
ĠÐ¾ Ð³
p le
Ġmajor ity
Ġsitu aciÃ³
n at
Ġl ines
P l
Ġd Ã³n
or ter
Ġinter ess
h Ã¤ng
Ġfa iled
ĠH ann
Ġsp ect
c at
Ġbesteh t
Ġar ts
ĠÐ¼ÐµÑģÑĤ Ð¾
Ġsqu ad
ĠJew ish
Ġbl ieb
Ġpr Ã¨s
Ġ5 1
Ġnue v
ur i
ĠI mp
ÃŃ mp
Ġaj ud
ĠPar liament
ĠÐ³Ð¾ÑģÑĥÐ´Ð°ÑĢ ÑģÑĤÐ²ÐµÐ½
Ġpresent ar
9 3
w orth
Ġreg ions
Ġc iv
Ġcon vent
ĠÐ½ ÐµÐ´
ĠJack son
ill on
Ñį Ð½
ĠEsp anya
ĠÃ¼ber nahm
Ġb ild
ĠA wards
ÐµÑģ ÑĮ
Ġmuss te
on ie
Ġpl ata
Ġsch lieÃŁlich
ĠÐ½ÐµÐº Ð¾ÑĤÐ¾ÑĢ
ell ig
Ġwest ern
ien n
Ð½ Ð¸Ñħ
Ġpet ites
ter m
Ġdep end
Ġcamb ra
ĠPart it
Ġme jor
à ¤
Ġmar k
ĠB i
Ġ190 8
Ġwe eks
Ġhigh est
ament o
ĠVict oria
ĠL ew
ĠX II
Ġc ru
ĠF ab
Ġnew s
ĠIl s
Ġste ht
per a
Ġlim ited
ĠW ei
Ġoct ubre
Ġear ned
Å «
ĠÐ¸ Ð³ÑĢÐ°
Ġmet al
ĠE ducation
Ġcomp ort
Ġactual ment
ĠÐĲÐ»ÐµÐºÑģ Ð°Ð½Ð´
Ġlloc s
ist ischen
ĠRail way
iz abeth
ÑĢ Ð¾ÑģÑĤ
ep h
Ġform es
iv ement
ĠPr ince
ĠN orm
Ġd it
Ġfil la
Ġpolic y
Ġt arde
Ġch air
ĠArgent ina
ob les
Ã¯ des
Ġsus p
ibl iote
Ġsig ui
ly wood
Ġexper ience
Ġ190 7
ĠMc C
as st
amer ikan
Ġpart its
Ġter ms
Ġj oc
Ġal ta
ĠF a
Ġdeux iÃ¨me
Ġgradu ated
z ig
ĠPenns ylvania
it able
Ð»Ð° ÑģÑģ
ĠL le
ĠD or
pl atz
ind ung
de ck
% ,
ÐµÑĢ Ñĭ
A F
Ġot ro
ĠTamb iÃ©n
j as
Ã§ os
ĠÑĦÐµÐ² ÑĢÐ°
Ġav ui
Ġcan v
ind re
Ġm undo
Ġl uego
Ġsel ected
ĠÐ¿Ð¾Ð¼ Ð¾Ñī
Ġf ons
ĠBet rieb
B l
Ġpos ar
ĠÐ½Ð°Ð·Ð² Ð°Ð½Ð¸Ðµ
Ġposs ess
ro it
ĠL ine
ĠP ot
Ġwel che
bre it
ÑĢÐµ Ð¿
Ġchar acters
Ġent ra
ĠO ut
Ġher aus
ĠÐ¶ Ð¸Ð²
ĠFeder al
Ġbl ock
Ġmed ie
o ul
ob ei
Ġviel e
ĠÐºÐ¾ÑĤ Ð¾ÑĢÐ°Ñı
Ġh izo
Ġb ronze
ĠCon f
ĠK an
Ġtrans c
Ð° Ð´Ð°
ĠS yd
Ġva ix
ĠGu ard
Ġprov ince
Ġj ard
Ġbe w
ĠSp e
9 1
Ġrest e
ĠÐ´ Ð¾Ð»
ĠApr Ã¨s
Ġrespons e
ĠU ne
Ġret our
ÐµÐ² Ð¸Ñĩ
Ġlar ger
r ation
ĠâĢ ĺ
ren g
am or
ĠFound ation
Ġhist ori
ĠÑįÐº ÑģÐ¿
Ġdisp on
Ġexp ans
ĠÑĥÑģÑĤ Ð°Ð½Ð¾Ð²
Ġper mit
Ġv oy
ÐµÐ½ Ð½Ð¾Ð³Ð¾
Ġfinanc ial
Ġcar ried
Ġt old
Ġfin ally
ĠM ov
ĠH arr
at us
Ġdo it
8 4
Ġd ib
Ġesp ect
ond ers
ĠT ay
Ġorgan is
Ġdoc uments
z i
Ġt ir
ĠR est
ĠColumb ia
Ġdeb ido
ĠPrem ier
d on
Ġb ad
ĠÐ¸Ð· Ð´
iÃ¨re ment
Ġarri ved
Ġ190 6
ne ur
ils on
k in
Ġas ked
ĠT ochter
ĠÃ© lect
Ġresid ents
Ð¸ÑĨ Ð¸Ð¸
au re
on al
ne o
teil ung
Ġmed ical
Ãī tat
ĠÐ½ Ð¸Ñħ
in terior
Ġpo or
Ġsou vent
Ġal ways
ĠÐ° Ð´
ĠPri mera
M us
ĠFol ge
ent ral
ant as
ev Ã¶lker
Ħ ĸ
uf en
Ġ189 0
ul ada
je kt
ĠL ife
ĠSouth ern
ĠL eben
Ġg Ã¨n
az i
Ð¾ÑĢ Ð³
Ñı Ñģ
Ġm ight
ĠFra uen
ĠPri v
Ã©r c
Ġincl ou
ĠA qu
Ġc ann
Ġal leg
or ation
Ġp unts
Ġfon ction
ĠÐ¿ÐµÑĢ ÐµÐ²
Ġn ive
Ð°Ð½ Ð¾
Ġtak es
ator i
id ents
Ġp ant
Ġcar riÃ¨re
Ar g
Ġw obei
Ġapproxim ately
ĠÃºlt im
d el
aw a
ĠÃ¡ lbum
Ġf als
ĠM oh
au ft
Ġimp act
d own
Ġs ister
Ġpol ÃŃt
j ahr
Ġgl obal
Ġinfer ior
ÑĢ ÑĭÐ²
Ġpod ria
Ġdon e
ĠÐ½Ð° Ð¿ÑĢÐ°Ð²
Ġsc ore
he ast
ĠS ince
f o
Ġdefens a
ĠÐŁ ÑĢ
ra h
nah men
Ġstat us
K ar
ar ÃŃa
ĠÐ¿ ÐµÑģ
Ġapp ar
Ch ar
Ġsold ats
Ð¸ÑĩÐµÑģÐº Ð¸
Ġoffic er
la in
bes ondere
Ġsh own
ĠE isen
es is
ĠEins atz
Ġmar riage
ent en
ĠJ on
Ð°ÑĤ Ñĭ
ã ĥ
ĠÃ© d
Ġme chan
ĠÑĩÐ°ÑģÑĤ ÑĮ
ĠAm t
ĠB rasil
Ġpil ot
ĠXI V
Ġturn ed
Ġv ig
et res
de c
ĠsuperfÃŃc ie
av al
E in
d in
hist oire
elop ment
Ġpresent ed
Ġbel ow
Ġme ist
Ġthe ory
ĠM ig
ĠCh ap
ĠF I
h ui
for me
Ġor igen
h as
Ġou v
Ġpar al
Ġanal ys
Ġfor eign
Ġpl aces
Ġform aciÃ³
ĠÐ¾Ðº Ð¾Ð»Ð¾
ĠÐ²Ð¼ÐµÑģÑĤ Ðµ
h u
m Ã¤ÃŁ
ĠÑĥ Ð¿ÑĢÐ°Ð²
utz t
Ġann ual
ast ic
ĠÐ¤ ÑĢÐ°Ð½
ĠNorth ern
8 7
m od
Ġh all
ĠC ross
ĠÃ©t ant
A v
Ġmost ly
ĠÐ¾Ñģ Ð¾Ð±
Ġb ass
Ġse chs
ĠÐ°ÐºÑĤ Ð¸Ð²
ĠÐ½Ð°Ð· ÑĭÐ²
Ġcons ult
Ġst ations
k ommen
ĠM ais
Ġen l
Ġel los
ĠÐ¼Ð¾Ð¶ ÐµÑĤ
ĠÐº Ð½Ð¸Ð³
st on
Ðº Ð¸Ñħ
Ġw anted
ĠÐº ÑĥÐ»ÑĮÑĤ
G r
Ã¢ ce
Ð° ÑģÑĤÐ²
ĠK om
our ces
Ġpres Ã¨ncia
Ġjug ador
Ð¼ ÐµÑĤ
her r
ge ordn
Ġnom mÃ©
Ð¸Ð» Ð¾ÑģÑĮ
oc ks
Ġ187 0
Ġinaug ur
S c
ĠÐ³ Ð¾ÑĢ
Ġd ah
Ġ190 9
us te
Ġmat ches
Ð½ ÐµÐ¼
Ġo pos
it ors
ĠÐ´ÑĢÑĥÐ³ Ð¸Ñħ
ĠK han
w ort
ĠBrit ain
Ġsay ing
Ġpu eden
ĠS at
ĠÐ¸Ð· Ð±
ib ility
8 2
ĠHamb urg
ĠP ont
Ġpos it
ĠA ires
Ð¾Ð·Ñı Ð¹
ĠC orps
Ġt im
Ã¨ cia
S P
i ada
Ġpro d
Ġf ug
ach us
up p
ut her
ĠT en
ĠB C
Ġacqu ired
Ġmay o
Ġcont rat
Ġfran c
ĠLud wig
ĠÐ¿Ð¾Ð± ÐµÐ´
Ð¸ÑĨ Ñĭ
w ide
v ement
ĠprovÃŃn cia
ĠdÃ³n a
ĠT ok
ĠSeg ona
Ġmal alt
ĠN at
ensch aften
ia go
an im
8 1
Ġm eit
ĠU l
ĠSch auspiel
ur ies
Ġdel iver
ĠCon stant
iss ions
Ġinc ome
ĠReg ne
Ġf en
he t
ĠÐ² Ð¾Ð»
Ġus es
z el
ĠW ild
Ġex cept
Ġre cher
st ru
ĠfranÃ§ais e
ÑģÑĤ ÑĢÑĥ
Ġv ista
qu art
ger ia
os o
Ġfus ta
ug by
ff en
od ox
Ġmitj ans
Ġlat ter
Ġfig ura
ÐµÑĢ Ð¸
ĠAr b
Ġpart ies
Ġm Ã¶glich
Ġpropor cion
Ð°Ð»ÑĮ Ð½Ð¾Ð³Ð¾
Ġc et
ĠS und
Ġpropos ed
Ġweiter en
ĠO f
A us
Ġm Ã¨
ĠF all
Ġent ren
Ġcu atro
ĠĠĠĠĠĠĠĠ ĠĠĠĠĠĠĠĠ
Ã¤ re
ed or
he its
ĠÃĸ sterreich
et ic
ĠV II
ult ura
ĠÑıÐ½ Ð²
Ġf ent
ill y
Ġ5 6
Ġcre aciÃ³
o up
ÃŃst ic
ĠUn iÃ³
ĠEr z
itt ed
ĠE lect
8 3
de x
d ire
Ġerreich te
ĠC y
Ġpou voir
is f
av ier
Ġsuper fic
icht ung
ĠVict or
Ġcon tains
ĠF le
ar ing
Ġres s
Ġw ord
ĠL ar
ÐµÑĢ ÐµÐ´
ĠN eben
ĠG ood
Ġex cep
Ġperman ent
Ġel les
Ġpro jet
E quip
w art
Ġer z
Ġcre w
w irtschaft
ĠMic hel
ket ball
ap es
ĠÐ»Ñİ Ð±
ĠIs lam
ie ÃŁ
ĠÐ·Ð° Ð±
ÑĢÐµ Ð»
ĠÑĢÐ°Ð¹ Ð¾Ð½Ð°
Ġmur der
ut at
Ġm ale
ĠM any
Ġgen annt
ed ia
Ġen ough
Ġheav y
ĠEr st
ĠH y
ÑĢ Ñĳ
ĠCorpor ation
Ġpr on
ÑĢÐ° Ð´
Ġcirc um
ÑģÑĤ ÑĮ
o bert
reg a
Ġtrop ical
Ġproblem s
ĠB os
Ġop in
W hen
Ġr ate
ĠSyd ney
ĠW alter
Ġd ict
Ġ188 0
Ġapart aments
Ġ ...
Ġpri mar
Ġciut ats
Ġocc idental
Ġunivers ity
A mb
W e
U S
Ġsoc iety
Ġsup pl
ecut ive
ĠPar lament
ĠJo e
- ,
est iu
Ġrepresent ed
Ġc ut
ĠGr Ã¼n
entr um
quer ra
ĠB art
ĠRevol ution
Ġad emÃ¡s
an ne
ĠP C
ĠG a
icht et
ĠBl ue
Ġ190 4
pr Ã¼n
Ġse at
b uch
Ġutil itzar
ĠÑģÐ² Ð¾Ðµ
Ġle ave
Ġdem onst
ÑĥÑİ ÑĤ
Ġ urs
ĠK ent
ÐµÐ½ Ð½ÑĭÐµ
ĠUnter nehmen
Ġto uj
ol n
Ġb le
Ġtouj ours
ĠBuen os
orig ine
Ġcon na
Ã¼ gel
ĠÐ¾Ð´ Ð½Ð°ÐºÐ¾
Ġfig ure
Ñı Ñħ
Ġpro yect
Hist oria
ĠIn s
Ð¾ÑĢ Ð¾Ð³
ĠIntern et
Ġprem iers
Bi ography
Ð½ ÐµÐ²
ĠFre der
ĠM and
Ġjul io
Ġess ent
od o
he w
ad ura
ian g
Ġvol unt
Ñī Ð¸ÑĤ
J os
ak s
ust ral
Ġe c
Ġm iddle
Ġd ra
Ġsp orts
Ġcoup le
Ġest os
ran k
am i
Ġsept iembre
Ġhous es
Ġpop ul
ĠÑĥ ÑĤ
m ill
ĠK er
Ãº ss
ĠB la
Ġtechn ology
A ut
ĠÑģÑĩ Ð¸ÑĤ
Ð¾Ð¼ Ð¸Ð½
Ġresult at
ak i
ĠÑĥ ÑģÐ¿
ĠH uman
Ð¸Ð¹ ÑģÐºÐ¾Ð¹
Ġcom men
Ġres ults
20 10
Ġde utsche
t i
rop olit
Ð³ Ð°
ens a
ĠSch loss
Ġpromot ed
Ġto uch
Ġref lect
Ġcit iz
ĠM all
Ġse mi
Ġmeit at
eg ut
ĠMar gar
ist ersch
Ġz we
Ġb rief
olog ies
Ġremain ing
U r
Ã¨ se
ĠÑģÐ» ÑĥÑĩ
ĠS S
is her
Ġcap a
led ge
Ġb Ã¢t
Ġab ril
Ġr ural
ĠM eter
ĠI f
ÐŁ Ð¾
ct ic
ĠÐ³ ÐµÑĢ
ĠR ena
ran ce
ĠAs h
Ġv id
Ñĥ Ð´Ð°
Ġr Ã´le
Ġcar go
Ġm ent
m ing
Ġpub li
Ġmov ie
ur m
Ð»ÑĮÐ± Ð¾Ð¼
Ġdis par
Ġgew Ã¤hlt
ens tein
Ġm ess
ĠgegrÃ¼nd et
Ã§ ada
t ar
Ãłn ica
F orm
Ġb ud
ĠC our
i ÃŁ
ĠT enn
Ġz one
Ġincre asing
N ew
ĠÐ¸ ÑģÑģÐ»ÐµÐ´
Ġesc olars
Ġfriend s
Ġp ac
ĠM un
op f
Ġrecord s
ĠÐ¿ÐµÑĢÐ¸ Ð¾Ð´
Ġcor ps
ĠMit te
los ter
ts ch
Ð² Ð°ÑĤ
i ats
ĠEin wohn
achus etts
Ġe g
Ġnov es
s ite
Ġconv irt
Ġcatal Ãł
ver te
m el
Amer ican
ĠB ab
if y
ĠFl ug
Ġe as
Ġcontro vers
ĠÐ´Ðµ ÑıÑĤÐµÐ»ÑĮ
Ġa ura
re as
Ġreb ut
Ġn ine
ĠAu ft
en f
Ġl ett
Ac cording
k ins
r ont
Ġat ta
ular s
ĠJ ersey
ĠÐ¿ Ð¾Ð³
terior ment
ĠÑħ ÑĥÐ´Ð¾Ð¶
_ "
Ġun ique
Ġ Åĵuv
ien cia
ĠÐ´ Ð¸Ð²Ð¸Ð·
ri el
al ment
ĠF un
Ġproblem es
ĠW eb
Ð¿ Ð¾Ð»
Ġsour ces
Î ±
Ġatt rib
Ġoper ation
ĠÐºÐ°Ñĩ ÐµÑģÑĤÐ²Ðµ
enc a
ÐŁ Ð¾ÑģÐ»Ðµ
ĠÐ²Ð¾Ð· Ð¼Ð¾Ð¶
Ð¾Ð½ Ð¾Ð²
Ġeing es
gl ieder
Ġinic iar
ĠÐ¼ ÐµÐ½
Ġsepar ate
ier ungs
Ġd Ã¨s
Ġsc reen
ĠÐ¼ Ð°Ñı
Ġsoc ietat
o e
Ġm ind
Ġ190 3
Ġdesc ob
Ġjun io
ĠLu ft
Ð» ÐµÐ¹
ĠC le
ĠÐ¼ Ð¸ÑĢÐ°
ĠS eb
les ia
In d
ĠgehÃ¶r t
Ġsett lement
z ar
iss ent
Ġ25 0
ĠMÃ¼n chen
ĠÐŁ ÐµÑĤ
Ġcomunic aciÃ³
if orm
met res
R ec
urs os
ÑĢ Ð¸Ð³
if er
Esp anya
ĠCh ile
Ġre quest
ĠÐ¸Ñİ Ð»Ñı
ĠÐ°Ð²Ð³ÑĥÑģÑĤ Ð°
ĠCons e
ĠJac ob
el er
ent y
ĠN ation
Ġdesp ite
Ġar rang
Ð°Ð¿ Ð°Ð´
Ġterc era
Ġâ Ħĸ
ĠA ff
Ã¤ m
Ġurs prÃ¼n
H Ãłbitat
Ġpar all
ene z
fÃ¼hr ung
ĠEl izabeth
Ã©rc ito
Ġh inter
Ġeff orts
ĠgrÃł cies
ĠÐ¾ ÐºÐ°Ð·
Ġdif f
onn en
ony m
M A
lich t
ĠÐ¾ÑĤ Ð´ÐµÐ»
Ã¯ ta
ĠF our
rat es
Ġne ut
Ġserv ing
Ġb edeut
ar p
Ġ190 1
ĠCol omb
Ġc Ã©l
Ġfl or
sch afts
ÑĪ ÐµÐ¹
ĠÐĴ ÐµÐ»Ð¸Ðº
it ari
w ert
ac ord
Ġ5 4
iqu ement
Ġnear ly
Ġm undial
ÐºÐ° Ð´ÐµÐ¼
Ġm asc
ĠG as
ĠÑıÐ½Ð² Ð°ÑĢÑı
Ð¸Ð½ Ð¾
Ġimp rov
Ġsan itaris
Ġcondu ct
Ġd azu
ĠdÃ© t
th ing
Ġsc ulpt
ad ing
Ġcar ry
Ġtra vers
Ġpro s
Ġh yd
Ġest ren
ĠThe ir
Ãł rees
any es
Ġof t
Ð¾Ð½ ÑĤ
ul aciÃ³
ĠE U
Ð¾Ð³ÑĢÐ° Ð¼
% .
re ch
Ġ190 2
anst alt
yn ast
Ð¾Ð» ÐµÐ²
emb l
ĠBar b
Ñĭ Ñĩ
ĠS her
reich en
Ġs ales
Ġimm igr
Ġdes s
ĠW ol
m ans
ick s
ĠÑģ ÑĥÑīÐµÑģÑĤÐ²
Ġlie ÃŁ
Ġmar zo
ure au
ĠÑĥ Ð²
F rom
L as
ĠP el
ces o
Ġsuc ceed
ĠÑĤ ÑĢÐ¸
ac re
Ġrecord ing
uc ions
Ġrap port
ĠJe ff
Ġter ror
Ġwrit er
Ġnec es
ĠFern se
Ġvari ety
Ð¾ÑģÑĤ Ð¾Ñĩ
Ġquar ter
qu elle
ĠF ox
Ġtrab ajo
A prÃ¨s
ĠKir chen
Ġst rateg
Ġfun ciÃ³
Ð¸ÑĤÑĮ ÑģÑı
ĠÐ´ Ð¾Ð±
Ġmass a
b al
gesch ichte
Ġoper ated
Ġder ro
ang er
oc rÃł
Ġform ant
ĠH art
ed d
Ñħ ÑĢÐ°Ð½
ĠD ol
Ġal ter
Ã¼ ll
Â º
ĠE he
Ġfer ro
ĠP ress
o it
Ġun os
Ġ5 3
Ġstart ing
Ġimmob ili
Ã¼nd ung
ĠÐ¾ÐºÑĤ ÑıÐ±ÑĢÑı
ĠÐĿ Ð¾Ð²
ĠD omin
Ġmar x
ĠR olle
r um
ĠÑĢÐ°Ð· Ð»Ð¸Ñĩ
ĠW ater
Ãł st
ĠÐ¶ Ð¸Ð·
Ġp ath
Ġje u
ak ers
ĠF ach
Ġag osto
T A
Ġm uerte
Ð¾Ð» Ð¾ÑĤ
ĠL abor
Ġh ay
ĠUn it
A uf
ac ionals
Ġconst ant
ĠÐºÐ¾ÑĤÐ¾ÑĢ Ð¾Ð³Ð¾
ĠU k
ĠÐ» Ð¸ÑĪ
Ð½Ðµ Ð³Ð¾
ĠÑģÐµÐ½ÑĤ ÑıÐ±ÑĢÑı
ac ts
ĠespÃ¨ cies
Ġn orte
Ġd ades
Ġtr am
Ġst arb
Ġst amm
ĠcarÃłct er
f re
u ix
Ġtourn ament
ĠV ietnam
Ġk ind
Ġv ila
int on
ous ly
Ð¾Ð± ÑĢÐ°Ð·
Ã³ m
Ġc lear
Ġen ero
ĠDie go
Ġtransfer red
rag on
ĠB ot
ĠH ot
ĠAr n
ĠF ue
ated ral
ĠBere ich
est ructura
Ñĥ ÑĢÐµ
Ġes ment
Ġquant itat
entr ada
Ġrefer red
ĠÑĥÑĩÐ°ÑģÑĤ Ð¸Ðµ
ĠÐ± ÐµÑĢ
Ġappear s
ric o
Ġre vel
ĠÐŁ ÐµÑĢÐ²
ĠKon z
ĠN ight
Ġpor te
ÑĥÐ½ Ð°ÑĢÐ¾Ð´
ĠN eg
Ġwh ole
ĠÐ¼ Ð¸Ð½
Ġnear by
' ,
Ġresp ond
ĠAnd rew
ĠAs ia
Ġm aster
Ã¼nd ete
ĠpÃ©ri ode
ĠBe ispiel
Ġcomp aÃ±
r Ã²
sch aften
est ir
Ġb ridge
ĠG all
Ġbis be
. -
Ġop portun
Ġenerg y
ism es
C C
ÑĢ ÑĮ
In tern
Ġri v
Ġret ired
ĠIn depend
Ġej emp
Ġag ua
ĠG onz
B ack
la is
ĠÐ¿ÑĢÐ¾ÑĦ ÐµÑģÑģ
Ġde leg
Ġn Ã¶rd
Ġch ans
Ġal um
Ð¸Ñı ÑĤ
at ius
Ġm akes
Ġindustri als
Ġp oll
Ġdic iembre
ĠN ick
or re
Ġsemb la
ial es
amm lung
Ġinclo ent
ĠJ r
Ġprote ction
Ġcount y
Ð°ÑĤ Ð¾ÑĢ
og ar
Ġenc our
Ġconstruct ed
Ð± Ñĥ
Ġprote g
on ce
Ġfor a
ĠÐ¸Ñİ Ð½Ñı
Ã¤h l
ig Ã¼es
Ġprincip i
Ġship s
Ġlik ely
ay e
ĠT ime
ĠM unicip
W est
Ãł cia
ĠIn fant
Ġprogram me
Ġim atge
2 000
ber ger
ed uc
ĠÐ³ ÑĢÐ°Ð½
ĠW ay
ĠW inter
man es
ĠÐ¿Ð¾Ð´ Ð´ÐµÑĢÐ¶
Ġx ar
res ident
ĠF ou
ĠSer ies
Ġd ich
al ia
Ġgr ad
ĠVer d
Ġp s
Ð¸Ð» Ð»
Ġcomp rom
Ġconeg uda
ĠN am
Åĵ ur
ĠVal Ã¨ncia
ĠF orsch
ĠÐ¶ÐµÐ½ Ñī
Ġgre w
ĠD VD
anz en
ou est
Ġcha que
heit en
ĠSe a
ĠMart ÃŃ
Ġex tern
ang a
Ġfo ot
Ð°Ð»ÑĮ Ð½ÑĭÑħ
ÑĥÐ± ÐµÑĢÐ½
ra u
ĠM Ã¨
g abe
um es
Ġmed i
ÑģÐºÐ¾Ð¼ Ñĥ
Ġsitu at
ĠÐŀÐ´ Ð½Ð°ÐºÐ¾
Ġpass e
ĠNord en
ul os
Ð² Ð¸Ð½
hr te
ueb lo
Ġb or
Ġder iv
Ġman usc
ĠÐº Ð°ÑĢÑĮ
ult ats
ĠSt ock
sch rift
Ã¤ f
ĠÐ» Ð¸ÑĤ
n ers
ĠR and
ĠÑĢÐµ ÐºÐ¸
Ġev itar
ĠÑĪ ÑĤ
Ð¸Ðµ Ð²
Ġmunicip io
ent lichen
ĠTor onto
Ð¾Ð½ Ð´
Ġhect Ãłrees
Ð°Ð» Ð¸Ð·
imm t
ge f
eb all
Ġconf irm
Ġp ict
Ġwhe ther
Ð» Ð°Ð½Ð´
ĠA venue
Ġverschied enen
ĠEar th
ul at
Ġg un
c ons
ais e
el ect
an omen
Ġth ink
Ġhab e
anz a
Ġbo und
Ġdr ug
Ġchamp ion
Ġveh icles
s weise
ĠHe il
Ġprov ides
ut o
Ġsoci Ã©tÃ©
ĠO ver
Ġinv as
ĠAt lant
Ġer m
ĠÑģ ÐµÐº
Ġsub stitu
am ily
ĠÐµ Ð²
ĠÑĤ ÑĥÑĢ
ron om
Ġpr int
ik en
ra ine
am ing
ĠGr uppe
Ġcar n
Ġve u
al bum
Ġauf grund
ĠDo ug
ĠH ung
Ġv uit
Ġerricht et
Ġn ames
u ÃŃs
Ġv ice
ĠÐ¸ ÑģÑĤ
Equip aments
b s
ĠÑģÐ²Ð¾ Ñİ
che id
Ġanomen ada
ad Ã©m
Ġre ason
ĠB ang
Ġr ue
Ġ6 00
Ãºss ia
una ut
Ġdiscover ed
Ġrespons ible
Ð°ÑĢ Ð¾Ð²
in form
ĠI ran
Ġmod ific
fl uss
eh l
ĠH ard
ĠG ames
Ġdisp lay
ĠK omp
Ġay ant
Ã© glise
ĠSom mer
Ð½ Ð¾Ð²Ð°Ð½
ĠÐ´ÐµÐºÐ°Ð± ÑĢÑı
ĠDÃ© u
ĠÐ¶Ð¸Ð· Ð½Ð¸
ĠSim on
Ġprov in
ĠZ iel
Ã¨ ve
ĠM id
Ġdec ide
Ġcomb in
alt ar
Ġsub st
Ð¾Ð² Ð°ÑĤÑĮ
Ġseg undo
Ð¸ÑĢÐ¾Ð² Ð°Ð»
ob ject
Ġco inc
ĠD et
ĠÐ½Ð° ÑĥÑĩ
ell y
ĠI d
Ġquick ly
ĠR ub
Ġb anc
ber ts
Ġform s
ĠRuss ia
ĠAr thur
Ġpromin ent
id ar
ĠÐ¸Ð½ ÑģÑĤÐ¸ÑĤ
orn ing
Ãł g
Ã¶r t
ym nas
ĠOx ford
ÐµÑĢ Ñĥ
ĠD abei
ĠOff ice
us a
Ġpel ÃŃcula
roll ed
ĠÐŀ Ð±
ĠÑĢÐ°Ð·Ð² Ð¸ÑĤ
Ġerne ut
ĠSp ain
e on
ĠÑģ Ð¼ÐµÑĢ
Ġfamil iar
c il
c ara
Ġmin ister
Ġanim al
ĠJun ior
ĠÃ© poca
ĠR ahmen
ĠÐ² Ð»Ð°ÑģÑĤ
to ire
al ity
Ã³ lo
ĠÐ¾Ðº ÑĢÑĥÐ³
x ico
ĠÑĢÐ° Ð½
Ġmoment o
Ġiss ued
ĠOh io
Ġe b
h om
r ale
ill as
ĠP il
Ġdro it
ĠÐ¼Ð°ÑĢ ÑĤÐ°
uen cia
Ġ186 0
ĠR ud
ĠÐ£ ÐºÑĢÐ°
Ġsa f
al de
Ġlist ed
etz en
ĠCar les
ĠSant iago
Ġoffic ers
ens es
Ġfin estres
le ma
Ġcu enta
r Ã¼ck
Ġemp res
Ġmultip le
ĠK en
Ã¢ tre
Ġlarg o
Ġo x
lass en
et at
ĠIn n
r un
Ð» Ð°Ð½
Ġprop ri
Ġatt ention
ĠEng ine
ĠMass achusetts
h es
ĠW ilson
ĠÃºlt ima
at ten
ĠÐ¾ÑĤ Ð´
ĠP our
Ġo il
h Ã¶
ri al
Ġman aged
Ġsc ene
ĠÑĤÐµÑĢÑĢÐ¸ÑĤÐ¾ÑĢ Ð¸Ð¸
ĠÐ½Ð° Ð¿
Ġmain ly
Ġaf eg
Ġdre ts
ĠNe u
Ġdif ÃŃc
re ll
zeit ig
Ġbo x
qu Ã©
Ð¾ÑģÑĤ Ð¾Ðº
l oc
e kt
ĠP u
Ġsold iers
ĠE astern
El le
ack s
Ġde ad
ĠÐº ÑĢÐ°
Ðµ ÑĦ
Ġseg les
Ġ Ã¶
Ġwo od
Ġdist ance
Ġy outh
ĠÐº ÑĢÑĥÐ¿
Ġten ÃŃa
Ã¶r per
ĠG h
Ġdi am
iz ar
fÃ¼ g
st off
t il
Ġs ag
va it
Ġsur t
Ġtyp es
Ñĥ Ð²
Ġj ours
Ġp urs
ur ent
ĠfÃ¼hr t
or o
ĠÐ¿ Ð»Ð¾
ĠÐ° Ð»ÑĮÐ±Ð¾Ð¼
Ã¨c ie
Ġb rig
ach er
zeichn ung
Ġr aces
Ġf ell
Ġ1 000
ĠÐ¼ Ð¾ÑĢ
Ġv ocal
ĠAlf red
Â ³
Ðº Ð¸Ð¹
ĠR eb
ĠÐ²ÑģÐµ Ñħ
Ġrec omm
od a
se e
Ġinn ov
Ġjewe ils
ĠrÃ© al
I D
ĠN a
ers e
Ġcar actÃ©r
ĠSt raÃŁe
res o
Ġappear ances
Ġla g
ĠÐº Ð°Ð¼
geb aut
est il
Ġassol ir
ĠÐ¾ÑĤ Ð»Ð¸Ñĩ
ons o
ĠAquest s
ĠAss embly
Ġest ructura
Ð¾Ð» Ð°
Ġnov iembre
B ei
gr Ã©
ĠÑģÐµÐ± Ñı
Ġfrances a
Ġdirect ly
Ġbene fic
ath an
Q u
Ġcam ÃŃ
Ġf Ã©
all ed
Ð» Ð¾Ð¼
od er
ĠVer walt
Ġtrava il
Ñĩ ÐµÑģÐº
Europ a
ĠZ ug
ĠPr Ã¤sident
Ã¨ tica
ĠL ittle
Ġcon fer
oss os
ĠCl ar
ĠPop ular
Ġext ended
ĠCas a
ist ics
Ð°Ð»ÑĮ Ð½Ð¾
Ġrestaur ant
ĠMich igan
Ġto utes
f el
ull s
Ġfut bol
Ġord ered
ĠKais er
Ð» Ð¾ÑĤ
z il
ÑĪ ÐµÐ³Ð¾
Ġgre c
ĠPet ers
ĠÐļ Ð°ÑĢ
Ġ5 7
ĠR em
ĠÐ¾ ÑģÑĤÐ°Ð²
ex pl
ĠÐ¡ Ð²
irts chafts
Ġp it
Ġc ub
ĠÐĺ Ð²
Ġs org
ĠBe z
ĠKrieg s
Ġl ives
Ġcal c
ĠÑģÑĤ Ð°Ð½
ĠMed ia
Ã¤ g
Ġest ruct
Ð¸ Ð°Ð½
Ġpoc o
rit o
um ber
ch estra
ĠHar ry
Ġs iÃ¨
Ġam ount
Ġf ert
Ġsort ir
end es
il der
o ok
Ġcient ÃŃfic
Ġco oper
Ġfun ction
re ts
ĠLat in
ĠÑĢÐ°Ð±Ð¾ÑĤ Ð°Ð»
Ġr it
Ġcover ed
Ġlev els
Ð´ ÐµÐ½
ĠO rig
Ġz og
ern a
ob a
Ð¾Ñģ Ð»ÐµÐ´
ÑĤ Ð¾Ð²
Ġcons erva
ĠHol lywood
Ġmedie val
Ã¯ a
Ġproject s
ĠÐ¿ Ð¸Ñģ
Ġcer em
ĠSch iff
ĠF ord
Ġbe hav
ĠCos ta
ÑĢÑĳ Ñħ
ĠM aster
ÐµÐ´ ÐµÐ½Ð¸Ñı
ĠÑįÑĤ Ð¾Ð¹
ĠG arc
ĠFrank reich
ĠÐ¾ ÑĦÐ¸ÑĨ
ĠLe ip
richt ung
Ġgrow th
Ġaconseg u
Ġplat form
iz ing
ar rib
Ġsuc cÃ¨s
D on
Ãłn ic
Ġpl ac
" ),
us alem
ĠF ield
Ġel abor
Ġperd re
ĠÑĤÐµ Ð°ÑĤ
ÑĥÐ»Ñı ÑĢ
ĠrÃłp id
Ġcl Ãłss
ĠdÃ© p
ĠB evÃ¶lker
Ġcon text
Ġadd ress
ĠÐ½Ð° ÑĨÐ¸Ð¾Ð½
ĠHÃ¶ he
H L
Ġhistor ical
ĠGovern or
ĠA y
Ġb ul
Ġpres erv
ĠMann schaft
Ġest Ã¡n
Ġnewspap er
Arg ument
adel ph
ĠB eh
Ġvo it
Ġkonn ten
Ġcom es
ĠÐ¿Ð¾Ðº Ð°Ð·
Ġfut ur
ĠReich s
ÑĢÑĥ Ð·
un te
ĠSta ff
ĠSÃ¼ den
ĠCon ference
Ġpeu vent
ĠÑģÑĤ ÑĢÐ°Ð½
ĠÑģÐ²Ð¾Ðµ Ð³Ð¾
rach te
re p
ĠÐ°Ð¿ÑĢÐµ Ð»Ñı
ĠReg ional
Ġcor por
Ġproduct s
ĠEn erg
ĠG em
ĠÐ²ÑĭÑģ Ð¾Ðº
Ġverwend et
ch i
Ġen front
ĠR ic
Ġje une
Ġconsid era
se x
Ġed ition
ĠL am
Ġr am
Ġmean ing
ure tat
it ing
ĠD al
me e
Ġnive au
ĠG ot
rom e
Ġassist ant
Ġw oll
Ġorient al
ĠM agn
Ġcon g
Ġde ep
Ġla mp
Ġvi ure
h aft
V on
ĠSch m
ĠMig uel
Ġlaw s
Ġf ans
ĠR ab
Ġcer tains
ar ra
Ð¸Ð½ Ð¾Ð²
ist iques
ĠCo ast
Ġde u
Ġb Ã©n
ar an
ĠdÃ© partement
es per
ap ed
Ġpes ar
ad ed
cl ass
esc ola
Ġot ra
Ġl in
ĠB esch
Ġrec onstru
Ġt able
Ġs ites
ĠÐ¿ÑĢÐ¾ Ð¸Ñģ
Ġd oble
Ġn au
at geria
P ri
Ġm ode
Ġhac er
ĠK ilometer
ĠPe ople
E mp
Ġr ÃŃo
Ġre in
ex ual
ĠU N
Ġdestac ar
gen de
Ġ189 8
I A
ĠT y
ce an
ĠÐ² ÐµÑĢÐ½
Ġpurch ased
ren ce
ĠÐ³Ð¾Ð´ Ð¾Ð²
M al
Ã¤ ss
Ġst reng
Ġsp read
Ġpod ia
Ġpr ÃŃn
Ġ5 8
ien nes
Ġsyst Ã¨me
ĠM ike
Ġwork ers
ĠHe alth
iat ive
im ate
Ġadv oc
Ġfe ia
ĠE ver
ic ient
istersch aften
ĠFran Ã§ois
Ġreve aled
ĠG ame
Ġfe el
ĠC hem
Ġover all
ĠM ik
ĠS itz
Ġespany ola
ĠG egen
Ñĩ Ð¸Ð½
ĠV ien
Ġap oy
r in
Ġlet ter
ad al
h um
t ies
ĠÐ´ Ð°
Ġdirig ir
Ã¡ p
Ð» ÑĥÐ¶
ul as
Ġ rid
Ġgr Ã¢ce
ĠJac ques
ĠJ ose
Ñģ Ð»Ð¸
Ġsu f
Ġpe int
Ġniv el
ĠÐ¿Ð¾Ñģ ÐµÐ»
Ġ |
Ã¡ l
Ġh Ã¤uf
B y
ĠHen ri
as p
ĠB Ã¼
aquest es
Ġbel ong
ig s
ĠÐµ Ð´Ð¸Ð½
Ġc ord
Ġeff et
Ġimmediat ely
ĠTay lor
ow a
neh m
Ð» Ð¸Ð¼
ro gen
an Ã§a
Ġh arm
_ Â«
ÃŃ mica
Ġac us
is is
ales a
ad s
Ġgu est
ĠÐº Ð»Ð°ÑģÑģ
Ġord in
b ia
Ġf oss
ra q
Ġtro u
ÃŃ gen
ĠChr is
ĠagrÃŃc ola
Ġsigu iente
act or
Ġocup aven
ly n
arr era
Ġg eg
Ġprop i
ĠS ain
Ġsup os
Ġdist ing
Ġp ick
Ñģ ÐµÐ´
Ġremov ed
J ahr
n isse
Ġer k
la p
ĠM iddle
Ġse Ã±
ĠL ind
Ġsy mbol
Ġart istes
Ġb a
ĠÑĥÑĩ Ð°ÑģÑĤÐ²
le b
bour ne
Ġen regist
Ġneed ed
ĠM ess
ri min
Ġad ult
Ġs ons
Ġcondu cted
Ġdiv isiÃ³
Ġeigen en
ĠÐ¿Ð¾ÑģÑĤ ÑĢÐ¾
itt ing
iss ant
ĠEnt orn
Ġrep ublic
Ð°ÑĢÐ° ÐºÑĤ
ĠÑģÐ² Ð¾Ð¹
Ġvis ual
ĠAn th
Ġse asons
Ġe astern
ĠB oth
Ġactiv ity
Ġhe art
T C
Ġdiss ol
Ġimp lic
S O
ant h
Ġob ras
Ġang les
m und
Ð¾ÑĢ Ð´
Ġet apa
ou x
Ġy et
Ġfe u
Ġagre ed
ĠC in
est en
Ġhigh ly
Â» )
Ġfind en
Ġcin q
of ia
ĠBe ach
Ġse qu
k ten
ĠE uro
ĠÐ³ ÐµÐ½ÐµÑĢÐ°
g s
Ġins besondere
est ic
ĠAb d
Ġpos itive
Ġcamp s
Ġen gl
ff ic
st one
s ia
ĠÐ²ÑĢÐµÐ¼ ÐµÐ½Ð¸
ĠÐķÐ² ÑĢÐ¾Ð¿
ĠDav is
ĠÑĩÐ¸Ñģ Ð»Ðµ
k h
qu i
Ġr ule
Ġ189 9
iqu en
he b
Ġc ities
ĠÐ½Ð¾ÑıÐ± ÑĢÑı
ĠÑģÑĢÐµÐ´ Ð¸
ĠM ach
Ã¨ mes
ĠL ive
ÑĢÐ¾Ð¼ Ðµ
ĠÐ¾ÑģÑĤ ÑĢÐ¾Ð²
re me
ĠM ans
Ġres ident
ĠÐ¾Ð¿ ÑĢÐµÐ´ÐµÐ»
Ġmuch os
Ġnombre uses
ĠF air
ĠV is
C al
ĠM ore
iÃ³ s
ĠÐ¶ ÑĥÑĢÐ½
Ġperforman ces
Ġimp uls
Ġcom enÃ§a
Ðº Ð°Ð¼Ð¸
ne z
ĠBr un
Ġl itt
Ð¿ Ð¾Ð½
ĠMuse u
in v
ĠF eld
Ġqual itat
ĠprÃ©s ente
ĠPri x
Ġbot iga
ĠMar ine
Ġint ended
Ð¼ Ð¸Ð½Ð¸ÑģÑĤ
Ġins gesamt
Ġinflu Ã¨ncia
ĠBeg inn
ĠM utter
ĠÐ¿Ð¾ ÑıÐ²
elle ment
S u
l at
Ġ189 7
Ġex terior
t own
ĠPal est
ĠÐ¸ÑģÐº ÑĥÑģ
b ed
ann er
Ġocup ar
ĠReg iment
ak h
l Ã¤nd
ĠsegÃ¼ ents
Ġfem en
Ġch Ã¢teau
Ġeurop Ã©
k ov
Ġmic ro
Ð³ Ð¸
Ã¶st lich
ĠB ou
ĠChampionship s
Ġjo in
ĠScot land
I mper
ĠCh ild
ĠÑĥ Ð»Ð¸
Ġ ÑħÐ¾Ð´
Ġcamp us
uest o
ĠPerson en
f on
ĠÐ½Ð°ÑĩÐ°Ð» Ðµ
Ġhund red
Ð» ÑģÑı
Ã¤t ze
Ġ13 0
Ġmond iale
ĠC irc
Ġav iat
Ġent sp
ĠÐ¿ÑĢ Ð¸Ñĩ
or me
Ġpar ish
arm Ã©e
Ġd io
iss a
ĠMÃ© xico
be z
Ġfr ente
Ġprof und
Ġhe cho
Ġf ais
ĠÐº Ð°ÑĤ
ĠSer ie
Ġrefer Ã¨ncia
ĠÐ°ÑĢÐ¼ Ð¸Ð¸
C ette
Ġte atre
ĠÐ±Ñĭ ÑĤÑĮ
ĠO sten
Ġarg ument
ed om
Ġed ifici
Ġdefe at
al ing
ĠÐ¼ Ð¾Ð´
Ġin hab
Ġchamp ionn
âĢĿ ,
ild ing
Ġmis ma
200 8
Ġseg unda
Ġwe ap
Ġ8 00
Ġloc als
ĠCamb ridge
Ġad ministration
Ġdon n
ĠPhil adelph
est udi
ĠH otel
Ġconc erts
s ula
on el
ĠSecret ary
Ã© poque
Ġes posa
ĠSch la
Ġdestroy ed
Ġpint ura
Ã¤s ent
M e
Ġutil is
ĠS um
Ġref ug
Ġnue va
rol lo
em eter
An t
ĠCast le
ĠÐ³ÑĢÑĥÐ¿Ð¿ Ñĭ
j ada
ĠÐ¾ÑĤÐ½Ð¾ ÑĪ
host atgeria
ĠP ir
Ġdem i
S eit
Ġte oria
ĠÐ¿ÑĢÐ¾ ÑĨ
Ġestud ios
ĠÑģÐ¾ Ð¾ÑĤ
k te
ÑĪ Ðµ
Ġstre et
Ġbas is
st ieg
as k
ĠÐ³ ÑĥÐ±ÐµÑĢÐ½
f s
ĠÑĤ ÐµÑĩ
sc ar
Ġpass at
h ere
Ġpr is
ĠÐĲ Ð²
Ġconflic t
ĠJ azz
ĠÐ¿ÑĢ Ð¾ÑģÑĤ
Ġcandid ate
ter e
eme inden
ult ure
em at
Ġatt end
irit ual
Ġdete ct
P D
ĠEnt wicklung
Ġpro clam
Ġplann ed
eit ung
Ġf ellow
f ried
h l
ĠZ ur
Ġalong side
ĠT s
Ġcomp art
ĠÐĴ Ð¾
Ġor n
sk y
ĠÐ¸ ÑĤ
Ġtri al
it el
an che
ed ir
Ġ Ä
Ġlead ers
ĠL ady
Ġmov ing
Ġnom br
Ġanc ient
Î ¿
ĠAl ter
Ġ8 5
ĠSch rift
ĠLew is
y g
aller y
Ġfur ent
ÑĭÐ² Ð°ÐµÑĤ
ĠJust ice
at ar
ab ilitat
ĠGr ande
ĠV el
Ġv in
ĠÑĢ ÑıÐ´
Ġvers t
ĠÐºÐ¾Ð½ÑĨ Ðµ
Ġp au
ra v
Ġll at
ang s
Ġfolg te
ĠÐ¾Ñģ Ð²
Ġs Ã³lo
Ġst ore
Ġco unter
Ġport al
Ġpublic ation
Ġcant on
Ðº Ð¾Ð½
Ġexp uls
Ġtreat ment
it led
200 9
Ġtelev isiÃ³
Ġspe ed
Ġfolg enden
ĠK im
Ġvari as
Ġpint or
Ġfeb rero
x ima
ĠÐ¼Ð¾Ð» Ð¾Ð´
eth ing
ĠN ame
Ġcond ition
Ġab ility
Ġcompos ed
Ġel Ã¨ct
Ġper fect
Ġp ain
Ġcon dem
200 7
Ð¸Ð¼ ÐµÑĢ
or ado
ĠR af
ĠO cc
ĠSeg ons
Ġneigh bor
ĠTr in
Ġaccept ed
or ges
C D
Ð¾ÑĢ ÑĮ
Ġm ouv
ing t
Ġt u
os h
Ġmus ique
Ġcon ven
Ġsuff ered
ĠAn ne
Ġhi jo
Ġdi rige
ĠÃ©t udes
ĠB ed
av ia
oc o
Ġrec over
Ã¤t te
w issenschaft
p lay
Ġp adre
Ð°Ð»ÑĮ Ð½ÑĭÐ¹
r ug
w Ã¤r
ĠO d
ĠprÃ²p ia
Ġc ir
ĠPar tei
ĠÑģ Ð´ÐµÐ»
ÑĤ Ðµ
ĠGeorg ia
Es glÃ©sia
Ð°ÑĢ Ñħ
Ġcas ar
Ġsmall er
Ġat te
ĠAl i
ĠDies er
ĠB ud
ĠRog er
ann a
Ġun ir
v iron
ĠMo unt
Ġm igr
ĠJohann es
Ġbord er
ĠK reuz
Ġi gn
ĠÐ½Ð° ÑĢÐ¾Ð´
Ġ189 6
Ġf ra
Ġst ories
Ġpermet re
Ð³ Ð¾ÑĤÐ¾Ð²
Ãł m
ĠH om
Ġmar ch
Ġfin ale
ĠB alt
Ġpob les
ĠR iv
Ġdent ro
Ġeinges etzt
schn itt
P A
Ġa de
ĠÑĤ Ñĭ
oh ol
Ġcarre tera
Ġ *
Ġgegen Ã¼ber
ier to
ĠÐ» ÑĥÑĩ
Ġv uel
Ġunt erschied
Ġpre cis
Ġtal ent
Ġla quelle
Ġch art
b on
o ft
Ġw ords
ĠÐĳ ÐµÐ»
Ġcompany ia
Ġval ue
Ġperson nes
y t
ĠOr der
Ġdesenvolup ar
p an
ver b
Ġliter atura
T amb
Ð¾Ð± Ð¾Ð´
Ġp ir
Ġa le
ĠPf arr
ÑģÐº Ð°Ð·
Ġpresident e
w en
ĠD utch
Ð¾ ÑĨ
mann schaft
Ð² Ñĭ
ÃŃ d
Ġag ent
ĠÐ²ÑģÐµ Ð³Ð¾
Ġn ieder
inc oln
Ġb ona
Ġg ilt
ud ed
ĠÑĩ ÐµÐ¼
Ġeffect s
Ġprote ct
Ġre y
ĠÃ©t abl
ĠÐ¿Ð» Ð°Ð½
Ġflo or
Ġcer ca
O R
Ġreg ne
Ã¡ ct
Ġcont ent
Ġg olf
Ġenv iar
O M
ĠQue ens
Ġ9 5
Ġcomenz Ã³
Ġfac ilities
ĠB ischof
Ġfron tera
Ġt ort
ĠÐµ ÑģÑĤÑĮ
Ġher man
Ġw Ã¼r
Ġneg oci
un ta
ĠK ultur
we hr
ĠHist ory
Ġabsol v
20 11
Ġinform aciÃ³
ĠK Ã¶l
Ġpos itions
iter ran
Ġcommen ce
Ġ7 2
Ġmed io
Ġst ri
W ill
Ġrec one
ĠE conom
Ġins ide
Ġlib re
Ġtrois iÃ¨me
Ġkomm t
Ġb oy
ĠÐŁ ÑĢÐ¸
our i
Ġme ille
Ġelement al
m outh
ul g
Ġant igu
ĠR aj
Ð¾Ð» Ñı
ĠStud ium
Ġall er
Ð¸Ñģ Ð¸
Ġc uer
gr uppe
ĠÐºÐ° Ð¶Ð´
Ġb il
Ġcapac itat
ĠS eite
le z
c ciÃ³
Ġt ÃŃp
Ã¡nd ose
Ġtit ular
Ġrep e
ĠÐ» Ð¸Ð½
Ġprob ably
Ġbes uchte
Ġdam als
Ð¼ ÐµÐ½ÑĤ
edeut ung
ĠArch ite
ĠDev elopment
ĠÐ¼ Ð½Ð¾Ð³Ð¾
Ġn ative
ors hip
ĠG ib
ĠSeb ast
ÑĦ ÑĦ
ĠÑĪ Ð¸ÑĢ
ĠKir ch
Ã¯ na
ot te
Ġex act
ĠÑģÑĤ Ð°Ð»Ð°
ival ent
ĠN ations
Ġemp er
Ã¯ nes
ĠIll inois
ĠP au
ĠÑģ Ð¾ÑĤ
sche in
I N
ĠP it
ĠÑĦÐµÐ²ÑĢÐ° Ð»Ñı
ement e
Ġpass a
Ġesde ven
Ġtr on
oc ol
Ġco uncil
Ġ6 2
Ġw alk
ict ed
Ð¸Ð½ ÑģÐºÐ¾Ð³Ð¾
un id
Ġpot ential
Ġw all
ch ten
Ġan ne
Ġon line
Ġcap ella
Ġcontr ast
ĠGuer re
l ÃŃcules
ĠW eg
Ġ5 9
Ġact ions
ĠD ienst
ĠOr d
ĠÐĴ Ð»Ð°Ð´
ĠReg ierung
ĠAn s
Ġnum bers
Ġ189 5
Ð° Ðµ
ĠÐŀ Ñģ
ĠV o
Ġa pr
Ä ±
Ġoffic ially
r ate
Ġd och
Ġh ace
Hist or
Ġdre ta
Ġprob lema
Ð³ÑĢÐ° Ð´
press ion
ÃŃ fica
Ġfac ult
an ischen
ĠF ollowing
ĠE mper
ĠÃ© quip
Ġco ordin
ĠHit ler
ĠFern ando
Ġoppos ition
Ġpro ven
J ean
Ġfe at
Ġes port
ĠF ur
ĠF ig
Ġpr estig
ĠQ ual
p ool
ÑĢÑĥ ÑĪ
Ġ6 8
Ġhousehold s
Ġangl Ã¨s
Ġb ata
C A
ĠG est
ĠL og
ĠF red
200 6
Ġn ost
Ġk le
se ud
Ġrequ ire
Ġhom mes
ĠÐ¾ÑĤ Ð¿ÑĢÐ°Ð²
Ġpre t
auc oup
Ġd ub
ge fÃ¼hrt
ĠB ert
Â» _
ĠÐ° ÑĤ
Ġheut igen
Ġsec urity
Ġmain ten
Ð ĸ
Ġs ed
ĠB ah
ri Ã³
ĠSte ve
ĠB att
ĠB ridge
Ġsl ow
Ġd raft
Ġof er
ÑĥÑĤ ÑģÑĤÐ²
ÐµÐ· Ð´Ð°
Ġges am
L A
ĠFor est
a ult
ul ta
ÑĨ Ð¸Ð¹
Ġen se
ÐµÐ» Ð°
w ing
af en
ĠH ome
Ġp og
Ġmen os
l ight
Ġren amed
ĠGol den
w agen
Ã© on
Ġparticip e
Ð¸ÑĩÐµÑģÐº Ð°Ñı
ĠR oc
Ġ18 50
adem ie
Ġqual ity
ĠÐº Ð°ÑĢÑĤ
Ġprop ag
Ġpri x
Ġfil os
ĠN ueva
Ġst one
Ġdiv or
ĠÐ³Ð¾ÑĢÐ¾Ð´ Ðµ
Âł Âł
ic ios
Ġexpl os
Ġdav on
Ġparticip ated
ĠDo ctor
ĠGarc ÃŃa
Ġcol ors
ic iones
Ġde j
Ġna he
ĠWest en
ÑĢÑı Ð´
ten ciÃ³
Ġpromot ion
Ġproduc er
ĠÑĢÐ°Ð±Ð¾ÑĤ Ñĭ
er ÃŃa
Ġh ors
Ã¤ gt
Ġpla ys
b us
k ar
Ġmais on
A p
Ã©rie ure
fr ast
am ber
ĠLl uÃŃs
Ġst ra
Ġcapt ured
ĠZw ischen
Ġfem ales
Ð¸ÑĤÐµÐ» Ð¸
Ñĭ Ð½
ac les
ĠR io
de utsch
Ġdia gn
Ġimp l
ĠÑģÐ¾Ð² ÑĢÐµÐ¼
ĠIn sel
ens is
Ġesde venir
ĠÐ¡ Ð°Ð½
ĠV III
Ã¶ ren
Ð¸Ñı Ñħ
ĠPh ys
ĠÐ´ ÐµÐ½ÑĮ
Ð»Ð°Ñģ ÑĮ
C an
Ġarg ent
ibliote ca
ĠP rop
Ġ6 6
r ers
onom ia
Ã©t ique
ĠÐ¿ÑĢ Ð¾Ð³ÑĢÐ°Ð¼
Ġstreng th
ĠS old
ĠM Ã¤n
eca use
Ġsent it
Ġlarg ely
Ġwe il
Ð¡ ÑĤ
Al t
ter y
quest a
Ġcon j
Ġg iving
n gel
az a
ĠAd d
Ġt ens
ĠP Ã©
ĠDem ocratic
ĠEinwohn er
S te
ĠD own
ik o
ÐµÑĢÐ² ÑĭÐµ
Ġb lo
Ġprincip ales
ĠP unk
Ġver lie
ĠDu ke
ĠÐ³ Ð°Ð·
Ã¤ ren
Ġet hn
ĠAm ts
a fter
Ġt Ãªte
ant o
Ġmar ca
ch ant
ĠG ast
ĠÃºlt imo
Ġjur is
C ons
Ġdedic ated
Ðº Ð¼
Ġim age
ĠKar riere
Ġta ught
.âĢľ _
am o
ie ur
Ñī Ðµ
Ġhab er
G B
Ġi ron
Ġnom s
Ġehemal igen
h ire
ĠV inc
Ġnuc lear
ĠÐ²ÑģÑĤ ÑĢÐµÑĩ
acc Ã©s
ĠÑĩ ÐµÑĤÑĭ
Ġenf ants
ĠAt l
allen ge
Ġwith d
ĠlÃŃ der
aut re
Ġad vert
d al
all as
ĠTel ev
Ġcon Ã¨ixer
Ġtrack s
ett ing
any s
Ġs ost
Ġprimar ily
Ġcons ists
A lex
at oire
ymnas ium
amp les
v ard
Ġd ark
ob e
Ġmat em
ik t
Ġcan ciÃ³n
b ell
Ġcon ce
und er
R ep
od ies
Ġrespons able
A g
Ġdistrib ution
ĠK lein
Ġocc asion
Ġl ot
ĠC art
a ille
ÑģÑı Ñĩ
0 5
Ã²n ic
l ines
Ġf ase
ĠMot or
ot ing
Ġup per
on ial
ĠÑģ Ð¾Ð´
ĠComm on
I T
Ġdib uix
Ġzahl reiche
b aut
Ñī Ð°Ð´
Ġdep artment
Ġre cept
E D
ĠH ind
Ġest ate
Ġpe ace
c as
Back ground
ĠÐº Ð¼
Ġ6 3
b les
Ġcirc uit
ĠÐ´ Ð¾ÑĢÐ¾Ð³
Ġnot es
Ġcom ing
ot ed
ĠÑģÐ»ÐµÐ´ ÑĥÑİÑī
C o
ĠF rei
Ġcamp anya
G ener
Ġn ing
Ġtip o
Ġgro ÃŁ
i Ã¨ncia
y st
ĠSe e
Ġcin qu
Ġp iÃ¨
ĠAd am
ĠL ux
Ġde port
ul en
j ets
ĠT ony
ina us
j ourd
Ġadopt ed
ĠEg ypt
20 12
ĠRa um
Ġhous ing
ĠÑĥ ÑĢÐ¾Ð²
ienn ent
ĠH ug
ri ament
Ð°ÑĤ Ð¾Ð²
Ġport ug
ĠS yn
ĠCom un
Ġtechn ique
ÑĢ Ð¸Ð´
Ġdecl ared
m ag
ob i
Ġau ÃŁer
Ġital ien
Sa int
ĠH um
ĠJa ume
Ġk ur
ĠHol z
ĠSport s
r Ã¤n
ob ile
ond s
Ġcapac ity
achel or
ĠÐ¶ÐµÐ» ÐµÐ·
T rans
ĠLib rary
Ġd ÃŃas
ĠV orsitz
ogra p
Ġf elt
Ġall en
ĠK a
ĠK loster
H a
L ife
Ġnuc li
ĠBern ard
Ġterrit oire
ĠP uerto
ĠÑįÑĤ Ð¾ÑĤ
Ġex am
Ġtechn iques
av i
ĠSen ate
Ġmill ions
ĠÑģÐ¾ Ð¾Ð±Ñī
Ġelect ions
k omm
Ġ189 3
ĠB ach
ver kehr
Ġpa id
Ġrec ently
Ġeff ort
A f
Ġcaracter ÃŃstiques
ĠS ummer
Ġaf ir
Ġre ta
ĠÐ¿ÑĢ Ð¸Ð³
Ġsch olars
inn es
Ġg ira
Ġperson atges
r als
Ġer re
Ġra ison
iv ern
ĠP ra
Ġass igned
ĠÑĤ ÑĢÐ°Ð½
en ed
ĠP ower
Ġgain ed
ĠÐ¿ÑĢÐ°Ð² Ð¸ÑĤÐµÐ»ÑĮ
Ġob st
ĠÐľ Ð°Ðº
Ġtarg et
Ġm i
ĠLe v
w elt
Ġz ehn
ĠAu ÃŁerdem
Ġp eces
Ġroy al
Ġzw eite
un ft
ĠN etwork
ĠP ic
ĠÑģÑĤ ÐµÐ¿
tic os
ÐµÑģÑĤ Ð¸
p ur
eit s
Ð¾ÑĢ ÑĥÐ¶
Ġind Ãºst
ÑĢÐ°Ð½ ÑĨ
Ġpro xim
Ġla y
p et
ĠTer ra
Ġg rab
Ġjo int
or ÃŃa
ĠT ab
Ġweb site
ok rat
Ãłt iques
ĠBra zil
ĠDesp ite
ĠD in
Ġgra ph
d ienst
Ġh otel
Ġcitiz ens
Ð¸ÑģÑĤ Ð¾Ð²
quart ers
Ġobert ures
ĠL incoln
ĠÐļ ÑĢÐ°Ñģ
Imper i
Ġcomp ut
Ġmar it
ĠG rab
ĠÑģÐ¿ Ð¾ÑģÐ¾Ð±
k g
ĠB udd
ÑĢÐ¾ÑģÑĤ ÑĢÐ°Ð½
Ġact ually
pe z
Ġmunicip i
Ġcar s
Ġac ord
ĠÑĥ Ð³
Ġsuggest ed
ĠBes itz
ec cion
ĠdÃ©velopp ement
emeter y
Ġapar ec
pos iciÃ³
Ġequip ment
ĠÐº ÑĥÑĢ
w ith
Ġj am
ĠPr inc
on er
im et
Ġbur ied
ĠgÃ¨n ere
ru ch
Ġcent ro
Ġh al
Ð°Ð½ Ð¸Ð¹
ĠNach dem
ic l
ĠOt to
Ġalc anz
ĠÐ² ÑħÐ¾Ð´
ĠÃł rab
ĠN S
ent er
ĠGes ellschaft
w rit
ĠHe ad
Ġv ist
O ne
Ġun ion
Ġser ious
Ð¼ÐµÑĢ Ð¸ÐºÐ°Ð½
ÑĢÐ°ÑĤ ÑĮ
Ð² Ð¾Ð´
Ġexp la
Ġl uch
ĠÐ² ÐµÐ´
ĠG ed
" ).
R es
av or
ĠU s
Ġ 000
Ġthere fore
Ġcomun itat
adÃ¨m ia
Ġesc rib
Ġgir l
Ã¼ s
Ġsuc ce
ra ph
ul ated
ĠÑģÐ» Ð¾Ð²
S el
ĠX ina
3 00
Ġrencont re
ic Ãł
ĠFuÃŁ ball
Ġprimer os
Ġtrad iciÃ³
Ġresult ed
ops is
ÐµÐ² Ð°
Ġdistin ct
P olit
Ġd ance
ĠL ight
Ġap pr
Ġagre ement
Ġf ruit
Ã¯ ts
Ġdan ach
Ġveh icle
Ġp ied
ist ische
en h
Ġcomm unaut
Ġdam al
P r
Ġs ays
Ġi bn
Ġsistem es
us Ã¤tz
v ere
Ġbran ch
W ith
Ġfund ar
Ġch annel
ĠBar on
Ġh op
if fe
ĠÐ¿Ð¾Ð» Ð¾Ð¶
Ġre duc
ĠPhiladelph ia
ĠÐ± ÐµÐ»
ĠH ab
Ġphys ical
it age
if ik
ktion en
Ġund erstand
er er
ĠD ia
w ich
ĠtÃ© l
ĠÑģÑĤ Ð¾Ð»
ÐµÑģÑĤ ÑĮ
uer t
lem agne
Ġmayor ÃŃa
un tains
Ġv eter
Ġbr ill
ug g
Ã¡n dez
ĠÐ½Ð° Ð±
Ġb lood
he irat
Ġd oll
Ġcons iste
ĠÐ¸Ð½ ÑĤ
Ġmes ura
ĠTrans port
Ġpres ence
Ġli bert
Ġrecon oc
Ġbas es
bere ich
r Ã©e
ĠÐ²Ð¾Ð· ÑĢÐ°ÑģÑĤ
Ġnew ly
Ġcons c
Ġlli ure
et tes
Ġtra ins
Ġfa il
G u
Ġinner halb
Ġb osc
Ðº Ð¾Ð³Ð¾
Ġ7 6
Ð¶Ð´ Ð°Ð½
uest a
au ch
P lot
ĠÐ°Ð² ÑĤÐ¾Ð¼
ĠdÃ© jÃł
Ġlle i
st an
ĠGl as
uck y
Ġexc av
Ġfif th
igh ter
Ġsing er
f Ã¼r
Ġth ous
Ġat rib
Ġ188 9
ĠPak istan
em or
on ta
ĠW eiter
Ð¾Ð³Ð»Ð°Ñģ Ð½Ð¾
l ow
ĠÐļ Ð¾ÑĢ
Ġcomp lic
Ġpart ner
Ġpo em
Ð½ Ñİ
ĠK le
enc i
Ġce ux
Ġdesar roll
Ã į
Ġcomerc ials
Ġb Ãłs
0 7
E S
Ġlead ership
ĠM eth
w ohl
end em
Ġassoci ation
ag og
Ð ¦
Ġ Ã²
es es
ĠÑį Ð»ÐµÐºÑĤ
ĠOl ÃŃmp
Ġunt ers
ĠFrank furt
Ġdifer Ã¨ncia
Ð¸ÑĩÐµÑģÐº Ð¾Ðµ
ĠÑģÐ¾Ð² ÐµÑĢÑĪ
Ġb eteil
ĠÑģÑĤ Ð°ÑĤ
Ġimport Ãłncia
ĠA lemanya
ĠE th
Ġz eit
Ġ184 8
D ep
ĠÑģÐ¾ ÑħÑĢÐ°Ð½
Ġshow ed
unn el
ian es
ogrÃł fic
Ġcamb res
Ġmor al
ĠDis ney
Ġdar unter
ĠÐ¾ Ð·
200 5
ĠÐ¿ÑĢ Ð¾Ð±
ellig ence
ĠJ ur
C ont
Ġtreball s
Ġt ried
Ġhab ÃŃan
rie ges
ust on
ĠSch ule
ĠC ort
Ġwid ely
Ġcomp ris
ĠMill ionen
is iert
Ðŀ Ð±
el and
Ġf ille
Ġ6 1
ific at
est abl
S i
ĠL et
Ð¾Ð± ÑĢÐ°Ð¶
Ġar que
Ġcontin ues
Ġllib res
Ġint el
Ġt ing
ĠÑģÐ¾Ð± ÑģÑĤÐ²ÐµÐ½
ion a
ĠD ig
agn ie
ĠP rom
Ġs and
ol Ã³g
Ġinstr uments
m Ãªme
Ġcanv iar
Ð¾Ð² ÑĭÑħ
ĠÐ¸Ð· Ð¼ÐµÐ½
0 6
Ġh inaus
Ġcr ÃŃtica
ĠÑĤ Ð¸Ð¿
ress ion
Ġperm ett
ĠM Ã©s
Ġest o
Ð¸ÑĤÐµÐ» ÐµÐ¼
Ġorgan ized
ĠRepublic an
ĠE ss
Ġsitu Ã©
ĠS z
ĠM i
Ġk ept
Ġacomp any
Ġtit led
ens emble
str ument
tre m
Ġsign ifica
ell ung
Ð°Ð½ Ð¸Ñİ
il idad
ect s
im ed
ruc ciÃ³
Ġtemper atura
ĠCan al
ult an
ĠÐ¸Ð¼ ÐµÐ½Ð¸
ĠÃºn ica
k an
Ġw ant
Ġst ock
ĠU E
Ġcorre ct
ĠA gr
ern er
Ġremp orte
Ġf lag
Ñĭ Ð»
Ġ189 4
ĠG ord
ĠÐ¿ÑĢ Ð¸Ðº
alt y
Ġt ells
ĠG ut
ĠÐĽ ÐµÐ½
Ãºt bol
Ġdev ant
it ecte
Ġrel acions
te chn
esp ai
Ġexecut ive
amm ad
200 4
Ġim ag
Ġmon estir
Ġr ich
P aul
Ġfind et
Ġesc oll
Ġt omb
ĠSchw ar
ĠPrem i
Ġdr ama
Ġexp ected
ĠÑĤ Ð°Ð½
at te
Ġr um
Ã© pend
Ġcon quer
ĠA D
Ġcomp ared
Ġher o
Ġrepresent a
Ġpress ure
ĠcÃ´ tÃ©
à ¸
or er
Ã¼ st
c omm
Ġalg una
ĠTan mateix
or ient
arb eiter
Ð¼ Ð°ÑĤ
ĠAls o
ĠHeim at
ann i
Ġsch wer
Ġmuse um
ÐµÐ´ ÐµÑĢÐ°
ÐµÐ½ Ñģ
ĠAn other
ĠÐº Ð°Ð½
Ð¾Ñģ Ð¿
ĠEst ado
ĠE P
enc er
Ġmas cles
ĠSp ecial
Ġ189 2
ĠTer rit
enn t
Ġvol ta
ov ent
ag ner
Ġ188 5
Ġmasc ul
ran ger
Ġfem me
Ġbr and
Ġknow ledge
Ġmach ine
M orf
ĠC ruz
ad io
ĠÑĦ ÑĢÐ¾Ð½
Ġqu in
ĠÐ½Ðµ Ð±
el o
ĠtÃŃt ulo
wend ung
amil ton
Ġpl ate
ĠR et
Ġgr anted
ĠIn it
ĠB onn
Ġco de
ĠÐ¿ÑĢÐ¾ ÑĪ
ic at
ĠEn ts
Ġinc ident
Ġcondic ions
Ġerw Ã¤hn
Ġse arch
Ġconsider able
Ġph ase
Ġ189 1
qu in
Ġ ÑĢÐµÐ´
Ġdisc ipl
Ġs ogen
Ã¼h l
Ä ĥ
Ġn os
Ġllam ado
Ġoccur red
Ġad ministr
Ġfin ish
Ð¸ÑĤÐµÐ» Ñı
ĠÐ½Ðµ Ð³Ð¾
Ã± as
Ġp ueblo
Ġ188 8
ĠÐ¼Ð¾Ð¶ Ð½Ð¾
r us
b u
ĠÐ½Ðµ Ð·
ĠP rag
ĠSalv ador
Ġsol a
ĠMar s
Ġexpand ed
re ta
Ġh ar
ĠD un
w ater
Ġpass age
ĠBr and
b as
ĠK ab
ĠtÃ¨cn ica
Ġespany ol
Ġoff ers
t z
Ġext ract
ird s
iv as
ĠB ishop
ĠR hein
ĠBill board
Ġc ore
ĠSch n
ĠÐ¿ÐµÑĢÐ² ÑĭÐ¹
ond re
Ġfl ight
Ã² lic
ĠAquest es
Ġvilla ges
ĠM P
Ð» Ð¾Ð½
br ica
ĠFrances c
Ġin de
ĠÃ© conom
Ã©d Ã©
Ġrec erca
ab ord
ĠS ag
Ġcon qu
Ġfor ward
uest ra
ĠTemp le
ĠÑģÑĤÑĢÐ¾ Ð¸ÑĤÐµÐ»ÑĮ
ĠÑģÐ¾Ð¾ÑĤ Ð²ÐµÑĤ
ir ken
ĠF Ã¼hr
ÑĥÐ±Ð» Ð¸Ðº
univers itÃ©
Ġle aves
Ġmed al
ã Ĥ
ĠH oll
Ġg Ã©
ĠÐ½Ð°ÑģÐµÐ» ÐµÐ½Ð¸Ñı
Ġarrib a
ĠcrÃ© ation
Ġcon clus
Ġstell te
ind ust
Ġmach te
os is
ĠM iller
ach en
Ġcaus es
Ð½ Ð¸Ñĩ
Ġmat ern
Ã¨ d
pl ace
y ond
ast ers
ĠLeip zig
ĠD res
ĠPro ject
a ine
m ot
Ġd ific
lich keit
ĠBus iness
Ġtrasllad ar
B ar
Ġdimens ions
Ġcom ien
Ġdo ub
Ð¸Ñģ Ð¸Ð¼
Ġhabit antes
Ġl ange
0 4
ĠMan chester
at ta
al g
ĠE du
Ð¸Ð² Ð°ÐµÑĤ
Ġ8 8
Ġass ign
Ð°ÑĢÐ°ÐºÑĤ ÐµÑĢ
ĠB edeutung
ant iga
ĠR ichtung
Ġpers pect
s ol
ĠLe ist
Ġsuperfic ie
isc op
Ġan geb
ou vert
il en
ĠBer l
ĠÑģÑĤ ÑĥÐ´
Ġphot ograph
ĠJes Ãºs
Ġre ject
Ġqued a
an ie
Ġa uc
Ġdifer entes
Ġ188 1
Ġc ells
ĠÑģÐ²ÑıÐ· Ð¸
ÑģÐº Ð¸Ð¼Ð¸
aus s
Ġar mes
enc ies
Ġestim ated
Ġsow ohl
F il
Ãł d
Ġa th
ĠÐ½Ð° Ð¿Ð¸Ñģ
Ġen vi
gel egt
Ð¾Ð»Ð¾Ð³ Ð¸Ð¸
f iques
ĠR oute
ĠSam uel
Ġgre en
Ġt ierra
Ġvis ible
rid a
ĠW ieder
ĠÐ½ÐµÐ¼ ÐµÑĨ
Ġse ul
Ġpl ane
Ġcas o
Ġsal a
ĠPro f
ĠCap tain
ab lo
ÑĪ Ð¸Ð¼
ĠJer usalem
Ġbes onders
ir ks
ĠC uba
Ġm ise
Ġport es
Ġdistric te
Ã©ri que
Ġter rest
Ġcomp uter
Ġgre ater
act ions
Ġal one
Ġmention ed
ĠBer uf
iqu el
ens us
Ġrad ical
fer a
af Ã¼r
ĠVert rag
Ġ9 6
Ġtod as
im eter
id al
Ġfus ter
Ġha uria
ro qu
l ungs
Ġper ten
Ġcommun ities
ĠÐ²Ð¾Ñģ ÑģÑĤ
Ġter mes
Ã¶r m
Ġmod er
rit s
ĠSo und
enn es
Ġterrit ory
Ġa cht
ĠAss ist
ĠN ag
ĠÑįÐº Ð¾Ð½Ð¾Ð¼
Ġd im
Ġh y
Ġes cl
Ġact ing
Ġcolon ial
h ou
ĠÐ¸ÑģÐ¿ Ð¾Ð»Ð½
Ð¾Ð² Ð°Ð»Ð¸
ĠPri me
ĠPhil osoph
Ġw ing
Ġacadem ic
P art
un ion
Ġdern iÃ¨re
ĠF ire
C e
it os
ĠÑį ÑĤÐ°
ĠJap Ã³
ĠÐ¿ÑĢÐ¾Ð² Ð¾Ð´
Ġth ings
Ġide as
sch ied
Ġm ac
Ð² ÑĢÐ°Ñī
Ñĳ Ð²
ĠB ag
Ġbec omes
b est
reib ung
ĠL ok
Ġest as
Ġor g
Ġoffic ials
ubl ique
Ġrest rict
c ole
ĠÐº Ð²
ĠÐ´Ð² Ð¸Ð¶
ĠG Ã¼
ĠPol ish
Ġcap s
h ing
il ib
ĠL ag
rop ri
Ġrelig ion
eon ato
g aben
Ġpre ced
m or
Ġsp ons
est ar
Ġoper ating
ĠÑģÐ²Ð¾ Ð¸Ñħ
ĠBahn hof
Ġre for
ĠL is
ĠG ard
Ġ187 1
ĠT ai
ÐµÐ» Ð¾
Ġcons olid
ĠPol ice
v Ã©
O rig
be k
Ġ6 7
Ġc Ã¨l
ĠdifÃŃc il
Ġbe aucoup
ĠV enez
ĠÐ²Ñĭ Ð±
Ġgemeins am
la z
Ġsch rieb
im ientos
Ġeng ag
Ġcol le
ĠS ac
Ã ¥
Ġm ales
Ġmar qu
organ isation
Ġz udem
Ġteach er
Ġcrit ical
ĠTur k
Ã¤f ts
rop h
n ot
ĠÑĤ ÑĢÑĥÐ´
res se
Ã² ces
Ġdis app
ĠfrÃ¼ her
ÑģÑĤÐ² Ð¸Ð¸
ĠdÃ© fin
ĠDe utsche
Chr ist
Ġtod a
A ug
ari as
ĠÐ·Ð° ÑīÐ¸ÑĤ
Ġ Ã¤hn
ater ial
Ã¤s st
og o
Ġres c
ab hÃ¤ng
Ġrecuper ar
Ġb urn
il eg
Ġn obles
i ot
. ),
Ġcla ims
ĠP oint
p olit
Ġre duced
uer en
ĠZ ahl
Ġbis her
Ġg ep
Ð¾Ðº ÑĢÐ°ÑĤ
j oy
ie gel
ĠRe ial
Ġalgun as
ĠS ied
Ð¾Ð² ÑģÐºÐ¾Ð³Ð¾
Ġspr ing
Ã² d
v et
ĠÑĢÐ°Ð· ÑĢÐ°Ð±Ð¾ÑĤ
Ġn oble
ĠB ack
Ġown er
Ġrec ursos
Ġav anÃ§
Ġcens us
en ent
Ã² leg
ĠÐ¼ÑĥÐ·Ñĭ Ðº
Ġv ide
Ġp ack
Ġgeb oren
Ġcual quier
ĠC ad
ĠSteph en
âĢĿ .
0 1
Ġc ob
ĠÐ¿ Ð¾Ð½
Ġcult iv
uer do
20 13
S yn
Ġtrav aux
Ã¤ch lich
Ġpr inc
ispiel sweise
Ġsol ar
b urger
ĠMem orial
ĠScott ish
Ġvo ice
Ġgrow ing
Ġcre ation
Ġfeat uring
Ġpaint ing
ĠUnt ers
ĠMinist ry
och en
Ġm urs
Ñĥ ÑĤÐ°
Ġrec ol
ĠHer zog
Ġev angel
ĠÐ¿ Ð°Ð¼
Ġbo ught
ger icht
ĠSpr ing
ĠÐ´ ÐµÐ¿
ĠÐ¼ Ð¾Ð¼
ĠM uh
ÑĳÐ½ Ð½ÑĭÑħ
Ġp ion
ĠS ix
Ġref used
Ġfac ilit
it als
ak ed
Ġal ten
Ġad m
Ġs enz
Ġd og
Ġfact ors
in als
Ġreb el
ie v
Ì ģ
Ġ186 4
Ġsat isf
ĠÐ¿ÑĢÐ¾ ÐµÐºÑĤ
Ġob tained
ĠOt t
Ġdes con
Ġsuccess or
Ġattack s
ĠV ere
ĠÐ¿ÑĢÐµÐ´ÑģÑĤÐ°Ð² Ð»Ñı
Ġbest and
ĠhÃ¤uf ig
Ġcal cul
P ol
ĠWind ows
ÑĥÐ½ Ðº
ĠA uss
ĠAs ian
Ġnav al
ct r
Ġllu ita
ter ed
Ġresult ing
ĠN ev
Ġdispos it
ist ed
ĠF ont
emp resa
innes ota
id ors
ĠÑħ Ð¾ÑĤ
Ġso ftware
Ã©c n
ÑĥÑĤ ÑĮ
w ind
ĠMilit Ã¤r
em en
Ġcommun es
Ð´ ÐµÐ¹
ĠLeg isl
Ġch er
Europ e
Ġprov iding
Ġg ut
ĠTh ree
Ġinter ven
ing Ã¼
Ġgen re
ĠÐ¿Ð¾Ð· Ð²Ð¾Ð»
ĠBe at
Ġsh are
Bi ografÃŃa
Ġac res
ĠM es
ĠW ass
en as
ĠBe f
Ġmin er
ĠProv inz
ĠSc iences
Ġjap on
Ġab und
ĠRam on
Ġcann ot
ag it
Ġcomb ined
lec ciÃ³
Ġl anc
ĠÐ¸Ð¼Ðµ ÐµÑĤ
Ã§ al
Ġdam age
int o
eh m
Ġw ild
ĠÐ½Ð°Ñĩ Ð°Ð»ÑĮ
am an
Ġhand s
Ġus o
ĠA C
ĠH inter
Ġgr Ã¼ndete
Ġdiv ided
ĠÐº Ð°Ð·
ĠL t
Ġalbum s
Ġprem i
Ġcomun es
Ġdec re
Ã¤t igkeit
ac ia
Ġg ard
ĠH as
al u
D esp
Ġ188 6
Ġteach ing
rit z
ĠR ose
Ġtyp ically
ĠD ick
ĠEst a
ĠA ud
or ca
Ġejemp lo
Ġemp le
ĠÐ¾Ð¿ ÐµÑĢÐ°
wh ich
uc cess
Ġconsider ar
Ġhom bres
Ġfr ac
Ġinj ury
ash ion
ĠÐ¾Ñģ Ð½Ð¾Ð²Ð°Ð½
Ġpropiet at
Ġretir ar
Ġs etzte
ĠN ar
Ġdon cs
Ġre emp
ios a
Ġap rov
ĠR ap
temp s
Ð¸ÑĨ Ð°
Ġt ub
ĠÐºÐ¾Ð» Ð¸Ñĩ
ne w
Ġmal grat
ĠÐ»Ð¸ÑĪ ÑĮ
Ġorganiz ations
Ġrep et
ro d
ĠA G
L ou
ol er
Ġe ig
Ġbe vor
ĠÑģ Ð¾Ð¿
Ġpract ic
ĠTechn ology
Ġap ort
Ð°Ð½ ÑĮ
ĠStra ÃŁen
ĠG ott
Ġp air
ĠÑģÐ¾ ÑĨ
Car acter
U ne
Ġimport antes
ik al
Ġas es
alt re
Ġapar Ã¨ixer
uer a
ĠSta aten
ĠÐ½ Ð¸
ak ter
C arrera
Ġconfir med
Ġcent res
ÑģÑĤÐ¾Ñı Ñī
Ġm Ã¡
0 3
us iÃ³
ig keiten
Ġes a
Ġzu vor
c al
Ġp av
ĠSt at
ud ing
Ð¸ÑĤ Ð°
N ational
Ġam or
Ã¤us er
ĠPar a
Ġinternational e
esh ores
P C
Ġmen a
op her
ĠÐļ Ð¾Ð¼
ĠÐ¸ÑģÑĤÐ¾ÑĢ Ð¸Ð¸
ha upt
F l
fol ger
Ġv inc
Ġprob able
ĠSup reme
ĠI X
ĠMod ern
Ġ186 1
Ġvict Ã²ria
Ġtr ue
Ġ ic
Ġ Ã¶ff
ĠMÃ¨ xic
Ġl assen
Ġrad i
ĠEnter tainment
Ġdise ase
as ch
ĠÑĨ ÐµÐ»
Ġpur pose
ĠSe ver
ĠÐ±ÐµÑĢ ÐµÐ³
alt ung
Ð½ Ð°Ð¼
ĠM ission
Ġh yp
Ġbeg ins
Ġer Ã¶ffn
ruct ure
ĠR on
Ġih nen
Ð» Ð¸Ñı
ĠD DR
Ġdomin i
ĠEmper or
ĠG ust
ÑĪ Ð¸Ðµ
Ġ9 2
rif ten
Ġfin ales
oci aciÃ³
Ġ188 7
Ġremp lac
ĠSt r
ĠÐ· Ð°Ñı
D A
iss enschaften
Ġdes emb
id ers
ĠÐŃ ÑĤÐ¾
ĠÐ¾Ñĩ ÐµÐ½ÑĮ
Ð¾ÑĢÐ° Ð±
Ġmerc at
ĠFran cia
ch ter
ĠB aix
Ġconvirt iÃ³
ĠB h
Ġpat tern
ĠÐ±Ñĭ Ð²
Ġseg ur
roc arr
0 2
ĠÐ² Ð¾Ð¿
Ġresp ecte
d y
Ġj azz
Ġsie ben
Ġrespect ively
ĠWe ek
ific aciÃ³n
Ġpro va
Ġreg iÃ³n
Ð¾ÑĢ Ð¾Ð¼
ul ed
au teur
Ġtr enc
iel lement
im ately
Ðł Ð¾Ð´
Ġverschied ene
al ion
Ġm art
Ġg anz
Ã¼r t
Ġinstit utions
ĠK lass
ÐµÐ» Ð¸Ñĩ
Ġaff ili
ĠP ur
ĠcanÃ§ Ã³
Ġt and
p el
man ia
ĠBr uder
Ġse em
ĠF al
Ġident ified
Ġutilitz at
ĠR us
ĠvÃŃ de
ĠK y
t ario
z ogen
ĠÐ»Ð¸ÑĤ ÐµÑĢÐ°ÑĤ
ather ine
Ġste hen
ĠÐ³ÑĢÐ° ÑĦ
ĠHigh way
ĠF en
ma z
ĠÃ© x
Ġmodern a
Ġ Ãºs
ro om
Ġt aller
rit a
Ġconstruc ciÃ³n
itect ura
Ġste p
or de
Ġfon ts
Ġamb ient
Ġmot iu
ÃŃn sula
Ġreal itat
Ġrece ive
ille m
ri fic
Ðµ ÑģÑı
ĠR Ãºssia
arg ent
t ics
20 14
ĠDes ign
Ġ( âĢŀ
Ġcomm ittee
Ġy ards
ine a
Ð¸Ñģ Ð°
Ġro les
Ġart ific
ĠS C
ĠIt Ãłlia
M art
Ġseg Ãºn
). âĢĭ
Ġ9 8
Ġliter ature
Ð¸Ð½ Ð¾Ð¹
ĠSch Ã¼
Ġpap el
Ġabandon ar
Ġpersonn el
om o
ĠÐ¿ ÑıÑĤ
ĠÐ¿ÑĢ Ð¾Ð¼
Ð»Ðµ Ð¶
rest ling
Ġv eces
Ġpunt o
Ġapp e
Ġme ant
ĠÑĦ Ð°Ðº
ĠMo untain
Ġsom ething
od or
Ġperson atge
ob il
Ġint ers
ang le
Ġrom ans
Ġmatrim oni
s et
O t
ĠErn st
Ð³ Ð¾Ð´Ð°
Ð»Ð° ÑĪ
ĠMed ic
Ġver w
ĠH orn
E N
land e
Ġsurround ing
ĠÐ¡ ÑĢÐµÐ´
pt ion
Ã¼ss en
ĠConf eder
Ġpro ve
Ġpl ante
ac ial
Ġyoung er
Ġmilit ars
f ar
z ess
Ġsett led
Ġt Ã©r
ÐµÑĢ Ð¾
Ġseu lement
ĠTr ad
ow ski
Ġ188 4
j ek
Ġs ust
Ġm ine
Ġform ada
ÑĥÑĤ Ð±
Ġvoy age
Ð½Ñı Ñı
Ġmot iv
u ari
Ġcar a
ĠÑĩ ÐµÐ³Ð¾
Ġsign al
ĠÑĢÐµÐ·ÑĥÐ»ÑĮÑĤ Ð°ÑĤÐµ
hav er
M od
ĠÑĢÐµ Ð¶
st elle
ĠK ant
Ã¨n es
Ġproduc ciÃ³n
ĠBevÃ¶lker ung
ĠÐº Ð°Ð¿
ĠHow ard
Ġsitu Ã©e
Ġpat ri
Ġgo es
Ġh och
l on
Ð¾ÑĢ Ð¾Ð¶
Ġsch n
i ell
g y
Ġ186 5
Ġt ienen
it ness
ĠÐ²Ñĭ ÑħÐ¾Ð´
4 00
ĠÐº Ð½Ñı
ÐµÐ½ÑĤ Ð¾Ð²
Ġant ics
ĠÑĤÐµÑħ Ð½
Ġbro thers
km al
end ent
ĠR at
Ġgeh t
et on
ĠÐ·Ð°Ð¿ Ð°Ð´
o a
C ap
Ġs ap
Ġprincip ale
if en
Ġdin ast
ÐŁ ÑĢ
I V
Ġle it
iz in
Ġvert ical
Ġintent ar
Ġmil itaire
ĠL au
Ġth er
els on
ĠW ars
Ġcomp ost
Ġ6 9
Esc ola
Ġauthor ities
Ġsc oring
Ġ9 9
Ġpour s
Ġcomm ander
ĠFernse h
Ġj ue
Ge ography
ÐµÑģÑĤÐ²ÐµÐ½ Ð½Ð¾Ð¹
ul p
Ġ186 3
ol esc
Ġcanc er
emper ador
ĠÑĦÐ¸Ð»ÑĮ Ð¼
ÑĥÑģ Ð°
lich es
ore an
Ġstruct ures
Ġ186 2
ĠÐ°Ð² ÑĤÐ¾ÑĢ
ÑĢÐ°Ð½ÑĨ ÑĥÐ·
Ġlleg Ã³
Ġcas i
ĠMar io
ÑĥÐ½ Ð´
Ġlos ing
Ġarrest ed
Ġmiss ions
200 3
ĠÐ° ÐºÐ°Ð´ÐµÐ¼
Ġb ol
f red
Ð¸Ð¹ ÑģÐºÐ¾Ð³Ð¾
l ern
Ġpl ants
Ġfact or
Ã¨ ge
r ated
Ġpri est
ĠÑį Ð¿
' .
Ġfest iv
Ġw irk
Ð°Ð»ÑĮ Ð½ÑĭÐµ
ri o
Ġ7 8
Ġcont Ã©
Ġallow ing
ĠnÃ© cess
E t
ÐµÐ½ ÐºÐ¾
ĠÐ¸Ð½ ÑĤÐµÑĢ
Ã²r ica
Ġo ber
Ġrom ana
Ġlib rary
Ġimper ial
M P
ĠB ran
ĠSal z
Ġf ib
Ġse ek
Ġbe aut
ĠlÃŃ nea
D ur
ĠEr d
ĠAtlant ic
Ġfre qÃ¼
ĠE lement
Ġlaun ch
du es
Ġtra ffic
Ġcon ference
ĠÃ© quipe
O C
Ñģ Ñĥ
Ġdem anar
ĠP ad
Ġex port
ĠV ar
ĠCo oper
ĠBr ad
Ġ7 4
Ã³r m
gr and
ĠÐľ Ð¸Ñħ
Ã¡ b
riz ona
Ġs ets
ĠMan agement
Ġeigen e
Ġa up
Ġf ru
ĠT on
ĠC ass
rit te
aj es
Ġcr isis
Ġw or
z os
ĠÑģÐ¾Ð´ ÐµÑĢÐ¶
ĠÐ¿ÑĢ Ð¸Ñħ
pro du
Ġcual es
Ġsus pend
Ġciut ad
ĠHal b
ĠK os
Ġpoc s
Ġdes co
Ġc od
eg ung
Ġreturn ing
ĠL ors
ĠHar vard
ĠMar sh
ÐµÐ± ÑİÑĤ
Ġpred omin
al in
ĠM u
Ġpar liament
heirat et
ĠÐ¿ÑĢ Ð¸Ð·
Ð» Ñĥ
Ġth r
Ð¾Ð» Ð´
ĠSo zial
j u
ĠB our
ĠAir port
ĠMar kt
ĠÐ½Ð°ÑħÐ¾Ð´ Ð¸ÑĤÑģÑı
Ġanalys is
Ġm ÃŃn
Ð¸Ð½ ÑģÐºÐ¾Ð¹
Ãł riament
Ã¨ tic
ĠÃ©x ito
ĠÐºÐ¾ÑĢ Ð¿
pos ed
ĠB og
Ã¤ chen
Ġdifer ent
qÃ¼ est
es os
Ġgeneral ment
Ġmill ones
bour g
ĠH amilton
Ġaud ience
Ġvot es
Ġcust om
Ġdestac a
ĠM ort
n ant
im il
Ġ8 2
ĠFinal ment
Ð»ÐµÐ½ Ñĭ
Ġse hen
ĠÐ¿ÐµÑĢ ÐµÐ¿
Ġm om
ĠÐºÐ¾ÑĤÐ¾ÑĢ Ð¾Ð¼
ĠÐŁ ÑĢÐµ
Ġt ent
ĠÐ¼ Ð¸ÑĢÐ¾Ð²
Ġd ates
ĠverÃ¶ffentlich te
ant wort
et ta
ĠV as
ult at
Ġdis co
ĠE ric
ĠÃ¼ber w
Ġdesar rollo
iam i
ĠÐ²ÑĤÐ¾ÑĢ Ð¾Ð¹
Ġf iel
Ġallow s
Ġbe ispielsweise
ver tre
Ġsal v
Ġbe at
Ġ8 4
ĠMed ical
Ã¶ g
ĠN C
Ġpat ron
ic ide
Ġb ott
ĠR ing
Ġnombros os
Ġ188 2
Ġmed alla
Ġd oma
ÐµÑĤ ÑĮ
p ol
est ant
itÃ¤ ten
an as
Ġorgan itz
Ġto wer
Ġteil weise
ĠAust ria
Ð³Ð¾Ð´ Ñĥ
Ġf ets
off s
_ -
ĠJ ocs
it ten
Ð¸Ðº Ñĥ
Ð¸Ð· Ð¼
ĠÑģÑĤ Ð°Ð»Ð¸
ĠPat rick
Ġmort s
Ġch ose
ĠSch utz
Ġabsolv ierte
gun es
Ġcollabor ation
Ð¿ Ð°
Ġgovern ador
isc ons
Ġobt ient
Ġ7 7
Ġ186 8
ĠPro te
Ġprodu ctor
Ġa id
S on
ay er
ĠÐ¡ ÐµÐ²ÐµÑĢ
Ġ AR
ri me
Ġau jourd
ĠÐ·Ð°Ðº Ð»ÑİÑĩ
ĠÐ¾ÑĤÐº ÑĢÑĭÑĤ
ĠNap ole
Ð¿ Ð¸ÑģÐº
kt ions
it is
ĠAm Ã©rica
g art
Ġsch loss
Ġrecogn ized
oz ial
im mer
ĠÐ¿ÑĢÐµ Ð·Ð¸Ð´
Ġexpans ion
ik i
Ġro ll
w ill
olÃ²g ic
ĠK as
ar Ãł
if ique
Ġconne cted
Ġcomplet ely
Ġsucceed ed
. âĢĿ
v iÃ³
Ġvis ited
Ġis ol
un ciÃ³
ĠD C
in ent
Ġnecess ary
amer ican
ĠverÃ¶ffentlich t
Ġapp ara
Ġet was
Ġelect ron
ĠL en
Ġreport s
ĠF ut
ĠVer l
h at
Ġgu ix
ĠÐ¿ ÑĢÐµÐ¼
ett bew
Ġqu il
Ġesp Ã¨cie
ĠMag azine
Ġlo i
Ġdon ne
Ġlle ug
w Ã¼r
ĠO fic
Ġm ile
ĠLi bert
ĠR ib
Ġsemb l
ÐµÑĢÐ± ÑĥÑĢÐ³
Ã³ pez
Ġ186 7
Ð¸ Ð´Ð°
Ð°Ð½ Ñģ
Ġent itled
ĠSing ap
Ġmost rar
ĠAr mee
is p
ĠD est
Ġcapt ur
Ġnar rat
Ġprovin cia
ĠD ok
ÐµÑĢ Ð¸Ð¸
ĠÃ¶ sterreich
it i
ĠÐ²Ð½ ÑĥÑĤ
st att
eg u
ĠÑĩÐµÐ»Ð¾Ð²ÐµÐº Ð°
n ership
Ġpro ceed
Ġpat rim
ina ire
ĠS eiten
ad urch
ĠÐ¾Ð±ÑĢÐ°Ð· Ð¾Ð¼
Ġcar ta
ogrÃ¡ fica
Intern ational
ob en
ĠPos teriorment
Ġju ego
ĠÐº ÑĢÐµÑģÑĤ
Ġr ar
Ġcatal ana
Ġa kt
ic er
Ä «
ÑģÑĤ ÑĢ
Wh ile
âĢ ĺ
ÐµÐ¹ Ð½
Ġlli bert
Ġdah er
Ġerfolg reich
Ġtw ice
junt ament
Ġt ap
ĠÐ²Ñĭ Ð·
Ġmil ieu
Ar m
G er
ĠÑĤÑĭ ÑģÑıÑĩ
ĠÐ´Ð°Ð½ Ð½ÑĭÐ¼
Ġtw enty
Ġme isten
ÑĢÐ° Ð³
Ġsc Ã¨ne
Ġtem es
ĠÐ¸Ð³ ÑĢÐ¾Ðº
P ierre
Ġcl in
Ġapplic ation
Ġ qÃ¼est
ĠÐ·Ð° Ñħ
ĠÐ¾Ð´ Ð½Ð¾Ð¹
B orn
R el
Ġauf genommen
ĠÐ¿ÑĢÐµÐ´ Ð¿ÑĢ
Ġexp lo
Ġgar ant
Ġcr ÃŃtic
ĠÑģÐ¾Ð± Ð¾Ð¹
ĠÐ¾ÑĤÐ½Ð¾ Ñģ
ĠK ansas
Ġc af
ĠS ig
ĠDan ach
Ġze igt
Ġno te
enn y
Ġenc arreg
ar ta
ĠÐ²Ð¸Ð´ Ðµ
Ġapp lied
Ġl ider
ric ket
Ġfem mes
Ġful ly
ĠK orea
ĠImper ial
Ġ Ã¤
us ta
Ð¾Ñģ Ð»Ð°Ð²
Ġd ix
Ġpart i
ĠÐ¿ÑĢ Ð¾Ð¶
ze uge
Ġc atedral
Ġdirig ida
Ð°ÑĤÐµÐ» Ñı
Ġnach dem
Ġepis od
ab ad
Ġsoc ials
Ġen vol
ĠÑĥ ÐºÐ°Ð·
ĠIn form
Ġsl ight
Ð ¯
Ã¤ ischen
Ġm ental
200 2
ĠMo ore
ĠÐ¿ÐµÑĢ ÐµÑĪ
ĠS ic
Ġ illes
Ġref us
ĠH ugh
20 15
ĠGu y
Ã¤ he
Ġla do
Ġg ives
ĠT Ã¼r
Ġreg ister
Ġc Ãł
e a
Ġv ul
geh end
Ġentstand en
Ġcommunic ation
ĠÐ´ÑĢÑĥÐ³ Ð¸Ðµ
ĠT age
Ġlamp ister
at iques
Ġy our
ĠMel bourne
Ġacc ord
Ġpri mit
Ġfac ility
rel la
l ov
Ġcontempor ary
Ġg am
Ġ184 0
ĠfranzÃ¶s ischen
ĠÐ½ ÐµÐ¹
Ġall ÃŃ
Ð»ÐµÐ½ Ð°
on as
Ġfight ing
ĠAth let
h ors
Ð¾Ð¶Ð´ ÐµÐ½Ð¸Ñı
Ġpis os
Ġparticul ier
ag an
Ġar te
ĠCh a
ĠI de
Ð°ÑĤ Ð¸Ð²
ĠÐ¿Ð»Ð¾ ÑīÐ°Ð´
k ap
Ġlo an
Ġattack ed
Ġgleich en
ĠB ureau
Ġdist ingu
ĠCl ark
ac ent
Ġear th
b ruch
Ġp ais
ĠT ots
ĠÐº Ð¾ÑĢÐ°Ð±
im ar
ĠB ass
ĠB eng
Ð¾Ð» Ð¾Ð²
Ðĵ Ðµ
Ġ188 3
re ten
Ġa igÃ¼es
ĠÐ¿ÑĢÐ¸Ð½ Ð¸Ð¼
Ġsy nd
p at
y th
as te
Ġpolit ics
Ġjun ior
ĠDoug las
Ġst ars
Ġ7 3
Ġvers iÃ³n
ĠH ur
iss es
Ġrep ut
Ġ7 1
er ies
ĠÑĤ ÑĢÐµÐ½
ĠÐ¿ÑĢÐ¸Ð¼ ÐµÐ½
F ollowing
Ġgen utzt
ĠJes us
ÑĢÐ° Ð±
ÑĤ Ð¾Ð½
Ġj oves
fic ient
Ġdis min
ÃŃst icas
red edor
Ġprofess ionn
el mÃ¤ÃŁ
Ġcarb on
on io
Ġbro ke
Ġconc ret
Ġprovinc ial
Ã¼ ge
ĠL yn
ĠIs lands
f amil
ĠR Ã©p
ÃŃ os
ĠArbeit s
Ġmax imum
ĠC av
ĠI raq
ĠAr men
o ud
Ġ187 9
Ġaqu ella
ĠÑĤ Ð¾Ñĩ
ĠW es
ri ger
Ġs au
Ġbl ue
ast re
op ort
anc ing
Ġprom ov
ov o
og a
sp e
Ġc um
ĠStre cke
Ġs ides
th a
Ġwe ight
Ġcou le
Ġklein en
ĠÐ¶ Ð¸Ð·Ð½
Ġliber al
arb eiten
Ġentre pr
du a
Ġm ex
ĠSt Ã¤d
ĠÐ¾Ð´ Ð½Ð¸Ð¼
Ġlangu ages
Ġver te
ĠPolit iker
ita ires
ĠVal enc
ĠÑģ Ð¸Ð¼
ĠNav al
Ġmiemb ros
Ġd ut
ĠSt one
fl Ã¤che
Ġexist ing
g ica
Ã® le
ĠMunicip al
Ñģ Ð¾Ð½
Ġun able
Ġcinc o
ĠB lo
ĠEr folg
ĠN ich
ul i
Ġsim il
Ġhost ed
Ġh appen
ĠK Ã¼nstler
olog ist
Ġein igen
amp ton
Ġmar ked
ĠEsp any
Ġviel en
Ġg ed
ĠH arb
Ġinsp ired
iscons in
Ġconv oc
) :
O l
Ġpart idos
ĠAd emÃ¡s
ĠÐº ÑĢÐ°Ñģ
ÑĢÐ° Ðº
Ġ18 30
ro up
ĠF ore
ĠÑĢ Ð¾Ð»ÑĮ
ster dam
ĠFor ces
ĠCh air
Ãłn cies
Ġlong ue
Ġk amen
Ġpos te
Ġprov es
hed ral
Ġser Ãł
Ġscient ific
in us
Ġfuer a
Will iam
Ġ187 8
ĠÑģÐ¿ÐµÑĨ Ð¸Ð°Ð»ÑĮ
ĠVer kehr
Ġattempt ed
ĠcanÃ§ ons
Ġm enc
ĠEr sten
Ġsecond ary
k ur
Ġ9 3
Ġedific is
Ġaff ect
qu en
ran o
Ġ187 2
g em
Ġeinz el
Ġw inner
Ġrestaur ants
ĠB ron
ac ement
a ient
Ð°ÑĤÐµÐ» ÐµÐ¹
Ġxar xa
be i
ĠÐ° Ð¼ÐµÑĢÐ¸ÐºÐ°Ð½
Ġch osen
In ter
Ġcan vis
Ġreview s
ĠItal ien
ĠindÃºst ria
Ġcre ating
ĠP sych
200 1
Ġt ener
ant er
ĠPac ÃŃfic
ĠspÃ©c ial
H i
e es
ĠBeg riff
Ġgrand s
ian Ã§a
Ġaura it
ĠB urn
ĠRel ig
Ġll ig
Ġ187 6
ĠC ra
Ġgener als
Ġc ependant
Ob serv
ĠMiss ouri
ess ions
ĠPr incip
Ġdem ol
ÑģÐº Ð¾
Ã²ces i
ĠB rian
ĠÑĥ Ð·
rol le
Ġr isk
Ġmuj eres
Morf ologia
ran ken
ĠFran co
Ġimport ance
d ers
Ġqu ÃŃmica
Ġmix ed
Ġm ida
Ġdis m
ĠGe f
ĠÐļ Ð°Ð·
Ġsub t
Ġsil ver
ĠH av
T S
ĠÐ´ Ð¾Ð¿
ĠÐ°ÑĢ ÑĤ
Ġcri me
ĠEv angel
Ġre ina
Ð»ÐµÐ½ Ð¸Ð¸
ÑĦ ÐµÑĢ
Ġfund ing
ĠT her
in th
Ġsp lit
Ġesp ai
Ġfrances os
ĠJew s
ot ion
om i
Ġviol ence
ĠLiter atur
Î ½
ĠÐ¼Ð°ÑĤ ÐµÑĢ
i Ã©e
Ġe u
oss ible
ĠCommun ity
ĠL auf
ĠÐĲ Ð»
Ð°ÑģÑĤ Ñĭ
ĠdÃ©c ada
ikan ischen
Ġir reg
ĠN ow
Ã¡ m
ĠDur ante
Ġern annt
Å ¾
ĠE ra
and ro
Ġs Ã²l
Ġl Ãł
ĠÐ¿Ð¾ÑģÑĤ ÑĥÐ¿
Ġde ven
st ra
Ġsu it
ĠSt adium
Ġw ear
ĠRep resent
sp ect
Ġproyect o
ĠCh annel
le ben
Ġcompos iciÃ³
ĠR Ã©
ĠCol orado
ic y
Ġrepro du
Ġn Ã¤ch
Ð½ Ð°ÑĢ
Ġ186 6
ch ar
Ð°Ð½ Ð³
uc ion
Ġarchitect ure
Ð¾ÑĤ Ð¸Ð²
esse e
Ã©ta it
ĠWh it
Ġzw ar
Ġf ish
Ġil leg
ĠCon ne
Ġcomp onents
Ġcr uc
Ġconoc ido
r ison
Ġn aciÃ³
ĠF arm
Ġke hrte
ĠJ ag
i ated
ÑĢÐ° Ñħ
ĠEr w
ĠÑģÐ¾ÑĤ ÑĢÑĥÐ´
ĠÐ¾Ð¿ Ð¸Ñģ
Ġvol ume
Ġs ot
ad r
T ra
v ant
ĠL Ã³pez
Ã¼r z
Ġerre icht
est ellt
Ġcri minal
ÑıÐ± ÑĢÐµ
Ãł nd
ver band
Ġbar re
oy a
Ġpara ula
xim adament
Î ¹
Ġpor que
ad ron
ĠÐ´Ð° Ð¶Ðµ
Ġes qu
Ġdist int
Ġocc ident
R C
Ġsimp lement
ĠF ree
Ġport ion
Ġw issenschaft
h arm
Ġm ines
ĠLiber al
Ð¸Ð¼ Ð¾
ĠL iver
Ġd ient
Ġjam ais
Ġ187 5
ett i
B o
B er
ĠÐ°Ð² ÑĤ
Ġde utlich
ĠÐ» Ð¸Ñĩ
ĠÐ½Ð°Ð·Ð½Ð°Ñĩ ÐµÐ½
ĠÑĦ ÑĢÐ°Ð½ÑĨÑĥÐ·
ac u
ÑĨ Ð¾Ð²
ĠCo upe
ĠlÃŃn ies
ĠM innesota
Ġcateg oria
ĠN AS
Ġr Ã¶m
ma ge
Ġpap ers
Ġ187 4
b ank
ĠEar l
v erein
me isterschaft
Ð°Ð½ Ð³Ð»
Ð¾Ð² Ð°ÑĤÐµÐ»ÑĮ
ĠÑĢÐ° Ð±
Ġor b
Ġbl ess
B M
v oll
ÑıÑĤ ÑģÑı
Ġmo untain
Ġmec an
sch en
Ġbill ion
ĠÑĤÐµÑĩ ÐµÐ½Ð¸Ðµ
it as
ĠÐŁ Ð¾Ð»
ĠM ond
Ġchampionn at
Ġm orning
b ul
Ġreb u
H en
ur als
ke e
ĠAut or
fÃ¼hr er
ĠtÃ©r min
Ġfrequ ently
Ġoppos ed
we is
Ġm Ã¨re
Ġdo ctr
Ï Ĥ
Ġw es
Ġ8 7
Ġparall el
ject Ã²ria
Ġliv re
Ã¤n den
ĠAt t
ĠGab riel
Ġn am
S ince
d iv
il io
Ġfran ch
neh mer
Ġespec ÃŃfic
el ten
Ġbata ille
ĠÑģ Ð¸Ð»ÑĮ
ĠBerlin er
ÑĢÐµ ÑģÑģ
Ġconst a
I P
ĠAll en
u as
ent ment
Ġh ub
ok ing
ĠPol and
Ġar ms
Ġbefind en
Ġveloc itat
itz t
Ã¢ ge
Ġrelativ ely
ĠP S
ĠÐ± Ð¾ÐµÐ²
ĠÐ½Ð° ÑģÑĤÐ¾ÑıÑī
ĠÐ²ÑĭÐ¿ ÑĥÑģÐº
Ġoccup ied
Ð° ÑĦ
ĠB und
Ġpu esto
Ġer fol
Ġcon form
Ġatac ar
Ġ9 7
Ġterritor is
op old
Ġprodu it
iller y
ĠM iami
Ðº Ð²Ð¸
Ġgeh Ã¶ren
ieg end
Ġcom ent
Ġd ress
Ġse vent
Ġwo und
Å Ļ
Ġprod ueix
Ġw ahr
hist or
Ð° Ñī
Ġaut our
ĠM iquel
ĠP apa
ĠÐ½Ð°Ñĩ Ð°Ð»Ð°
ĠP i
il ia
to de
ĠÐ¿ ÑĢÐ°ÐºÑĤ
ĠFil ip
D P
Ġattemp ts
Ð³ Ð»Ð°Ð²
ĠR und
Ġbeg in
ĠStud io
Ġsub mar
ĠHon or
l les
Ġw inter
T er
for c
west ern
Ð¾Ð² Ð¸Ñĩ
Ġo v
ĠSt elle
Ġ187 3
Ãº r
geb Ã¤ude
Ġcours es
Ġc adre
Ġcompos ition
e u
Ġpie ce
il o
ĠHo uston
Ġmedian te
ic als
ress iÃ³
Ġmethod s
ign es
ordn ung
Ġsupp ly
Ġe ux
Ġd afÃ¼r
Ġ8 6
Ġ1 18
Ġa wards
Ð± ÑĥÑĢÐ³
im men
Ġdom estic
Ġest rat
Ġdrop ped
Ġs ino
J o
Ġnomin ated
Ãł mica
Ġchair man
er te
ĠAus bildung
Ġsel ecciÃ³
Ġpass en
bo x
ĠGi ov
Ġh ers
Ġj ac
2 50
Ġ11 0
Ġderro ta
Ġpar lament
Ã² ries
Ġjap ones
Ġs ale
al itÃ©
Ġ7 00
Ġdens ity
_ âĢŀ
Ġappro ved
Ġpunt os
ĠsÃ© lection
Ġtand is
Ġl iqu
ÑģÑı ÑĤ
Ġrecher che
Ġcom Ãº
ĠÑĢÐ°ÑģÐ¿ ÑĢÐ¾ÑģÑĤÑĢÐ°Ð½
f ecte
ĠTr uppen
ĠReg el
Ġinc end
Ġgerm ans
ĠW irtschafts
Ġhe irat
ĠPa ÃŃs
ĠStud ies
ÑģÑĤ ÑĢÐ¾
Ġgew esen
ĠFamil ien
ĠÐ¼ Ð°Ñģ
out s
Ã¤ cht
adas c
ir en
ĠSp ace
Ġmar que
ĠA ch
ent in
Ð¾ ÐµÐ´Ð¸Ð½
os ter
Ġen fr
Ġer g
er land
Ġro s
Ġeffect ive
Ġachie ved
Ġsp ez
ĠÐ°Ð² Ð¸
ĠCount ry
Ã¼h le
f asst
lo yd
Ġaproxim adament
Ġcad ena
Ð¼ Ð¸Ð½
Ġr ules
Ġnombros es
ch ang
ĠÑĨÐµÑĢ ÐºÐ¾Ð²
Ġh ot
Ġant iga
Ġdem ande
am ar
ĠL anc
Ð°ÑĤ Ð¾Ð¼
ĠÐ¼ Ð°Ð³
Ġtrad u
ĠMay or
Ã²l ica
ian os
D av
ĠK or
Ġauthor ity
Ð¾Ñı Ð½
Ġro of
ĠSt art
Â» ),
Ġsubsequ ent
Ġepis odes
ĠhÃ¶ ch
end orf
se y
Ġampl i
ĠÑģÐ¼ÐµÑĢ ÑĤÐ¸
Ġpar mi
eg as
Ġgr ade
Ġenem y
Ġaf irm
Ġh ores
Ġextens ive
Ġc ere
ĠGr up
reg on
z ant
en burg
Ġfunc ions
ĠÐĲÐ½ Ð´
Ġb in
anc o
Ġ9 1
ÑĢÐ°ÑĤ Ð¸Ð²
um m
Ġaqu ells
ĠT ras
ĠÐ³ Ð¾Ð²Ð¾ÑĢ
O ther
Ġrec or
Ġincl u
enden cia
Ġrejo int
Ãª que
ĠOn tario
Ġhabit ual
Ã¶ ll
ĠMus lim
ĠW y
ĠComm and
Ġam en
Ġs n
ĠrÃłpid ament
Ġdef end
un i
Aquest a
oll ar
Ġloc omot
Ġpass ant
wh ile
z z
N C
Ġg uns
olog ique
Ġim ages
ĠAd olf
d ess
ã ģ
Ġact ors
ĠI b
wer ke
Ġgro ss
c ont
ĠSqu are
Ġt Ã©cn
Ġneg ot
Ġseny or
ĠT yp
âĢľ )
ĠÑģÐµÐ¼ ÑĮÐµ
Ġa ta
H ol
Ġ8 1
Ġpat ients
Ġll ac
Ġprom oc
Ġmouv ement
ĠJ am
Ġfa ir
ĠT Ã©
ĠNach folger
ist ol
Ġtrad uc
ĠÐ¼ÐµÐ¶Ð´ ÑĥÐ½Ð°ÑĢÐ¾Ð´
Ġsaf ety
ĠK rit
Ġident if
C omm
E ine
Ġpar es
ĠT u
organ itzaciÃ³
stand ing
ev in
Ġprop re
Ġgo bern
ĠÐ¿ÑĢ Ð¸Ð·Ð½
Ġsing les
Ġass ess
Ġ187 7
Ġemploy ed
Ġend avant
ĠAlex and
Ġd ynast
gr enz
ad amente
Ġperform ing
Ġchans on
eg os
ĠAmer icans
le ist
iz es
Ġgovern or
w eit
Ġthe atre
Ġcommon ly
Ġen joy
Ġneed s
ĠSch l
Ġan ges
Ġesc oles
ĠMargar et
Ã³rm ula
u fer
Ġz erst
ĠÑħ Ð°ÑĢÐ°ÐºÑĤÐµÑĢ
up ts
Ð¾Ðº Ð°
west en
Ġsurt out
ĠB il
ĠConstant in
ĠÐ± Ð°Ð·
199 9
-- --
Ġbud get
ÃĢ frica
ĠKÃ¶nig s
ĠF inn
Ġr are
ap rÃ¨s
ĠOr chestra
ĠÐ¢Ð°Ðº Ð¶Ðµ
ĠÐŀ ÑĢ
Ġm ica
Ġon to
Ġconn u
ĠerwÃ¤hn t
O s
ix ent
ÑĭÑĪ Ð»ÐµÐ½
Ġlleng Ã¼es
n g
un is
iv amente
Ġre ven
up art
Ġdiv isions
Ð½ Ð´
ĠLux emb
end ar
Ġex change
199 0
ĠÐ´ Ð°Ð»ÑĮ
ĠK ampf
ĠÐ» ÐµÑģ
Ã©c ole
Ġfus ion
Ġest ats
ĠÐķ Ð³Ð¾
av era
esc ript
Ġlib ro
Ġadv anced
re te
Ġcap tain
Ġdi ari
Ġsc ript
ÃŃl ia
Ġoff iz
stell er
ĠGesch Ã¤fts
Ġbrit ann
ĠÑĢÐ° Ð´Ð¸
Ġca ig
Ġ186 9
ĠLa ge
activ itat
Ġkle ine
pr Ã¤sident
ÑĤ ÐµÐ½
ĠN ob
is ode
Ġt urb
ĠÐ¡Ð¾Ð² ÐµÑĤ
Ġc ement
ĠHer mann
Ġcast le
ĠÐ¼ Ð°Ð»
Ġent fern
Ġbo is
oc ated
l el
ip lin
ĠÑĢÐ° ÑģÑģ
Ġpass es
E m
ĠP ast
ĠH eb
ĠÐ·Ð°Ñı Ð²
Ġint Ã©
Ġfor men
Ġpl upart
cent ury
ri ka
ĠÐ¾ÑĤ Ñģ
Ġent orn
up es
Ãº l
Ġan schlieÃŁend
ativ o
ĠÐ³ÑĢÐ° Ð¶Ð´Ð°Ð½
sch utz
Ñĳ Ð·
ab et
ĠSie g
in ist
im port
Ġden n
Ġsub urb
row d
ir st
Ġsimp ly
ĠK az
Ð¾ÑĢ ÑĤÐ°
ari at
po int
ge geben
Ġau ÃŁerdem
v ens
Ġserv es
ĠC F
Ã©r al
Ġesc olar
or et
g emein
oss a
est on
d Ã³s
ÑĨ Ðµ
Ġesc ape
Ġ rib
Ġseg uretat
Ġo sc
ĠÐ² ÐµÑĢÑģ
ĠÐ´ Ð¾Ñĩ
ÐµÑĢ ÑĤÐ°
Ġofic ina
b t
u ing
eg al
Ġtr en
Ġpot ent
Ġk ommen
Ġbe end
Ġcop ies
ĠDre h
Ġmol ec
Ġre ial
ĠÐ²Ð¾Ð· Ð´
Ð°ÑĤÐµÐ» ÐµÐ¼
Ġpower ful
ĠJ ak
Ġpar fois
ĠAnd erson
ĠK re
Ġres ources
ĠprÃłct ica
y ard
ĠÐ´ ÐµÐ²
ĠB omb
Ġpro u
Ġass eg
ĠÑħ Ð¾Ð·ÑıÐ¹
ĠChar lot
ĠOri ental
ang o
Ġac uerdo
Ã¼t zen
ĠV i
M on
ĠK Ã¼
ĠP od
ĠCon stit
ĠPri ze
Ġf lood
Ġrece iving
Ġshort ly
m ic
Ï ģ
Ġmunicipal ity
Ġso ught
ĠSpiel er
ĠT rip
ĠÑĢÐ° ÑģÑĤ
ĠEin zel
Ġfin estra
ist ance
in ch
ĠN Ã¤he
ĠBroad way
ĠT ib
we ig
Ñį Ð¹
20 16
Å Ł
Ð¸ÑĩÐµÑģÐº Ð¸Ð¼
Ġwen ig
Ġhistor ic
for mer
Ġun iÃ³
Ġder e
Ġmeas ure
at ac
ĠÐ·Ð°Ð² Ð¾Ð´
Ġbas ketball
Ð»Ð° Ð³Ð¾Ð´
ĠSt il
Ġland s
n ame
ĠfÃŃs ica
ÑĢÐ°Ð½ Ð¸Ñĩ
ĠV iel
Ã¶t t
Ð¿Ð¸ÑģÐº Ð¾Ð¿
f est
Ġhum ana
Ð± Ðµ
Ġprem iÃ¨res
ĠT rop
ĠÑĤ Ð¾ÑĤ
Ġtre es
Ãºn ica
os ph
ograf ie
l ife
Ġp ic
Ð°ÑĨ Ð¸Ñİ
Ġback ground
ĠKÃ¶l n
Ġcomp lement
Ġed ad
Ġthe me
Ġb ow
ĠW W
if ul
âĤ ĥ
es ia
ĠÐ¡ Ð°Ð¼
Ð¸Ñħ ÑģÑı
Ġfl ow
Ġhead quarters
ĠÐ¿ÑĢÐ¾ ÑħÐ¾Ð´
Ġqu asi
Ġeconom y
ĠÐ²Ð¾Ð¿ ÑĢÐ¾Ñģ
. ).
x is
ĠAl guns
Ġdon at
ĠLand kreis
unt ed
Ãº p
Ã¯ ll
Ġle quel
Ġexpl or
ĠT ext
ĠV ik
Ġin vers
Ġestil o
Ġmat ter
ĠStud ios
ĠSt utt
Ġcomb ust
Ġelect r
Ġtit les
Ġajud ar
Ġc ogn
Ġde pos
Ġst rip
Ġcommission ed
ĠÑĢ Ð¾Ð¼
v re
ĠL eiter
Ġfr Ã¼h
Un ion
Ġmem ory
igh th
ĠDiv isiÃ³n
educ aciÃ³
ran a
Ġf uel
Ġord re
ĠAp p
inform aciÃ³
Ã ¦
uch en
Ġprodu z
Ġ8 9
Ġin m
Ġab ol
ĠE ig
amb re
Ġz usÃ¤tz
onn ement
ĠPl us
Ġih res
actual itat
Ġqu and
Ġjust ice
Ġconcep te
g as
Ġfo ught
Ġdirec teur
Ð²Ð¾Ð» Ñİ
Ġadministrat ive
Ġlearn ing
auc he
Ġ7 9
Ġexper ien
Ð´Ð° Ñĩ
Ð² Ð¾
Ġfac ed
k on
w esen
ĠK ons
Ġdirect ament
Ġfind s
ĠRaf ael
ĠÑĥÑģ Ð»Ð¾Ð²
al ie
ĠÃºn ic
ĠAb s
ap h
am mer
r ut
Ġw alls
Ġwrit e
Ġver heiratet
ĠÐĿ Ð¾
ĠÑģÑĤÑĢÐ° Ð½Ñĭ
ĠSund ay
Ġun iform
ĠGes amt
Ġcomp ens
Ġelect oral
Ġ8 3
Ġviat ge
Ġinic iat
i Ã©s
Ġtrib ut
k und
ĠD enn
Ġll ista
ĠB apt
Ñİ Ð¶
Ġcl oth
Ġfr Ã¨re
ein ander
Ġdistrib uciÃ³
Ġsom it
Ã© ma
onn es
Ġtract at
Ġerz iel
Ġch ois
ĠFre und
Ġincre ment
Ð¾ÑĢ Ð¾ÑĪ
Ġs alt
ĠL ow
E M
ĠÐ²Ð¾ ÑĪ
ĠR y
Ġdo ing
stre am
ĠPat ri
Ġtrob at
ĠRÃ©p ublique
Ġpro bl
ĠPer Ãº
ĠW isconsin
Ġbe yond
ful ly
Ø §
ĠSh ak
Ġterrit orial
Ġs enc
Ġmy th
uk i
Ġmom ents
ri ve
Ġequip s
Ġpe up
ĠÐĹ Ð°
Ġm aj
Ġcomand ament
w al
Ġd iente
ach s
Ġcontin ent
B as
Ġpet ite
ĠÐĴ ÐµÑĢÑħ
Ġso ul
ium s
Ġcre ixement
Ġein mal
rag Ã³
Ġda ily
Ã³n ica
Ġav oid
Ġexist ence
id ge
Ġdevelop ing
Ġend s
Ã¼ g
ĠEn s
T r
Ġdesc ub
Ġsig ne
Ġprot ot
ĠÑĢÐµÐ³ Ð¸Ð¾Ð½
object iu
Ð¾ÑĤ Ñĭ
Ġre ar
Ġle y
Ġgl ass
Ġactiv itat
ĠN az
ĠursprÃ¼n glich
Ġhers elf
Ġrec onna
Ġpap a
ur ance
Ġcontrib uted
ĠMet ropolit
bo ok
ĠOper a
ÑĥÐ±Ð» Ð¸ÐºÐ¸
Ð¸ÑĨ Ðµ
ĠdiffÃ©r ents
Ġreg iment
ĠGord on
Ġnav eg
Ġentwick elte
ÑģÑĤÐ² Ñĥ
ĠP ict
f ound
ĠÑĤ ÑĢÐµÑĤ
Ġl lic
Ġp age
Ġg ast
ĠÐ°Ð´ Ð¼Ð¸Ð½Ð¸ÑģÑĤ
Ġmuch o
ip les
ĠrÃ© fÃ©r
l u
Ãł rea
itÃ¤ ts
ĠÑģÑĤ Ð°Ð½Ð¾Ð²
Ġutil isÃ©
ĠN ether
Ġall iber
Ar ch
Ġmehr eren
ĠÑĦ ÑĥÑĤÐ±
Ġdarr er
ran e
Ġn ie
Ġconsider at
ĠAnton i
ĠE ing
ap or
be y
Ġcont acte
Ġletz te
Ġadv ant
Ġalleg ed
Ġb it
Ġconse qÃ¼Ã¨ncia
x i
ĠE ach
ĠB ush
ak u
ĠMe hr
la ir
Ġfund s
Ġperten ec
our ce
ĠÐ» ÐµÐ³
ĠK u
Ġceleb rar
Ġfav our
Ġgir ls
Ð¶ ÐµÐ½
Ġmult i
Ġl ob
Ġg ather
Ġlater als
Ġrefer ence
I r
ĠN eb
ĠU lt
ÑģÐº Ð¾ÑĢÐµ
ĠGr amm
ĠÐĽ Ñİ
ĠS ign
Ġsel ben
B I
ĠÐ·Ð° Ð´
enz o
Ġr ing
ilit ats
ĠÐ¿Ð°Ð¼ ÑıÑĤ
Ġhand elt
adÃ©m ie
Ð¸Ð² Ð°Ð»
ĠN i
ĠMit glieder
Ġgeb aut
b is
Ġest aban
ĠÐº Ð¸Ð½
etz ten
Ġintegr ada
ĠGe orges
ĠHer z
Ãłt ics
Ð¼ Ð¸ÑĤ
cl os
Ġsec onde
ri x
om ena
Ġquest ions
ĠOrgan isation
ĠP fl
iz ado
Ġmunt anya
ĠLiver pool
ĠCh or
ĠÑįÑĤ Ð¸Ñħ
ÑĢÐ°Ð· Ð´
ud io
Ġag ents
ĠHill s
at os
Ġin her
ĠW ein
Ġdi oc
Ġl ent
Ġens emble
ĠAr k
Ġinv ited
ĠP ok
C omp
unt ing
ĠÐ´ Ð¸ÑĢÐµ
Ġtr y
ĠA M
ÑģÐº Ð°
Ã ½
Ġllarg a
im ir
ĠÑģÐ²Ð¾ Ð¸
ĠDep art
ĠM ong
Ġinvestig ation
Ġr is
Ġocc as
r ades
ar ts
Ġesc ala
Ġanunc iar
l la
Ġport ray
_ âĢĶ
Ġchar ges
ĠFil ms
L C
Ġcompet ed
Ġconvert ed
ges ellschaft
Ġsh ared
Ġnar row
ic ular
Ġmet ros
ĠInd ones
Ġmes es
re h
we ight
Ð°Ð½ Ðµ
itect ure
Ġcan on
ĠS oci
ĠIn nen
Ã´ me
T P
D S
F Ã¼r
Ġr ent
Ġer klÃ¤r
ĠÐł ÐµÑģÐ¿
ĠTenn essee
Ġsal ut
ĠV ent
Ġstra ight
Ġh ired
Ð¸Ð¼ ÐµÐ½
ĠP ear
Ð¸Ð½ ÑģÐºÐ¸Ð¹
iÃ© nd
ĠOlymp ics
h is
Ġte at
Ġers ter
ĠDesp uÃ©s
ne e
Ġcy cl
Ġbe ide
et ten
ĠpaÃŃs es
Ġ ice
Ġla b
ĠespaÃ± ol
Ġan at
; _
ÐµÐ½ Ð³
Or gan
Ġcav all
Ġw ays
ĠJord an
Ġm estre
le i
ĠE j
Ġge k
Ġresult ats
Ġf alta
Ð¾Ð² ÑģÐºÐ¾Ð¹
ĠMar cel
Ġgr ie
ĠÑĥ Ð¼ÐµÑĢ
ĠÐ½Ð°Ñĩ Ð¸Ð½
ĠvÃŃ ct
Ġk athol
Ġre ally
Ġbelie ve
Ġwen iger
ĠBe k
ĠP ope
ĠÐ½Ðµ Ð¾Ð±
ĠÐ·Ð°Ð² ÐµÑĢÑĪ
uc ional
app y
aÃ± o
ĠCar n
ĠbritÃłn ics
Ġdire kt
ib ilitat
Ã§ ar
ĠAl an
ile y
Ġspe ech
b eh
f ten
ĠÐĲ Ð·
Ġarg ued
ĠreÃ§ oit
ov iÄĩ
Ġcom tat
im en
Ġestud io
ÐµÑģÐ¿ ÐµÑĩ
Ġult imately
elle ct
Ġtrob em
Ġsov iÃ¨
Ġo st
Ġdep loy
Ġsel ect
utt ing
ere ixen
Ġprov ed
Ġc ry
ro ck
Ġincl uso
ĠÐļ ÑĥÐ±
en berg
Seg Ãºn
rit e
ÑĢÑĥ ÐºÑĤ
Ġret irement
Q uan
ent liche
Ãłl isi
ĠNat ural
Ġme urt
Ġter re
Ġfoc used
Ġv aren
Ġsie mpre
Ð¸ÑĤ Ñĥ
Ġconstit ution
Ġlett ers
ĠW in
gen ce
Ġsuiv ante
ĠÐ²Ð¾Ñģ Ð¿
Ġt ree
Ġl Ã¤sst
ĠZ uge
I M
Ġwe alth
ĠOlymp ic
ĠZ um
ugu ay
ĠN iger
ĠÐºÐ¾Ð¼Ð°Ð½Ð´ Ñĭ
Ġej Ã©rcito
Ġhold s
ĠD ra
Ġparticip ants
ĠKenn edy
Ġ9 4
ĠHol y
Ġar b
Ġcl as
us ter
in ici
ĠP av
im b
Ġk on
p es
ĠÐ° Ðº
ĠChrist mas
ĠÐ±ÑĥÐ´ ÐµÑĤ
Ġdri ve
Ð² Ð°ÑĢÐ´
ĠâĢ ĭ
ac on
ĠtÃ©l Ã©v
Ġcomp il
ĠAd v
Ġsub stant
Ġmalalt ia
ĠG allery
stell ungen
Ġg od
Ġcirc ular
Ġth ir
Ġser ÃŃa
Ġaltern ative
l Ã¨s
Ġb arr
Ġfr Ã©qu
Ġp Ã¨r
Ð½Ð¾Ð² ÑĮ
ĠM ath
Ġ185 9
Ġpar rÃ²
Ġinflu enced
ĠÐ½ Ð¸Ðº
Ġpos teriors
ri ment
Ġfinal ement
Ġon es
ograph ic
Ġide al
Ð°Ð½ Ð¸
ĠMar e
ĠMary land
jÃ¤h rigen
Ð» Ñĭ
Ġcel a
ĠÑģÑĤÐ¾ÑĢÐ¾Ð½ Ñĭ
ĠdÃ© n
ÑĮ ÑıÐ½
Ġpol y
Ġpod ien
a ins
Ã« l
ĠT ig
Ġa z
Ġad op
ros oft
Ġesde ving
ĠÐ¾ÑĤ ÐºÐ°Ð·
Ġconstru Ã¯t
oss en
pf licht
ĠO m
j amin
iv ent
m ith
Ġw ohl
Ġent rance
Ġade qu
Ð½Ð°ÑĢ ÑĥÐ¶
ĠÐ´ ÑĢÐµÐ²
ĠEn cara
ĠCap it
Ġanc ien
Gener al
Ġs ched
Ã² metres
Ġprovoc ar
Ġplann ing
Ġun known
ĠJ ung
Ġpro ceso
Ġdesign ated
ĠAnth ony
Ġar cs
ÑĥÐ» ÑģÑı
ĠD ip
Lou is
Ġheirat ete
ĠC N
Ġsett ing
Ġamb os
Ġb acter
Ã¤l fte
ĠÐ²Ñĭ Ð¸Ð³
h ome
i op
Ġing res
an ch
as ta
Ġoffic es
Ġprof it
ĠcomenÃ§ ament
ÑĤ Ñĭ
Ġop p
Ġl ingÃ¼
Ġrec oll
ĠMiss iss
ru ktur
Ġt ons
Ġg esp
ĠNic ol
Ġcul min
ĠFr Ã¼h
Ġa ustral
ĠÃł mp
f le
ĠL ied
ĠW ell
c ome
ey er
ĠHarr is
p erson
ĠT ak
t ra
ĠB ry
Ġn erv
is or
Ġabandon ed
6 00
ĠD uc
ĠK raft
ĠeconÃ²m ica
Ġanne x
ĠÑĢÐ¾Ð´ Ð¸Ð»ÑģÑı
T o
ĠBrig ade
Ãłd io
Ã¡ lez
r ament
stre cke
ibli othe
med iate
Ġvaix ells
un ch
ĠCamp ionat
ĠC ependant
Ġdarr ere
ia ble
leg i
Ġv int
Ġp ages
Ġgra u
ĠÑģÐº Ð¾ÑĢ
ĠEx press
Ġl ies
ĠÐ¸Ð½ÑģÑĤÐ¸ÑĤ ÑĥÑĤ
Ġrec re
ĠW id
ĠsiÃ¨ ge
Ġv ision
Ġsuccessful ly
Ġha ut
Ñĩ Ð¸ÑĤ
ed ish
ĠMor gan
st ellen
Ġfound er
Ãį ndia
ĠC O
Ġan teriors
Ġes glÃ©sia
Ġill ustr
el ve
end ra
ag ar
Ð¸Ð± Ð¾Ð»ÐµÐµ
ĠFer din
ĠÐ¼Ð¾Ð½ Ð°ÑģÑĤÑĭ
Ġneut ral
ĠÐ¼Ð¾Ð¼ ÐµÐ½ÑĤ
Ġs ell
Ġpar la
Ġpublic at
ĠC ond
Ġcon tain
Ġseg ueix
Ġbl ind
Ð½Ðµ ÑĪ
ĠLt d
ĠSchweiz er
g enden
ĠE is
ĠÐ¾Ð±ÑĬ ÐµÐ´Ð¸Ð½
ul u
Ġw atch
eter re
ĠVilla ge
ĠD ipl
Ð¾Ð² ÑĭÐµ
ÐµÐº ÑĤÐ°
Ġsc enes
of ens
ĠD isc
Ġtorn a
Tamb Ã©
Ñĥ ÐµÑĤÑģÑı
ĠÐļ Ð¾Ð»
Ġcompos itor
ro b
eg te
Ġcul te
Ð¶Ð´ ÑĳÐ½
Ġun itat
ĠJan e
ĠSpiel en
Ġcomm enc
Ġfran qu
Ġcrit ics
Ġdi Ãł
ĠhistÃ² ric
ens iÃ³
Ġmes ures
Ġat mos
Ġcons ec
ĠWe hr
Ð¿ÑĢ Ð¸Ð¼ÐµÑĢ
Ġtr ying
Ġdef ense
ĠMosc ou
ĠÐ¾Ð± ÑĭÑĩ
Ġengine ering
ĠD ark
ĠÐ¿Ð¾ ÑįÑĤ
ĠWer ke
ob serv
Ġm erg
Ġexpress ed
ĠEisen bahn
Ġpie ces
z ehn
ac er
Al though
ĠMat hemat
ĠÐ½Ðµ Ñģ
ĠS icher
ĠInd iana
ann y
emeins chaft
Ġminer als
Ġmes ure
Ġnormal ment
le ep
ĠM aj
Ġsc iences
Ġsome one
ĠÐ´ ÐµÐ±ÑİÑĤ
Ġfield s
Ġneg re
ÑĢ Ð¾Ð»
Ġhold ing
ta h
ĠmÃ¨ tode
Ġla id
Ġcent uries
ĠMe ister
Ġman ip
ĠÐ´Ð² Ð¾ÑĢ
ĠR ick
Ġsec ciÃ³
Ġpen ÃŃnsula
Ġcomp t
Ġlors que
S ant
g han
T ot
v elles
Ð¾Ð² Ð¾Ð³Ð¾
Ġco us
o ise
ĠÐ´ Ð¸
ĠÐ¿ÑĢÐµÐ´ Ð»Ð¾Ð¶
ut or
al er
Ã© ch
ĠD iet
is ional
ĠN utz
od ge
Ġdoma ine
Ġman iÃ¨re
ĠRe y
ĠÑģÐ±Ð¾ÑĢ Ð½Ð¾Ð¹
Ġoper a
ĠGr ant
Ã¼s se
rol og
sen y
V ida
Ġim atges
Ġ185 7
Ġterritor io
Ġqu ot
gesch lossen
âĢĭ âĢĭ
Ã© b
ĠGr Ã¼ndung
par k
Ã ĸ
Ġconf igur
opp el
Ġrel aciÃ³n
Ġfin anz
arrib ada
we et
ĠR acing
ĠG ree
ÐµÐ½ Ð½Ð°Ñı
ĠVenez uela
ib en
Ph il
am os
Ġobject es
h us
Ġal eshores
Ġfinal mente
ĠprÃ©s ence
Ġcor ona
Ġmill ors
we alth
ĠprÃ©c Ã©d
rip ciÃ³n
Ġfrag ment
ĠUnivers al
ĠBl Ã¼
ĠFeder ation
Ġ ._
Ã² st
ĠÐ¡ Ð¿
ĠB ecause
Ġex ig
ĠÐ¼Ð¾Ð³ ÑĥÑĤ
199 8
Ġhe ard
ic ians
ades h
Ġentre v
Ġto ward
Ã²n im
Ġc adasc
is ant
Ġje unes
ĠcrÃ© Ã©
Ġt rig
ĠDep ort
Ġefect es
ĠÐ¿Ð¾Ð´ Ð¿Ð¸Ñģ
Ġclassific aciÃ³
Ġanc est
ĠTown ship
Ġstamm t
tem berg
Ð¸Ð½ Ð°Ð¼
Ġcamb io
Ġk il
ĠHaw ai
Ã³ d
Ġrecib iÃ³
os exual
ĠSeg Ãºn
ou ch
Ġrel le
pl an
ÑĢÐ¾ ÑĦ
ĠVer m
ĠSev illa
f an
Ġlater al
Ġsab er
ĠÐ´ Ð»Ð¸Ð½
E P
Ġ18 00
ĠQueens land
u ct
... ]
Ġcommunaut Ã©
Ġnou velles
ĠStud ien
Ġwel ches
Ã¤t ten
ĠMas ch
Ġs od
ĠG olf
Ġmed ios
ĠRe in
Ð°Ð´ Ñĭ
ĠÐ¿ÑĢÐ¸ Ð±
Ġcomp Ã©t
Ġpart nership
Ġasc end
Å Ħ
Ġrank ed
Ġbel ief
Ã¤nd ern
ug a
Ī Ĵ
Ġg ens
ec ution
if fer
Ġn arr
ete or
ĠÐ¾Ð± ÐµÑģÐ¿ÐµÑĩ
Ġfound ing
Ġat org
au en
Ġtrob ava
Ġcont ing
ĠW el
ier ta
Ġdam unt
Ġopportun ity
Ġesc ript
ĠBerl ÃŃn
ĠEle kt
Ġconc ed
ĠH op
che z
Ġseg uit
ĠdÃ©c ide
ĠrÃ©g ul
Ġla c
pr Ã¼
ĠS or
Ġcall s
Ġemp ez
ĠlÃŃ m
Ġconf ront
Ġexhib ition
ab y
Ġst ating
anc er
ĠÐ¾ÐºÐ¾Ð½Ñĩ Ð¸Ð»
ĠFl uss
Ġb ere
ĠH ockey
Ġtotal ment
Ġfund ada
Ġpress iÃ³
Ð¸Ðº Ð¾Ð¼
ĠpÃºblic o
Ġend ing
ĠP in
ĠSch wer
ĠMal grat
Ġcomm emor
ĠAm ong
S al
Ġview s
ĠP reis
Ġis la
Ġpro long
Ã® ne
ĠMilit ary
Ġemp has
Ġvir us
ĠEl is
oy en
An ton
ĠÑģÑĤ Ð°ÑĤÑĮ
ĠÐ¿ÐµÑĢÐ² Ð¾Ð¹
ĠPeters burg
am Ã¨rica
ĠGonz Ã¡lez
Ġenfr ent
ĠÐ¸Ð· Ð¾Ð±ÑĢÐ°Ð¶
Ġbef and
Ġt ier
d or
Ã¨ dia
Ġesc en
Ġcontin ua
ra ges
ĠSel bst
olog ischen
Ġneighbor hood
ra ham
ig lich
Ġparticip ation
Ġer r
u its
os ts
ĠRei he
8 00
ĠV ice
l ock
ĠEx per
ĠÃ¡ rea
ĠServ ices
Ðº ÑĥÑĢ
ĠK auf
Ġvic toire
ĠÐ½ÐµÐ± Ð¾Ð»ÑĮÑĪ
Ï Ħ
Ġt ar
ĠBow l
ĠS ri
Ġco bert
n ik
als ozial
ĠTor re
ac i
ie gen
Ñı ÐµÑĤ
ivers ary
A L
or io
ĠfÃł cil
Ġn ad
Ð¾ÑģÑĤ Ð¾
ĠStand ard
ĠAct ualment
Ġresist Ã¨ncia
Ġg all
as hi
ĠÑĦ Ð¸Ð·
heim er
Ġcons er
ÑĥÐ¼ Ð°
ĠMon ts
ĠI ron
Ġencuent ran
S itu
Ġbas ic
ĠGu inea
ĠÑĤ ÑĢÐµÐ±
ĠMex ican
Ġadqu iri
Ġweap ons
ĠÐ± ÑĢÐ°ÑĤ
ĠG eld
Ġsel ten
P al
ig ar
geb ung
D en
amer icana
ĠR ico
f ung
ĠK ont
Ġd ou
Ġcomp ta
A juntament
Ñĩ Ð¸Ñģ
Ġeng aged
Ġva g
ĠAl c
Ġrepresent aciÃ³
Ġsim ult
ign y
Ġpar l
Ġlleg ar
isse ur
Ð» ÐµÐ½Ð¸ÐµÐ¼
ad ow
Ġrec onst
ĠÐ¼ÐµÐ½ ÐµÐµ
Ġband s
ĠT at
qu ina
exist Ã¨ncia
Ġcult ures
Ġcomplet ament
Ġj ourn
Ġestable c
Ġfail ure
Ġh orse
ĠÐ¿ÑĢÐµ Ð¿Ð¾Ð´
l ules
ÑĢÐ° Ñĩ
Ġlocal idad
Ġeduc ated
ĠP iet
ĠÐ² Ð½Ð¾Ð²ÑĮ
Ġbest imm
ag ric
Ġs ogar
ĠÐĵ ÐµÑĢÐ¼
ĠÐ¿ÑĢÐµÐ´ ÑģÐµÐ´
ĠA rizona
ys e
ĠÑĪÐ¸ÑĢ Ð¾Ðº
In t
land a
h att
itz e
gl eterre
Ġconsist ed
i ria
Ġre forma
ĠSh ah
Ġfuer zas
er on
D an
Ġmiemb ro
ĠB od
ĠZ udem
Ġrecogn ition
ÑĢ Ð¸Ð²
Ġb apt
ĠS ierra
C amp
iz Ã³
Ġrevol ution
ĠDet roit
Ġjoue ur
ĠÐ¸Ð½ ÑĦÐ¾ÑĢÐ¼
se in
ĠJord i
Ð¸Ð¹ ÑģÐºÐ¸Ñħ
Ġdon nÃ©
Ð¼Ð¾ÑĤ ÑĢÑı
Ġm Ãºlt
ÑĢ Ñİ
ud is
b urn
ĠL igue
im ore
Ġincorpor ated
iv ity
ĠÃ© poque
ĠPri m
ĠÐ¿ÑĢÐ¸Ñħ Ð¾Ð´
and lung
Ġestablish ment
ing e
ĠPl at
Ġtechn ical
is ierung
ies e
ĠOl iver
Ġs ir
Ġf la
Ġam ic
Ġpr ince
j ud
ann ing
schlieÃŁ lich
Ġdetermin ed
ĠÃł lbum
ĠÐ· Ð°Ð»
ĠNether lands
Ġqu ite
ĠJo aqu
Ġemp reses
Ġdocument ary
Ġtor ne
U R
Ġcy cle
ĠF amily
ab ol
ĠFrank lin
Ġemer g
Ġest uvo
ĠS ow
Ġind em
Ġm ap
ĠA ber
ric al
Ġseu le
âĤ Ħ
Ð°Ð» Ð¸ÑģÑĤ
ĠÐ¾ÑĦÐ¸ÑĨ Ð¸Ð°Ð»ÑĮ
Ġdamal igen
ĠÑĢ Ð¾ÑģÑģ
E ducation
Ġcircum st
Ġarri ve
ĠConse il
- (
ĠC all
Â» ).
Ġold est
rupt ion
h aps
u age
qu al
ag ues
hy th
oy al
' m
ĠBay ern
Ġre asons
ĠÑĢÐ°Ð¹ Ð¾Ð½Ðµ
Ñĥ Ð»Ð¸
ĠIs a
ĠGir ona
Ġdes ert
gr en
ĠÃºlt ims
Ġheav ily
ĠÐ¾ Ñħ
ĠÐº ÑĢÐ¸ÑĤ
ĠÐ¿ÑĢÐ¸ ÑĪ
B r
ÑĢÐµ Ð·
olÃ²g ica
Ġfle et
ĠS n
ĠSk y
ual mente
ĠpolÃŃt ics
Ġb ald
ĠZ Ã¼r
Ġb iet
Ġvol unte
ĠIm m
Ġconne ction
Ð°Ð² Ð°Ð»
lah oma
ift ung
ĠÐ²Ð¿ ÐµÑĢÐ²ÑĭÐµ
ĠV ier
ras h
Ġcuer po
Ġorgan isation
eit ere
ĠTe ile
Ġllibert at
Ġb elles
mb H
rÃł lia
Ġmuch as
Ġconc ur
Ġn ut
ĠÑģÐ» Ð¾Ð¶
mir al
ĠrÃ© uss
ÐŁ ÐµÑĤ
Ã´ ne
Ġen fer
Ġre clam
ĠG leich
ĠO cean
im er
ĠBen ed
n os
it Ã¨
Ġas ist
ex trem
ĠItal ia
Ġdin ers
ĠamÃ©rica in
Ġpro tÃ©
Ġredu ce
ĠCult ural
Ġch ance
ĠDub lin
ĠSar ah
ĠAnd rÃ©
Ġt i
rÃ¤ ge
ĠSh ort
Ġunt erstÃ¼tz
rocarr il
W elt
ĠÐ¿ Ð°ÑĢÐ°
ĠÐ¼ Ð¸Ð½Ð¸ÑģÑĤ
Ġlie gen
ĠBru ce
ĠP ier
Ġfollow s
Ġro utes
ag h
ĠK orean
oc ation
Ġair port
ĠGiov anni
ist ry
ĠÐ¿ Ñģ
Ġpriv ileg
ĠÐ¸Ð· ÑĥÑĩ
D o
ĠÐ¿Ð¾ Ñħ
Ã©t ica
Ex Ã¨rcit
Ġdec ades
it ant
Ġver lor
Ġpos ible
Ġve Ã¯
ÃŃc ies
E T
Ġcap able
Ã¶s ung
ÐµÐ» Ñı
Ġlang ue
al iment
Ġbas eball
Univers itÃ©
b ischof
ĠM ak
ĠN orte
ĠÃ© m
Ġprop io
ĠWien er
ĠvÃŃde o
ĠÐ²ÑĭÐ¿ Ð¾Ð»Ð½
Ġcong reg
ĠE hren
Ġwe ak
ot ic
Ġinstall ed
ĠArb eiten
ÐµÐ½ Ð½ÑĭÐ¼
omp son
ĠprÃŃn cep
Ġmon uments
ĠrÃ©s eau
es querra
Ġpro l
Ð¸Ð» Ð»Ð¸
ĠÑĢÐ°Ñģ ÑģÐºÐ°Ð·
ĠSchÃ¼ ler
Ġt ab
ĠPart ido
ut ing
Ġst ellt
Ġcerta ines
Ġesc ult
Ġref uge
ĠCong rÃ©s
Ġa ument
ri ent
ub s
ĠÑĥÐ½Ð¸Ð²ÐµÑĢÑģÐ¸ÑĤ ÐµÑĤÐ°
Histor ique
st Ã¼ck
ĠÐ¾ÑĤÐ´ ÐµÐ»ÑĮ
Ġaccomp an
g ener
Ġro ugh
ĠR ÃŃo
ĠK urz
h on
Ġf ine
Ġpr en
eng ers
Ġnecess itat
Ġto c
Ġt um
ÐµÑĩ Ð°ÑĤ
in ta
ĠÐ¼ ÐµÑģÑı
Ġaut ors
Ġad olesc
ĠsÃ¼d lich
ĠM Ã¶glich
ÑģÐ¿ Ð¾ÑĢÑĤ
itz ats
Ġr ise
ipp i
Ġcap ÃŃt
Ġrep res
Ġcol abor
ĠDres den
it sch
Ġmat ar
ĠJ ay
ĠÐ¶Ð¸Ð·Ð½ ÑĮ
Ġcab o
Ġvor hand
hal f
Ġleg end
Ġapplic ations
ĠÑĤ Ð°Ð¼
Ġnum eros
Ġw ir
il igen
ĠK ath
Ġprom ote
ul Ã©
Ġres igned
ÐµÐºÑĤ Ð¸Ð²
ĠM ul
que z
h ai
ĠBo ys
ĠI gn
Ã¤t zen
ĠCon stitution
Ġsac erd
ĠF ame
ĠP ablo
Ġcr ÃŃt
r ÃŃg
ĠUE FA
Ġex cl
Ġinter v
Ġacc ue
Ġm adre
era us
ĠPh ill
ĠDiv isiÃ³
Ġv ale
ĠÑĤ ÑĢÑĳÑħ
Ð°Ð´ Ð»ÐµÐ¶
Ġc ossos
Ġpre ocup
Ġeduc ational
Ð» Ð°ÑĤ
Ġident ity
Ġinstit ution
Ġste el
Ġava ient
S I
ĠK il
Ġid i
Ġenvironment al
is o
Ġmain tained
ĠespÃ¨ ce
um er
ĠÐ´ ÐµÐ¼
Ġter rain
Ġsupport ing
k auf
ar ily
ĠS Ã¤
ÃŃg ens
Ġregard ing
Ġd ritten
Ġagr up
au ern
ck er
Ġconflic te
Ġdoll ars
Ġf asc
ĠÐ´Ð² Ðµ
Ġtrib us
Ġay ud
Ġprincip ios
ĠPu ig
Dur ante
ro se
Ġrapid ement
Ġse ats
ĠAu ÃŁen
ild et
Ġintern al
ĠÐ°Ð½ Ð³Ð»
ĠUn iÃ³n
Ġreg res
ĠCi udad
g Ã¼
ĠÑģÐ¿ Ð¾ÑĢÑĤ
ĠÐ° Ð»
ĠCap e
ĠW ort
Ġextens ion
Ġd ynam
ĠC ot
Ġpaint ings
Jahr hund
p orte
vel and
ĠPhilip pe
ÐµÐº ÑģÑĤ
ĠS ak
ĠM eer
ĠÃģ ngel
ĠÐ¿Ð°ÑĢÑĤ Ð¸Ð¸
Ġpas Ã³
hav ien
pos ta
et ra
Ġseg ment
Ġbas ada
Ġexper t
ug osl
ĠJap on
Ġcin emat
Ġprofes ional
ĠÑĢÐ° Ð²
temp or
Ġindepend Ã¨ncia
ĠÑĩ Ð°Ñģ
ĠSen ior
util itza
el ess
ĠS tern
Ð°Ð½ ÑĤÐ°
ges etzt
ĠÐ¸Ð½ Ð´
ĠÑģ Ð¾Ñģ
Ge ografÃŃa
Ġgan Ã³
r unde
Ġde term
ĠH in
p in
Ġ Ã¤l
men ys
Ð¸ÑĩÐµÑģÐº Ð¾Ð¼
ĠDem oc
Ġeb enso
n et
ĠD ach
Ġdist Ãłncia
ĠVerein igten
o en
ĠEl tern
h ung
Ġj Ã¼d
ĠbritÃłn ic
Ġj ut
che ll
Ġfin ishing
Ġtro upes
Ġbrit Ã¡n
Ġcolum n
ĠO ak
ĠLy on
ĠE ven
ros c
Ġst orm
ĠPal au
_ â
ĠA pro
ge ber
ĠNor weg
Ġliter ary
ĠL ot
ĠMil an
ĠÑį Ð½
ĠXIX áµī
Ġd iet
ĠRo berts
ĠLab our
ĠS es
ss on
E L
Ġmat hemat
op a
Ð¾Ð» Ð¸
Ð¾Ð¼ ÐµÑĤ
ĠRev iew
ĠR osa
ĠColomb ia
U C
p unk
Ġar ran
Ġproduc ing
Ġgrup os
ĠÐ± ÑĢÐ¾Ð½
ĠMar g
Ġn aix
ir Ãł
Ġcent en
Ġstar ts
ĠGust av
Ġg ru
tr ack
ĠMosc ow
Ã¼ll er
Ġsch war
Ġloc ations
ĠG et
Ġsh ape
ĠÐŁ Ð¾Ð´
Ġord res
ÑĢÐµ Ñģ
Ġmon aster
Ġeing e
ĠÐ¿ Ð¾ÑĢÑĤ
ĠAff airs
Ġper ill
ĠA rea
Ġmand at
indust rie
ĠÐ²Ñģ Ñĳ
ĠLe Ã³n
ip t
Ġsh ift
ĠÑĦ Ð¸Ð»
p ing
to ine
199 7
ĠFern Ã¡ndez
rÃŃg uez
Ġ15 00
Ġpara ules
198 0
Ġl if
g io
ener gia
Ġmin eral
U s
Ðŀ Ñģ
Ġin du
ect es
Syn opsis
ĠÃ©t ud
ĠSw eden
ĠH ell
ĠO regon
ĠÑĤ Ð¾ÑĢÐ³
Ġdip ut
ĠCommon wealth
Ġf ear
Ġad ults
Ġus ar
ĠAlt res
Ġl ux
ĠPar te
Ġpres Ã³
ĠSw edish
Ġra in
Ġvess ants
ur re
Ġdinast ia
J an
Ġsh all
Ġslight ly
Ġind ÃŃgen
ĠDon ald
ĠrÃ¨g im
ĠÐ¿ÑĢ Ð¾Ñģ
ĠÃ¼ber n
Ġn ort
Ã© o
ig ation
ĠJ orge
ĠGeneral itat
Ġrel ation
Ġinv asion
ĠÑĨ Ð²ÐµÑĤ
Ġg ene
ĠM ack
ill Ã©
fahr t
ĠC ec
Ġpr est
Ġcop y
ĠÐ½ÐµÐ¾Ð± ÑħÐ¾Ð´
el ier
ĠO scar
Ġ14 0
ĠÐ´Ð¾ÑģÑĤ Ð¸Ð³
ĠMatt hew
ĠSain te
Ġa Ãºn
ĠB ec
Ã² c
ist ique
Ġcamp o
Ġel lo
ĠMic rosoft
ĠÑĨÐµÑĢ ÐºÐ²Ð¸
ĠH ir
ĠV lad
ons e
ĠJun ta
Ġgener ation
Ġocc urs
Ġcon tained
ab ama
Ġindepend ence
f ab
Ġs osten
Ġimpro ve
P R
Ġcre at
ĠMart ÃŃn
Ġlie utenant
Ġps ic
Ġllat ÃŃ
li est
ĠÐ¸Ð³ ÑĢÑĭ
ĠMuh ammad
Ġpos se
Ġprec ip
ĠFreder ick
ĠMed al
ĠTok yo
Ġcons ell
ĠStutt gart
Ġ185 4
Ġabs orb
ÐµÐ½ Ð½Ð¾Ðµ
ĠProv ince
ĠK ings
Ð°Ð½ Ð´Ð°
Ðº Ð¸Ðµ
ĠÐĳ ÐµÑĢ
ĠUS S
Ġimp ossible
199 5
ĠSchla cht
Ġpr ice
Ġlin ks
ĠÐĴ Ð°Ñģ
Ġav ent
ĠRes erve
ĠSing h
Ġj Ã¼n
Ġdedic ar
Ġobserv ed
Ġllam ada
ov ert
ph y
Ġla ut
ĠSe attle
Ġh ockey
Ñĩ Ð¸Ð²
ĠÐ´ÐµÑĢÐµÐ² Ð½Ñı
g ow
d os
ĠD j
Ġstand ards
P at
ĠÐ¾ÑĤÐº ÑĢÑĭ
Ġpubli Ã©
Ġp owers
Ġv endre
Ġse igne
ĠÐ¾Ð´ Ð½Ð¾Ð³Ð¾
ĠL iv
Ġlleng u
S an
Ðµ Ñı
D F
at em
ĠA ge
ĠÐ¶ÐµÐ½Ñī Ð¸Ð½
Ġbehav ior
Ġpopul ations
mill ion
un sch
Ġw elt
ĠÐ¾Ð± Ð¾ÑĢÐ¾Ð½
Ġord ers
Ġcaus ing
Ġbesch Ã¤ft
n el
ĠÐ¾Ð± Ð½Ð°ÑĢÑĥÐ¶
uv ieron
Ġdomin ant
Ġal rededor
Ġpass ing
Ã¡ tica
ĠL ad
O ver
Ñģ Ð¸Ð¼
Ġsp ir
n ight
Ġaus gest
ĠPro jekt
ĠB uff
Ã¤ ger
hel ess
ĠJose f
st ar
Ġam ist
Ġfound ation
ĠOper ation
ĠpolÃŃt iques
w ise
ĠBro thers
ĠÐ¿ÑĢ Ð¾Ð¿
Ġinst ru
Ġpresent en
Ã²r nia
ĠMall orca
w all
ĠG riff
ex per
Ġsa int
ÐµÐ½ÑĤ Ð¾Ð¼
L ors
ĠÑģ Ð¾Ð·
ug es
ĠSer b
Ġf ashion
Ñģ ÑĮ
Ġg le
Ġbeg inn
ÐłÐ¾Ð´ Ð¸Ð»ÑģÑı
ĠÐ¿ÑĢÐ¸Ð½ Ð°Ð´Ð»ÐµÐ¶
ĠmÃł xim
Ð»Ð¸Ð¼ Ð¿
Ġtown s
Ġmusul mans
Ġg auche
Ġedific io
ĠC ow
Distrib ution
Ñĥ Ñį
ĠÐ£ÐºÑĢÐ° Ð¸Ð½Ñĭ
Ġesc ena
ĠRuss ell
ĠN elson
Ġdisp ute
Ġdesc ription
Ð¸ÑĢÐ¾Ð² Ð°ÑĤÑĮ
ĠÑĤ ÑĢÐ°Ð´
Ġfa ith
ÐµÑħ Ð°Ð½
Ð¼ ÐµÑĩ
Ġtra ined
Ð¸Ñī Ðµ
ÐµÐº Ñģ
Ġcla u
ĠTh en
ur f
Ġact s
Ġprincipal ement
ĠdiffÃ©r entes
esp ect
c omp
Ġig lesia
ĠL ike
ĠMc K
ab b
Ġneg ative
Ġqu ÃŃm
Ġz ul
Ġjud ge
ÑĤ Ñĥ
Ġvoll stÃ¤nd
ĠUnt erstÃ¼tz
ĠPÃ© rez
Ġdef ined
le id
Ġre ign
n Ã©e
ĠFerdin and
ĠL ast
if a
ĠB ald
ede ix
ĠB av
ut os
ĠÐ½ÐµÑģÐº Ð¾Ð»ÑĮ
ÑĮ Ð¸
ys te
Ġfe ud
amp a
Ġ12 5
Ġdid n
Ġclim ate
ĠTelev ision
ou red
ĠspÃ¤ter en
ar te
Ġh ohen
Ġy ellow
20 17
le ans
amp l
ĠSuper ior
ĠÃ©lect ions
Ġch ant
Ġf el
ĠH off
ig os
Ġprote cciÃ³
iscop al
ĠÑĢÐ°Ð± Ð¾Ñĩ
Ġinte g
ĠL eitung
Ġtract ament
Ġencont rar
in burgh
ĠQu Ã©
ĠS af
ĠR ain
Ġretro uve
ĠRod rÃŃguez
M en
Ãºlt im
Ġllind a
Ġterren y
or ben
ĠAn glaterra
ro du
Ġthre aten
ÃŃ ss
Ġpar ent
Ġreg elmÃ¤ÃŁ
Ġd ang
ank a
M L
ĠÐĿÐ¸Ðº Ð¾Ð»
ĠReg ierungs
t ag
ĠÐ¿ÑĢÐ¸Ð½ Ñı
p ers
enn ung
Ġ185 6
and al
ĠCont in
ĠV ern
Ã§ at
unic ations
ĠÑģÐ°Ð¼ Ð¾Ð»
ic is
ĠV org
ĠAb geordn
Ġemploy ees
fic o
Ð¸Ð± Ð»Ð¸
Ġhe ight
ĠÑģÐ¾ Ñİ
Ġdeclar ar
Ġcor rent
Ġ185 5
ĠÐ¼ Ð°ÑĪ
eb is
Ġag ed
Ġc able
Ġpolit ician
Ġm os
ĠÐ¡Ð¾Ð² ÐµÑĤÐ°
adu ate
ĠP ep
ĠSil ver
Ġvaria ble
ĠB uck
ĠT hr
Ġposs Ã¨de
Ġstri ke
la ger
Ġac cep
anz er
bar en
ĠS Ã£o
hol m
Ġmach en
Ġassass in
Ãł mb
Ã©d ition
ĠSt ad
ann ed
S ome
Ġun cle
H ar
ĠR yan
Ġpar cial
Ġter r
âĤ ģ
on at
Ġla ke
Ġser ait
Ð°Ð¼ Ð±
Ġp seud
Ġconc urs
ĠA BC
Ġel ekt
ĠG arden
na ire
s ec
ĠÑģ Ð½
ĠCh er
Ã©r er
ĠCla ude
ĠS achsen
ze ch
ip te
ctic ut
âĢ¦ ]
ĠP om
ism s
Ġindivid u
ha w
ĠG and
Ġher vor
Ġserv icio
Ġfl at
Ġalemany s
est ens
Ð¾Ð² Ð°Ð»Ð°
Ð» Ð¸Ðº
Ġl ance
Ġus u
as ka
Ð¸ÑĢÐ¾Ð²Ð°Ð½ Ð¸Ñı
ĠDa ily
c amp
Ġf Ã©d
h ivern
Ġbet rÃ¤
Ġniv ells
Ġimpro ved
ĠLaw rence
Ġhor iz
ĠÐ² ÑģÑĤÑĥÐ¿
Ã¨ que
ĠW alt
b rid
ĠS id
et ers
Ġpolit ischen
Ġequ ivalent
ĠÐ°Ð½ ÑĤ
ĠAss oci
Ġ185 8
Ġdo or
ĠBo x
ĠÑĪÐºÐ¾Ð» Ñĭ
ĠÑĤÐµ Ð¾ÑĢ
Ġc rowd
Ġestado unid
ĠVerb indung
ĠnÃ¶rd lich
ific ada
st ag
Ġterm ine
ĠÐ¿Ð¾Ð´ Ð³Ð¾ÑĤÐ¾Ð²
Ġp on
ĠN FL
ĠV ie
Ġsitu ated
f ers
Ġper ru
Ġmob il
ĠEngine ering
s eg
re ibt
Ã©c ur
ĠHerr schaft
Ġwicht ig
w asser
Ġh uit
Ġ10 1
Ġsix th
ĠÐ¸ Ñģ
M ich
Ġimmobili Ãłries
ĠG ang
Ġcho ice
ĠH Ã¤lfte
tre ten
anden burg
Ġbo at
Ġweiter hin
c Ã©e
ĠÑģ ÑĨÐµÐ½
ĠGr uppen
ĠÐ¾Ð±ÑĢÐ°Ð· Ð¾Ð²Ð°Ð½
ĠÑĩ ÐµÑĤ
Ġful les
tic as
reib en
ettbew erb
Ġo lymp
ĠF A
us k
ĠG mbH
ĠD ave
ĠH end
Ġcandid ates
ĠB achelor
ign ement
ĠBe zeichnung
ĠAtl anta
T op
ion e
Ã¤t ter
ĠÐ² Ð»Ð¸Ñı
Ġhom bre
M ic
Ġp ec
Ġinternational en
Ġirreg ular
Ġpos iciÃ³n
e ing
Ġab and
ĠJohn ny
Ġver z
ĠÐ´ ÑĥÑħ
ret t
Ġpolic ies
au ff
Ġ184 9
ĠRest aur
ers eits
ta ire
Ġm ud
ĠR ol
Ã¼ cht
Ġparticip aciÃ³
ĠN ative
ĠHe art
aff e
or age
ĠD NA
ĠAn schlieÃŁend
Ġal hora
ĠRe form
Ġcapt ure
ĠTh rough
Ġstat ement
Ġinterest s
Ġ Ã¤lt
ĠÑģÐ² Ð¾Ð±Ð¾Ð´
ĠÐ¼ Ð°ÑģÑĤ
Ġob rir
ten ir
ro wn
Ġne un
Ġfact ory
ĠJim my
Ð°Ð² Ð¸ÑģÐ¸Ð¼
ĠInfant ry
ĠTr ust
Ġw itness
ĠK elly
tes i
ĠW a
it aciÃ³
Ġb out
ĠUk raine
ĠLe y
ĠSpr ache
ĠAd ams
te ile
ig i
Ġde be
ĠD ak
ĠL Ã¶
Ġacc used
Ġkilom etres
Ġescrit a
ĠÑĦÐ°Ðº ÑĥÐ»ÑĮÑĤ
Ð»Ð°Ð³Ð¾Ð´ Ð°ÑĢÑı
Ġis rael
at ra
Ġvot ed
ĠD J
ĠB irm
id em
ĠV og
ĠÐº ÑĢÑĭ
Ġpre g
Ġval enc
Ġ185 1
Ġm ist
Ġfres h
h id
ĠDies es
Ð»Ðµ Ð³
Ġhum or
ĠEx ecutive
Ð°Ð» Ð¾Ð³
ĠK ern
ol t
Ġrel ief
ĠFin anz
ĠMont real
d ale
Ġcompos er
Ġmiss iÃ³
Ġaut o
Ġresist ance
Univers itÃ¤t
Ġmatch s
w irk
ĠfrÃ¼ hen
Ñı Ð²Ð»Ñı
D a
S ie
er i
Ġin gress
ition ally
Ġc aure
il de
ard a
Ġcom edy
ĠCar ib
Ġwoll te
o j
in fant
ul ate
ĠPos ition
ĠÃ©l u
Ð¸ÑĩÐµÑģÐº ÑĥÑİ
M I
Ġp ul
ĠH MS
Ġpolit iques
ĠOri ent
Ġso zial
Ġesc al
Ġn ac
ĠÐ²Ð¾Ð· Ð³Ð»Ð°Ð²
Ġsp ot
Ġpo eta
Ġkill ing
ĠÐ¾Ð±ÑĬ ÑıÐ²
c ional
ĠS oph
199 6
Ġrac ial
Ġaup rÃ¨s
id t
ĠÐ¿ Ð¾Ð»ÑĮÐ·
fÃ¼ ll
Ġpre de
Ġcollect ed
Ġt ingut
ĠCon st
ĠUnters uch
int endo
Ġper f
ĠTod ay
Distrib uciÃ³n
ĠRail road
Ð¾Ð» Ð½Ñı
ĠChar lie
ĠFore ign
me isterschaften
Ġbene f
arr ing
Ġint ellect
Ġexpress ion
ĠTai wan
Ġb rachte
iel ten
Ġri us
Ġf lex
og ne
ĠMar ina
gr ade
ĠBes uch
ĠLin ie
for men
Ð° ÑģÐ¿
ĠG oth
Ġdedic ada
P rem
Ġbus car
ĠK evin
Ġent ry
ĠPolit ik
ĠF u
Ġseny al
ĠVerwalt ungs
int ers
ĠPart i
ĠVert re
M ont
P our
it iÃ©
ĠÐ¾Ñģ ÑĥÑīÐµÑģÑĤÐ²
ĠÐ¸ÑĤ Ð¾Ð³
h m
ĠH ub
Ð°Ð½ Ð½ÑĭÐµ
Ġproper ties
ĠA maz
ĠÐĵ ÐµÑĢ
Ġofic ials
ĠS et
Ġeleg it
ĠÐ¿Ð¾Ñĩ ÑĤÐ¸
onne ur
Ġexpl ica
ĠfÃł brica
ĠCharlot te
Ġintro duction
Ð¾ Ñĥ
ĠAm sterdam
Ġju ven
Ġse ems
Ġpolic ia
ĠProv inc
Ġcarre us
an lage
Ġ18 12
opp ing
ĠDam it
Ð½ Ð¾Ð´
le iter
ĠB oden
uk a
Ġtelev isiÃ³n
ĠB eck
ap olis
Ġwh y
ĠRob inson
Aug ust
Ġv ue
Ġse is
ĠM Ã³n
ĠthÃ© Ã¢tre
Ġcerem ony
Ġb odies
Ġintro duc
Ġa Ã¯ll
Ġfit x
L and
oc ke
Ġposterior mente
Ġtas ca
Ġc ine
Ã¶ hn
ĠPal ace
ĠSh ar
ĠÃ© lev
Ã©r ature
olog ne
Ñģ Ð¾Ð½Ð°
ĠR ou
ida e
ÐµÑĢ ÑĮ
bez irk
ic ed
ste ad
ĠSta at
Ġvaix ell
ir ing
ÐµÑĢÐ° ÑĤÐ¾ÑĢ
Ġto car
Ð¸ÑĨ Ð¸Ð¾Ð½
Ġ185 2
g os
Ġp ues
st al
Ġcos ts
ĠÐĴ Ñģ
Ð¾ÑģÐ»ÐµÐ´ ÑģÑĤÐ²Ð¸Ð¸
ÐµÐ½ÑĤ Ñĭ
f un
Ġmuj er
ÑĢÐ¸ÑĤ Ð°Ð½
Ġvol c
Ġcl an
Ġfl ota
Ġsk ills
ĠMaur ice
ĠV ila
Ġb em
F ue
z es
Ġa ktiv
ĠV it
Ġex cess
re ck
ĠT ob
ĠD os
Ġsurv ived
Ġnom bres
ĠEd inburgh
ĠÑģÑĤ ÑĢÐµÐ»
Ġas se
use um
ĠBe fore
ĠÐºÐ¾Ð¼Ð¿ Ð¾Ð·
ĠFur ther
Ġprimer o
ĠÐ¿ÑĢÐ¾ Ð¸Ð·
ĠP ubl
Ġrec ip
Ġsing ing
Ġr ugby
ĠÐ· Ð¾Ð»Ð¾ÑĤ
Ġsyn th
ung sp
Ðĺ Ð·
ĠPit ts
f Ã¤h
Ġbus c
Ð¾Ð²Ð°Ð½Ð¸Ðµ Ð¼
Ġdec is
Ġfund ador
ĠTur m
ĠFir ma
un cia
Ġb ou
ĠÅ ł
Ã² ric
ĠOlymp ischen
Ġreun ir
ail and
Ġspecific ally
ĠÐºÐ°Ð¿ Ð¸ÑĤ
ĠÐ½ Ð¾Ñģ
ĠDe ath
199 2
Ġcomp agnie
Ġsu jet
ĠÐ³ÑĥÐ±ÐµÑĢÐ½ Ð¸Ð¸
Ġm Ã¨tres
ĠR oth
ÑĢÐµ Ð¶Ð´
Ġaspect s
Ġmess age
ĠtÃ¨cn iques
Ġpl ut
Ġmat Ã©ri
ĠWar ner
Ġvis ita
Ġjo ining
Ġentire ly
Ġpart is
ĠN BA
Ġent rada
Ġse ctions
ĠPro b
ier ungen
che l
ĠTr ump
ĠMo z
Ġb os
ĠÑģÐµÐ· Ð¾Ð½Ð°
Ġa w
ang en
ĠrÃ© v
ĠC onn
Ġland sc
ĠIndepend ent
ĠJ ar
ĠÑĢÐ°Ð· Ð´ÐµÐ»
ar x
Ġs ession
ĠPro zent
Ġpal ab
ĠBalt imore
ĠP rat
ĠLe opold
Ġrom andre
Ġa xe
Ġcontr Ã´le
g raf
ĠÐ± Ð»Ð¸Ð·
iz iert
ĠdÃ© put
ĠÐ» Ð¸ÑĨ
ĠÐ½Ðµ Ð¿
ĠBu ilding
ĠÐ² Ð»Ð°Ð´
Ġnot hing
ch os
osa ur
ten ciÃ³n
ĠSa x
Ġperru quer
rom os
ĠCh ampions
ĠY our
hatt an
iz ada
ĠY an
Ġhis p
ĠMit arbeiter
ĠBrook lyn
u in
che v
Ġallem and
ĠT ourn
ĠdÃ© ro
ĠAn schluss
R obert
el ine
ĠLie utenant
ĠTo ul
os ta
Ġcon taining
Ġsur vey
Ġtemper atures
Ġf antas
Ġ ich
Ð¸Ð¹ ÑģÐºÐ¸Ð¹
av y
ub les
ĠCom o
Ġg etting
ĠWal ker
ĠSqu adron
s eite
ĠÐ¿ÐµÑĢ ÐµÑģ
Ñģ Ð»ÑĥÐ¶
Ġs ah
ĠÐ²Ð¾Ð· Ð²ÑĢÐ°Ñī
ier enden
emble a
ĠTrib unal
Ð¾ÑĢ Ð²
Ġers che
Ġtras lad
ĠgrÃ¶ÃŁ ten
Ġmem Ã²ria
Ġnuc le
bet rieb
Ġb ate
ĠGu illem
S ec
o ires
ĠCro at
es i
ill ed
ĠAn al
ĠOl iv
Ġgroup es
Ġpoet ry
Ð¸Ð¼ Ð¸ÑĢ
ĠÑħÐ¾Ð´ Ðµ
at if
Caracter ÃŃstiques
Ġpres ents
Ġsat ell
ĠÑģÐµÐ» Ðµ
Ã³ w
Ġr uta
ĠBen jamin
b Ã¼
Ġgr ant
ĠStan ley
C rit
Ġo portun
ĠÑĢÐ°Ð· Ð¼
Ġpal au
ĠAd ministration
ĠK Ã¶rper
Ð¾ÑģÑĤ Ð°Ð²
Ġverb unden
b eg
Ġpublic aciÃ³
Ġath let
ĠSy mph
Ġh our
Ġpag ar
c ias
Ġd il
Ġsc ale
ĠSch ne
ĠÑįÑĤ Ð¸
ĠAuft rag
Ġe ix
Ð¾Ð» Ð³
ĠAb u
ĠAk ademie
Ġsuc c
199 1
Ġmot ius
ĠCent ro
Ġcorn er
Ġmunt anyes
unc iar
ĠAr ten
Ġus ers
ĠÐ¿Ð¾Ð» Ð¾Ð²
Ġband era
Ġger mana
Ġp ull
Ð¶ Ð¸
ĠC emetery
Ġprofess eur
Ð³ Ð¾ÑĢÐ¾Ð´
Ġcomplet a
Un ter
ĠÐ¿ÑĢÐ¾Ð± Ð»ÐµÐ¼
ÑĨ Ð¸ÐµÐ¹
ĠdÃ© part
Ġen ll
Ġal b
Ñİ ÑĢ
ma is
ĠÃ ¢
ĠÑĢÐµ Ðº
rich ten
i ellen
ĠR ow
ĠÐ± Ð¾Ñı
ĠHoch schule
ĠCle veland
ĠCar ter
G Ã©
ÐµÐ½ Ðµ
Ġfot ograf
Ġreligios a
g i
ik el
ĠC ada
ap ro
Ð¸Ð· Ð¼Ð°
ĠMar x
ĠÑĦ ÑĥÐ½Ðº
Ġfet a
ia b
em ark
og le
fass te
Ġpurch ase
ĠÐ·Ð°Ðº Ð¾Ð½
T ube
ĠG emeinden
Ġ3 50
ĠÐ¿ Ð¾Ð¶
ĠY outh
ĠCon vention
Ġmov iments
Ġcon sequ
Ġdirec te
ul in
im per
gel Ã¶st
ĠCu ando
Ġoper ate
ĠOlÃŃmp ics
Ġeng ines
ĠChild ren
Ñģ Ð¼
ĠF ot
ĠÐ¾Ð±Ð»Ð°ÑģÑĤ ÑĮ
Ġresid Ã¨ncia
Ġro se
lin ie
ĠBar ry
met ros
Ġcour ts
Ġcateg ories
Ġrul ed
ĠHand els
ĠW irk
ĠW right
ĠAb schluss
ĠSeg unda
ĠAl ice
Ġsort ida
ĠHug o
ÑĪ Ð¸ÑĢ
let on
Ġgradu ate
ĠN om
ĠÐ°Ð²ÑĤÐ¾Ð¼ Ð¾Ð±
omm od
ĠH unt
ĠÃł rees
o que
Ġtemper ature
ĠÐľÐ¾ÑģÐº Ð²Ðµ
ĠPr inz
ĠEurope a
Ġrealiz Ã³
ĠS atur
ĠTh Ã©
ĠSec urity
Ġdistric ts
ĠÃ Ĺ
Ġinst ruct
ĠÅĵuv re
b are
sch uss
Ġdescrib es
Ġsim pl
Ġthre at
ĠÐºÐ¾ÑĤÐ¾ÑĢ Ð¾Ðµ
Ġam ateur
Ġhi jos
Ġmob ile
Ġnombr ado
ar f
Ġdeb ate
ar et
Ġagricult ural
I mp
et ter
ia ge
re at
Ġcandid at
199 4
Ã¨n ia
Ġadv ance
Ġt ran
ling en
Ġ[ ...]
ĠÑģÑĭ Ð³ÑĢÐ°
ĠSong s
Ġmoy enne
ĠVinc ent
ĠF ro
ĠÐ± Ð¾ÑĢÑĮ
P re
Ġbomb ard
ĠEr geb
ĠM eg
Ġang lais
ĠI hre
ĠÐ² Ð°Ð¶
Ġd uty
ÑĭÐ² Ð°ÐµÑĤÑģÑı
Ġausge zeichnet
ĠB ir
ad ers
Ġcommer ce
Ġactu ar
Ġphilosoph y
ĠSt Ã¼ck
iz ant
Ġread ing
ĠÅĵuv res
Ġreach ing
ĠÑıÐ²Ð»Ñı ÑİÑĤÑģÑı
Ġev id
s burg
Ġn atal
Ð¾Ð· Ð°
Ġrepe ated
Ġregular ly
Ġconse il
ĠÐ¼Ð°ÑĤÑĩ Ðµ
ger y
Ġcall ing
Ãºs ica
Ġar med
ĠSp Ã¤ter
Ġear liest
c up
ort a
Ġpe Ã§a
ĠQ uer
ĠIn g
Ð°ÑĢ Ð¼
ĠmÃł xima
ĠHil fe
d r
Ġgl ob
el es
ĠÐµ ÑģÐ»Ð¸
ĠÑĩÐ°ÑģÑĤ Ð¾
ĠÃ©p ouse
Ðº Ñģ
an er
Ġcont rolled
y les
Ġrel ative
Ã¤nd ig
Ġsol ution
Ġdisc rimin
Ġdispon ible
Ġg ang
Ġot om
ĠÐºÐ° ÑĦ
ĠÐ´ÐµÑĤ ÐµÐ¹
as o
Ġk lass
ph a
w itz
ĠSer ra
Ġground s
Ġquart ier
Ġalc ohol
hom me
c or
Ġcons ac
Ġclos ely
ĠB eit
ĠB aden
Ġsol id
ĠEx pl
Ð°Ð½Ð¸Ðµ Ð¼
Ġcom arca
ain ed
ĠrÃ© d
ĠFe uer
Dav id
Ġwe ather
ĠÐĽ Ñĥ
ouv re
m acht
ĠV e
ĠTh ompson
ss a
Ġd ice
ac ias
ĠC inc
Ġconcl uded
Ġpant alla
Ġt els
Ġ18 15
ÑĨ Ð°Ð¼Ð¸
Ġmov imiento
P L
Ġl um
ĠÐ¾ ÑĨÐµÐ½
r ÃŃ
ĠÐ± Ð°Ð»
ik h
Ġtermin al
Ġjud icial
te gr
Ġreject ed
F inal
Ġsp ok
ĠEsp aÃ±
Ð¾Ð² ÑģÐºÐ¸Ð¹
Ġexp ect
Ġext end
ink ing
ĠTh or
Ð°Ð»ÑĮ Ð½Ð°Ñı
Ġclass ical
Ġjug adors
Ġderrot ar
m ers
Ġpod em
ĠI van
ĠÐ¼ Ð¸ÑĢ
ĠÑĤ Ð²Ð¾ÑĢ
Ġra z
ro chen
ul er
ud en
Ġconc ent
Ġsemb le
ĠmÃ© dec
ĠFun ktion
Ġc overs
L ater
Ġg ets
ĠÐĳ Ð¾Ð»ÑĮÑĪ
ĠÐ° Ð³
ĠMarsh all
Ġsecret ary
ĠP all
Ġr onda
ĠD allas
Ġcons ag
ĠCo ok
r ong
Ġhe lic
ĠÐ¡ Ð¾Ñİ
Ġdef ine
ur at
Ġbro wn
c id
Ġdirect ors
Ð» Ð¾Ðº
ĠÐ¿Ð¾Ñģ ÑĳÐ»
Ġviol ent
ĠÐ½ ÐµÐ²
Ġadvant age
r ents
ĠR ights
ust ria
Ã¼ss eld
ĠC it
Ã¼ l
ĠGeg ens
ĠD at
ell Ã³
Ġab st
ĠHer ren
Ġv ital
Ġre tre
ific ations
f al
Ġstand s
Ġbrit ischen
ĠHer bert
Ġlook ing
ĠÐ²Ð»Ð°ÑģÑĤ Ð¸
v iv
Ġf Ãºtbol
Ġcrit ique
ĠVorsitz ender
Ġad mir
Ġcont ingut
Ġcomm itted
ĠH amp
ĠÑģ ÑĬ
Ġcav aller
Ġo vers
Ġres posta
Ġaff ected
Ġw orth
pos es
Ġmain tain
Ġche val
k ret
ught ers
ĠdÃ©s ign
Ġrepresent ar
us st
ĠÐ± Ð¾Ð³
ĠÐ¿ÑĢÐ¾Ð¶ Ð¸Ð²
me z
Ġdi Ã²cesi
Ġag af
Ġacc us
ĠB enn
ĠV ideo
od ore
Ġhom me
ĠÐ±Ð¾Ð»ÑĮÑĪ Ðµ
% ),
Ġunivers al
Ac adÃ¨mia
ĠÐ³Ð¾Ð» Ð¾Ð²
Ã¶ ÃŁe
Ð¼ Ð¼
ere ur
ĠÐ¾Ð± ÑĥÑĩ
old s
Ġcanc iones
ĠcompaÃ± ÃŃa
Ġed ge
Ġwrit ers
arden al
Ġa ired
Ġmar ine
iss ue
Ġs ais
ĠNe ub
ĠD rag
Ġbr ut
ess es
Ġunivers itat
ĠF M
ĠMc G
ĠBa um
ĠSte wart
ĠDe ad
Ġc rid
lic k
ĠZ ust
Ġconstru it
Ġj oven
Ġ184 7
Ġacqu is
Ġconeix ement
ĠÐ°ÑĢÑħ Ð¸ÑĤ
Ġsur f
Ġr Ã¡p
ĠU C
St ar
ĠMur ray
ĠÐ·Ð°Ð¼ ÐµÑģÑĤ
J ac
ĠB ull
Ġchr on
ĠBul g
Ġinhab itants
Ġsched uled
ĠÑĢÑĥ Ð±
Ð² Ð¸Ð´
le hr
ĠrÃ©s ultats
Ġdistrib u
R S
Ġor bit
olog ische
we isen
ĠbÃ¢t iment
ĠC ensus
ay o
ĠAut hor
ĠAlex andre
Ġd ors
f und
Ġc elles
Ar gent
ag ers
esp ear
g ie
Ġap ost
Ġs ave
Ġsuiv ant
ite ur
ĠB uc
Ġpat ent
Ð¸Ðµ ÑģÑı
Ġcre c
Ġvo ie
Ġappel Ã©
ĠÐ¸Ð½ÑĤÐµÑĢ ÐµÑģ
ĠD oc
Ġin hib
go ing
Char les
H S
ĠÑĢÐ°Ð±Ð¾ÑĤ Ñĥ
Ġsel ection
Ġbeteil igt
Ġbrief ly
O per
ĠT ang
ĠÐ¸ Ð´Ðµ
Ġloc ales
Ġmin uts
ograp her
ĠÑģ ÑĥÐ¼
Ġ185 3
Ġeas ily
m ut
Ġneg oc
Ġresid ence
ĠCamp bell
Ġrest o
ford er
Re ception
ĠC amer
Ġg ust
Ġder ived
199 3
ĠM ind
ĠÐŁ Ð°Ð²
Ġm Ã¨t
ĠK ra
ĠÐ¾ÑĤ Ð²ÐµÑĤ
ĠT ier
ĠgÃ©nÃ©r alement
ĠF ins
Ġcre ada
ĠIs abel
Ġst a
Ġact es
Ġstat ue
ish ment
ĠÑĩÐµÐ¼Ð¿Ð¸Ð¾Ð½ Ð°ÑĤÐµ
Ð¾Ð² Ð¾
ĠCong o
Ġret rat
abl ed
c ell
man uel
Ġstand ing
aqu en
Ġh ielt
Ġcamp agne
ĠÑĤ ÑıÐ¶
ben e
ĠÑĥ Ðº
ĠBill y
ass es
Car riÃ¨re
Ġm Ã¼ssen
ĠfaÃ§ on
ĠSt ory
Ġaut onom
Ġshe ll
Ġg Ã²
ĠD ue
Ã©t Ã©s
M er
Ã¨ xit
ĠMr s
ĠOr th
Ġan z
Ġmod o
ĠConne cticut
ĠT res
Ġpr Ã©v
W er
Ġm ens
Ġcl erg
ĠMar ket
ges etz
Ġprincipal mente
Ġd ry
Ġcav al
h Ã©
ĠÃĸ ff
Ġbe ach
Ġbo ys
ĠN intendo
Ġpot ser
ĠKent ucky
ĠAle mania
Ð´ Ñĥ
Ġcomp ete
quest ra
Ġeff ic
ist ik
ĠH erst
for ce
Ġco orden
ex press
Ġacc ommod
is ons
Ġplan eta
ĠÑİ Ð¶
Ġann once
Ġentwick elt
Ġpl ot
Ã´t el
ĠDig ital
l ast
C ast
Ġpl ana
Ġregard ed
ĠV iol
op os
Ġmar xa
ĠVer fÃ¼g
ĠÑħ Ð¾ÑĢÐ¾ÑĪ
F e
enc iar
Ã³r rer
Ġcro wn
Ġcompr end
ĠGir l
iz ei
Ġres ign
Ġworld wide
Ġprote in
ling ton
Ġbes itzt
Ð¸ Ð¾
iet e
bor ough
t iques
Ġinter d
Ġmateix os
E E
Ġa igua
Ġres erve
ĠD ance
ĠMan hattan
Ġev ident
Ġir land
ĠMartÃŃ nez
viron ment
Ġ ut
ĠPri mer
Ġbild et
ĠDe an
Ġconsider ada
ĠÐ»Ñİ Ð´ÐµÐ¹
Ġind Ã©pend
Ġcollect ions
W Ã¤hrend
ĠÑģÐµÐ»ÑĮ ÑģÐ¾Ð²
f ur
ĠÐĲ ÑĦ
f ast
Ġ18 20
Ġdecor aciÃ³
J ul
red it
ĠH ern
Ġplan es
Ġoppos ite
Ġlearn ed
ÑĤ Ð¾Ð¶
Ġfor ta
ĠCh art
Ġs int
Ġvor a
Ġown ers
Ġvoc als
ĠG or
Ġvol um
ĠRena issance
V ers
Ġtrans ition
ÑİÐ¶ ÐµÑĤ
ĠW he
ĠGl obal
Ġp up
ĠHann over
Ġportug ues
Ġquil Ã²metres
ĠÐ¿Ð¾Ñģ Ð²
ĠPhilipp ines
ĠL ig
Ġge pr
v ious
ĠL uther
Ġmin ute
ÐŁ ÐµÑĢÐ²
ÑĢ Ð¸Ñģ
Ġact ress
ĠÐĲÑĢ Ð¼
ĠNik ol
Ã¤ch s
ĠW at
Ġrac ing
ÑģÑĤÑĢÑĥ Ðº
Ġv erein
Ð½Ð¾Ð² Ð°
ĠBl ues
Ġaf ric
Ġtw elve
Ġadj acent
ĠcÃ©l Ã¨
ĠForsch ungs
ĠRud olf
ĠTh ough
Ġpra ised
Ġled iglich
Ġethn ic
ĠÐ½ Ð¾Ð¼
lie ÃŁen
Ġprofess ionals
Ġdesign s
ĠH ere
ĠSil ber
Ġa k
ĠY am
il st
ĠD ere
. /
ĠE ag
Ġentsp rech
Ġm aje
Ðº Ð¾Ð½Ñĩ
Ġalt ura
ĠFried hof
ĠYou Tube
R et
oll s
Ã©c ut
Ġre leg
Ð¼ Ð¿
Ġmot ion
ro id
ĠÑģ ÐºÐ°Ð·
Ð¸Ð¼ Ð°
n om
Ġdec ir
Ð¾Ð½Ð° Ñĩ
ĠkÃ¶n n
Ġcaracter ÃŃstica
Ġan th
als o
Ġf rei
ĠQuÃ© bec
T ras
Ġre cl
Ġse min
Ġal to
rag ona
ÑĪ Ð°Ñı
Ġbusiness es
ĠÐ½ Ð¸Ð¼
ĠEin fluss
ĠÑĥÑĤ Ð²ÐµÑĢ
lÃ¤ ss
Ð°Ð²ÑĪ Ð¸Ð¹
Ġgood s
Ġtecn ologia
Ġc athol
Ġre cht
ĠdÃ©cl ar
ĠÐ¡ ÐµÑĢÐ³
Ġfun ctions
Ġw aters
Ġsocial es
Ġapp ropri
ÑĥÐ½ ÐºÑĤ
Ġf lying
ĠÐ² ÐµÑģ
Ġent w
Ð¾Ñĩ Ð½Ð¾
Ġfre edom
ĠÐ²Ð¾Ð· Ð½Ð¸Ðº
Ġcom una
Ġr ating
Ġcomp rar
ĠMississ ippi
re ment
ĠR un
Ġor ch
ĠÐ½Ð° ÑĥÐº
Ġhistor ian
Ġt ries
ĠC ann
ont al
ĠÑĥ ÐºÑĢÐ°
ĠMor ris
zw ischen
o or
Ġrecone ixement
ĠK opf
ĠÐĲ Ð±
Ġmerg ed
Ġit ems
j es
Ġbro ken
Ġlead s
Ġlli ures
Ġcharg ed
Ġto urs
Ã³r d
Ġparticul iÃ¨rement
Ġex Ã¨rcit
ĠÐ¶ Ð¸ÑĤÐµÐ»ÐµÐ¹
i ament
Ġcu art
V P
ĠA S
ĠL ane
ĠÑģÐ²Ð¾ Ñĳ
Ġinj ured
Ġf anden
Ġatte int
Ġac aba
Ġobject s
ĠQue bec
Ġpaint ed
ĠL av
Ð» Ð¾ÑģÑĮ
ĠFer r
Ġ ÃŃn
ĠH amm
Ġein fach
Ġcomand ant
el en
ren a
Ã ľ
Ġa ire
Ġacc ompl
ĠNic olas
ct ional
ĠG ur
anc ouver
ĠD Ã¼sseld
etz ungen
i ac
Ġro oms
ĠA er
ĠD og
ĠSh ang
ĠÐºÐ¾Ð¼Ð¿ Ð°Ð½Ð¸Ð¸
Ġa head
ĠSant o
ĠApro ximadament
ĠOr leans
Ġpublic ations
Ġasse z
ĠTh us
Ġpossib ly
f riend
v est
ver walt
ĠÐ³ÑĢÑĥÐ¿Ð¿ Ð°
Ðº Ð¸Ð½
ian te
gew iesen
c ing
f ather
g emeinde
Ġg are
Ġinterest ed
Ġmeille ur
Ġcomp onent
Ġzahl reichen
Ġ10 5
Ã¤n gen
Ġgu it
ĠÐłÐ¾ÑģÑģ Ð¸Ð¹ÑģÐºÐ¾Ð¹
U m
ĠcomenÃ§ Ãł
Ġcons pir
ĠÐ¿ÑĢÐ¾Ð¸Ð·Ð² ÐµÐ´
ĠT am
ĠÐ¿Ð¾ÑģÑĤ Ð¾ÑıÐ½
ĠÐ´ ÑĢ
Ġpat ir
197 0
ĠÐ¸ÑģÑĤ Ð¾Ñĩ
Ġregister ed
ĠV iv
Ġconstru Ã¯da
ĠÑĩÐ°ÑģÑĤ Ð½Ð¾ÑģÑĤÐ¸
ĠC zech
Ġper c
Ġhigh way
ĠÑģÐ¾ÑģÑĤÐ°Ð²Ð»Ñı ÐµÑĤ
Ġval ley
ĠÑĥÑĩ Ð¸Ð»Ð¸
ĠF itz
Ġvis itar
Ð½Ð°Ðº Ð¾Ð¼
ĠR ugby
Ġhi ja
act ive
Ġtext os
Ġ184 5
Ġdestru ction
w issenschaften
Ġeinz ige
] ,
ĠÑĥÑĩ Ñĳ
Ġgra ve
Ġarri val
rang ers
Ġf at
Ġf iction
ett y
P I
Ass ociaciÃ³
i ado
Ġmod erne
ĠMod el
ĠFI FA
r ender
Ġdon ant
ĠSh a
Åĵuv re
ÐĵÐµ Ð¾Ð³ÑĢÐ°ÑĦÐ¸Ñı
Ġn eb
ĠP reu
if orn
Ġb ater
ĠSold aten
at y
Ġcar rers
ĠMo on
le cht
Ġprogram ming
Ġe her
Ġjournal ist
v ideo
ĠFran c
En t
Ġwound ed
Ġst ores
Ġt am
Ġs elling
ÑĤ Ð°Ð»
il iar
ĠG ill
Ġre quer
ĠI hr
Ġad mitted
ĠÐĶ Ð»Ñı
ĠÐ® Ð¶
Ġprogram es
ĠÑģÐµÐ²ÐµÑĢ Ð¾
Ġ ort
ul la
Ġsoll ten
u aciÃ³
ĠKomm un
ĠGu adal
ĠTe atro
ĠAp ost
Ġrail road
H z
on ian
est es
ill os
ĠR um
ript ions
ĠÐ¾Ðº ÑĢÑĥÐ¶
Ã¨ st
fl ug
Ġbel egte
Ñı ÐµÑĤÑģÑı
Ġroad s
ĠCap ital
Ġdescob rir
ĠFel ip
on ge
Ġdam aged
ĠN ash
Ð¸Ñĩ Ð°
d s
enc s
Ġdev ice
ĠB M
ĠÑģÑĤÐ°Ð» Ð¾
es qu
Ġf ung
ĠÐ¿Ð¾Ð¿ ÑĥÐ»ÑıÑĢ
ĠÐ¿ÑĢÐ¾Ð² ÐµÐ´
ĠGra ham
en v
Ġref ers
ĠJ enn
Ġper ce
Ġdirec ciÃ³n
ĠR as
int ure
Ġem igr
w ho
ĠE mer
od os
ver g
Ġac id
Ġcontinu aciÃ³
ĠBat alla
z entrum
ĠG le
Ġra Ã³
ĠÐºÐ¾Ð½ Ñģ
ĠZÃ¼r ich
Ġw a
Ġinclou en
A ragÃ³
Ð¸Ñĩ ÑĤÐ¾Ð¶
Ġc up
Ġsign ar
ĠBarb ara
Ġin glÃ©s
ri ers
ĠÑģ Ð¾Ñĩ
M ed
Ġsac rific
Ġmus Ã©e
ĠK urt
Ġvol ia
r acy
Ġind ica
sche ch
Ġdeg ut
.âĢĭâĢĭ _
P os
Ġesc uela
ĠAf ghan
Ġleb te
ĠInstitut o
ĠC ry
ĠTrain ing
E A
ĠS A
er y
ĠB Ã¼h
ĠProdu ktion
or c
Ã¨ tre
Ð· Ð°Ð¿Ð°Ð´
Ġequ al
rÃ¤ fte
Ġpro port
itu als
Ġal te
Ġinter pr
ĠdÃ©f ense
Ġsur ve
Ġmarx ar
Ġn et
ĠA insi
hr t
Ġprotagon ista
or ph
l ets
Ġj ocs
ĠR och
ĠmÃºlt iples
Ġeditor ial
ĠÑĩÐ»ÐµÐ½ Ð¾Ð¼
Ġconeg uts
Ġpol n
Ġdel ay
leit ung
f orsch
ĠNor way
ĠÐ¿Ð¾ÑģÑĤ Ð°Ð²
Ġsem if
Ð¸Ð» Ñı
ĠChr on
Ġcomp la
west lich
Ġdri ver
Ġerziel te
Ġf al
Ð³ Ðµ
ĠÐŀÑĤ ÐµÑĩ
ĠtÃ©rmin o
ĠMed iterran
f Ã¶rm
á »
ul us
Ġpass Ãł
Ġsom ew
Ġquot id
Ð ®
Th omas
Ġehemal ige
it ur
ah a
Ġproduc te
Ġ184 6
f ran
rat ing
Ġprofess ion
Ġc oc
ĠR Ã¤
ĠNot re
Ġly rics
ÑĳÐ½ Ð½ÑĭÐµ
ĠC atherine
ĠSw iss
Ġconjunt o
ĠRep ublik
Ġsecret ari
is ent
Ġst ood
in ian
Ãī cole
Ġdarauf hin
m Ã©e
us ual
ĠÑģÐ² ÐµÑĤ
ĠChrist opher
ec uciÃ³
ĠÐ¿ÑĢ ÑıÐ¼
ĠÐ´Ð¾Ð»Ð¶ Ð½Ð¾ÑģÑĤÑĮ
ĠmÃ© th
Ġdism iss
ĠÐ² ÐµÑĢÑħ
ĠrÃ© du
ism os
ĠZ entrum
ĠAust in
Ġassist ance
L eg
Ġautor itats
Ġnouve aux
cent ric
P ort
ĠdÃ© l
ĠL Ã¤nge
ĠR av
imm ung
Ġrepl ace
ĠsÃ© par
op es
Ġretir ada
Ġartific ial
Ġn Ã©g
l aciÃ³
ent itats
Ġsp ielt
Ġguer res
ĠÐ´ÐµÑıÑĤÐµÐ»ÑĮ Ð½Ð¾ÑģÑĤÑĮ
ĠSingap ore
Ñģ Ñĭ
Ð¸Ð· Ð°ÑĨÐ¸Ð¸
Ġapare ixen
ĠC ob
ĠM az
ĠW ard
ĠOrig inal
Ġsent iment
Ġsort ie
ĠÑģÐ²Ð¾ Ð¸Ð¼
mo ins
ĠCl inton
frast ructure
g ot
ÑĪ ÐµÐ¼
anc ien
ĠPar ker
ĠSpiel e
Ġherman o
Ġvo ir
ĠÑĥÑĩÐ°ÑģÑĤÐ² Ð¾Ð²Ð°Ð»
ĠGlas gow
J ames
Ġdescrib e
Ã¤hl te
ĠÐ² Ð¾Ðº
ge gen
Ġvari etat
Ð¸Ñı Ð¼Ð¸
Ġpop ulaire
N ot
ÑĢ Ð¸Ð½
ond o
ÐµÐº Ð°
Ġref lex
ĠÑħÐ¾ÑĤ Ñı
n ach
ĠÑĥ Ð¼
et own
Ġhum Ãł
ĠPl ace
ĠNorweg ian
Ġerreich en
Ġra zas
ĠW agner
Ġapoy o
M a
ant ly
ÑĨ Ð¸Ð¿
ĠEst o
ÑĢ Ð¸Ðº
ac ab
art icle
Ġclass ic
ĠFac ult
els h
Ġplan et
Ġchurch es
ĠÐºÐ½Ñı Ð·
am ientos
ad ier
Ð°Ð» Ð»
Ġint elligence
ĠLl iga
ard i
Ġfug ir
Ġmuse u
f rau
Ġh oy
Ġ9 00
Ġem ot
Ġreal ity
labor aciÃ³
ĠH ud
ĠCh and
ĠÃºn ico
R I
ĠCom issiÃ³
Mar ie
Ġenv oy
in f
Ġte ix
Ð»ÐµÐ½ Ð¾
ĠPri or
ĠgrÃ¶ÃŁ te
Ġdem an
ĠAb out
Ġexperiment al
ĠR itter
ĠN y
Ġfor ts
Ġaccompan ied
Ġdesp laÃ§
Ġche min
7 50
Ġ18 14
ĠGes etz
Ð»Ñİ Ð´
Ġinstrument al
Ġw ait
l ies
Ġt ick
Ġespecial mente
ĠÐ±Ð¾Ð»ÑĮÑĪ Ð¸Ð½
ÑĢÐ°Ð² Ð½
Ġra b
Ġmitt ler
Ġdetermin ar
ĠÐ¿Ð¾Ð¿ ÑĭÑĤ
Ġalg or
á ĥ
ĠE ug
D el
h onneur
Ġelec ciones
Ġp ian
ĠÑģÐµÐ» Ð°
Ġcapa Ã§
ĠShak espear
ĠL ov
ĠbÃ©n Ã©
us iÃ³n
Ġrom Ãł
j ant
n ung
t t
Ġ183 5
Ġro de
in yer
Ġrepresent ative
ĠD iam
Ġk rit
Ġespec ie
Ġc Ã´t
ĠCE O
Ġtrib u
ze ichen
Ġam ena
Ġag ency
Ġpl as
s atz
d est
om y
Ġas oci
ub en
ĠZeit punkt
ĠOn ce
Ã§ on
Ð½Ð¾ÑģÑĤ ÐµÐ¹
Ġsegu int
ĠPriv at
ĠnÃ¤ch sten
ter o
ĠV ancouver
ol y
V al
hab ilit
Ġatt ached
_â ĶĤ
Ãº a
Dep uis
ĠT x
Ġp Ãłg
lic aciÃ³
ĠÐ¸ÑģÐº Ð»ÑİÑĩ
ÐŁÐµÑĤ ÐµÑĢÐ±ÑĥÑĢÐ³
ÑĳÐ½ Ð½ÑĭÐ¹
ĠÑģÐ¾Ð± ÑĭÑĤ
Ġcritic ized
ĠbetrÃ¤ gt
U A
ĠT Ã¤tigkeit
Ġpro che
ĠSch Ã¶n
mes a
ĠDire ktor
Ġimmobili Ãłria
est aciÃ³
ean while
Ġdemost rar
ust ed
ĠÐ¾ÑĤ Ð¼ÐµÑĩ
ĠÑģÐµÐ· Ð¾Ð½Ðµ
am Ã©rica
Ġenc o
ĠRo os
Ġb ibli
Ġes for
ib re
Ġcoinc id
ĠÐ¿ÑĢÐ¾ÑĨ ÐµÑģÑģ
âĢ ī
Ã¼rt temberg
om at
Ġll iga
Ð½Ð¸Ðº Ð°Ð¼Ð¸
p it
Ġfe ina
u art
Ãī glise
ĠÐ¾ÑĢ Ð´ÐµÐ½
Ġexperien ced
it Ãłria
Ġdro ite
ĠÐ²ÐµÑĢÐ½ ÑĥÐ»ÑģÑı
o fic
Ġh ur
Ġdisput ar
ĠB ord
ĠComm ander
St ation
Ġfuer te
Ġconsist ing
b esch
ĠP ays
ĠÑĢÐµ Ð²Ð¾Ð»Ñİ
Ġp ale
Ġs end
ĠF ass
R ich
198 9
ĠwÃ¼r de
Ġv ient
ĠÐ·Ð´ ÐµÑģÑĮ
Ã¡ ticos
sch er
Ġ[ âĢ¦]
Ġpossib ilitat
Ġd ign
Ñı Ñĩ
Ġpre p
Ġche ck
ĠÐĺ ÑģÐ¿
Ġdispers a
Ġer ror
ĠS r
Ãłn tic
Ġleg te
Ġtrop as
Ġcon fl
Ġp ure
ĠW ert
Ġk id
ĠWh o
ĠÐļ ÑĢÐ¾Ð¼Ðµ
Ã Ĺ
ĠÐ¦ ÐµÐ½ÑĤ
Ġsoll en
Ġshow ing
ĠÑĤÑĥÑĢ Ð½Ð¸
F in
Ġf Ã³rmula
Ġh ill
own ed
Ġrepresent ing
Ġdro its
Ġpas o
Ġparticip ate
ĠPa Ã¯sos
our se
Ġsh op
Ġstr ugg
ĠÐ¿ÑĢÐ¾Ð¼ ÑĭÑĪÐ»ÐµÐ½
sk a
Ġdec ade
ĠÑİ Ð³Ð¾
ig ungs
Ġart ista
ff er
Ġgr is
âĢ ¢
St and
Ġcateg ory
ĠI owa
Ġcin Ã©ma
ĠDip ut
ĠCh ine
Ġsitu aciÃ³n
Ġk omp
Ġstop ped
itzer land
M et
Ġtract ar
ĠÑĥÑģÐ¿ ÐµÑħ
r iss
ĠZ h
Ġed iciÃ³
Ã© ments
ĠÐ¸ Ð´
Ð°Ð½Ð´ Ð¸Ð´
Ã²g ica
ĠÐ¿ÑĢÐ¸Ð½ ÑıÐ»
ĠLuc as
Ġ Ã³r
Ġb ras
Ġdec isions
20 18
Ð°ÑĢ Ñĭ
Ġcl ients
E G
Ġst adium
Ġmar ÃŃ
Ġcr isi
Ġint it
ĠÑĥÐ½ Ð¸ÑĩÑĤÐ¾Ð¶
Ġm ong
Ġhead ed
occ up
ĠÐ½Ð° Ð³ÑĢÐ°
Ġproblem as
Ġexc ell
illa ume
ĠGree ce
ĠÐ½Ð° ÑģÑĤÑĥÐ¿
ĠDes de
Ġnun ca
Ġextra ordin
l v
Ġconv inc
Ġca ught
ĠIslam ic
Ġentfern t
Ð¾ÑĢ Ð¾ÑĤ
zieh ung
and y
Ġcamp ionat
Ġe fecte
Ġj Ã¤hr
ĠÐº Ð¾
ĠÐ²Ð¾Ð·ÑĢÐ°ÑģÑĤ Ðµ
Ġ urg
ĠC S
ĠL ate
ĠNor man
ar l
ÑģÐº Ðµ
ĠSoci Ã©tÃ©
un o
ĠW issenschaft
gest ell
Ġa cept
ug gl
ĠRe ino
Ġfol k
ĠAl berto
Ġus er
Ġm am
Ġresult ado
Ġpass engers
Ġformer ly
Ġho he
Ä Ľ
Ġpar ets
Ġllengu atge
ĠPol y
Ġwind ows
Ġs ulf
Ġprim avera
Ġautom at
Mus ic
ĠÐķÐ²ÑĢÐ¾Ð¿ Ñĭ
ĠÑĤ Ð¸ÑĤ
ĠLouis iana
ĠÐ´Ð¾Ðº ÑĥÐ¼
Ð¾Ð´ Ñĭ
ĠG ene
Ġocas ions
atz em
Ġwen ige
F re
ĠTar ragona
Ġassum ed
ĠEst Ãł
B ahn
ĠÐĴ ÑģÐµ
Ġcarry ing
Ġobt uvo
ĠEv ans
F M
ĠA ra
De ath
ĠVere ins
Ġst rat
ouver te
Ġengine er
ĠVien a
u ant
Ġhe m
Ġcoron el
Ġm ang
ĠH us
Ġmet tre
Ġfem in
Ġturn s
ers to
Ġpropiet ats
c ulo
em ment
Ġr ub
ind et
ĠOff icer
7 00
Ġmas ia
ĠPitts burgh
ĠBl ock
ĠAl g
Ġcart es
Ġre ctor
ĠOrts teil
ĠG eh
Ġp ier
ag ua
ill ing
Ġcomp ren
ch as
Ġant igues
U N
Î µ
ĠK op
ĠrÃ©alis Ã©
Ġrest ored
Ġers etzt
ĠÐ¾ÑĢÐ³Ð°Ð½Ð¸Ð· Ð°ÑĨÐ¸Ð¸
Cl ub
ĠÐ± ÑĢÐ°
ĠSov iÃ¨
Ġdess in
ĠBirm ingham
Ġt ail
ĠM ut
um ar
lev ard
Ġbott om
ÑĢÐ° ÑĨÐ¸Ð¸
Ġprepar ed
Ã²s it
ĠÐ¿ ÑĥÐ½ÐºÑĤ
ĠU mb
ĠPort land
og ether
Ġprem sa
Ġdeliver ed
Mart in
Ã²n iques
Ġcon cess
Ġch ain
Ġfais ant
Ð¾Ð» Ð¾Ð´
Ġpresident ial
Ġpassen ger
inn ers
ĠÑĥÐ² ÐµÐ»Ð¸Ñĩ
ĠN ied
ĠSch les
ĠOn ly
a ide
iv itat
ĠÐľ Ð°Ð»
Ġconv enc
Ġcontrib utions
M ad
Ġent deck
ĠL ac
Ġproject es
' re
ic us
ver y
b oy
Ġv Ã©rit
Ġob jecte
Ðŀ ÑĤ
P or
ar ro
ĠGot tes
Ġpres a
Ġtra it
Ġteach ers
Ġcle an
ĠÐŁ Ð°ÑĢ
fÃ¼ gt
O rient
ĠÐ± ÑĢÐ¸Ð³
Ð¾Ð»ÑĮ ÐºÑĥ
Ġvo ix
ty m
Ġreturn s
Ġoccup ation
ia ire
ĠSen ator
Ġv illes
ah re
Ġw irtschaft
ÑĢÐ° Ð¹
Ð¾ Ð¸ÑĤ
Ġge omet
Ġcous in
Ġv ast
Ġbu y
Ã²n ics
ol en
ĠSem in
k rit
Ð½Ð° Ð·
ĠF ul
ĠHe idel
Ġcontr acte
ei ro
Ġtrav ess
Ġst ages
onn Ã©
ĠMed ien
Ġl ig
Ġn ations
ĠÐ» Ð¸Ð³
Ġtown ship
at ter
Ã¡ st
ator io
is Ã©s
Ġtempor al
embl Ã©e
Ð´ Ñĭ
sp rach
ĠRe f
rid o
ÃŃst ics
Ġpers u
ĠD ruck
Ġben annt
ĠN ur
Ġsign if
Ġmar car
ĠAm Ã¨rica
Ġch ante
ĠMa ÃŁ
ĠSing le
Ġopin ion
ĠN ep
Ġcont amin
Jos eph
Ġmon itor
ĠPol en
ĠS itu
Ð°Ð»ÑĮ Ð½Ð¾Ðµ
ĠfÃ¼hr en
Ġb om
Ġpint ures
Ġp Ã©n
ok ed
Ġcab inet
ĠÐ´ Ð°Ð²
ĠÐ¾Ð´ Ð½Ð¾
ĠCol onel
U p
ĠS R
ĠC hel
Ġsubject s
M y
Ġd imin
Ġh ora
te ilt
Ġg arden
ĠF Ã¶rder
Ġum fasst
ĠOk lahoma
ĠGren ze
Ġr ates
ĠPl ata
upts Ã¤chlich
int Ã©
Ġha ir
ĠVer lag
ony me
ĠÐº ÑĢÐµÐ¿
Ġad vers
esp Ã¨
ĠÑĢ Ñĭ
zeichn ete
aqu ell
incl uding
amp s
Ġind ire
Ð¾Ð² Ð¾Ð»ÑĮ
O T
u ega
Ġten ÃŃan
ĠGir ls
Ġdut ies
it an
Ġdifer encia
Ġleb t
Ġn ick
ĠL em
Ġpub lie
inter Ã¨s
ĠC reu
uc a
Ġp ell
ĠW restling
Ã²g raf
Ġtyp ical
ĠN azi
ier ter
Ã¶ ss
Ġmass ive
C u
n ar
ĠVerfÃ¼g ung
ĠCom mer
Ġthous ands
Ġpublic ada
ĠM ein
Ġcomb ination
_ âĢĵ
Ġpos e
ĠÐ¤ ÐµÐ´ÐµÑĢÐ°
Ġfavor able
Ġt act
ib el
ĠM ult
ĠÑĥÑĩ ÐµÐ½
Ġceleb ra
Ġf ired
ip er
olÃ²g iques
ĠÐ¤ÑĢÐ°Ð½ ÑĨÐ¸Ð¸
Ġmet ers
Ġre tained
ĠAl abama
ĠKon ta
Ġfolg ten
Ġfrag ments
Am Ã¨rica
auf te
Ġstay ed
Ġtal k
ĠÃ¼b ers
Ġllev Ã³
Ġdar Ã¼ber
ĠÐºÐ°ÑĦ ÐµÐ´
ch ing
ĠI C
Ġcal le
Ġincluy endo
o ine
o ge
ĠB ast
ĠPap st
ĠArn old
ĠM uch
ĠP ublik
Ġdep th
Ġjue us
ĠK oh
Ð¾Ð» Ð°Ð³
ĠÐ³ Ðµ
ĠeconÃ²m ic
Ġvess ant
ĠZ entral
Ġfill es
amerikan ischer
ĠÐ¿ Ð¾Ð·Ð´
ĠN on
Ġtrava ille
ie hen
Ġexp res
piel en
Ġverm ell
Ġaconsegu ÃŃ
Ġde venir
ĠIn formation
Ġrespons ibility
Ġdu o
Ġqu itte
ĠÐ¾ÑģÐ½Ð¾Ð² Ð½Ð¾Ð¼
ĠÑģÑĤÐµÐ¿ ÐµÐ½Ð¸
D C
Ġin con
Ãª ts
Ġcompet iciÃ³
ĠB aker
Ð»Ð¸ Ð¶
ĠAn a
Ġmusic ians
Ġann iversary
al us
icht ete
ur st
Ġperson ne
Ġecon Ã³m
Ġgel eg
al Ã§ada
Ã¼t t
ĠÐ´ÐµÐ¿ ÑĥÑĤ
Ġfranch ise
ĠW ang
ĠÑĩ ÐµÑģÑĤÑĮ
Ġgreat est
Ġbritann ique
Ġ orth
ĠSt ars
Ð¾Ð½ Ñĭ
Ð»Ðµ Ñĩ
Ġmer id
D ev
x id
ĠM ec
Ġver breit
Ġsho oting
Ġtrib unal
.. ..
Ġa im
ĠOcc idental
Observ acions
ĠB ereits
ĠTh ird
uf e
ĠÐ¿ÑĢÐ¸Ðº Ð°Ð·
Ġp ista
ĠB ak
Ġvict oria
Ġsuggest s
ĠPe ace
A lemanya
l av
Ġz ust
Ġkein en
ind ic
Ð² Ð¸Ð¶
ĠVien na
Ñĩ Ð°ÑģÑĤ
ĠÐ¾ÐºÑĢÑĥÐ³ Ð°
vertre t
b ut
it re
p reis
Ġuns uccess
Ġcons ecutive
al ph
Ġan ot
ĠB elle
ĠIl les
Ġobserv ar
overt y
Ġrec ru
Ġfe cha
ĠPer o
Ġital iana
Ġaqu ÃŃ
al y
Ġnom ination
Ġcl ient
m ile
ep resident
Ġc Ã²m
ĠrÃ© f
Ġport s
Ġband es
Ġsecond s
ĠÑĤÐ°Ðº Ð¸Ñħ
ĠÑģÐ¸ÑģÑĤÐµÐ¼ Ñĭ
ÐµÑĢ Ð½Ð¾
b ot
ri de
ĠR an
ĠW rit
a ume
ĠC BS
ide ix
Ġar ist
iert os
ĠSer ge
ĠÐ¿ÑĢÐ¾Ð² Ð¸Ð½
ĠSever al
Ġer baut
ass ass
ĠZ el
ĠZ us
Ġk ick
Ġcom Ãºn
ÃŃ nd
z an
Ġs essions
Ġpre uÃŁ
Ġsug g
Ġnov ament
Ġp oca
ĠÐ¿ÑĢÐ¸Ñģ Ð¾ÐµÐ´Ð¸Ð½
Ð² ÐµÐ¹
Ð± Ð¾
ev elt
ĠÐ¼ÑĥÐ¶ ÑĩÐ¸Ð½
ĠJ ason
ĠT as
Ġmus sten
Ġt ank
ĠÃ©conom ique
Ġpract ices
nehm ens
Ġe ye
Ġtall ers
ĠM au
ul um
ĠTur key
Ġrelig iÃ³
Ġinterpret ar
ĠÐ°ÑĤ Ð°Ðº
Ġst ieg
ind a
ĠSw itzerland
ĠÐºÐ¾ÑĢ Ð¾Ð»ÐµÐ²
Ġatac s
ĠM aced
ĠB ien
ĠSoc ietat
schein lich
Ġdeta ils
g ut
Ġmet all
ÑĢÐ¾Ð¿ ÐµÐ¹
Ġpopular s
Ġdra wn
Ġt oler
ous se
zeichn ungen
Ġd Ã²l
ÃŃst ico
ĠMet ro
b ridge
ĠL ocal
ĠEn ric
Ã©t at
Ġsurv iv
ĠÐ¸Ð·Ð± ÑĢÐ°Ð½
al ar
Ġun as
Ġen seny
leg t
iv an
oh an
Ġha ur
ÐĲ Ð½
Ġ183 7
d ruck
Ġide es
ĠÂ §
Ġfranc Ã©s
ĠÐ½Ð°ÑģÑĤÐ¾ÑıÑī ÐµÐµ
Ã¯ de
u il
Ġa illeurs
op in
Ã °
Ġre vers
ĠÑģÐ¾ ÐµÐ´Ð¸Ð½
Ġespec ies
Ġch allenge
Ã¼n der
Ġdepart ament
Ġfund aciÃ³
ĠBay er
Ġt ret
ĠT uc
ĠJ ama
Ġvis iÃ³
ĠÐ¼ÐµÑģÑĤ Ðµ
ĠÑĥÐ¿ÑĢÐ°Ð² Ð»ÐµÐ½Ð¸Ñı
Ð¾ÑĢ ÐµÐ²
Ġthe ater
Emp ire
ĠD aten
Ġat ra
ĠVer te
ĠJe ux
ĠllanÃ§ ar
Ġexiste ix
Ġblanc a
ugu ese
er ta
Ġpersonn age
ĠTol edo
Ġn utz
Ġcur t
d ar
ĠÐĲÐ»ÐµÐºÑģÐ°Ð½Ð´ ÑĢ
N S
ĠRe cht
D E
z quier
Ġsu icide
ĠW and
ĠCult ura
Ġver lieÃŁ
Ġespany ols
ol ph
ant i
ĠGer ichts
Ġtest s
Ġpar am
Ġpri ze
ĠS Ã¶
Ð¸Ð½ Ð³ÑĢÐ°Ð´
Ġprop ia
Ġsel eccion
ĠBet ween
fass ung
Ġunderstand ing
Ġh ind
ĠÐł ÑĥÑģ
Ġad vent
ĠIndust rial
ĠOfic ina
v as
ĠÐ¾Ð± ÑıÐ·
Ġdi jo
Ġdri ving
ÑĢÐµ Ð³
ĠÐĵ ÐµÐ½
ĠÑĨ ÐµÐ»ÑĮ
ĠE u
Ġis lands
Ġacc ur
Ġ Ã³
ĠB org
Ðº Ð°Ð¼
ĠÑģ Ð¸Ð½
ĠCh amber
Ġmilit Ã¤r
Ġdes it
ach ing
ian e
Ġinvest ment
Ġj eder
ald o
ĠMa ine
Ġwirk te
ĠÐ½ÐµÐ· Ð°Ð²Ð¸ÑģÐ¸Ð¼
ĠÑģÐ¼ Ð¾Ð³
ĠI áµīÊ³
Ġent itat
ĠÑģÐ¾Ð·Ð´ Ð°Ð½
od ie
Ġass eny
Ġesdeven iments
Ġimp rison
ĠÐ¿ÑĢÐµ Ð²
ĠCatal ana
j ats
ina ge
ĠCalif Ã²rnia
ĠKn ight
Ġdiff us
c ap
rÃ© al
ĠS Ã¤nger
fo ot
ĠÑĢÐ°Ð·Ð»Ð¸Ñĩ Ð½ÑĭÑħ
as ts
Ġart ÃŃstica
Ġval u
Ġpriv at
ĠPh oen
ĠÑģÐ¾Ð² Ð¼ÐµÑģÑĤ
Ġf ic
ĠD oming
ĠF res
Ġpar v
" ;
Ġad dic
Ġex amples
ĠB Ã©
ath on
An g
ĠG att
ĠÐ¢ Ð¾Ð¼
Ð¸ÑĤÐµÐ»ÑĮ Ð½Ð¾Ð¹
Ġlegisl ation
Ġfe ed
ĠÃľ bers
Ġp ad
ic ip
Ġinst ance
ÑĥÐ½ Ð¸ÑĨ
Ġ184 2
Ġcapit Ãł
en ing
Ġd adurch
ĠAng riff
Ð¾ÑģÑĥÐ´Ð°ÑĢ ÑģÑĤÐ²ÐµÐ½
Ġopt ion
Ġsav oir
Ġwind ow
Ġh ing
ian isme
Ġnot ably
Ġreg nat
Ġaf ro
Kar riere
P ost
av ent
ex emp
Ġbran ches
Ġcom ic
eit et
ish es
Ġpolit ische
ĠK ranken
ĠÐ´Ð¸Ð²Ð¸Ð· Ð¸Ð¸
ĠÐºÐ¾Ð¼ Ð¸ÑģÑģ
ĠMetropolit an
ĠÐ²Ñĭ ÑģÑĤÐ°Ð²
ĠBret anya
ĠÐ¾Ñĩ ÐµÑĢÐµÐ´
ĠÐ² Ð´
Ġst ress
ĠelÃ¨ct ric
ĠGegens atz
ĠF ellow
ĠTurk ish
if ts
akt ion
L l
Ã¡ tico
ĠpiÃ¨ ces
ĠUnterstÃ¼tz ung
ir che
Ġent ste
asc ut
ich ter
ĠÐ¿ Ð°ÑĤ
ĠA ri
Ġg ender
J ohann
Ġar tes
Ġsimil ars
land o
ĠAll iance
ĠAp ple
Ġaccess ible
Ġb rain
Ġob ser
orig inal
occ asion
Ġlors qu
Ġsur g
Ġ183 9
Ġstar red
ÑĢ Ð¾Ð·
M C
Ġs un
or is
ĠÐ²Ñĭ Ð´ÐµÐ»
Ġfl ors
Ġland ing
Ġciv ils
Ġterrest re
ĠÐº Ð»Ð°Ð´
Ġ184 4
ĠEn rique
Ġerw arb
or mais
ix a
M c
at in
ÐµÐ½Ð¸Ñı Ñħ
Ġev alu
zeug en
og an
Ġmod if
ĠBez irks
art iller
Ġhist Ã³
Ġactiv idad
ens en
Ġremp ort
arqu itectura
ĠÐºÑĥÐ»ÑĮÑĤ ÑĥÑĢÑĭ
Ġlleug er
ĠÐ¿ÑĢÐµÐ´Ð¿ÑĢ Ð¸ÑıÑĤ
ent hal
ÑģÑĤÐ²ÐµÐ½ Ð½Ð¾
ĠÐ¿ÐµÑĢÐ² Ð¾Ð³Ð¾
Ġmedic ina
y Ã³
ĠCast ro
Ġfisc al
Ġd rag
Ġcomp le
Ġopt im
Ġgef unden
ĠC orea
Ġth ick
ĠCast ella
Ġimmigr ants
ĠMal ays
ĠT ir
ĠH ad
ĠG ymnasium
Ġh Ã©
ĠG Ã³
ĠÃ į
S in
Ġstre ets
ĠÑĨÐµÐ½ÑĤ ÑĢÐ°
ĠÐļ ÑĢÑĭ
ĠespÃ¨ ces
ing ly
ĠKomp on
Ġn oche
Ġpint ors
Ð¶Ð´ Ñĭ
Ġactiv itÃ©s
Ġpen et
Ġinicial ment
ph ere
Ġesp acio
o qu
Ġci Ã¨ncia
ĠÐ¸Ð¼ ÐµÐ»
P eter
ĠI v
ĠEsc uela
Ġb ell
Ġun mittel
Ġren ew
ĠÐ¾ÑĤÑģ ÑĥÑĤÑģÑĤÐ²
B O
Ð½ Ð¸Ð¸
ĠPaul o
Ġhistor ique
Ġtempor ades
Ġlog rÃ³
ĠIsrael i
ĠUp on
mit glied
ĠT ec
Ġbeend ete
Ġt ack
ib ilidad
row s
Ġeven ing
ĠÑĥÐ½Ð¸Ð²ÐµÑĢÑģÐ¸ÑĤ ÐµÑĤ
land es
Ġpot encial
ĠS amm
Ġintern et
ĠChair man
L S
ĠK in
ĠMÃ¤n ner
Ġ Ã²r
ional e
Ġhom en
ĠLehr er
Ġamb dÃ³s
Ġprison ers
ĠÐ¼Ð½Ð¾Ð³ Ð¸Ñħ
ĠÐĺÐ² Ð°Ð½Ð¾Ð²
ud ades
Ġcas ual
s ie
Ġag o
Ġgest ion
Ð¾Ð¶Ð´ ÐµÐ½Ð¸Ðµ
Ġv ots
ĠÐ¿ÑĢÐ¾Ð² ÑĳÐ»
c re
ĠN BC
Ġcomp tes
Ġcamp aÃ±a
Ġc erv
Ġll uit
Ġmem or
ĠÐ½ÐµÑģÐºÐ¾Ð»ÑĮ ÐºÐ¸Ñħ
Ġel las
ĠM ember
Ġro w
ovent ut
Ġp ool
ĠW ander
Ġacc ions
Ġdebut ed
Ġt ales
ĠSt amm
ul ant
Ġsoc iet
Ġposs ession
ĠÑĪ ÑĤÐ°
ĠS ad
Ġge ogrÃ¡fica
Ġfort alesa
Ġrevol ta
ĠCro wn
Ġconcern s
ĠÑģÐµÐ» Ð¾
ĠNC AA
ĠÐ²Ñĭ Ð±Ð¾ÑĢ
Ġcab e
Ġro ba
Ġmembers hip
Ġf alls
as ure
ĠF riend
ap y
yl inder
ĠM acht
ÑĥÑī ÐµÑģÑĤÐ²ÐµÐ½
c ore
ĠS ang
geb ra
ĠÐºÐ¾Ð¼ Ð¸ÑĤ
Ġsignificant ly
Ġsuper iors
com ing
Ġriv iÃ¨re
B et
ĠEl la
âĢĭ _
ĠVertre ter
ĠA sp
Ġg alt
Ġdeix ant
ÑĥÐ½Ð¸ÑĨ Ð¸Ð¿
Î »
ĠGo ogle
ĠÃ¼bern ommen
ic ion
ĠP az
ÑĢÐµ ÑĪ
Ġarch ae
ĠK onst
Ġrevol ucion
ĠcÃłr rega
ĠÃ¶ff entlichen
Ġf red
Ðº Ð¸Ð¼
Ġpros per
ÑģÑĤ Ð°Ð½
ĠComp uter
ĠÐ¡ Ðº
ĠOr den
Ġutilitz ant
a er
ĠB ase
ĠGu atem
Ġda ughters
ĠÐ²Ð½ÑĥÑĤ ÑĢÐµÐ½
È Ļ
Ġpar o
M ill
m Ã¨tres
in ity
Ġp hr
Ġ183 6
Ġch ampions
ĠHistor ic
Se ine
ĠDre am
ĠInv est
Ġenco unter
ÐµÐ² Ð¾Ð¹
Ġre ception
ul aciÃ³n
Ġpar roqu
ale za
qÃ¼ Ã¨ncies
Ġcritic ism
ĠNob el
at on
ÑĢ Ð¾Ð±
we chsel
ĠE duc
Ð°ÑĢÑĤ Ðµ
Ġv Ã©
ĠD ÃŃa
Ġas pir
Ġmon ta
ĠWh at
ĠM entre
Ð°Ð» Ð¾Ð²
Ġgesam te
Ð± ÐµÑĢÐ³
Ð¸Ð± Ð¸ÑĢ
Ġw uchs
Ġmusic als
Ġblo que
ĠÐ¼Ð¸ÑĢÐ¾Ð² Ð¾Ð¹
enc iat
Ġown ership
b org
Ġle icht
N ov
ĠÐ¸Ð¼ Ñı
ĠparrÃ² quia
ĠAlf onso
ĠerÃ¶ffn et
ĠZ ar
Ġtrad itions
Ġfund amental
Ġequip os
Ġpur poses
ĠRay mond
Ġnuev os
ĠÐ¼ ÐµÑħÐ°Ð½
iel s
Ġparticip Ã³
Ġdem anda
Ġqual ified
and in
ust re
icult ure
ĠsÃŃ mbol
st ers
Ġverm utlich
ĠA re
ons c
ĠÐŀ Ð½Ð°
ĠSatur day
ĠL ith
Ġenc arg
Ġchild hood
h im
Ġcomm it
Ġse vere
Ġres um
ĠBau ern
Ġextrem ely
ul ent
ok er
Ġfer rocarril
Ġdivers e
om on
Ġleit ete
R T
ĠVer band
ie ÃŁen
Ġper haps
Ġsup Ã©rieur
Ġchr ist
re chen
ĠÐ» Ð¸Ð±
ĠdÃ©c ouvert
p as
Ġp hen
ĠG ulf
Ġfestiv als
Ġdram at
ĠWay ne
ĠN Y
Ġcre aciÃ³n
Ġval ues
Ġfil ed
Ã¡n chez
Ġcolum nes
Ġ179 3
ĠP oc
âĢľ ._
Ġass ault
l acions
Ġval id
ĠWolf gang
ĠÃ© vol
ĠAr c
ym n
ĠÐĳ Ð¾ÑĢ
ĠÐ²Ð¾ Ð¾ÑĢÑĥÐ¶
Ġantigu o
Ð¸Ðº Ð¾
uh l
or um
ec onomia
alt et
Ġset mana
Ġsemb lant
est ro
Ñĳ Ð´
Ġ10 2
ĠÐºÐ¾Ð½ ÑĦ
198 8
Ġpens ar
ĠÐ´Ð¸ÑĢÐµ ÐºÑĤ
ĠÐ¿ÑĢ Ð¸ÑĢ
Ġens ure
Ġv ern
lÃ¤ uft
1 50
Ġmatern al
ĠC urt
ĠTor res
ĠÐŁÑĢÐµ Ð·Ð¸Ð´
Ð¾Ð² ÐµÐ´
esc ala
ar mes
ĠN r
ĠN HL
Ġpar ella
Ġaut obi
Ġgradu ating
ĠÑģÐµÐ± Ðµ
igen ous
Ġkn ock
ĠUr uguay
ong a
ĠÐ¾ÑģÐ² Ð¾Ð±
ut ional
Ġprodu its
Ġce inture
ĠAnd y
ĠCommun ist
ĠÐºÐ¾Ð»Ð¸Ñĩ ÐµÑģÑĤÐ²Ð¾
od ia
Ġsol e
Ġcomp orte
Ġha uptsÃ¤chlich
flu ence
ĠSoviÃ¨ tica
Ġubic ado
ĠC P
ĠL loyd
ĠW ie
Ġsp at
Z u
ĠâĢ ļ
ok al
Ġorgan itzar
Ġdiffer ences
d ica
Ġoff ensive
Ġ184 3
ĠÐ¡Ð°Ð½ ÐºÑĤ
ĠveÃ¯ ns
ĠÑĢÐµ Ð»Ð¸
Ġn az
ĠC ord
Ġdebut ar
Ġfrances es
ĠÐĴÐµÑĢÑħ Ð¾Ð²
Ġo m
ĠP ow
ĠÑĤ Ð¾Ð³Ð´Ð°
ĠÐ²ÑĭÑĪ ÐµÐ»
Ġde terior
Ġer f
ĠVal encia
Ġent schied
Ġvari ant
Ġtas k
Ġres erva
us hed
ĠÑĤ ÐµÐ¿
Ġev acu
Ð² Ð¸Ð³
wh ere
Ġreput ation
Ð½ ÑĥÑĤ
Ġtro tz
ĠS ul
Ð¾Ð² Ð°Ñı
gr Ã©s
Ġdem ocrÃł
Ġw ins
Ġpopular ity
ĠBatt alion
Ġa hora
Ġst ammen
Dem ografÃŃa
Ð°ÑĤ Ð°Ð»ÑĮ
Ġll uny
Ġra ise
ĠZeit ung
ĠÐ¾Ð±Ñī ÐµÑģÑĤÐ²ÐµÐ½
itz ades
piel e
ĠMuse o
E p
Ġprede cess
ĠU hr
Ġdeg rees
ĠN ever
ĠK ey
Ġindivid us
Ġfest a
k unde
x o
ĠC are
ĠR ost
ĠR unde
Ġofer ir
GÃ© ographie
ĠperÃŃ odo
Ġcrist ians
ĠFle et
Ġcontrovers y
f ons
aix Ã²
ĠVol k
ĠV ia
ub an
G A
Ġform aciÃ³n
co unts
ĠÐ²Ð¾ÑģÑģÑĤ Ð°Ð½Ð¾Ð²
Ġm Ã©c
ĠFel ipe
h il
Ãª tÃ©
ĠG Ã¶tt
Ð¾Ð² ÑĭÐ¼
ĠAd vent
Ġkn app
ĠÑģÐ¾ÑĨ Ð¸Ð°Ð»ÑĮ
ÑĢ Ð¸Ñħ
ĠBÃ¼rger meister
ĠÑģÐµÐº ÑĢÐµÑĤ
ĠÐ Ļ
Ġar bres
Ġ ×
ÐĹ Ð°
ĠÐ¾Ð¿ ÑĥÐ±Ð»Ð¸Ðº
Ð Ļ
Ã¶ sen
Ġbig gest
Ġch ac
ĠSm all
k unft
ĠE vent
ew ork
ol ia
Ġ184 1
Ġ183 8
Ġinvol uc
Ġv s
Ġpropos e
ÐĴ Ð¾
ĠStre it
Ġmeas ures
Ð¸ÑĤ Ð°Ð¹
ĠG ouver
ĠRom ania
por ter
wÃ¤r ts
b in
ĠÐ¾Ð± ÑĢÐ°ÑĤ
Ġinv it
Ï ĥ
Ġcomplet ar
ĠTrain er
Ġext r
Ġcor reu
Ġgen ommen
Ġgleich zeitig
Ġbil den
um n
ÑĢÐµÐ¼ ÐµÐ½Ð½Ð¾
Ġadapt ation
k W
Ä Ł
ran j
ĠHal le
Ġperson aje
ĠdÃ²l ars
Ð¾Ð¼ Ð±
ÃŃc ulo
ĠFin ale
Ġimp lant
ĠÐĵÐµÑĢÐ¼ Ð°Ð½Ð¸Ð¸
ĠT ower
em in
ĠCom ics
Ġbelles a
Ġdes emp
ĠK rist
ĠÐ· ÑĢ
Ġvol viÃ³
get ragen
Ð¾ÑĢ ÑĥÑģ
ÐµÑģÑĤ ÑĢÐ°
Ã¶rder t
ĠÑģÑĤÑĢÐµÐ» ÐºÐ¾Ð²
S ur
Ġc rop
ĠÐ± Ð¸
Ġtouch down
Ġsepar ated
ĠC Ã³rd
ĠAl ler
Ġrec ur
rat ge
Ġprimer as
tr ans
ĠAr g
Ġnatur als
ĠV iz
ap l
ĠMet al
Ġfilos ofia
ĠNAS A
Ðº Ð°Ñı
ĠÐĲ Ð´
ĠQu art
ĠSystem s
z ust
" _
Ð¼ ÑĥÐ½
Ġvict ims
Ġinvestig aciÃ³n
Ġincreasing ly
Ġcon tex
eg uir
Ġexped ition
ic ional
Ġb irds
et ing
Ġb ishop
ĠÐ¿ÐµÑĢÐ² ÑĭÐ¼
Ġorganiz aciÃ³n
c in
Ġre organ
ĠE b
Ð½Ð¸ÑĨ Ð°
ĠB eth
Ñĥ ÑĢÑĥ
ĠMo untains
Ã¶l f
gr uppen
ve au
ĠAg ency
Ġconcentr ation
ĠfÃ© min
Ġt ell
Ġg ear
Ġpar ec
ÐµÐ½ Ð¸ÑĤ
Ã©r Ã©e
Ġinvol ving
m ac
Ġ Ã¶stlich
ier o
Ġme j
Ġdel ic
ap est
ĠMit chell
198 7
edd ing
M ark
t ed
C ur
Ġre ch
Ġcover age
ĠÐĶÐ¶ Ð¾Ð½
Ġfru its
V ol
ĠLe o
Ġestrat Ã¨g
ĠT anz
ĠF ive
Ġdon en
Ġl ift
ĠF ritz
z eiten
Ġc il
use in
Ġb izant
n itz
ra chen
Ġdec isiÃ³
Don ald
Ġre action
Ġmod Ã¨le
Ã¯ c
Ġtreball adors
Ð¾Ñģ Ð¾ÑĦ
Ġint ention
Ġilleg al
Ġm anca
ĠA ur
terior mente
ĠÐĺ ÑĢ
oir s
ĠcrÃ© Ã©e
Ġdispon ibles
ĠGerm ans
ĠÐłÐµÑģÐ¿ ÑĥÐ±Ð»Ð¸ÐºÐ¸
Ġb aj
ĠS ay
ĠÃ ®
ĠIg lesia
Ġdeterm ine
l ik
Ġb arb
ĠP le
Ä ĩ
ĠE mb
ĠW ochen
ian i
kn ow
ĠÐ´Ð°Ð»ÑĮ Ð½ÐµÐ¹
Ð°ÑĢ Ð¸Ð¸
Ġafeg ir
o un
Ġexpla ined
S outh
Ġ âĤ¬
ĠP asc
ĠH aut
ens eny
ĠÐĳ Ð¾Ð³
ĠT all
Ġset ge
Ġst ret
ĠÐ¢ ÑĥÑĢ
ĠÐ¼ÐµÐ´ Ð¸ÑĨ
ag ent
end as
Mich ael
on ies
ĠÐ½Ð° Ð¸Ð±Ð¾Ð»ÐµÐµ
ĠVer Ã¶ffentlich
Ġllu itar
Ġconser ven
Ġv ra
Ð» Ð¸ÑģÑĮ
ĠÐ·Ð°Ð¿ Ð¸Ñģ
Ġro ya
Ġdip utat
ĠG obierno
Ġob l
Ġdecid iÃ³
Ġaix ec
Ġmach ines
w w
ÑĤÐ¾ÑĢ Ð¾Ð¼
Ġschn ell
ĠShakespear e
Ġm outh
ĠSte uer
Ġass ent
Ġmin imum
ĠF ell
ĠRoos evelt
Ġk g
Ġsequ ence
Ġb lau
richt ungen
ĠÐļ Ð°Ð½
198 5
ĠÐ² ÐµÑĤ
ĠÐ¿Ð¾Ð» ÐºÐ°
mus ik
ri va
itar io
ĠMus ical
Ġreb els
19 45
ĠRuss ie
Ãª mes
Ð¾Ð² Ð°ÑĢ
P el
Ġperiod ista
Ã©s ar
ĠÃ©s ser
Ġcant ant
Ã©cur itÃ©
ĠKÃ¶nig reich
ĠÃ¤ uÃŁ
Ġsupport ers
p ie
Ġc Ãłn
Ġcamp iÃ³
l ars
is ierte
ĠEspany ola
P ublic
c io
ĠB ronze
ĠG ary
Ð¿ Ð¾
Ġconserv aciÃ³
Ġobject iu
Ġpers ons
ĠlÃŃ qu
Ð¾Ñħ Ð¾Ð·ÑıÐ¹
Ġmedic ine
b rit
ĠCo de
ul ado
ĠPar c
Ġpubl ishing
ĠgÃ©nÃ©r ale
ĠÐ½Ð°Ñģ Ð»ÐµÐ´
ir onnement
old re
Ãºlt ima
ĠÑģÑĩ ÑĳÑĤ
ĠGil bert
h all
in ete
ĠCanad Ãł
ibliothe k
ia h
Ġpriv ada
on o
ĠÑĢÐµÐ´ Ð°Ðº
Ġgr ass
att ers
Ġconoc ida
rid ges
ĠSpr ings
ĠÐ¾ÐºÐ¾Ð½Ñĩ Ð°Ð½Ð¸Ñı
Ð¾Ðº Ñģ
Ġsy mp
lo ad
rel ated
Ġrealitz at
ĠÐºÐ¾ÑĤÐ¾ÑĢ ÑĥÑİ
ĠCamp eonato
ĠGran ada
Ġf id
ĠL ex
ĠÐº Ð°Ð½Ð´Ð¸Ð´
Ġass et
A ustral
Ġcompos Ã©
ĠKar ls
av oir
Ð°ÑĤ ÐµÑĢ
W orld
Ġcon questa
Ġprop is
Ġcontin ental
ĠÃ©t udi
ĠS ans
glÃ©s ies
Ġdes ig
Ã¶ p
ĠÐ¿Ð¾Ð» Ð½Ð¾ÑģÑĤÑĮÑİ
ĠÑĤ ÐµÐºÑģÑĤ
ĠÑĥ ÐµÐ·Ð´Ð°
ograph ique
Ġal menys
in it
ĠVal ent
Ġcondu ctor
Ġbomb arde
ĠBre men
Ġfa ut
ĠS ex
ĠÐºÐ¾Ð½ ÐºÑĥÑĢ
Ð» ÑĥÑĩ
Ġstud ying
Ġexerc ir
ĠS au
Ġst rik
ĠSchauspiel er
Ġplut Ã´t
s icht
Ãª tes
ark ed
ĠNach t
ĠEx ped
oc ial
ÐµÐ½ ÐµÐ¼
ĠV egas
an lagen
ĠÐ² ÐµÑĢ
Ñĩ Ð¸Ðº
iz er
Ġzerst Ã¶rt
Ġl iste
iqu Ã©
Ġcal or
Ġconserv ation
Ã¤l le
SC O
Ġsp iritual
ĠÐļ Ð°Ð¼
Ġinform aciÃ³n
Ġdistrib uted
writ er
Ġdere cho
breit ung
Ġro ut
ĠamÃ©rica ine
l ÃŃ
Ġlink ed
Ãłmb it
Ġl uz
ĠS Ã¡nchez
Ġmarket ing
Ġadquiri r
Ġk aum
ĠÐĴ Ñĭ
rie be
Ġb rick
b ral
Ġmol ta
Ġacomp aÃ±
Ġd orm
D ec
w egen
Ġpart id
ĠTurn er
ich i
ĠFran Ã§ais
Ġpod rien
ĠTe atre
Ġpers Ã¶n
ĠS onn
Ġden ied
ĠÑĦ Ð¾ÑĤ
Ġdiffer ence
Ġta ille
ĠElect ric
Ġcaig uda
gang en
Ð¸ÑĤ Ñĭ
ĠV ari
olog iques
ĠPl ant
D urch
Ġl uc
Ġfun eral
ĠÐŀÑĤÐµÑĩ ÐµÑģÑĤÐ²ÐµÐ½Ð½Ð¾Ð¹
Ġm anner
gram m
u ary
Ġac te
ĠAb raham
ĠursprÃ¼n g
reg ut
Ð°ÑİÑī Ð¸Ñħ
ĠB res
oc at
Ġintern acionals
I f
ĠM aterial
Ġten nis
ĠÐ¼Ð°ÑĤÐµÑĢ Ð¸Ð°Ð»
Ġpre l
ck t
anc ial
Ã¯ en
ĠT omm
ĠP ant
va ge
ĠQu int
Ġsecund Ãłria
Ġjob s
Ġin ofens
ÑĳÑĤ ÑģÑı
ĠÑģÐµÑĢ ÐµÐ±
Ġpar lar
Ġup d
Ġcomp at
Ġfacult y
Ġte en
ĠFer ran
Ġcomp uesto
oth y
Ġcontr ad
Ðº ÑĥÐ¿
ÃŃc ulas
ĠBundes liga
ĠJud en
Ġarrang ed
ifik ation
Ġval ors
la imed
Ġdev ices
Ġpropos al
Ġ183 3
im os
eg uda
ats on
Ġsol ic
Ġfig ur
ÐµÑĤ Ð¾Ð¼
stan bul
Ġauc un
Ñĳ Ð¶
Ġsup posed
ĠÐµ Ð¿Ð¸ÑģÐºÐ¾Ð¿
Ġci udades
L ocal
Ġoffer ing
ĠLa ur
Ñĳ ÑĤÐ°
Ð½ Ð¾Ð²Ð°Ð½Ð¸Ñı
ĠÐ½ Ð¾Ñĩ
ĠÐºÐ¾Ð» Ð¾Ð½
ĠÑį Ð»ÐµÐ¼
ĠHawai i
ĠÐ· Ð°ÑĤ
Ġpict ure
J e
ĠJ oy
b ark
Ġen h
d ad
og r
Ġcol our
Ġv ary
Ġinter Ã¨s
Ġout re
ĠÑĢÐ°ÑģÐ¿ Ð¾Ð»Ð°Ð³
ĠU tah
Ġbas a
ob acht
Ã¼r n
ĠprÃ© par
Ġverl oren
ĠNou velle
in ct
Ġso f
ĠpolÃŃtic o
Ġjour ney
ĠVerwalt ung
ĠM S
and ers
Ġaccept ar
or ra
ĠR ip
att et
Ġcol la
ĠAu ff
ĠR ath
bl iques
Ġcross ing
Ġsche me
Ġt orp
Ġgel egen
ist ent
Ð°Ð»ÑĮ Ð½Ð¾Ð¼
Ġport rait
Ġdest aquen
Ġconstitu ency
Ġb io
Ġtest ing
Ġconsiste ix
ib e
Ġ183 4
or us
amb a
ĠKir k
Ġh ang
ĠÐ´ Ð¾Ð³
Ġpart es
Ãłl bum
Ġ18 10
Ã²n ies
Ġleg it
Ġeurope us
rat a
Ġpe ak
itud es
ĠÑĢÑĥÐºÐ¾Ð²Ð¾Ð´ ÑģÑĤÐ²Ð¾Ð¼
ie ger
Ġe cles
ĠEj Ã©rcito
V or
ĠMÃ¼n ster
G es
ent um
Ġtr Ã¤gt
Ġdocument al
Ġperman ec
ĠÑĥÑģÐ¿ ÐµÑĪ
ĠÑģÐ¸Ð¼ Ð²Ð¾Ð»
Ð» ÐµÐ²
Ġed iciÃ³n
ĠL iz
Ġases in
Ġc Ã²p
Ġm ando
Ġmal grÃ©
Ġest aciÃ³n
cl av
19 60
Ġso il
Ð¾Ð¿ ÑĢ
Ġpl ena
Ã¼nd et
ipp ing
Ð°Ð½ Ð¾Ð¼
Ġtemp les
Ġme ets
Ġ10 4
ÑĩÐ¸Ñģ Ð»ÐµÐ½
Ð´ Ð¾
Ġeing er
Ġnuev as
ĠS uch
ĠE arly
uc iones
Ġwo oden
entr Ã©e
ind ungen
Ġfill ed
ind ing
ĠS ah
ĠM Ã¼ller
Ġe yes
ob jet
Ġdirect a
Ġcos es
oc l
Ġgrie ch
Ġ á
Pro duction
ĠSur vey
p op
ĠReg ister
Ġrem ar
it ure
ol ic
ĠVer hÃ¤lt
Ã¤h len
Ġfuer za
Ġwieder um
olÃ²g ics
Ġay uda
Ġset manes
ĠNation alsozial
ĠS ultan
Ġh osp
als ch
Ġfe ien
G C
Ġpre u
ok u
ĠÐ° Ñį
Ġgro s
Ġs ÃŃn
ĠR AF
Ġresident ial
te enth
Ġcon vention
Ġsign ing
Ġhelp ing
Ġnaix ement
ĠL ock
ĠGr Ã¨cia
are z
ĠÐºÐ»ÑĥÐ± Ð°
Ġge geben
ush ing
W il
Ġer heb
Ð°Ð½ Ð½ÑĭÑħ
ĠÐ± Ð°Ð½
ĠÐ¼ Ð¾Ñī
Ġter rat
Ge ographie
Ġpil ots
Ġrepl acement
ac cions
Ġsur render
Ġped res
ĠVers ion
Ġreligios os
Ġes f
ĠPort uguese
ĠRen Ã©
Ġex ception
Ġtradic ionals
Ġsculpt ure
Ġs hr
Ġx ines
ĠÐ¶ Ð¸Ð»
Ġcoup les
ĠVic ente
ĠDef ense
ĠO ur
Ġlle is
ĠRod rig
Ġgol den
ĠVerte id
ĠM Ã©d
iz ier
Ã¤nder t
us ement
Ġcon verte
ĠW elsh
ĠCult ure
ĠÑĢÐµ Ñĩ
O p
ien cy
Ġk new
uer ta
Ġjuris dic
Ġro uge
Ġapare ce
ĠR aw
Ã¤ ten
iqu er
Ġrel ie
el i
is po
Ġhors es
Ġvul ner
ĠÐ¿ÑĢÐ¾Ð¸Ð· Ð¾ÑĪ
Ġcons igu
ĠTr ade
ĠMos k
ĠC rit
ĠAn lage
Ġcan ad
y cl
Ġp onent
Ġo d
ĠS alt
Ġles qu
Ġac ost
ĠBr istol
Ġdecl ined
ĠdÃ©f a
ĠÑģÐ¾Ñİ Ð·
Ġdirig it
Ġalem anya
ĠlÃ©g isl
Ġmag ist
Ġevol ution
ĠD esc
Ġinvol vement
bre ak
Ġmillor ar
ĠCor ona
ĠÐ¼Ð½Ð¾Ð³ Ð¸Ðµ
ĠÃºltim os
ĠÐ¿Ñģ Ð¸Ñħ
It Ãłlia
ĠÐ² ÐµÑī
Ġas p
Ġex cel
Ġhe at
Ġentra Ã®
Ġcons Ã©qu
Ġrelativ ament
ĠTib et
Ġv ois
Ġh uge
Ġexp Ã©ri
Ġfl ux
Ġalum nes
Ġpermett ant
e Ã³n
se a
ĠÐ´Ð¾Ð¼ Ð°
ÑĮ ÐµÑĢ
Ġsogen annten
ins ula
ĠtÃŃt ols
Ġpremier ed
ĠÐ½Ð°Ð·Ð²Ð°Ð½Ð¸Ðµ Ð¼
ĠÐ¾Ð±ÑĢÐ°Ð· Ð¾Ð²Ð°Ð½Ð¸Ñı
ĠCont rol
Ġbene fit
Ġse ien
Ġcontrol ar
ĠBas is
Ġabsol ut
ĠprÃłct icament
Ġn uit
ĠH ob
Ġocup a
ĠT erc
Ġcient ÃŃfica
Ġs op
st Ã¤tte
ĠÐ½Ð° Ð¿ÑĢÐ¸Ð¼ÐµÑĢ
Ã¼ m
ĠFeder aciÃ³
Ð½ ÐµÑģ
Ġany thing
ĠCent ury
Ġsy mb
Ġmiss ing
Ð¾Ð»Ð¾Ð³ Ð¸Ñı
ĠÐ± Ð¾Ð»ÑĮ
Ã¤ll en
ÐĲ ÑĢ
k rieges
ĠDel hi
Ġmitt el
w es
Ġwe iÃŁ
198 6
ĠÐ¿Ð¾ÑĤ ÐµÑĢ
Ġmix t
ĠAut om
Ġ183 2
ĠElis abeth
ĠĠĠĠ ĠĠĠ
Ġwest lich
ĠlÃŃ mit
Ð»Ð° Ð·
Ġexemp les
Ġt amp
eb ook
ĠÑĥÐ´ Ð°Ð»Ð¾ÑģÑĮ
z uf
ob res
ĠÑĤ ÑĢÐµ
ĠÐ· Ð½
ĠE c
Ġar bit
ĠÑĢÐµ ÑģÐ¿
ĠÐ±ÐµÑĢÐµÐ³ Ñĥ
ĠD ah
Ġmar gin
Ġne uer
Ġsal le
i ya
ĠÐº ÑĥÐ¿
Ġpres encia
bo und
Ġbast ant
ĠhÃ¶ her
Ġluch a
Ġsoc iedad
ĠÐ¿ÐµÑĢÐµÑĪ ÑĳÐ»
Ġsem ic
Ġal go
oc ar
Ġital iÃł
Ġbring ing
ĠUk rain
Ġpal eta
Ġretorn ar
ĠÐĴÐµÐ»Ð¸Ðº Ð¾Ð¹
Ġt ut
all eng
Al lemagne
Ġsquad ron
Ġch im
Ġmin ing
ĠHarr ison
ix on
ĠE ff
Ġav ions
ÑĭÐ² Ð°Ð»
ĠDÃ¼sseld orf
an ische
ĠH em
ĠRich ter
Ġcam era
ĠpÃ¨r dua
Ġn ied
est ers
Ġhead s
is b
Ġcred it
Ġgem acht
Ġobjet ivo
ĠI S
ass o
ĠZ we
ativ os
R O
Ð» Ð½
Ġpain ter
ĠM TV
ĠHer bst
ĠVal le
rot z
Ġmem orial
Ġd ating
lic ation
Ġ10 3
ĠÑĢÐµÐ¶ Ð¸ÑģÑģ
kl asse
Ġgest ellt
ab ilitÃ©
ĠEU A
ĠPhoen ix
Â ¹
Ġfin es
Ġnot ables
ĠÐĹ Ð°Ð¿Ð°Ð´
i ast
ĠCar r
Ġb iblioteca
Ġprov Ã©
Ġrequ ires
Ġcelebr ated
ĠÑĥÑĩ ÐµÐ±
ĠÑĦÐ¸Ð»ÑĮ Ð¼Ð°
ĠÐ´ Ð°Ð»
Ġdarr era
ĠcompÃ©t ition
Ġp itch
m ad
an on
Ġcant idad
ĠdÃ©s ormais
Ġrequire ments
e uros
ĠÐ³ÐµÐ½ÐµÑĢÐ° Ð»
Ġcontrib ution
ĠHud son
uch ten
ĠÐ¿Ð¾Ð· Ð¶Ðµ
am arca
ĠD och
Ġin tenciÃ³
ma il
ĠÐ¿Ð¾Ð» Ñĥ
ĠFre ib
Ġtempor ary
ÑİÑī Ð¸Ð¹
Ġcon ca
ĠCar men
ĠÐ¿Ð¾Ð»ÑĥÑĩ Ð¸Ð»Ð°
ar ina
ĠRob in
ĠPar agu
br and
Ġprincip io
Ġel ig
Ã¼r k
Ð¸Ð² Ð°ÐµÑĤÑģÑı
Ġrel lev
ĠS ony
ĠZusammen arbeit
stru ction
Ð½ Ð¾Ð³
Ð¾Ð² ÑĭÐ¹
Ġrealiz ar
as ia
Ġver g
ĠAr ist
Ã³ mica
Ġcred ited
A pp
Ġdem oc
ĠAr ena
ĠÑģ Ð±
la ch
ĠÐ½ ÐµÑĤ
Ġperiod o
ĠProgram m
Ġs ede
ass ador
Tra jectÃ²ria
c ut
Ġcanc el
est ruct
Ġse ctors
Ġgu ilt
fol k
inte gr
Ġre chts
ĠÐ± Ð¾Ð»
iens te
ĠRich mond
ĠIndust rie
ĠL ÃŃ
Ġmar chÃ©
ĠMon ate
ĠGÃ¼ ter
Ġam ics
hal le
Ã¨s ia
Ġbest en
ĠCi utat
ad ia
ill i
Ġlocal itat
ach i
az ar
ĠÐĿ ÑĮÑİ
Ġste am
ot yp
Ġex it
Ġmon arch
ent o
Ġr Ãłdio
Ġ3 000
Ġtest im
Ġscholars hip
ĠregelmÃ¤ÃŁ ig
Ġh inz
Ð¸ÑĤÐµÐ»ÑĮ Ð½ÑĭÐµ
Ġfix ed
jek te
ĠÑĩÐµÑĤÑĭ ÑĢÐµ
ern s
Ġincl oure
Ġtra g
ĠÐľ Ð°Ð¹
ĠSant os
Ġadd ing
ĠÐ°Ð´Ð¼Ð¸Ð½Ð¸ÑģÑĤ ÑĢÐ°ÑĤÐ¸Ð²
Ġc Ã©r
Ġc ardenal
Ġtem as
Des de
Ġprovinc es
ĠÑģÐ»ÑĥÑĩ Ð°Ðµ
ĠMun ich
ĠL icht
ĠD raft
ĠSal a
I F
ĠS erg
ĠÐº ÑĢÑĥÐ³
ĠB ond
Ġher b
Ġpass er
Ġpubl ique
ĠVerkehr s
ĠrÃ©fÃ©r ence
Ù Ħ
ĠM ons
Ġpre f
Ġserv icios
ĠÐ¼ÐµÑĤ ÑĢÐ¾Ð²
ĠI an
iss er
Ġtransl ated
id Ã©
Ġad oss
ĠgehÃ¶r ten
Ġre is
Ġposs ibles
asc ar
ĠMot ors
un esse
Ġdedic at
Ġestudi ants
ĠF alls
ĠOtt oman
Ġpro mpt
ĠEl l
ĠDep uty
ĠMag dal
Ġjoue urs
Ġst orage
ĠAl tern
Ġimm un
Ġo s
ath y
Ð¶ Ð°
Ġdestru ir
Ã¡ z
sch w
Ġmar ques
Ġstrong ly
Ġo este
ĠVer anstalt
Ġcorresp on
ĠAg ain
ĠB ible
Ġc ron
ĠÐ¼ ÑĥÐ½Ð¸ÑĨÐ¸Ð¿
Ġme z
Ġaud io
ĠAnd reas
Ġappoint ment
ocup aciÃ³
Ġheut ige
Ġfam a
ĠStadt teil
ĠÑģ Ð¾Ð»Ð´
ete ilt
ĠrÃ© un
Ġbet rieben
Ġprote cted
ĠÐľÐ¸Ñħ Ð°
em ann
Ã¼ck en
Ġappe al
b ishop
m ol
ĠH unter
Ġz onas
ĠBar n
rel les
ĠÃģ lv
ĠÐ¿Ð¾Ð¼Ð¾Ñī ÑĮÑİ
Ġg ay
ÐµÑĢ ÐµÐ¶
ĠZusammen hang
ĠÃ©quip es
Ġth ing
et as
P ara
ĠV at
ĠÐ¿ÑĢ Ð¸Ð´
Ġbl an
ĠKlass e
Ġp ug
ĠS end
Ġ18 13
Ġdeix a
ĠE ugen
geh Ã¶
ĠZ ent
Ġsch l
Ġart illery
ativ en
Ġdarr ers
Ġle ben
ack er
Ġtri om
Ge orge
ĠLat ino
Ġliv res
Ġdeven u
ĠSymph ony
b ie
h orn
Â ª
an ova
Ġmal ad
. '
wer ks
ĠÐ²Ð¾Ð¹ÑģÐº Ð°
Ġ Ãºt
ĠR uf
Ġhe ll
Ġneg res
ĠÑĢÐµÑĪ ÐµÐ½Ð¸Ðµ
ĠP ay
ĠÑģÑĭ Ð½
M in
Ð¡ Ð¿
Ġcamp anar
Ð¸ÑĨ Ð¸Ñı
ĠB iblioteca
Ġfon amental
Ġbaix es
ĠKong ress
ĠEnts cheid
% ).
ĠÐ±ÑĥÐ´ ÑĥÑī
Ġp overty
ĠÐĴÐ»Ð°Ð´ Ð¸Ð¼Ð¸ÑĢ
ro mp
Ġ183 1
ĠGuatem ala
aug ment
ĠÐ´Ðµ ÑģÑıÑĤ
Nach dem
Ġaugment ar
atri Ã¨me
ĠJ ava
Ġsur pr
Ġp in
el ia
Ġ1 19
ĠP ul
aut en
Ġcer Ãłmica
ĠÐ¿Ð¾ÑģÐ² ÑıÑī
ĠS V
Ġ20 20
Ġaspect es
ĠÃ¼berw iegend
ĠÃ¤l ter
Ġsec ure
198 4
ĠL ima
Ñĩ Ð°ÑĤ
Ġentren ador
ĠÐ¿ Ð¸ÑģÑĮ
Ġmar ry
Ġpo ques
est one
Ð¾Ñģ Ð°
Ġfun er
ĠÐ½Ð¾Ð² ÑĭÐ¹
Ġinsc rit
ĠZ one
Ġexper iments
onc Ã©
Ð» Ð¾ÑĢ
ĠmÃ¨t odes
Ġagricult ure
Ġliqu id
H on
Ð¸ÑĤÐµÐ»ÑĮ Ð½Ð¾Ð³Ð¾
Ġfind ing
ĠRang ers
ĠSchwar z
Ð½Ð¾ ÑĪ
Ġemp f
ĠÐ´ÐµÑıÑĤÐµÐ»ÑĮ Ð½Ð¾ÑģÑĤÐ¸
Ð¾Ð» Ð¸ÑĤ
Ġl ut
ĠÐ° ÑĢÐµÑģÑĤ
Ġmodel o
im as
Ġra y
Ġem mar
ĠespaÃ± ola
ĠN acions
ÑĢÐ¸ÑģÑĤ Ð¸Ð°Ð½
k raft
ĠgÃ©n ero
ĠÑĤ ÑĢÑĥ
ok a
Ġband e
Ġchap elle
a illes
f es
ĠE C
Ġcu ad
ĠCat hedral
Ġintrodu ir
ĠOrth odox
Ġc ited
ic z
ĠG un
Ã¼ gen
ĠÑį ÑĦÑĦ
Ġzul etzt
Ġseu es
Ġlang en
Ġzun ehm
Ġvess els
ent on
ĠO range
ĠÑĩÐ¸Ñģ Ð»Ð¾
im it
Ġredu ir
ne as
ĠAl ten
Ġcent rale
L age
Ð¸ÑĤÐµÐ»ÑĮ Ð½ÑĭÐ¹
Ġver lÃ¤uft
ĠÐ± Ð°ÑģÑģ
iss ements
Ġgr acias
An n
conom ie
Ġespany oles
Ġ18 21
oll o
Ġnort heast
ac ciÃ³n
Ġsucce ir
v on
Ġdich o
ĠÑĪÐºÐ¾Ð» Ñĥ
ĠW ahr
Ðĺ Ð½
ĠTer esa
ĠHeil igen
Ġt unnel
ant on
ĠW eitere
Ð»Ð° Ð¼
Ġfl am
Ġseigne ur
Ġbek am
Ġvisit ors
reb oss
ĠHeidel berg
ari us
Ġger man
Ġ10 8
Ġanomen ar
Ġtransl ation
Ġde me
itz ant
ĠrÃ© volution
Ð°Ð»ÑĮ ÑıÐ½
Ġge fÃ¼hrt
Ġneg ra
Ġpan el
Ġcomp ound
ĠÑį Ð¼
ĠÑĨÐµÐ½ÑĤ ÑĢÐ°Ð»ÑĮ
) )
Ġdefens ive
ĠEn vironment
Ġpass Ã©
ĠÐ´Ð¾Ð¿ Ð¾Ð»Ð½
og s
ĠBe im
Ġdep uty
Ġdev ast
ĠDok ument
ed ic
ĠS ib
Ð³ Ð¾ÑĢ
me hr
ĠÑģ ÑĢÐ°Ð¶
if orme
Ġans wer
R uss
ĠD um
ĠMet all
ens on
Ð¾ÑĤ Ðµ
Ġdol Ã§a
Ġemper ador
ĠÐ½ÐµÐ¾Ð±ÑħÐ¾Ð´ Ð¸Ð¼
Ġtr ata
Ac adÃ©mie
Ġh its
amb le
Ġlaw yer
Ġgesam ten
ch ron
ĠD oppel
Ã¤n n
str ong
hard t
ĠDoming o
se ason
ĠSel on
Ġsor pr
ĠA mp
Ġgro wn
ĠR idge
km ale
in ally
ÐµÐ¼ Ð°ÑĤ
ĠBlÃ¼ ten
ian za
ĠY ugosl
ben en
ro h
Ġport ant
Ġfond Ãłria
Ġstrateg y
ĠColl ins
Ġk ompl
Ġpat ient
Ġrit ual
ĠSh aw
Ãī t
Ã¤hr t
Desp uÃ©s
Ġenll Ãł
Ġpri me
Ġplata forma
ĠS Ã³n
Ġus age
Ġed it
Ġacc eler
Ġcolum na
y ll
ut nant
ĠÐ½ Ð°Ð»
Ġpres que
ĠÐ¿Ð¾Ð¼ ÐµÑī
ĠCÃ³rd oba
Ð² ÑĳÑĢ
Ġhid ro
Ġban ks
kel ey
ĠÐ°ÑĢÑĤ Ð¸Ð»Ð»
f rom
an omena
ĠÐ½Ð° Ð¹
Ġform ally
Ġfil es
Ġpublic Ã³
Ġunivers ities
Ð½ Ð¸Ñı
ĠN ancy
Ġtrans par
Ġ179 0
an moins
ĠÑĦ Ð°ÐºÑĤ
Ġpeque Ã±o
Ġd ated
et ime
ĠR enn
Ġesp agn
lÃ© tico
ĠAthlet ic
Ġ NE
Ġla p
Ð¿ ÑĤ
le ctor
aj uda
ari um
C la
Ġhe ures
ĠÐ³ Ð»ÑĥÐ±
ula ires
ĠAdd itionally
Ġbes a
Ġstre am
um i
ĠBol iv
Ġt ind
ĠBelg ique
al m
ĠÐĳ Ð°ÑĢ
b eding
ĠÃ©l Ã©ments
ĠEnerg y
Ð°Ð»ÑĮ Ð½ÑĭÐ¼
Ġers tes
Ġestruct ures
Ġport ada
Ġachie ve
ĠAl le
Ġsa que
Ġpo esia
ĠFlor ence
ĠÃ¼ber t
Ġconc rete
ĠAuthor ity
ä ¸
ict ions
Ġmajor itÃ©
ĠAcadem ia
ĠD ragon
ĠK iel
Ã¼n den
Ġl isten
Ġdynast y
ĠPict ures
M or
Ġk onz
iss on
198 3
ic amente
Ġor o
ĠÐ° ÑģÑģ
Ġtest imon
R E
Ã¼ der
ĠÐ½ Ð¸Ð·
ien cias
ĠEr k
Ġdre w
ĠM ix
ĠCom itÃ©
Ġmainten ance
Ġappara Ã®t
Ð½Ð¾Ð² ÑĢÐµÐ¼ÐµÐ½Ð½Ð¾
Ġinsc ripciÃ³
unt ament
Ġspe ak
Ð¸Ð°Ð» Ð¸ÑģÑĤ
Ġd Ã¼r
Ã©ro Ã¯des
W ork
ÑĢ Ð¸Ð¸
ink el
Ġstat ut
mar kt
Ġwithd raw
ĠÐ·Ð°Ñħ Ð²Ð°ÑĤ
Ġc int
Ġf ly
Ð¸Ð» Ðµ
Ġdest ro
Ġdecl ine
ĠÐ·Ð°Ð¼ ÐµÐ½
Ġcoorden adas
ue il
iÃ©nd ose
ĠÐĴ ÑĤÐ¾ÑĢ
Ġvol umes
Ġexper iences
ĠC ru
Ġoper ates
halt ung
ĠWork s
N orth
Ġrec onn
Ġchap el
Ġst ruck
Ġqual itÃ©
o ter
Ġest ig
Ġform ats
fl Ã¤chen
ĠF ak
ĠI T
Ġaut hors
Ġenter ing
Ġcan ons
rÃ© taire
Ġprocess os
A st
Ġc odi
ĠCin ema
Ġcond am
Ġhyp oth
Ġmar iage
ĠMedic ine
Ġf ishing
Ġst im
ĠDan ish
ĠH ass
ĠtÃ© mo
gress ive
ĠÐ¼Ð½ Ð¾Ð¶
Ġtravel ed
verwalt ung
Ġb ond
Ġaff airs
ĠPol Ã²nia
ĠÐ¿ÑĢÐµÐ´ Ð¿
Ġrad ar
Ġcapac idad
ĠTest ament
ĠTrin ity
Ġesc apar
ĠHer itage
ĠU t
is iones
ĠN etz
Ġent spr
ĠÑĤ Ð¾Ð½
Ġcor p
ĠÐŀ Ð½Ð¸
ĠAg ust
h igh
ĠB ath
ĠVer wendung
Ġeinzel nen
ern en
ĠÑģÐµÐ¼ ÐµÐ¹
ir ch
ĠK och
Ġj ury
Es te
f are
Ġced it
Fil m
ĠCar lo
enz en
Ġn as
ĠC enso
Ð² Ð°ÑĢ
Ġab ge
Ġbl oc
ab i
ĠPla za
Ð° Ð±Ð¾ÑĤ
ĠK ron
Ġfam Ã³s
Ã¨r c
Ġevery thing
Ð¸Ð±Ð»Ð¸ Ð¾ÑĤ
ro ke
le vel
Ġr isc
ĠBroad cast
F ou
Ã³ v
ĠQu ad
ĠGre y
Ð¸ÑĢÐ¾Ð²Ð°Ð½ Ð¸Ðµ
b ur
Ġcre a
Ġsent ir
ĠÑĩÐµÐ¼Ð¿Ð¸Ð¾Ð½ Ð°ÑĤÐ°
op ter
ion ats
Ġgro ÃŁer
ĠLou ise
Ġdise Ã±
N eben
or at
os hi
Ñı Ð³
Ġhe iÃŁ
ĠÐ·Ð°Ðº Ð¾Ð½Ñĩ
k ampf
ÐµÐ½ Ð½
Ġaus schlieÃŁlich
ĠÐ¾Ð±Ñī ÐµÑģÑĤÐ²Ð°
ath a
ĠBr andenburg
Ġret ra
ĠÑĢÐµ Ð¹
ĠÐµÐ´Ð¸Ð½ ÑģÑĤÐ²ÐµÐ½
Ġescoll it
st ed
Ã¨ les
Ġpre dic
Ġvide os
Ġde grad
Ġal tes
ĠThe ma
vi ation
Ġchr Ã©t
Ġar x
Ġen orm
ÐµÐ½ Ð½ÑĥÑİ
Ġauf ge
Ġher ed
Ġst arring
Ġor al
Ð¸ÑĨ ÐµÐ¹
Ġdisc urs
ĠcÃ´t Ã©s
int Ã©rieur
Ġrealitz ats
ĠF antas
ĠErn est
Ġcerc le
Ġcontrovers ial
pr Ã¤sent
ven ciÃ³
Ġmitj an
Ġsevent h
Ġth in
ĠN et
af e
ĠSec onde
ĠBas ketball
ĠL ion
ĠAl aska
Ġem ig
Ġb ones
ĠD azu
ĠG rim
ĠF am
ÐµÑģ Ð°
Ð¾ÑĤ Ð²Ð¾ÑĢ
g ues
ro is
Ġv ingt
Ð°ÑĤÐµÐ» Ð¸
ĠFÃ¼r st
Ġsk in
Ġbut s
Ġcomb ats
Ġexper ts
Ġattract ed
Ð´Ð° ÐµÑĤ
Ġcomun itats
Ġder ech
ĠIn stit
Ġp udo
Ð¸ÑĤÐµÐ»ÑĮ Ð½ÑĭÑħ
Ġvall Ã©e
Ġno ct
Ġcar act
age gen
ĠWar ren
ĠÐ¿ÑĢÐ¾ÑĦÐµÑģÑģ Ð¸Ð¾Ð½
198 2
Ġfre qÃ¼Ã¨ncia
Ġan unciÃ³
ĠW affen
Ġintern ation
itor ial
k op
ĠÐº Ð¾Ñģ
Ġtransm ission
ĠJon athan
r aciÃ³
r ina
Ġc ricket
am as
c alled
ĠT ru
ĠL it
eg io
B is
Ġim agen
lÃł ndia
ĠEdu ard
ĠE hr
Ġ10 6
od el
Ġra j
S o
Ġelectron ic
ĠB ros
Ġmen jar
ĠJul ius
arqu ia
Ġpr ise
Ġdon ated
ĠJer ry
ĠÐ½ÐµÐºÐ¾ÑĤÐ¾ÑĢ ÑĭÑħ
Ġv ec
ĠCh ang
Ãª che
P lay
e ixen
Ġf ant
ĠÐº Ð¸Ð»
ĠÐ¿ÑĢÐ°Ð² Ð°
Ġper i
ĠZ usch
arqu itecte
Ġdisapp ear
ĠP oll
ma jor
p ent
ĠestÃł nd
V A
ag i
ĠÐļ Ð°Ð»
Ġw ider
Ġqued Ã³
er as
ay an
Ġ3 60
Ġcont rar
Ð°Ð»ÑĮ Ð½ÑĥÑİ
Ġrespect ivament
auft rag
Ġbiet et
Ġre acciÃ³
Ġang le
Ġinofens iu
in stitut
Ġin qu
Ġmed ium
L uc
Ã§ ant
Ġinf ect
ab ase
ĠZeit schrift
urb an
Ġtax es
M eter
Ġpr atique
ÑĦ Ð¾ÑĢ
Ġabs ence
ĠcrÃ© ixer
Ġpod rÃŃa
ĠFin land
lÃ¤nd ischen
ĠProvinc ial
ĠQu ar
Ġalc alde
ĠÑĦÑĢÐ¾Ð½ ÑĤÐ°
A qu
Ãł cies
Ġvict or
Ġsomew hat
Ġcons ent
Ġven ue
Ġdern iers
ĠPhilosoph ie
Ð° ÑĢÐµ
ib a
ĠSte vens
Ġwel cher
ĠÑģÐ¾Ð¾ÑĤÐ²ÐµÑĤ ÑģÑĤÐ²
ĠÐ´Ð² Ð¸Ð³
Ġmo itiÃ©
e ux
ri qu
Ġcomplet ion
Pro du
Ġmark ets
ĠM asters
ios os
ĠTrad ition
Ġerfol gt
k r
Ġre de
ĠAn at
ĠÐ¾Ð³ ÑĢÐ°Ð½Ð¸Ñĩ
ĠÐ¼ ÐµÐ»
Ã¤d t
Ġsta at
Ġdes halb
Ġar re
Ġgl ac
ĠAn c
Ġgener aciÃ³
Ġsov i
ische m
Ð¾ÑĢÐ° Ñħ
ĠÐ·Ð°Ð² Ð¾ÐµÐ²
S port
Ġconne x
ĠCl ara
Ġcaus ar
Ġfrequ ent
ai ro
ĠUr ban
ĠfÃ© u
Ġn immt
ĠL P
Ġac counts
Ġrepresent ant
ĠBud apest
Ġact uals
Ġproduct ions
Ġear n
Ġvideo j
ric os
ĠÐł Ð¾Ð±
Ġbrig ade
ĠÐ² Ð½Ð¸Ð¼
ied lung
Ġrough ly
ĠIn gen
gr aduate
Ġpersonn ages
ĠP A
Ġhe ter
Ġquien es
w urf
is an
ĠN g
ĠÑĦ Ð¾Ð½
Ġvess el
d ings
ÐµÑħ Ð½
ard in
ĠÐĺ ÑĤÐ°Ð»
Ġneigh bour
ĠÑĥÐ½Ð¸Ð²ÐµÑĢÑģÐ¸ÑĤ ÐµÑĤÐµ
Ġb ic
Ġall iance
Ġfilm ed
gÃ¼ lt
an ese
ĠÐ¿ÐµÑĢÐ² ÑĭÑħ
Des ign
el ection
Ġw rong
Car actÃ©r
ĠJak ob
ÃŃn ia
aix a
int ed
Ġhappen ed
Ġv apor
ĠK i
ĠRep ort
Ġmaj ors
ĠI P
p m
ÑĥÑģÑĤ Ñı
abil idad
ri minal
ĠÑģ ÑĥÐ¿
Ġver antwort
Ġappear ing
Ġcapit ale
Ġn ichts
Ġtit res
Ġdefens ar
Ġblanc s
o ard
ĠN as
A ix
Ġa rab
Ġc ess
ĠY a
ÃŃc ulos
Ġweiter er
l Ã¶sung
ĠW ing
Ġ18 25
Ġfl ed
ĠSow jet
Ġ18 16
Ġllev ant
Ġdat os
l ust
ĠM Ãºsica
Ñĥ Ð¹
Ġsuff icient
Ġv enda
ĠM ang
obre ix
h yd
rit y
ĠJos h
apar iciÃ³
Ġper pet
Ġap unt
ĠOb ama
ĠÐ¾ ÑĢÑĥÐ¶
Ġch alleng
Ġshe l
Ġrecon Ã¨ixer
i Ã¡n
che t
cep ciÃ³
ĠÐ² Ð¾ÑģÑĤÐ¾Ñĩ
ĠÑģÑĤÐ°Ð½ ÑĨÐ¸Ð¸
Ġt s
esc ut
Ġ11 2
ĠL ager
ĠvollstÃ¤nd ig
ĠÐĴ Ð°Ð»
ĠÐ²ÑĭÐ¿ ÑĥÑī
Ġactiv idades
Ġloss es
Ġsho ot
il is
emb la
ĠBer keley
ĠÐ¾Ð´ Ð½Ð°
f unk
he tic
ÐµÐ½ ÑĨ
ĠÐ³ Ð²Ð°ÑĢÐ´
ĠÐ»Ð¸Ð½ Ð¸Ð¸
Ġc Ãłl
un ge
' ve
ei ht
ĠXX I
Ġf allen
ĠJ ess
Ġpro ces
ĠConse jo
Ġrelle u
ĠF ine
ina ison
Ġinvestig aciÃ³
ĠC ost
ĠM eyer
Ġpres se
ĠChamp ion
brit ann
Ġ( âĢ
ond issement
f ra
Ð¸Ð» ÐµÑĤ
ĠZ o
Ġemerg ency
Ġv u
Ġmot ll
Ġappro val
Ġcrist iana
oc e
ĠAlf ons
Ġverd ad
ĠÐºÐ¾Ð½ÑĤ ÑĢÐ°ÐºÑĤ
ĠÐ½ÐµÐºÐ¾ÑĤÐ¾ÑĢ ÑĭÐµ
ÑĭÐ² Ð°ÑİÑĤ
Ġp i
ĠS ed
ĠÐ» ÐµÐ¹
ig g
ĠF rid
Ġanomen ats
ĠDire ct
Ġdise Ã±o
Ġ11 5
Ġgre cs
ĠSim p
Ġsurround ed
ĠA kt
ĠCi Ã¨ncies
riv Ã©e
ĠÐºÑĢÐµÑģÑĤ ÑĮÑıÐ½
Ġdec ret
Ġcontinu ing
Ġother wise
Ġprogram mes
Ġcover ing
Ġan ch
ĠF ischer
Ġdown town
gesch oss
Ġsimp les
ĠK el
ĠIn strument
ĠUm gebung
Ġsout en
ĠD rei
ĠCon tempor
ĠMeth od
Ġpion eer
im i
iz ierte
ock en
Ġcastell Ãł
ĠAbd ul
ĠL amb
ĠÑģ ÐµÑĤ
ix es
ĠeuropÃ© enne
T our
Ġm Ã©m
ĠG ay
ĠRe is
ĠMon ument
Ġnewspap ers
Ġencour aged
ĠrÃ©al ise
w ers
ÐµÐ½ Ð·
ĠMerc edes
ĠNich olas
Ġafter wards
ĠÐ¿ÑĢÐ¸ Ð¾Ð±
Ġger ade
Ġp ray
Â» .âĢĭ
ĠÑĢÐ°Ð· Ð³
ĠÐºÐ¾Ð½ÑĤ ÑĢ
A uch
st ud
Ġdu al
Ġexecut ed
Ġbesteh en
ank en
Ð»ÐµÐ½ Ð¸Ñİ
Ġ180 6
Ġej ecut
ĠG T
Ġst Ã¤r
xim o
d essen
t al
ĠM end
Ð½Ð¾ Ñģ
Ġsuper ar
Ġmant Ã©
Ġmanufact uring
Ġv ib
Ðº Ð¾Ð¿
ÑĦ Ð°
Ġperson ajes
Ð¸Ð²ÑĪ Ð¸Ð¹
ĠÐ¿Ð¾ÑĤ Ð¾Ð¼
Ġnorth west
ĠÐ¼ÐµÑĤ Ð¾Ð´
ĠInv estig
Ġclass ement
Ġjac iments
h ic
ĠW agen
ĠEver y
al guns
Ġsp oke
Ġsuc es
Ġeffect ively
ĠÐ¿Ð¾Ð³ Ð¸Ð±
Ġunder ground
CaractÃ©r istiques
Y ou
Ġent lang
Ġantic ip
Ð½Ð¾Ð´ Ð¾ÑĢÐ¾Ð¶
O k
ĠM ate
Ġe ut
Ñı Ð»Ð¸
Ġsp irit
áµ Ĵ
Ġmeet ings
Ġbes o
ĠÐ¶Ð¸Ð² Ð¾ÑĤ
h Ã¤user
Ġt y
Ð°ÐºÑĤ Ð¸Ð²
Ġiniciat iva
oc iÃ³
Ã¯ d
Ġescrib iÃ³
ĠÑĤ ÑĭÑģ
Ġart istic
Ġfund at
Ġeleg ido
sta at
ĠSt alin
ist isch
ĠR ica
ĠU A
sch ul
Ġverk auft
ĠYork shire
u Ã±a
Ġsur gery
Ġ {
all o
ĠÐĴ Ð¾Ð»
ĠSpiel zeit
ad ell
Ð°Ð½ ÑģÐºÐ¾Ð¹
Ã² pera
Ġpart ida
Ġform ing
ĠNor uega
Ġutilitz ada
ĠLa ura
imm ing
do or
X V
... )
Ġrus se
ĠLle ida
ĠÐ½ ÑĳÐ¼
Ġgru ix
ĠV ersch
Ġvol t
Ġarchitect ural
Ġh osts
ĠK it
Ġcult urals
Ġprote ctor
Ñģ Ð¸
g or
Ġestabl ert
ĠBelg ium
Ġimp res
rÃ¤ ger
ĠÐ¿ÑĢÐ¸Ð½ ÑıÑĤ
Ġbal ance
ra ba
An glaterra
ĠUp per
ĠGÃ³ mez
Ġn aus
Ġel der
ĠL ob
Ð¾Ð» ÐµÑĤ
ograph ical
ĠPrem io
R o
ĠC Ã©sar
ĠIn ner
ĠAn im
ĠÐ¿ÑĢÐ¾ÑĤÐ¸Ð² Ð½Ð¸ÐºÐ°
ÑģÑĤ Ð°Ð½ÑĤ
Ġrem ember
Ð» Ð¸Ð½Ð°
ĠA ction
Ð¾Ð¿ Ð°Ñģ
ÐµÐµ Ñħ
Ġinflu ential
ĠÐ²ÑĭÑģÑĤÑĥÐ¿ Ð°Ð»
Ġverlie hen
A z
G l
enc arreg
ĠÐ´ÑĢÑĥÐ³ Ð¾Ð¹
ĠDen mark
ĠÑĪÐºÐ¾Ð» Ðµ
ĠÐ¡Ð² ÑıÑĤ
g emeinschaft
Ġl ingu
Ġin gen
Ġni Ã±os
ĠBest and
b ing
Ġein s
Ġbe gun
Ã¶ gen
Ġinter Ã©s
ĠHer o
Ġtor res
ĠÐºÐ»Ð°Ð´ Ð±
ĠK ass
ĠAd miral
Ġrepl acing
Ġutilitz a
Ġeurope a
Ġimag in
Ġbosc os
Ġsatell ite
d as
Ġhist Ã²rica
ĠFl Ã¤che
Ġinterpret aciÃ³
c ciÃ³n
ĠE qu
O H
Ġpe us
Ġhundred s
M o
ol ith
Ġpr Ã¡ct
ĠÐĵ Ð»Ð°Ð²
ĠGu illaume
Ġzw Ã¶lf
Ġin fr
ĠT i
Ã¤ um
Ġpast or
Ġweek ly
Ġcateg orÃŃa
ĠW erner
ĠO g
an is
Ġent hÃ¤lt
197 5
ĠÐ·Ð°Ð² ÐµÐ´
Ġdet all
l ater
Ġmot ors
Ġprocess es
ĠRog ers
Ġw ine
ĠÐĶ Ð¼Ð¸ÑĤ
Ġvisit ing
S ep
ĠSt rat
ĠÐĴ Ð¸Ðº
ĠCom itÃ¨
ĠÐµ Ð¹
ĠÑģÐµÑĢ Ð¸Ð¸
Ġinvas iÃ³
Ð° ÑģÐº
iel e
Ġtro uv
Ġdecide ix
ĠIndones ia
ĠÐ¸Ð½ÑģÑĤÐ¸ÑĤ ÑĥÑĤÐ°
ĠÐ²ÑĭÐ· Ð²
C asa
t ion
f inal
Ð°Ð½ Ð½ÑĭÐ¹
Ġgreat ly
ĠÐ¸Ð¼Ð¿ ÐµÑĢÐ¸Ð¸
Ġa x
ĠâĢ ¦
Ġre habilit
ys is
Ġ10 7
ĠT unis
Ġinst itu
ĠHind u
A ust
Ġcol Ã²nia
ĠInd ians
ĠMe isterschaft
Ġpossess iÃ³
p ower
Ġf ict
Ã©r Ãªt
ĠÐĹ Ð°Ðº
ĠÑĥÐ¿ Ð¾Ð¼Ð¸Ð½
ĠÐ± ÑĢÐ¸ÑĤÐ°Ð½
Ġoff en
ĠBes atz
Ġcoal ition
forc ement
ach im
ĠGraf en
Ġpropri Ã©ta
Ġguer r
Ġaj uda
A ir
Ð»ÐµÐ½ Ð¸Ð¹
in ic
ĠMar co
Ġsol en
enz a
E v
ĠW u
Ġc oure
ĠY ale
Ġroya ume
Ġac know
ous es
ĠC ler
ĠL ip
ÃŃ ria
ill ers
min ute
ĠÐ¿Ð¾ ÑĢÐ°Ð¶
ĠÑĤÐ¸ÑĤ ÑĥÐ»
ĠS now
Ġpol ar
Ġass embly
pro fit
Ġvale ur
Ġ4 50
Ġs iÃ¨cle
ne um
Ã©l ior
Ġequip ped
ĠÐ» ÐµÐ²
ebis be
g yp
Ġp ist
ĠAb bey
Ġmet ropolit
Ġfr ame
ĠÑĤÐ¸Ð¿ Ð°
Ġesp ais
Ġreemp laÃ§
ĠFen ster
ĠD ios
Ġgr am
Ġrecomm ended
ĠHoll and
M ay
Ġpr at
ĠÐ¾Ð± Ð²Ð¸Ð½
ĠÐĽ Ðµ
cast le
D in
Ġb ru
Ġsa fe
Ġconcern ed
ĠÐ¼Ð¾ÑĢ Ñı
Ġmat Ã¨ria
ĠRam Ã³n
B en
ir al
ÃŃ r
ok o
m ath
NE SCO
ĠTer r
ĠJud ge
Ð°Ñı ÑģÑĮ
Ġc im
ie ben
ess el
Ġmy ster
ĠÐ´ÐµÑĢÐµÐ² Ð½Ðµ
Ġb id
ĠÐºÐ¾Ð½ ÑĨÐ°
Ġg a
Ġno ir
Ġje fe
Ġc icl
Ġaconseg ueix
Ġfuster ia
auf hin
al z
ĠC and
ĠP ius
Ñĳ ÑĢÐ°
Ġact ed
ĠVor stand
Ġanc iens
Ġsp end
ĠÑģÑĤ Ð¸Ñħ
Ġvers te
Ġobt ing
S erv
Ġmost ren
ĠdÃ©b uts
d re
Ġbe ar
fin als
Ġarm as
ĠÑĤ ÐµÐ¼Ð¿
Ġsal var
ĠcÃ©lÃ¨ bre
Ġo verse
ren z
Ġg one
ign on
Ġte ulada
Ġbas at
ĠSu z
Ġtr enta
ĠMasch inen
abb aye
M any
Ġdo ivent
Ġciutad ans
ert ed
R ed
an ze
ĠÐ´ Ð½ÐµÐ¹
ĠLor enzo
Ġ18 18
Ġad el
Ġsub stit
Ġcommer c
ĠDeb Ã¼t
ĠSt uart
au ge
Ġinter na
An te
Ġconsist ent
rip ts
Ã³ metros
Ñĥ Ñı
ĠAn zahl
ĠAnd ers
Ġgew orden
Ġgest iÃ³
ĠWeltkrieg s
P e
ĠÐ¼ Ñĭ
Ġco ff
ĠÐĿ Ð°ÑĨÐ¸Ð¾Ð½
ĠF lag
fin ale
Ġtex ts
_ (
Ã© cl
ĠdÃ© pl
Ġjou er
g arn
ell ion
Ð¸Ð½ Ð´
Ġne ur
ĠEm ma
eh men
ĠÐŃ ÑĤ
exp ans
Ġlast ed
ĠAv ec
Ġexplic ar
Ġderech os
ĠR ennen
ĠÐĿÐ¸Ðº Ð¾Ð»Ð°
Ġfuster ies
Ġb ull
ĠÐ± Ð»Ð°Ð³
197 9
Ġest rella
Ġma Ã®tre
Ġber ufen
Ġocas iones
ĠGel Ã¤nde
ĠÐ½Ð¾Ð² Ð¾Ð³Ð¾
Ġrealitz a
Ġtre ated
Ġnecess ari
Ġchap ter
Ġte atro
Ġanal og
ĠÑĢÐ° ÑģÐº
Ġsud den
Ð°Ð» Ñĭ
Ġemp r
Ġfour n
It alie
as co
ĠÐ² Ð½ÐµÑĪ
Ġunt erst
Ġpet ro
ĠM Ã¡s
ĠB ear
ĠH ip
ĠÐ´ Ð¸ÑģÐº
Ġcens o
Ãłr dia
em it
Ġthreaten ed
Ġand erer
ĠCo al
Ġreta il
ĠÑı Ð¿Ð¾Ð½
ĠMod ell
Ġl ug
Ġp Ã©r
Ġdraw ing
Ġin frastructure
ell ers
ins p
ma ine
198 1
Ġestadounid ense
ĠÐ¿ Ð°Ð»
Ġrevol uciÃ³
Ġincorpor ar
Ġestabl iment
Ġ178 9
ÅĤ aw
Ġ Ã¶st
ĠB le
Ġest atal
ĠÃł rea
Ġexist ed
ĠreÃ§ u
ĠHamp shire
bl os
Ġarrib at
Ġ180 3
ĠÐ´ÑĥÑħ Ð¾Ð²
ĠP un
Ð² Ñĥ
ĠN ort
ĠCh allenge
ĠÐ¿Ð» Ð°ÑĤ
ast res
ĠÑģÑĤ Ð°Ð²
ĠÐ¿Ð¾ÑģÑĤ Ð°Ð½Ð¾Ð²
Ġoccas ions
ĠÐľ Ð¾Ð½
ĠRo berto
ĠÐºÐ¾ÑĤÐ¾ÑĢ ÑĭÐ¼
el ev
Ġinstit ucions
Ġdefe ating
C O
Ġvic epresident
ĠY ang
Ġblanc os
Ġab gel
ĠTer ry
ul Ã©e
Ġinc urs
Ġtourn Ã©e
Ġsurv iving
M ost
k as
Ð¾Ð² Ð°Ð²ÑĪ
Ġmit ad
Ġbo ats
Ġprem is
Ġrapid ly
haus es
Ġhon ors
Ġreun iÃ³
ĠF ight
ĠY e
Ġchem ical
ĠÐºÐ°ÑĢÑĮ ÐµÑĢÑĥ
Ġall Ãł
Ġbild ete
ĠAd ela
Ġnatur alesa
Ġer inn
anc ell
ieren de
ĠJust in
ar Ã¡
ĠÐ¿ÐµÑĢ ÐµÐµÑħ
Ġstart ete
Ġretro u
ir se
Ġsel ecciÃ³n
wind igkeit
j ou
Ġpl u
Ġou vert
Ġcal end
ad apt
ge hen
Ġdurch gefÃ¼hrt
ĠHis pan
Ġbre it
ĠBrun o
ĠS T
ie use
ĠG az
ĠDi oc
ĠÑĥÑģ Ð¸Ð»
amerikan ischen
if iques
ÐµÐ¶Ð´ ÑĥÐ½Ð°ÑĢÐ¾Ð´
Ġm eteor
ĠMont g
ĠF isch
Ġwhe el
ĠÐ° Ð±
Ġsupport s
Ġinfl uencia
p he
ent orn
Ġin zwischen
ri ert
Ġfor te
ĠSch le
Ġatt ending
s uch
Ġpri ma
ĠSl ov
m un
Ġesp acial
ĠShe l
Ġamer ikanischen
Ġm ath
em i
bor ne
ĠÑģÐ¾Ð± ÑĢÐ°Ð½
b il
ĠS PD
ĠÑĨÐµÑĢÐºÐ¾Ð² ÑĮ
b ow
n orm
at ik
ĠÑģÐ² ÑıÑĤ
Ġnov els
Ġ ulls
ĠE re
Ġg ift
ud s
ĠDe ux
ÐµÐ½Ð¸Ñı Ð¼Ð¸
Ġfinanc eres
c ra
ĠZ wei
ĠRoy aume
Ġsou ha
minister ium
ĠprÃ²p ies
! "
g ere
ĠC rime
id Ã©e
ÑĪ ÑĤ
Ð°Ðº Ð°
az ines
ĠFrances co
Ġviat jar
Ġsuppl ies
ar re
Ġtu ber
ĠS P
th en
Ġcl Ã¡s
ĠMus l
Ġata que
ĠL ink
ĠIn glaterra
Ġpr Ã¨
ex terior
ĠÐ¼ÐµÑģÑĤ Ð°
ĠÑĢÐ°Ð·Ð²Ð¸ÑĤ Ð¸Ñı
ĠÐ¿ÑĢÐµÐ¿Ð¾Ð´ Ð°Ð²
Ð°ÑİÑī Ð¸Ð¹
ĠÐ·Ð° Ð´Ð°Ñĩ
Ġeing eb
Ð¾Ð³ÑĢÐ°ÑĦ Ð¸Ð¸
Ġbatt les
ep pe
ĠWe ise
Ġvirt ual
ĠÐĶ Ð¾Ð½
entre prise
Ġproteg ir
Ã©t abl
ĠAle j
ĠBul gar
ÑıÑģ ÑĮ
lap se
or esc
ĠÐ¼ Ð»Ð°Ð´
al b
ov ed
Ġz o
ĠRec ord
id amente
Ġcol ony
pl ant
ĠÐ» Ð¸Ð´
ĠTer re
c Ã³
Ð¾Ð· Ð½Ð°Ñĩ
Ġant igua
s o
Ġm uestra
Ġfir me
ĠOr te
Ġcond iciÃ³
Ġcharacter istics
Ġtrad ing
Ġguitar ra
Ġhistor iques
ĠDem okrat
Ġtor neo
Ġst able
au va
Ġver treten
Ġpreg unt
ĠÐĵ Ð¾ÑģÑĥÐ´Ð°ÑĢÑģÑĤÐ²ÐµÐ½
Ġpat i
Ġcat Ã©g
Ġcant Ã³
Ġchang ing
Ġafir ma
ĠR ams
ĠW end
ĠÐ½Ð° ÑģÑĤ
Ã± ez
Ð¸ÐºÐ° ÑĨÐ¸Ð¸
Ġh ope
ĠÐ´Ð² ÑĥÐ¼
Ġimmediat ament
Ġqu atriÃ¨me
Ð»Ñı ÐµÑĤÑģÑı
Ð½Ð° Ð´
ĠSte el
ĠT ierra
Ġint enta
Ġatt or
ĠJan eiro
Ġill ust
Ġmod ified
Ġven ir
Ġbeaut iful
Ġp ud
ĠÐ² Ð¾ÑģÑĤÐ¾Ðº
ĠÐº Ð°ÑĢ
Ġfr act
Ġ10 9
Ġpal etes
Ġprofes or
Ġtrans mit
Ã¡n ica
ro u
uc ks
ĠNav arra
ĠV ille
ĠÑĢÐ° Ð¼
Ġrecord ings
ÃŃ v
agn es
Ġpen alty
ĠS ammlung
ach ten
Ġso ft
uss ion
197 6
H owever
Ġein st
Ġweit gehend
re to
Ġl ignes
ĠP resent
ĠAn toine
Ġunder ta
Ġerm Ã¶glich
Ġal lein
ativ as
t um
enseny ament
Ð³ Ð³
jÃ¤h rige
E g
Ġm all
Ġen fin
Ġse ed
ĠÑģÑĤ ÑĢÑĥÐºÑĤ
ĠBild ung
qu ies
ĠS ter
ac onseg
ver fahren
auf en
Ð¾ÑĢ Ñĭ
rib ed
Ġelement os
ĠThe men
Ġph one
ĠIn sp
Ġn u
Ġre per
ÐºÐ¾Ð² Ð°
ĠUr spr
Ġer ected
ĠF ood
Ã¨n cer
Ġmehr fach
ĠÐ·ÐµÐ¼ Ð»Ð¸
m Ã©s
Ġg aud
Ġdesc riure
Ġnou vel
Ġ180 8
ĠreprÃ©s ente
T ax
ap par
rib le
Ð²Ð° ÑĢÐµ
Ġmind estens
ĠV iert
Ð°Ð½ ÑģÐºÐ¾Ð³Ð¾
ĠÃ ĵ
ĠRe ed
Ġlle va
as ant
Ġar ro
Ġsub sc
ĠBor de
Ġs leep
Ġw at
ĠC ir
ĠÐ·Ð° Ð³
Ġmov ements
Ġze igen
d an
Ð½Ð° Ñħ
ĠÄ Į
ĠtÃ©lÃ©v ision
Ġpre gn
ĠBob by
P op
ĠSta hl
ĠÐ¾ÑģÐ½Ð¾Ð² Ðµ
ĠSocial ista
ĠMÃ¤n n
Ġa fic
Ġoficial ment
Ġis lam
Ð¾Ð²Ð°Ð½ Ð°
Ġarrib ant
m aster
ĠEdu ardo
ĠDem ocrÃł
Ġrepr ises
ĠFac ebook
Ġf urn
Ġw ants
ĠC lay
ĠL iving
Ġinaug ural
ĠÐ¼ Ð¸Ð»Ð»Ð¸
Ġro ca
min ster
Ġenv iat
ĠÐ± Ð¸ÑĤ
Ġ179 2
Ġse es
Ġapp arten
Ð°ÑĨ Ð¸Ð¹
p al
Ġgrad ually
Ġauc une
est s
enc ials
ĠÑĥÐ± Ð¸Ð¹
ĠheiÃŁ t
h ill
i ations
Ġs tem
la ys
ĠMar vel
Ġsuff ering
Ġcu yo
Ge ografia
Ġvaria bles
Ġorn ament
ĠAfghan istan
r hein
ĠV ÃŃ
amm ed
M ax
S ta
ĠHist oria
W A
Ġr ass
Ġtra il
Ġc icle
ed iciÃ³
Ã¯ ssa
ÑĢÐ°Ð· Ñĥ
inn ati
à ¥
ĠT ax
ĠW appen
Ġgeb racht
g Ã©
ĠSt rom
Ġent sche
ĠKap elle
ĠSchm idt
emp ereur
olog ists
Ġdest inat
ĠÃ¡ r
ĠPro ven
Ġoper acions
ĠdÃ©c rit
p endencia
ul ations
ĠW atson
ĠÐ²Ð»Ð¸Ñı Ð½Ð¸Ðµ
Ġsing ular
ling e
Ġagr ic
Ġder iva
ĠNew ton
Ġcam ino
Ġcri mes
Ġarbeit et
Alt res
f ire
ĠÐ²ÐµÐº Ðµ
art ista
Ġparticip a
ĠAuf stieg
gew and
Ġcurs os
Ġs Ã©curitÃ©
ĠD od
Ġmur alla
forsch ung
Ġunmittel bar
ĠH eraus
ĠbritÃłn ica
itz acions
Ġpos icions
ĠM oss
Ġcomp on
Ġna issance
Ġc itÃ©
ĠllanÃ§ ament
P a
es ment
Ġg ols
Ġexcep te
ad ministration
ĠP anzer
ÑĦ Ð¸Ð½
Ġpossible ment
ĠLim ited
D eb
n ic
Ġfam osa
ĠÐĲ Ð»ÑĮ
Ġw ave
ĠrÃ©g ime
ĠCirc uit
Ġf ich
ahr en
ĠDar stellung
Ġf Ã¡
ĠL anka
Ġpass ion
Ġhor as
ĠX avier
ĠLau fe
Ġtier ras
ĠN ah
ĠK rieges
ĠHar old
ĠzusÃ¤tz lich
Ġob tain
rain er
197 7
Ã³l ica
ĠUn ides
Ġll etres
ĠÐ° Ð»ÑĮ
ĠTr act
ĠJeff erson
st all
ĠAust rian
Ġsant Ã©
Ġhyd ro
ĠIsa ac
Ġqualif ying
em ic
ĠH imm
leg ung
Pro fess
ĠOb serv
ĠNiger ia
ĠB ist
Ġver fÃ¼g
ĠÐ± Ð»Ð°Ð³Ð¾Ð´Ð°ÑĢÑı
ĠAr te
Ã©r ations
Ġsa il
Ġpermet en
Ġthous and
ĠÐ¿ ÐµÑħ
ĠAir lines
Ġhon our
ĠÐ¼Ð¸Ð½ ÑĥÑĤ
ĠSchool s
ĠseÃ± al
ent ra
Ġj orn
ĠAr tes
Ġvig il
Ġtr uth
ied en
ichn am
anc ienne
Ġaff ir
âģ º
ĠBang l
Ġcan Ã³
197 4
ĠSchrift steller
O ff
ĠP att
ĠK amp
Ġquel que
ĠA ktiv
ia ux
ĠF uj
Ġcabe za
ĠSe Ã±
ĠBo eing
Ġaliment Ãłria
ĠÐļ ÑĥÑĢ
ĠPro ble
Ġmodern es
Ġlic ense
Ġthir ty
Ġh ic
ĠBy zant
ĠGar ten
ĠM uss
ĠTra il
Ġcoast al
C or
h ores
Ġting uÃ©
T wo
ĠM ing
Ġgu ar
G en
Ġdej Ã³
deutsch en
Ġgep lant
I L
Ġl un
ĠÑĦÐ¸Ð» Ð¾ÑģÐ¾ÑĦ
org ung
ĠP ack
ĠSchw ester
ĠÐ¿Ð¾Ð² ÐµÑĢÑħ
ĠAb itur
Ġlo in
er rat
er weise
iz en
man as
ÐµÐ² Ð¸Ð´
ĠGr ace
ĠSal am
Ġinj uries
ĠH ope
Ã©s ie
ĠSte ven
Ġgeh en
ĠL ub
Ð´ Ð¾Ð²
ew here
ign ant
Ġsol uciÃ³
ĠAb st
ĠAs ÃŃ
Ġturn ing
ĠMov ement
ĠLa urent
ĠÐ¿Ð¾ÑįÑĤ Ð¾Ð¼Ñĥ
M ot
sen al
h art
ĠB om
Ġopportun ities
h enden
Ġlampister ies
Ãłn ics
. :
Ġbe gr
Ġreg ime
ohn er
ĠF em
Ã¤n glich
Ð²ÐµÑĢ Ð³
Ġpeque Ã±a
ric as
D r
Ï Ģ
in strument
Ġrep orter
Ġerw eit
ĠStan ford
ĠÑĦÑĥÑĤÐ± Ð¾Ð»
Ġall gemein
ĠÑģÐ¾Ð² ÐµÑĤÐ°
Ġac oll
ĠrÃ©s erv
ĠTre aty
ĠFra ge
ĠRevol uciÃ³
ĠÐ¿Ð» ÐµÐ¼
Fran k
ĠgrÃ¶ÃŁ ere
ĠPrinc ess
Ã¨ ves
Ġc ruz
Ġextern al
Ġcontr ari
piel er
riff en
ak en
Ġed ited
Ġsw itch
ĠÐ¡Ð¾Ñİ Ð·Ð°
Ġend Ã©m
ĠIr landa
Ð°Ðº Ñĥ
ĠÑĢÐ°Ð· Ð¼ÐµÑĢ
ĠAut o
ĠOp fer
Ġparroqu ial
te am
Ġactual mente
197 3
Ġsout ien
geb racht
ĠRol and
Ġb ay
Ã¶ d
Ġher itage
Ġmin im
ĠJul es
Ġzw eit
Ġoccasion ally
B el
and ra
geb ot
ĠÐ´Ð¾Ð»Ð¶ ÐµÐ½
Ġrecent ment
ĠÐ´ÐµÑĢÐµÐ² Ð½Ð¸
amer icÃł
Ġ18 29
Ġident ific
Ġinic is
f rei
ĠÑģÐ² Ð¸Ð´
dess us
ĠBr Ã¼cke
ĠÐĹ Ð°ÑĤÐµÐ¼
Ġpla za
ĠG ray
ĠÑĤÐ°Ðº Ð¸Ðµ
ĠEg ipte
ĠT oy
Ġ18 28
Ġnov ela
Ġcomun idad
Ġapro b
ĠMÃ¶glich keit
Z ur
Ġv ell
et ed
Ġvol er
Ġinflu ences
k ow
ĠW it
Ġapro f
ĠStock holm
ĠHarb or
g ro
ĠÐŁ ÐµÑĢ
ann els
ĠÑĢÐ°Ð±Ð¾ÑĤ Ðµ
Ġconcern ant
Ġparticip aciÃ³n
Ã¡m ara
Ġc iel
Ġ12 8
J ust
he astern
Ġtorn Ãł
Ġlleg enda
Ġsug ger
ĠÐ¿Ð¾Ð¼ Ð¾Ð³
Ġtorne ig
ĠÐ¿ÑĢ Ð¾Ñĩ
Ġcl ase
Ġesc enes
ĠMal er
ĠÐ¿ÐµÑĢÐµ ÑħÐ¾Ð´
bl ed
Ġr endre
Ġj ungen
ĠZ ag
Ġsh ares
Ġfem elles
Ġobserv ations
ĠÐ¯ Ð¿Ð¾Ð½
bark eit
b ita
Ġre ady
ĠÐ² Ð°ÑĢÐ¸
lic e
ĠAuf grund
Ġevery one
Ġmoy en
Ġ å
Ð½Ð¸ Ð¶
Ġill ness
ĠGren z
ov is
c ada
ur ada
Ã¨ mica
ĠBr uss
ĠÐ½Ðµ Ñĳ
esp read
ĠBl anc
ĠT amil
ĠCh an
Ġpours u
ĠP fer
ĠEl les
Ã¤n en
ĠTourn ament
ĠV oll
197 2
Ġrul ing
j ana
c Ã©
Ð»Ñı ÐµÑĤ
ĠSh o
Ġmil itaires
197 8
Ġbesch rieben
Ġfuncion ament
ĠV aters
ĠIn stead
Ġconsid Ã©rÃ©
Ġs now
Ġv ass
ÐµÑĢ Ðº
ost ers
ĠSus an
ĠMat th
ĠÐ²Ñģ ÐµÐ¼
ĠÑģÑĭÐ³ÑĢÐ° Ð»
Ġh ong
ĠN ak
Ġr upt
Ġdur a
ĠprovÃŃn cies
ÑĢ Ð¸Ð¹
Ã©n om
Ġem oc
Ġconclus ion
ĠA P
Ġqu er
ell ation
ĠÐ¾Ð± ÑĢÐ°Ñī
Ġ(âĢ ł
Ġpres c
ĠcÃłrrec s
ĠÐĺÐ½ Ð´
Ġf osc
ur ales
ĠÐŁ ÑĢÐµÐ´
Ġinit iative
Ġersch ienen
Ġbound ary
ĠC orts
Ġder riÃ¨re
Ġz ero
ĠÐ½Ðµ Ð¿ÑĢ
Ð¾Ñģ Ñı
ve z
Ðļ Ð¾Ð¼
Ġtransport ation
ĠLeist ung
ĠA ven
ĠÐ² ÐµÑģÑĮ
if ier
Ġchans ons
b Ã¼rger
Ġn acionals
ĠÐ² ÐµÐ»Ð¸Ðº
Ġwh ilst
Ġres ulta
du le
m ission
ĠP P
Ġmatrim onio
ĠDÃŃa z
h ent
s ub
Ġdesc ans
Ġbeginn t
ĠI ch
up s
ĠSch lag
ĠSpe ed
ÐµÐ½ ÑĨÐ¸Ð¸
Ġchar ts
ĠcaractÃ©r istiques
g ell
Ñģ Ð¾Ð¼
em os
Ġch asse
rit ure
ĠÐ¿ÑĢÐ¸Ñģ ÑĥÑĤÑģÑĤÐ²
Ġdel iber
Ġsit io
Ġdonn Ã©es
B N
Ġst ellen
Ġst yles
ĠIn de
ost es
ĠSp ez
ĠGroÃŁ britann
ĠÑĤÑĢÐµÑĤ ÑĮ
ĠÐ³ Ð¾ÑĤÐ¾Ð²
Ã©t end
ĠÐ°Ð»ÑĮÐ±Ð¾Ð¼ Ð°
ĠÐ² ÑģÐºÐ¾ÑĢÐµ
Ġreported ly
Ġl ok
ĠL Ã©
Ġdel la
va ient
Ġprincip aux
Ġrespons ables
ĠÐ¸Ð¼Ðµ ÑİÑĤ
Ġsod ass
Ġcri min
Ġde fic
ÐĲ Ð²
Ġ180 1
Ġdens idad
hol z
Ġdesc riu
ĠÑįÐ½ ÐµÑĢÐ³
ĠA j
Ð¸Ð² Ð°
Ġsuccess ion
Ġlog o
Is rael
Ã³ lic
Ġqu Ã©
Ġac um
ĠMar qu
ĠStÃ¤d te
Ġm acht
iv ision
ĠÐ½Ð° ÑĪ
sch loss
sch riften
Ġdivers as
Ġh Ã¤tte
Ġcl ara
ĠÑı Ð²
Ġrepres ents
S y
Ġb iol
Ð¸ÑģÑĤ Ð°
ĠNev ada
Ġh aute
og l
Ã² f
aire d
Ġclaim ing
Rich ard
M ag
Ġver ano
ĠStand ort
ĠÐ³Ð¾ÑģÑĥÐ´Ð°ÑĢÑģÑĤÐ²ÐµÐ½ Ð½Ð¾Ð³Ð¾
Ð°Ð½ ÑģÐ¾Ð²
ĠÐ¿ÐµÑĢÐµÐ´ Ð°Ñĩ
ÐŃ Ðº
Ġdepart ure
Ġappar ently
ĠB lood
ÑĳÐ½ Ð½Ð¾Ð¹
ol la
Ġdesenvolup at
ĠLu ke
ma ÃŁ
ense ignement
ĠclÃłss ica
F er
un sel
Ð¸ÑĤ Ð°ÑĢ
Ġimpress ion
Ġc ards
Ġtradition n
Ġbenef its
Ġrep os
ĠAug en
ĠArb eiter
Ġ18 24
Ġplay offs
Ã¼hr en
Ġign or
ĠRiv era
ĠB oh
ĠK ult
Ġman o
ĠConserv ative
ĠÐ¿Ð¾ÑģÐµÐ» ÐµÐ½Ð¸Ñı
ĠÐŀ Ð»Ð¸Ð¼Ð¿
Ġpost ed
ĠfranzÃ¶s ische
Ġvorhand en
Ðº Ð¾ÑĢ
ĠÑĨ Ð°ÑĢ
Ġfon ctions
Ġalt itude
Ġrepresent atives
ĠÐ´Ð¾Ð» Ð»
ĠPear l
Ġdiscover y
m and
Ġp ierre
Et im
Ġcustom ers
G M
Ġf idel
Ġex centric
u ke
ĠS ind
ĠG am
par te
oph one
C he
Ġg az
Ġwrit es
agric ultura
ÑĢÑĥ Ñĩ
Ġresc ue
ĠÐ¿Ð¾ ÑģÐº
ĠÐ·Ð° Ñģ
Ã©ra ire
ĠÐºÑĥÐ»ÑĮÑĤ ÑĥÑĢ
ĠÑģ ÑĢÐ°Ð²Ð½
Ñĳ Ñģ
ĠÐ¿ÐµÑĢ ÑģÐ¾Ð½Ð°
ĠKam mer
Ġcum pl
Ġdemol ished
ĠW oman
ĠPol izei
ĠÐ¿Ð¾ÑĢ ÑıÐ´
ĠÑģÑĤÐ°ÑĤ ÑĥÑģ
ĠMet ern
Ġeurop Ã¤ischen
ĠÐ¿ÐµÑĢÐµÐ² Ð¾Ð´
Ġw orship
Ġto ols
ĠMal ta
Ġuse ful
Ġred es
Ġcho ix
Ġtra itÃ©
Ġast ronom
ĠFrÃ¼h jahr
B ern
Ġk Ã¼nstler
ĠMar se
Ġanterior ment
Ġesc ol
g uer
Ġhe aring
Ġ18 26
ok s
Ġact iva
Ġmalalt ies
Ġproxim itÃ©
f i
ĠI ce
Ð¿ Ð°ÑĢÑħ
ou ard
Ġcharg Ã©
Ġteat ral
ĠPlay er
G o
Ġ Ø
Ġal berg
Ġbl ocks
Ġdispos e
Ġescrit s
ert on
ĠÐł Ð¸Ð¼
Ġdiscuss ion
k om
u ard
ĠL iu
ĠG rie
iment aciÃ³
ĠRuss land
Ġmur iÃ³
Ġrema inder
ĠKrit ik
ro at
Ð°Ð½ Ñĥ
ĠUn ido
Ġacc Ã©s
Ã¼h m
Ġorigin als
Ġjard ÃŃ
M ol
ĠAn teil
orn s
Ð¾Ðº Ð¾Ð¼
Ġsal ud
Ġdar in
ÑĥÑİÑī Ð¸Ð¹
gef Ã¤hr
Ġun abhÃ¤ng
ĠN Ã¼rn
inc orpor
Ġadopt ar
ĠTomm y
Ġincl in
Ġinfant ry
Ġfert ig
ĠtÃ© lÃ©
orf en
Ġdesign er
Ġindic ated
cul os
n amed
ÐµÐ½ Ð½Ð¾ÑģÑĤÐ¸
ĠÐ± Ð¸Ð±Ð»Ð¸Ð¾ÑĤ
ĠRo und
Ġsow jet
Ġconvert it
ĠÐ·Ð°Ð½ ÑıÐ»
ĠM am
ĠÐ³ Ð³
ĠÑĢÐµ Ð¿
ĠAll ÃŃ
ÑĪ ÐµÐµ
Ã¶ ÃŁer
Ġtoute fois
Ġto ured
ĠV in
ĠdÃ©c or
ĠDel ta
Ġpra kt
k al
re v
Ġpour rait
ativ ely
Ġrepr end
g eme
Ġc Ã³
ĠT ages
Ġr ender
Ð¾Ð½ Ð¸Ð¸
Ġinter c
ĠLuxemb urg
Ġthe mes
ĠD uch
Ġsu ficient
ĠIn stitution
Ġperm is
ĠT ort
Ġemer ged
ĠD iss
ĠR ac
Ġcons ecut
ĠÐ¸Ð½ Ð¶ÐµÐ½
ier an
Ġemploy ment
Ġorden ar
h och
oth Ã¨que
ĠSu isse
Ġtrabaj os
Ġarquitect ura
S us
Ġ18 11
Ġmass es
ĠbÃ©n s
omm es
Ġjug Ã³
Ġattrib uted
ir ent
Ġap rec
ĠSc ient
Ġadapt ed
Ġt ied
ĠAl ban
arr ison
ĠmÃŃn im
Ġfa ible
ĠClass ic
onn er
ĠPer ry
Ġtex te
ĠN ig
Ġes glÃ©sies
Ġrest oration
ĠM Ã¤d
Ġspiel en
ĠÐ¿ÐµÑģ Ð½Ð¸
F a
u els
ĠÑĢÐ° Ð½ÐµÐµ
Ð°Ð¹ Ð½
Ġcoule ur
Ġl ista
ĠC et
Ġest ad
Ð´ ÐµÐ½Ð°
Ġproper a
Ġprint ed
F ried
ĠÑįÑĤ Ð¸Ð¼
d iction
Ġs orte
aÃ± os
Ġclassific ada
Ġb rach
ĠM idd
Ġreal idad
ĠÑģÐ°Ð¼ ÑĭÐ¼
Ñģ Ð»ÐµÐ´
ad h
st ation
ĠW alk
over y
Ġb ret
Ġdispos a
Ġ180 9
ÑĨ Ð°ÑĤ
Ġâ ĪĴ
Ġperd ut
Ġtrob ada
ĠmÃ©c an
Ã¼ ne
Ġrel ocated
ven es
ĠGro ÃŁen
Ġm ister
ĠÐ± Ð¾Ð¹
Ġext ent
Ġic on
fer Ã¨ncia
op ol
Ġoc ur
ĠMur phy
ĠdÃ¨c ades
Ġ11 1
Ġproporcion ar
Ġlampister ia
Ð» Ð»
Ġdiv isiÃ³n
Ġsout heast
Ġac ciÃ³n
ĠÐĵ Ðµ
An other
ÐµÐ´Ð¸Ð½ Ðµ
Ñħ Ð°
iz z
ĠSp rach
Ġconcentr aciÃ³
r Ã©g
st Ã¤nde
ap o
ue vo
Ġsy mpt
ĠP ent
Ġocup ada
St ud
Ġnomen ar
Ġenjoy ed
Ġstrugg le
D ame
Ġcol d
Ġwork sh
Ð½Ñĥ Ð¶Ð´
Ġadvert ising
Ġe mit
Ġinter cept
ĠVer lauf
ĠrÃ©g ions
ĠLle i
op les
Ġim mediate
Ð°Ð² Ð»Ð¸Ð²
Ġpublic ly
lehr er
ta wa
Fran Ã§ois
ĠA unque
ĠAb teilung
ÐŁ ÑĢÐ¾
ĠÐ¿Ð¾Ð´ Ð¾Ð±
ĠAng lo
ĠÐ¿Ð¾ÑģÑĤÑĥÐ¿ Ð¸Ð»
ĠBapt ist
ach es
hol der
Ġpossib ility
on ers
Ġcre ixent
Ġmed ida
Ġcos m
Ġpropag anda
E F
Ġperm ission
Ã© lection
Ġar reboss
ĠHel en
ĠPl ate
Ġquin ze
C S
h ielt
u ana
ĠA ten
end or
ĠÐ¼ ÐµÐ½ÑĮ
Ġemb arc
ĠÐ³ Ð¾Ð½
na ires
ĠArk ansas
G ro
ÑĨ Ð¾Ð³
Ġdon ner
wahl en
Ġdistingu ished
ĠB rief
ĠKn ow
ĠR uth
ĠÐļ Ð°Ðº
Ġequ ilib
ĠC lement
ĠÑģÐ»ÑĥÐ¶ Ð±Ñĥ
ĠW as
An gleterre
Ġallem ande
Z w
Ġmo untains
ÑģÐº Ð¸
Ġels e
Ġmag azines
196 8
Ġschw ed
em ar
Ġas ks
Ġpos ts
ĠÐ¿ÐµÑĢ ÐµÐ¼
ĠComm unications
Ġround s
ĠUnter nehmens
Fran ce
ĠTrop hy
ĠÑģÑĤÐ°Ð½Ð¾Ð² Ð¸ÑĤÑģÑı
Ġtam aÃ±o
f igur
Ġthe at
Ġauf z
Ġp unk
Ġvid Ã©o
fect ure
Ð¿Ð¸Ñģ Ð°Ð½Ð¸Ðµ
Ġpreserv ed
Ġsh ock
Ġfl ows
M at
Ð± Ð¸
Ġcre ative
Ġta ula
ĠPlay Station
ĠdiÃł metre
Ġmen ors
ĠcientÃŃfic s
S am
Ġun usual
Ġam o
olo ge
ĠJap Ã³n
ĠNick el
ĠAller dings
ĠF isher
ĠH essen
ĠÐĲ Ð¼ÐµÑĢ
ĠÃłrab s
en viron
Ġc ath
ĠP red
ĠMed izin
Ġcirc ulation
Ġtrib es
ĠImper io
ĠÐ¿ÑĢÐ¾Ð¸Ñģ ÑħÐ¾Ð´Ð¸ÑĤ
Ġwahr scheinlich
ĠÐ¿Ð¾ÑģÐº Ð¾Ð»ÑĮÐºÑĥ
ĠfÃ¼hr ten
Ġlandsc ape
ĠC lo
Ġ2 20
ĠH D
ĠÐ±Ð¾Ð»ÑĮÑĪ Ð¾Ð¹
ĠÐ³Ð»Ð°Ð² Ð½ÑĭÐ¼
Ġtrip le
Ġlos e
Ġra za
At l
Ġesc ap
ĠÑĢ Ñı
Ġcommunic ations
â Ķ
Ð¸ Ð°ÑĤ
Ġorgan itzaciÃ³
spiel er
ÐµÐ½ Ð½Ð¾Ð¼
Ãº ria
Ġmo unted
ĠÐºÐ¾Ð¼Ð°Ð½Ð´ Ñĥ
i est
Ġp ig
Ġresult ar
Ġcher che
Ġg ig
ĠV erst
Ġ18 17
ĠÐ¾ÑĤ Ð¼ÐµÑĤ
Ð°ÑĤÐµÐ»ÑĮ Ð½Ð¾
ĠEnt wick
Trans port
ĠM ason
Ġk om
ĠAd ri
a illeurs
ass ung
ace ae
Ġsitu a
ĠSied lung
Ġde ck
ĠK andid
Ġab road
ĠÐľ Ð¾ÑĢ
Ġvis ite
ĠMont rÃ©al
ĠEnerg ie
ĠMagdal ena
" .âĢĭ
Ã¨ tes
ĠCh en
Ġsocial e
vers t
Ġart istas
Ġdrug s
Ġpat rol
st ock
Ġpres um
Ġant is
197 1
Ġ179 4
Ġn ave
ĠK ate
Ġbat ter
Ġcapita ine
Ġvers us
ĠÐ²Ñĭ Ð½ÑĥÐ¶Ð´
Ar thur
ĠTw itter
g at
Ġ18 22
ĠÐ± ÐµÑģÐ¿
itz Ãł
ruc ciÃ³n
ĠFor um
196 7
ĠL Ã¤ndern
ge on
Ð°Ðº Ð¾Ð²
sp ec
ÐĶ Ð¶
Ġtelev is
Ġnoct urn
ull ivan
vert rag
Ġvari et
Ġwid espread
ĠÐ¤ÐµÐ´ÐµÑĢÐ° ÑĨÐ¸Ð¸
ÐĻ Ð¾ÑĢ
Ġva in
Ġdev int
ĠNor folk
ĠCinc innati
ĠS ara
ĠM und
ĠSt orm
Ġsp Ã¤t
Ġgepr Ã¤gt
iv re
Ġr ena
Ġph arm
Ġgrand father
ĠcrÃ© er
ĠMilit ar
Ġubic ada
Ġmax im
s q
Ġsl aves
u ell
Ġa ust
Ġstatt f
Ð½Ð¸ÑĨ Ñĭ
Ġaproxim adamente
Ð¾Ð²Ð°Ð½ Ð¸Ð¹
Ġenter tainment
ĠCra ig
ĠS out
ÑģÑĤ ÑĢÐµ
ĠEx emp
Ġmont re
ĠÐºÑĢÐ° Ð¹
Ġpeup le
E duc
_ âĢ¢
ĠM Ã¡
Ġperiod s
Ġhom osexual
ĠÐ³Ð¾Ð» Ð¾Ñģ
ĠBuff alo
Ġag reg
pro fess
unn ing
ĠXX áµī
ĠÑģÐµÐ½ÑĤ ÑıÐ±ÑĢÐµ
ĠM ap
ĠN ature
ĠDis k
klÃ¤r ung
Ġsorg ir
ĠH yd
Ð°Ð´ Ðµ
ĠÃĸff entlich
ĠÐ²Ñĭ Ð´
Ġsent enced
ĠgrÃ¶ÃŁ eren
Ġh orm
ĠB orn
ĠR uh
Ġsouth west
Ġview ed
Ġorganis ations
Ġseek ing
Ġes quer
ras ka
e o
Ġof ereix
Ġdes ire
Ġfinal itat
ĠBas el
ĠChar l
ec kt
Ġmy st
th y
ĠStud enten
Ġaccomp agn
ĠÑĥÑĤÐ²ÐµÑĢ Ð¶Ð´
ĠW ells
ĠVer gleich
Ġvor her
Ġurb Ãł
ĠPfl anzen
ĠG ent
Ġten ure
ĠEd die
ĠÑģ Ð¾ÑĢÐµÐ²
Ġfarm ers
ĠDef ence
Ġingres os
Ġprov isional
Ġfl owers
Ar qu
C lass
Ã³ venes
Ġdifer Ã¨ncies
Ã²lic s
Ñ ĸ
ĠB Ã¼r
Ġwe i
ĠJul ia
ĠsÃ¼d lichen
qu il
ĠHaupt stadt
Ġcombust ible
g reg
Ġg eben
ĠH Ã¶r
ĠTh om
ĠÐºÐ¾Ð¼ Ð°Ð½Ð´Ð°
Ð¸ÑĢÑĥ ÐµÑĤ
ur Ã©
ĠÑĤ Ð¾Ð¼Ñĥ
Ġmolec ular
Ġconverte ix
un ction
ĠE cu
ĠÐ½ Ð°Ð½
ĠInit iative
Ġsenz ill
I R
ut in
ĠRe ise
Ġnetwork s
on ar
The y
Ġdocument aciÃ³
Ġn en
Ġe uros
ov ell
ient en
ĠÐ¿ÑĢÐ¾ÑĤ ÑıÐ¶
ĠÐ¸ÑģÐºÑĥÑģ ÑģÑĤÐ²Ð°
ĠÐĿ Ðµ
Ġdoctor at
Ġdol or
forman ce
ĠMoz art
um ann
av ÃŃa
ÐµÐ¹ Ð¼
ĠÐ¸Ð¼ ÐµÐ½Ð½Ð¾
Ġenl laÃ§
ĠÐºÐ¸Ð» Ð¾Ð¼ÐµÑĤ
ĠN athan
Ġco ol
ĠCong reso
ĠÐ°ÐºÐ°Ð´ÐµÐ¼ Ð¸Ð¸
Ġrev ient
Ġbran ca
Ġelev en
A wards
ac ular
Ġsp ending
ĠR alph
Ġcur ta
gew icht
Ġdefinit iva
ĠNam ens
Ð´Ð° ÑİÑī
Ġfen omen
ĠSebast ian
Ġj ump
ins ki
ĠSo ftware
Ġdeploy ed
H ans
Ġcom tÃ©
we ile
Ġhist oire
Ġfinanc era
Ġri ques
Ġprote Ã¯nes
ĠForsch ung
t amb
end ment
vi ament
Ġsuspend ed
S w
Ġdom ic
ĠÐºÐ¾ÑĢ Ð¾ÑĤ
ĠBut ler
Ġcha Ã®ne
ĠStaff el
ĠÐ¦ÐµÐ½ÑĤ ÑĢÐ°Ð»ÑĮ
ĠMar ian
f our
z one
um ph
Ġam i
âĶ Ģ
t ol
Ġal iats
at rice
ag Ã©
ĠOr gel
ĠcÃł mera
Ġpun ta
it us
ona ut
ze igt
rei he
iff s
ĠÐ¸ÑģÑģÐ»ÐµÐ´ Ð¾Ð²Ð°Ð½Ð¸Ñı
O h
ĠÑĢÐ°Ð· ÑĢÑĥÑĪ
ĠPal ma
ĠÐ´ÐµÐ±ÑİÑĤ Ð¸ÑĢÐ¾Ð²Ð°Ð»
ar rivÃ©e
Ġ( '
ign er
Ð² Ð¾ÑģÑĤÐ¾Ðº
ĠK osten
Ġmedi ados
d ist
ĠEhe frau
á ¹
Ġpar et
Ġalt itud
Ġmake up
ĠSen at
zieh ungs
Ġreconna issance
ĠC orp
ĠR ah
ĠG ul
Ã¼hr ung
iÃł st
Ġactual idad
j ava
ĠÐ¼ Ð°Ðµ
Ġresol ution
Ġcomment ed
n m
Ġhe ir
ĠpiÃ¨ ce
Ġamong st
196 9
ĠdÃ©t ru
ĠD ynam
ili ans
anth rop
ĠP on
reg ierung
Ġsett lers
obert ura
rep ublik
A pr
Ġcatal ans
Ġphot o
Ġbe half
ĠMan ager
ĠRos en
and est
Ġins ist
ator ial
Ġyoung est
Ã¡ct er
ĠÑıÐ·Ñĭ ÐºÐ°
Ġrecomm end
Ġtrou ver
ÐµÑĢÐ° Ð¼Ð¸
Ġbest Ã¤t
ĠÃ©v Ã©n
ĠÐ·Ð°Ð± Ð¸Ð»
Ġres cat
ĠÑģÐ²Ð¸Ð´ ÐµÑĤ
Ġf ile
Ġwhere as
Ġeing esch
Ã¼ss el
' Â«
ĠmÃ©d aille
ieÃŁ t
H ospital
ĠC A
ob ahn
icht lich
Ġeduc aciÃ³n
Ġassass inat
Ġdial ect
ĠÑĩÐµÑĤÑĭ ÑĢÑĳÑħ
Ġepisod io
ĠDar Ã¼ber
ÑĨ Ñĥ
Ġbot igues
ĠdÃ©fin it
Ġp obre
us en
Ġch amber
ĠToul ouse
ĠShang hai
e urs
Ġp ip
ĠÐĴ ÑĭÑģ
ild a
Ġtre ts
Ã©d ie
Ġviu en
m esser
le e
Ġmerc ado
ĠÐ¶ÐµÐ»ÐµÐ· Ð½Ð¾Ð´Ð¾ÑĢÐ¾Ð¶
re ise
19 50
Ġfin anÃ§
ĠÐ¾ÑĤ ÑĢÑıÐ´
Ġoblig at
ĠHugh es
Ã© quip
ĠSo ul
Ġassoci ate
Â Ń
Ð³ Ð»Ñı
Ġver lassen
Ð°Ð· Ð²
Ġval le
Ġcolon el
ĠdÃ© pend
ĠVer g
Ð°Ð¹ Ð´Ð¶
Ġfol kl
Ġleb ten
Ġs iete
ĠD ion
ĠÐľ Ð¸Ð½Ð¸ÑģÑĤ
Ġout put
ĠFer rer
ĠP y
ĠHe ute
gen es
ĠÐ¾ÑĤ Ð²
fass ungs
O uest
ĠC auc
Ġins urance
Ġsent ence
Ġx if
ĠL ett
ĠÑģ Ð½Ð¾Ð²Ð°
Ġpossess ions
enh agen
american os
Ġg oles
Ġesc ort
ĠfrÃ¼her en
r ados
19 39
ius eppe
ĠChrist oph
Ġal ien
Ġes querra
end um
ÑĳÐ½ Ð½Ð¾Ð³Ð¾
ĠÐ´ÑĢÑĥÐ³ Ð¸Ð¼Ð¸
Ð¾ÑĢÐ¾Ð½ ÐµÐ½
ÑĢÐµÑĩ ÐµÑģÐº
ĠPh ot
Ġproduc ers
ĠÐļÐ¾Ð½ ÑģÑĤÐ°Ð½ÑĤ
ĠÃ©l imin
Ġan ava
ĠK id
Ġst rict
Ġdec ides
ĠFund aciÃ³
O L
g ate
ĠH arm
ĠÐ´ Ð½Ñı
ĠdÃ© ta
ef ecte
b ad
r Ã³n
Ġst yl
Ġman os
Ġdies el
ĠÃľ berg
Ġguany Ãł
Ġenc ap
ĠÐ»Ð¸ÑĤÐµÑĢÐ°ÑĤ ÑĥÑĢ
ĠA rag
Ġconstruc cions
ĠÐ´Ð¾Ð»Ð¶ Ð½Ð¾ÑģÑĤÐ¸
ĠFÃ¼hr ung
al on
Ġth row
ĠK un
Ð»Ð° Ð±
Ġemp lo
Ġtom be
Ġeas y
Ġg ingen
oc ent
ĠBo ul
Ġperspect ive
ĠC ase
Ġcompet itions
Ġfriend ly
re chts
Ñı Ð»Ð°
ĠComun ista
ĠkÃ¶nn te
ĠÐµÐ² ÑĢÐ¾Ð¿ÐµÐ¹
ĠLand wirtschaft
aten ciÃ³
S er
ĠD S
Ġfa una
ĠAt tor
be an
Ġregist re
Jahrhund ert
ĠM eanwhile
ri ors
Ġpo ems
ĠÑĨÐµÐ»ÑĮ Ñİ
end et
ow ed
Ð½Ñĭ Ð½Ðµ
Ġhistor ischen
et he
ĠC ris
ĠDel eg
ĠDen km
Ġan ten
am ework
ĠP s
st ad
ĠNach bar
Ġlib ros
Ġcolon ies
Ġrelacion ats
Ġeing estellt
ĠLa ut
Ġot org
Ġassoci ations
Ġdich a
M E
Ġperm ite
ĠLar ry
ge ix
isc al
Ġpap e
Ã¯t at
Ġlat in
ab ilities
ins el
rip cions
ĠKat eg
Ġpick ed
Ġgobern ador
ĠA T
Ġpro met
Ġrecept or
wÃ¼r d
Ġof rec
Ġum ben
entr ale
Te chn
ĠÑģÐ°Ð¼Ð¾Ð» ÑĳÑĤ
ĠDak ota
N or
ĠM ant
Ð³ Ñĥ
Ġapp arent
ĠÐļ Ð°
ĠPro zess
Ġgu arn
Ã² cia
Ġgen us
Ġconserv ar
Ġstr ing
imens ional
n t
Ġd agegen
Ġc Åĵur
Ã¼n ft
bl Ã¤tter
ĠK ay
ĠBas eball
ĠÐ·Ð² Ð°Ð½Ð¸Ðµ
h men
Ðº Ð¸Ð¼Ð¸
Ġrespond ed
F r
ĠSt raf
Ñį Ðº
r ando
ĠL ower
Ġcar Ã¡cter
Ġmar ge
Ñį ÑĢ
Ġgovern ments
Ġtermin Ã³
ĠÑģÐ¾Ð·Ð´ Ð°Ð½Ð¸Ñı
Ġmatem Ãłtiques
ĠN Ã©
ĠN atal
ĠCh ester
ger ichts
oy er
Ġdef ence
Ġview ers
Ġsubstant ial
Ġen orme
ĠI stanbul
Ġcl andest
ĠMag ic
ĠEconom ic
er ce
ĠGeb Ã¤
Ġexpos ed
Ġap artment
' d
Ġb its
Ġmilit ares
ĠArchite kten
ĠMinister i
ĠÑĢ Ð¾Ð»Ð¸
ĠSpan ien
omer y
imper i
Ġ )
ahr t
ĠÐ¾ÑĤ ÑĨÐ°
ĠLu ego
av ec
oc ia
Ġsup Ã©rieure
ĠÑħ ÑĢÐ°
labor ar
un itat
eg raph
ĠSt immen
Ġquad rat
Ġfre c
ĠL Ã¼b
ere ign
Ġ11 6
ĠFreder ic
Ð» ÑĥÐ³
Ġcon Ã§
Ã¨ x
Ġsec rÃ©taire
Ġany one
Ðŀ Ð¿Ð¸ÑģÐ°Ð½Ð¸Ðµ
ĠProt estant
im an
Ġar reu
Ġd ado
Ġsie ht
Ã©d Ã©ration
ĠProb lem
Ġfrequ ency
ĠFl Ã¼gel
Ġri vers
ĠMad ison
Ġfot ografia
hyth m
ĠD aw
Ġsub stitute
Ġmen udo
Ð°Ð¹ Ð»Ð¾Ð²
Ġelimin ated
c ur
Ñħ Ð¾Ð·
anc ias
Ð¸ÑĤÐµÐ» ÑıÐ¼Ð¸
Ġsob res
Ġrebu ilt
Ġer lang
ra z
Ġmenc ion
Ġde ten
Ġbet rug
Ð¾Ð²Ð°Ð½ Ñĭ
ĠDan eben
Ġextre me
Ġreserv es
Desp ite
ĠLauf bahn
Ġser ien
ĠZ hang
g ol
f iel
m useum
it x
Ã§ ons
as is
Ġr and
ĠNord osten
Ġsuperv iv
ĠB alk
Ġag encies
Ġport ra
s it
Ġv as
Ġwas te
Ð¾Ð» Ðµ
Ġafir mar
kret Ã¤r
il og
Ġcon duc
B est
l ent
ĠH old
ins c
Ġret ard
Ġvers ucht
Ġvers uchte
Ġend gÃ¼lt
Ġdestac ats
Ġdeta iled
n on
Ġc Ãºp
ĠAssist ant
Ġre la
ue blos
Ġnum er
ĠÑģÐµÐ»ÑĮ ÑģÐºÐ¾Ð³Ð¾
Ġempez Ã³
ro e
if ying
ĠSt ill
ĠÐ± Ð°ÑĤÐ°Ð»ÑĮ
Ġge om
ĠÐ²Ð¾Ð·Ð¼Ð¾Ð¶ Ð½Ð¾ÑģÑĤÑĮ
ĠKen ya
fab rik
ĠÐ´ÐµÐ¹ÑģÑĤÐ² Ð¸Ñı
ĠKind ern
re form
ĠStud ent
Ġsigu ientes
osl ov
ĠG ate
ĠÐº ÑĢÐ¾Ð²
Ġpo ema
of ÃŃa
ĠÐ¸ÑĤ Ð°Ð»ÑĮÑıÐ½
Ġthe oret
Ġi zquier
ba um
Ġconf Ã©r
itar ian
ur u
Ġso ir
ĠÐ²Ñģ ÐµÐ¹
bew egung
ĠBaix os
Ġc rash
Ġers tre
Ġfac ing
Ġman ual
Ġ12 00
ĠÐ¿ÐµÑĢÐµÐ¿ Ð¸ÑģÐ¸
h uman
Î ¼
ĠÐ¾Ð±ÑĭÑĩ Ð½Ð¾
F irst
Ã©t iques
Ġcal idad
ĠHÃ¶ hen
Ġconvers ion
ĠF rem
Ġdur ada
Ġdot ze
ta us
ĠAust rÃłlia
Ð¸Ð»ÑĮ Ð¼
Ġpurs ue
G erm
Ġa udi
Ġw Ã¤re
Ġcapt urar
Ġdistin ction
9 00
Jos Ã©
k ammer
Ġo est
rat ern
Ġpot Ã¨ncia
Bl ack
S ub
Ġarrib Ãł
act ory
Ġcr Ã©e
Ġap rop
Ġll ar
Ġpol on
Ġmol Ã¨c
ch ner
Ġpa ix
Ġkilom Ã¨tres
Ġimport ancia
ĠcrÃŃt iques
Ġ Âł
Ġd anger
Ġus ual
ĠQ ing
ĠGener ation
ĠÐ£ Ñĩ
assass inat
on ien
Ġh am
ĠH at
Ð°Ñģ ÑģÐ°
ĠOrgan ization
ĠP unkt
ap ac
ĠThe odor
Ġtr aces
he ute
Ð¸Ð² Ð°ÑĤÑĮ
Ġtra p
Ġann ually
raf ts
t op
ĠL Ã©on
Desc ripciÃ³n
k omp
de f
Ġforest s
ĠF at
Ġ18 19
Ġsw it
ĠauÃŁer halb
ust ic
Ġkeep ing
Ġdefinit ivament
ĠExped ition
de gang
ĠÐ²Ð¿ Ð¾ÑģÐ»ÐµÐ´ÑģÑĤÐ²Ð¸Ð¸
Ġlleuger ament
Ġs inc
Ġfran cs
Ġn áµĴ
eter min
ĠSev en
Ġinter act
Ġpor ter
ĠÐĲ Ð¼
Act ualment
ĠCarol ine
Ġtrabaj ar
G overn
S ein
Ġa imed
ĠA N
ios o
Ã©t ude
Ġrelationship s
Ġconqu ist
anter ior
Ġan gel
Î º
Ġdie z
ĠLe eds
am ina
Ġcar reg
Ġhect ares
Ã¤ll t
im at
Ġsec teur
Ġsepar at
Ġ179 5
Ġc attle
Ã© der
Ġtr ug
ĠAl lemagne
ĠÐ¢ ÐµÐ¼
ĠÐ¸Ð³ÑĢÐ° Ð»
M ah
Ġin iciÃ³
Ġpar is
ens ed
ĠÑħ Ð¸Ð¼
ĠdÃ©c ision
Ã¤d agog
Ġur kund
Ġg ate
av el
Ġex ists
Ġob en
Ġinter med
ava it
Ġri de
Ġequ ival
ĠRic ardo
Ġviol Ã¨ncia
ĠPet it
ĠCla ud
ec he
ĠJul io
H A
em es
ber ry
Ġgr at
Ġsec ured
yl ind
Ġnat Ã¼r
Ġdoes n
c z
ÑĢÐ¸ Ð¿
Ġsort i
ĠÑģÐ°Ð¼ ÑĭÑħ
ber a
ĠRes erv
Ġerh Ã¤lt
A th
ĠG amb
ab at
unt o
Ġpresent Ã³
ĠH afen
ĠÐļ ÐŁ
fang s
yr am
ĠÐ¼ Ð°ÑģÑģ
Ġcondic iones
Ġbelong ed
mag atzem
ĠDeport ivo
ĠÐºÐ¾Ð¼Ð°Ð½Ð´ Ð¸ÑĢ
Ġportray ed
w ander
il ien
Ãľ ber
b eck
u essin
Ġw ire
ĠE int
Ġon cle
Ġdur ar
Ġcan als
Ñģ ÐµÑĢ
Ġet h
Ġent halten
ĠAl gunes
cep ciÃ³n
Ġ180 2
ĠXVIII áµī
ĠG ross
kt on
ĠÐĳ Ð°Ð»
ĠÐ¿ÐµÑĢÐµ Ð¸Ð¼ÐµÐ½
h our
Ġfin it
Ġclass ified
Ġab ort
Ġparliament ary
v ik
emb ers
Ġdist urb
Ġthr one
Ġm Ã©l
[...]
