{
  "version": "1.0",
  "truncation": null,
  "padding": null,
  "added_tokens": [
    {
      "id": 0,
      "content": "<|endoftext|>",
      "single_word": false,
      "lstrip": false,
      "rstrip": false,
      "normalized": true,
      "special": true
    }
  ],
  "normalizer": null,
  "pre_tokenizer": {
    "type": "ByteLevel",
    "add_prefix_space": false,
    "trim_offsets": true,
    "use_regex": true
  },
  "post_processor": {
    "type": "ByteLevel",
    "add_prefix_space": true,
    "trim_offsets": false,
    "use_regex": true
  },
  "decoder": {
    "type": "ByteLevel",
    "add_prefix_space": true,
    "trim_offsets": true,
    "use_regex": true
  },
  "model": {
    "type": "BPE",
    "dropout": null,
    "unk_token": null,
    "continuing_subword_prefix": "",
    "end_of_word_suffix": "",
    "fuse_unk": false,
    "byte_fallback": false,
    "vocab": {
      "<|endoftext|>": 0,
      "!": 1,
      "\"": 2,
      "#": 3,
      "$": 4,
      "%": 5,
      "&": 6,
      "'": 7,
      "(": 8,
      ")": 9,
      "*": 10,
      "+": 11,
      ",": 12,
      "-": 13,
      ".": 14,
      "/": 15,
      "0": 16,
      "1": 17,
      "2": 18,
      "3": 19,
      "4": 20,
      "5": 21,
      "6": 22,
      "7": 23,
      "8": 24,
      "9": 25,
      ":": 26,
      ";": 27,
      "<": 28,
      "=": 29,
      ">": 30,
      "?": 31,
      "@": 32,
      "A": 33,
      "B": 34,
      "C": 35,
      "D": 36,
      "E": 37,
      "F": 38,
      "G": 39,
      "H": 40,
      "I": 41,
      "J": 42,
      "K": 43,
      "L": 44,
      "M": 45,
      "N": 46,
      "O": 47,
      "P": 48,
      "Q": 49,
      "R": 50,
      "S": 51,
      "T": 52,
      "U": 53,
      "V": 54,
      "W": 55,
      "X": 56,
      "Y": 57,
      "Z": 58,
      "[": 59,
      "\\": 60,
      "]": 61,
      "^": 62,
      "_": 63,
      "`": 64,
      "a": 65,
      "b": 66,
      "c": 67,
      "d": 68,
      "e": 69,
      "f": 70,
      "g": 71,
      "h": 72,
      "i": 73,
      "j": 74,
      "k": 75,
      "l": 76,
      "m": 77,
      "n": 78,
      "o": 79,
      "p": 80,
      "q": 81,
      "r": 82,
      "s": 83,
      "t": 84,
      "u": 85,
      "v": 86,
      "w": 87,
      "x": 88,
      "y": 89,
      "z": 90,
      "{": 91,
      "|": 92,
      "}": 93,
      "~": 94,
      "¡": 95,
      "¢": 96,
      "£": 97,
      "¤": 98,
      "¥": 99,
      "¦": 100,
      "§": 101,
      "¨": 102,
      "©": 103,
      "ª": 104,
      "«": 105,
      "¬": 106,
      "®": 107,
      "¯": 108,
      "°": 109,
      "±": 110,
      "²": 111,
      "³": 112,
      "´": 113,
      "µ": 114,
      "¶": 115,
      "·": 116,
      "¸": 117,
      "¹": 118,
      "º": 119,
      "»": 120,
      "¼": 121,
      "½": 122,
      "¾": 123,
      "¿": 124,
      "À": 125,
      "Á": 126,
      "Â": 127,
      "Ã": 128,
      "Ä": 129,
      "Å": 130,
      "Æ": 131,
      "Ç": 132,
      "È": 133,
      "É": 134,
      "Ê": 135,
      "Ë": 136,
      "Ì": 137,
      "Í": 138,
      "Î": 139,
      "Ï": 140,
      "Ð": 141,
      "Ñ": 142,
      "Ò": 143,
      "Ó": 144,
      "Ô": 145,
      "Õ": 146,
      "Ö": 147,
      "×": 148,
      "Ø": 149,
      "Ù": 150,
      "Ú": 151,
      "Û": 152,
      "Ü": 153,
      "Ý": 154,
      "Þ": 155,
      "ß": 156,
      "à": 157,
      "á": 158,
      "â": 159,
      "ã": 160,
      "ä": 161,
      "å": 162,
      "æ": 163,
      "ç": 164,
      "è": 165,
      "é": 166,
      "ê": 167,
      "ë": 168,
      "ì": 169,
      "í": 170,
      "î": 171,
      "ï": 172,
      "ð": 173,
      "ñ": 174,
      "ò": 175,
      "ó": 176,
      "ô": 177,
      "õ": 178,
      "ö": 179,
      "÷": 180,
      "ø": 181,
      "ù": 182,
      "ú": 183,
      "û": 184,
      "ü": 185,
      "ý": 186,
      "þ": 187,
      "ÿ": 188,
      "Ā": 189,
      "ā": 190,
      "Ă": 191,
      "ă": 192,
      "Ą": 193,
      "ą": 194,
      "Ć": 195,
      "ć": 196,
      "Ĉ": 197,
      "ĉ": 198,
      "Ċ": 199,
      "ċ": 200,
      "Č": 201,
      "č": 202,
      "Ď": 203,
      "ď": 204,
      "Đ": 205,
      "đ": 206,
      "Ē": 207,
      "ē": 208,
      "Ĕ": 209,
      "ĕ": 210,
      "Ė": 211,
      "ė": 212,
      "Ę": 213,
      "ę": 214,
      "Ě": 215,
      "ě": 216,
      "Ĝ": 217,
      "ĝ": 218,
      "Ğ": 219,
      "ğ": 220,
      "Ġ": 221,
      "ġ": 222,
      "Ģ": 223,
      "ģ": 224,
      "Ĥ": 225,
      "ĥ": 226,
      "Ħ": 227,
      "ħ": 228,
      "Ĩ": 229,
      "ĩ": 230,
      "Ī": 231,
      "ī": 232,
      "Ĭ": 233,
      "ĭ": 234,
      "Į": 235,
      "į": 236,
      "İ": 237,
      "ı": 238,
      "Ĳ": 239,
      "ĳ": 240,
      "Ĵ": 241,
      "ĵ": 242,
      "Ķ": 243,
      "ķ": 244,
      "ĸ": 245,
      "Ĺ": 246,
      "ĺ": 247,
      "Ļ": 248,
      "ļ": 249,
      "Ľ": 250,
      "ľ": 251,
      "Ŀ": 252,
      "ŀ": 253,
      "Ł": 254,
      "ł": 255,
      "Ń": 256,
      "er": 257,
      "en": 258,
      "Ġd": 259,
      "es": 260,
      "Ġa": 261,
      "in": 262,
      "Ġt": 263,
      "on": 264,
      "ĠÐ": 265,
      "an": 266,
      "Ġs": 267,
      "Ġl": 268,
      "Ġde": 269,
      "ar": 270,
      "Ġp": 271,
      "Ð¾": 272,
      "or": 273,
      "Ġc": 274,
      "he": 275,
      "at": 276,
      "it": 277,
      "re": 278,
      "is": 279,
      "al": 280,
      "Ð°": 281,
      "Ðµ": 282,
      "un": 283,
      "el": 284,
      "Ð¸": 285,
      "ic": 286,
      "AR": 287,
      "Ġf": 288,
      "Ġm": 289,
      "Ġthe": 290,
      "as": 291,
      "Ð¾Ð": 292,
      "ent": 293,
      "ÑĤ": 294,
      "ÑĢ": 295,
      "Ñģ": 296,
      "ed": 297,
      "Ġw": 298,
      "Ð½": 299,
      "Ġo": 300,
      "NE": 301,
      "Ã©": 302,
      "Ġin": 303,
      "ro": 304,
      "Ġb": 305,
      "ch": 306,
      "ART": 307,
      "ur": 308,
      "qu": 309,
      "Ġ1": 310,
      "Ġla": 311,
      "il": 312,
      "Ġan": 313,
      "ion": 314,
      "ĠS": 315,
      "om": 316,
      "ST": 317,
      "START": 318,
      "Ġv": 319,
      "Ġh": 320,
      "os": 321,
      "et": 322,
      "Ġun": 323,
      "ad": 324,
      "us": 325,
      "ol": 326,
      "Ð»": 327,
      "am": 328,
      "Ġof": 329,
      "ĠA": 330,
      "Ġn": 331,
      "ac": 332,
      "Ġi": 333,
      "ing": 334,
      "est": 335,
      "ĠC": 336,
      "le": 337,
      "Ġel": 338,
      "ĠM": 339,
      "ie": 340,
      "Ġen": 341,
      "te": 342,
      "Ġand": 343,
      "Ġe": 344,
      "Ġg": 345,
      "ĠB": 346,
      "LI": 347,
      "LINE": 348,
      "NEW": 349,
      "NEWLINE": 350,
      "Ã³": 351,
      "Ġto": 352,
      "Ġqu": 353,
      "ĠT": 354,
      "Ðº": 355,
      "ri": 356,
      "ut": 357,
      "Ġre": 358,
      "ĠP": 359,
      "Ñĥ": 360,
      "Ġ2": 361,
      "Ġse": 362,
      "ir": 363,
      "ig": 364,
      "ĠE": 365,
      "ers": 366,
      "ĠL": 367,
      "Ġ(": 368,
      "ia": 369,
      "id": 370,
      "ra": 371,
      "ĠD": 372,
      "Ġal": 373,
      "Ð²": 374,
      "em": 375,
      "._": 376,
      "iv": 377,
      "Ġcon": 378,
      "ul": 379,
      "ist": 380,
      "Ġ19": 381,
      "st": 382,
      "Ñı": 383,
      "ant": 384,
      "ct": 385,
      "Ñĭ": 386,
      "Ð¼": 387,
      "res": 388,
      "ĠR": 389,
      "ĠG": 390,
      "ĠF": 391,
      "ĠH": 392,
      "RA": 393,
      "iÃ³": 394,
      "Ãł": 395,
      "AG": 396,
      "PH": 397,
      "PAR": 398,
      "RAPH": 399,
      "AGRAPH": 400,
      "PARAGRAPH": 401,
      "Ġque": 402,
      "ter": 403,
      "âĢ": 404,
      "ĠI": 405,
      "Ġcom": 406,
      "im": 407,
      "and": 408,
      "ich": 409,
      "Ð´": 410,
      "EC": 411,
      "ON": 412,
      "TI": 413,
      "SEC": 414,
      "TION": 415,
      "SECTION": 416,
      "ot": 417,
      "ÑģÑĤ": 418,
      "ÃŃ": 419,
      "ĠÐ¿": 420,
      "ab": 421,
      "Ġdel": 422,
      "ĠÐ²": 423,
      "Ġ20": 424,
      "um": 425,
      "av": 426,
      "Ġdes": 427,
      "ation": 428,
      "Ã¨": 429,
      "Ġder": 430,
      "Ġth": 431,
      "ĠN": 432,
      "Ã¼": 433,
      "ĠJ": 434,
      "Ġpro": 435,
      "Ġper": 436,
      "ÑĮ": 437,
      "Ã©s": 438,
      "ge": 439,
      "Ġfor": 440,
      "Âł": 441,
      "ĠW": 442,
      "Ġpar": 443,
      "ĠK": 444,
      "Ġbe": 445,
      "oc": 446,
      "Ġes": 447,
      "Ñĩ": 448,
      "ÑĢÐ°": 449,
      "ÐµÐ½": 450,
      "de": 451,
      "Ġwas": 452,
      "Ġund": 453,
      "ĠÑģ": 454,
      "Ġles": 455,
      "Ġon": 456,
      "Ġest": 457,
      "Ð¾Ð²": 458,
      "ort": 459,
      "Ã¤": 460,
      "all": 461,
      "ce": 462,
      "Ġr": 463,
      "up": 464,
      "ber": 465,
      "Ġle": 466,
      "ĠV": 467,
      "Ð·": 468,
      "ĠÐ¸": 469,
      "la": 470,
      "Ġy": 471,
      "Ġas": 472,
      "Ñħ": 473,
      "Ġer": 474,
      "end": 475,
      "ap": 476,
      "if": 477,
      "ud": 478,
      "ow": 479,
      "Ġam": 480,
      "ip": 481,
      "ung": 482,
      "Ġva": 483,
      "Ð¿": 484,
      "ere": 485,
      "ec": 486,
      "ans": 487,
      "Ð¹": 488,
      "Ġst": 489,
      "od": 490,
      "ov": 491,
      "ĠÐ½": 492,
      "ell": 493,
      "ies": 494,
      "Ġdie": 495,
      "Ġz": 496,
      "ĠÐ¾": 497,
      "ag": 498,
      "ith": 499,
      "Ð¾Ð´": 500,
      "eg": 501,
      "aciÃ³": 502,
      "ĠO": 503,
      "op": 504,
      "ug": 505,
      "ub": 506,
      "ÐµÑĢ": 507,
      "Ġj": 508,
      "Ð³": 509,
      "ĠU": 510,
      "ob": 511,
      "Ð±": 512,
      "ens": 513,
      "ment": 514,
      "Ġein": 515,
      "og": 516,
      "Ð°Ð½": 517,
      "Ġet": 518,
      "ill": 519,
      "Ġwh": 520,
      "ier": 521,
      "Ġis": 522,
      "ix": 523,
      "our": 524,
      "ay": 525,
      "ĠThe": 526,
      "uc": 527,
      "00": 528,
      "ÑģÐº": 529,
      "ta": 530,
      "hr": 531,
      "ĠÐº": 532,
      "ten": 533,
      "th": 534,
      "Ġau": 535,
      "Ġwith": 536,
      "und": 537,
      "ass": 538,
      "Ġex": 539,
      "Ġat": 540,
      "Ð¾ÑĢ": 541,
      "Ð¾Ð¼": 542,
      "mp": 543,
      "Ġuna": 544,
      "ada": 545,
      "Ð¾Ð»": 546,
      "ien": 547,
      "Ð°Ð»": 548,
      "ĠIn": 549,
      "ial": 550,
      "ions": 551,
      "Ġhe": 552,
      "ts": 553,
      "ly": 554,
      "ord": 555,
      "Ã²": 556,
      "ne": 557,
      "ran": 558,
      "ach": 559,
      "ver": 560,
      "IC": 561,
      "Ġ\"": 562,
      "ue": 563,
      "LE": 564,
      "Ġ<": 565,
      "ess": 566,
      "ard": 567,
      "Ġ</": 568,
      "ARTIC": 569,
      "ARTICLE": 570,
      "Ġ18": 571,
      "Ġ201": 572,
      "Ġser": 573,
      "rom": 574,
      "Ġ200": 575,
      "ÑĢÐµ": 576,
      "Ġamb": 577,
      "ĠÃł": 578,
      "ire": 579,
      "Ġk": 580,
      "Ġby": 581,
      "ine": 582,
      "ĠSt": 583,
      "Ñİ": 584,
      "Ġals": 585,
      "'s": 586,
      "ĠÐ³": 587,
      "ica": 588,
      "ern": 589,
      "ate": 590,
      "ÑĨ": 591,
      "ou": 592,
      "Ð¾Ð³": 593,
      "ats": 594,
      "ĠÐ´": 595,
      "ect": 596,
      "Ã¶": 597,
      "ÐµÐ»": 598,
      "Ġthat": 599,
      "Ġ3": 600,
      "io": 601,
      "Ð¾Ð¹": 602,
      "Ð½Ñĭ": 603,
      "au": 604,
      "mer": 605,
      "),": 606,
      "art": 607,
      "me": 608,
      "als": 609,
      "ib": 610,
      "Ġtr": 611,
      "ian": 612,
      "Ġcomp": 613,
      "ĠÐ½Ð°": 614,
      "ÑĪ": 615,
      "Ġels": 616,
      "Ð¾Ð½": 617,
      "Ð¶": 618,
      "Ġar": 619,
      "ÐµÑĤ": 620,
      "ament": 621,
      "Ġent": 622,
      "Ġvon": 623,
      "Ġpart": 624,
      "ins": 625,
      "Ã¡": 626,
      "Ġdu": 627,
      "eit": 628,
      "ew": 629,
      "ff": 630,
      "Ġch": 631,
      "Ġpr": 632,
      "ast": 633,
      "ak": 634,
      "Ġor": 635,
      "ors": 636,
      "Ġpl": 637,
      "Ð¸Ð½": 638,
      "ost": 639,
      "ust": 640,
      "Ġit": 641,
      "int": 642,
      "ure": 643,
      "ĠÐ±": 644,
      "Ð¸ÑĤ": 645,
      "Ġden": 646,
      "ont": 647,
      "ĠUn": 648,
      "rit": 649,
      "ĠEl": 650,
      "Ġhis": 651,
      "iqu": 652,
      "Ġfrom": 653,
      "ons": 654,
      "any": 655,
      "ity": 656,
      "Ġcont": 657,
      "isch": 658,
      "Ã§": 659,
      "ĠÐ¼": 660,
      "ang": 661,
      "ind": 662,
      "Ġim": 663,
      "iz": 664,
      "ys": 665,
      "ĠEn": 666,
      "iss": 667,
      "Ð°ÑĤ": 668,
      "pr": 669,
      "cl": 670,
      "ĠÑĤ": 671,
      "Ġmit": 672,
      "che": 673,
      "ann": 674,
      "Ġno": 675,
      "Â«": 676,
      "Â»": 677,
      "itat": 678,
      "ear": 679,
      "Ð¸Ð»": 680,
      "per": 681,
      "eb": 682,
      "ong": 683,
      "ah": 684,
      "ĠAl": 685,
      "Ð¸Ñı": 686,
      "Ġhav": 687,
      "ik": 688,
      "ĠÐ¿ÑĢ": 689,
      "ĠÃ©": 690,
      "ĠCh": 691,
      "ents": 692,
      "ĠAn": 693,
      "Ġsu": 694,
      "Ġ4": 695,
      "Ð¾ÑĤ": 696,
      "Ġac": 697,
      ").": 698,
      "lic": 699,
      "âĢĻ": 700,
      "ond": 701,
      "les": 702,
      "ĠZ": 703,
      "Ġab": 704,
      "ru": 705,
      "ĠÂ«": 706,
      "Ãº": 707,
      "va": 708,
      "Ġap": 709,
      "Ð¸Ðµ": 710,
      "ult": 711,
      "act": 712,
      "ĠâĢ": 713,
      "se": 714,
      "ÑĦ": 715,
      "for": 716,
      "Ġdem": 717,
      "Ġres": 718,
      "ive": 719,
      "ep": 720,
      "ĠLa": 721,
      "ient": 722,
      "Ð½Ð¾": 723,
      "Ð¾Ð³Ð¾": 724,
      "ft": 725,
      "iel": 726,
      "Ġlos": 727,
      "Ġwur": 728,
      "lich": 729,
      "ĠmÃ©s": 730,
      "Ð°ÑĢ": 731,
      "igh": 732,
      "Ġll": 733,
      "ied": 734,
      "gr": 735,
      "ated": 736,
      "Ġsp": 737,
      "Ã¼r": 738,
      "amp": 739,
      "cia": 740,
      "sch": 741,
      "Ġcl": 742,
      "El": 743,
      "unt": 744,
      "ement": 745,
      "ain": 746,
      "Ð¾Ñģ": 747,
      "Ġgr": 748,
      "ign": 749,
      "ĠÐ·": 750,
      "out": 751,
      "Ġdur": 752,
      "ĠMar": 753,
      "ĠSch": 754,
      "Ġ199": 755,
      "Ð¸Ð¸": 756,
      "Ġver": 757,
      "Ġrec": 758,
      "Ð¸Ðº": 759,
      "ÃŁ": 760,
      "Ġare": 761,
      "erson": 762,
      "quest": 763,
      "Ġcar": 764,
      "ame": 765,
      "Ġpri": 766,
      "ciÃ³": 767,
      "Ġwere": 768,
      "Ġco": 769,
      "amb": 770,
      "her": 771,
      "Ġpre": 772,
      "ĠHe": 773,
      "Ġseg": 774,
      "19": 775,
      "Ñī": 776,
      "Ġ5": 777,
      "ivers": 778,
      "Ġad": 779,
      "Ġdels": 780,
      "ĠÑĥ": 781,
      "itz": 782,
      "use": 783,
      "ÑģÑĤÐ²": 784,
      "inc": 785,
      "ĠÐ³Ð¾Ð´": 786,
      "emp": 787,
      "ric": 788,
      "The": 789,
      "ĠAr": 790,
      "ÑģÑı": 791,
      "Ġro": 792,
      "ges": 793,
      "bre": 794,
      "Ġ6": 795,
      "In": 796,
      "ary": 797,
      "ve": 798,
      "ater": 799,
      "Ð»Ð°": 800,
      "ado": 801,
      "Ġmar": 802,
      "oll": 803,
      "du": 804,
      "ok": 805,
      "ugh": 806,
      "ades": 807,
      "Ġwar": 808,
      "Ð°Ðº": 809,
      "Ġdis": 810,
      "Ġcons": 811,
      "ĠÃ©s": 812,
      "to": 813,
      "Ġnom": 814,
      "Ġwurde": 815,
      "Ð¸Ð¼": 816,
      "we": 817,
      "ack": 818,
      "ork": 819,
      "ÐµÐ¼": 820,
      "ex": 821,
      "Ã©e": 822,
      "Ġhab": 823,
      "fer": 824,
      "ĠÐ°": 825,
      "Ġauf": 826,
      "uer": 827,
      "ina": 828,
      "ischen": 829,
      "Ñĳ": 830,
      "Ġcap": 831,
      "ual": 832,
      "Ġwhich": 833,
      "ma": 834,
      "rib": 835,
      "Ġob": 836,
      "Ġinter": 837,
      "ore": 838,
      "Ð¸Ð¹": 839,
      "ĠLe": 840,
      "ish": 841,
      "Ġrep": 842,
      "den": 843,
      "oh": 844,
      "ĠTh": 845,
      "man": 846,
      "Ġpor": 847,
      "els": 848,
      "Ġfin": 849,
      "ĠÑĩ": 850,
      "rop": 851,
      "ite": 852,
      "ĠdÃ©": 853,
      "Ġnot": 854,
      "ific": 855,
      "Ġact": 856,
      "Ġzu": 857,
      "land": 858,
      "Ġter": 859,
      "Ġdas": 860,
      "ÃŃa": 861,
      "ĠÐĴ": 862,
      "ÐµÐ´": 863,
      "anc": 864,
      "ide": 865,
      "ener": 866,
      "Ġav": 867,
      "aj": 868,
      "Ġsh": 869,
      "Ġperson": 870,
      "Ġimp": 871,
      "Ð°Ð¼": 872,
      "orn": 873,
      "ally": 874,
      "ĠÑĢÐ°": 875,
      "Ġpres": 876,
      "ional": 877,
      "Ġera": 878,
      "Ġfam": 879,
      "ÐµÐ¹": 880,
      "Ã¨n": 881,
      "pt": 882,
      "Ã©r": 883,
      "lo": 884,
      "enc": 885,
      "age": 886,
      "Ġdon": 887,
      "âĢĭ": 888,
      "der": 889,
      "Ġentre": 890,
      "Ġhi": 891,
      "Ġher": 892,
      "Ġhad": 893,
      "Ġaus": 894,
      "ĠY": 895,
      "Ð¸Ñĩ": 896,
      "Ġ198": 897,
      "ical": 898,
      "ice": 899,
      "Ġhas": 900,
      "Ġdans": 901,
      "ÑĢÑĥ": 902,
      "Ã±": 903,
      "Ġsur": 904,
      "ations": 905,
      "ĠĠ": 906,
      "Ġten": 907,
      "ss": 908,
      "icht": 909,
      "Ġ_": 910,
      "Ġpos": 911,
      "Ġseu": 912,
      "Ð¸Ð²": 913,
      "its": 914,
      "ry": 915,
      "ĠÐ¡": 916,
      "ais": 917,
      "Ġsol": 918,
      "Ñį": 919,
      "ren": 920,
      "men": 921,
      "urs": 922,
      "ants": 923,
      "min": 924,
      "ome": 925,
      "ational": 926,
      "Ġvan": 927,
      "Ġcol": 928,
      "Ġ17": 929,
      "pos": 930,
      "era": 931,
      "ari": 932,
      "Ġfir": 933,
      "Ġte": 934,
      "Ġso": 935,
      "ĠÃ": 936,
      "ev": 937,
      "Ġman": 938,
      "Ã³n": 939,
      "port": 940,
      "alt": 941,
      "Ð°Ð²": 942,
      "Ð¾ÑģÑĤ": 943,
      "able": 944,
      "ition": 945,
      "La": 946,
      "que": 947,
      "Ġ197": 948,
      "Ġalso": 949,
      "Ġsup": 950,
      "ular": 951,
      "ace": 952,
      "ria": 953,
      "Ġune": 954,
      "uch": 955,
      "ĠfÃ¼r": 956,
      "Ð¸Ñģ": 957,
      "ck": 958,
      "Ġtra": 959,
      "ahr": 960,
      "ÐµÐ²": 961,
      "ph": 962,
      "Ã¨s": 963,
      "olog": 964,
      "ura": 965,
      "Ġ7": 966,
      "gan": 967,
      "ild": 968,
      "ert": 969,
      "fter": 970,
      "aven": 971,
      "Ġall": 972,
      "ĠÐ±Ñĭ": 973,
      "obl": 974,
      "Ġist": 975,
      "Ġreg": 976,
      "Ġsich": 977,
      "aciÃ³n": 978,
      "Ġne": 979,
      "Ġ8": 980,
      "ile": 981,
      "Ġag": 982,
      "ĠX": 983,
      "Ġlas": 984,
      "ction": 985,
      "aus": 986,
      "ÐµÐº": 987,
      "ĠCom": 988,
      "âĢĶ": 989,
      "ique": 990,
      "Ġson": 991,
      "Ġapp": 992,
      "Ġpol": 993,
      "Ġconst": 994,
      "Ġha": 995,
      "Ð¾Ð±": 996,
      "Ġincl": 997,
      "Ġ194": 998,
      "Ġpour": 999,
      "ress": 1000,
      "Ð°Ñı": 1001,
      "kt": 1002,
      "rat": 1003,
      "ale": 1004,
      "Ġseva": 1005,
      "fic": 1006,
      "Ġform": 1007,
      "Ġrel": 1008,
      "Ġsch": 1009,
      "Ġme": 1010,
      "gen": 1011,
      "ger": 1012,
      "Ġqui": 1013,
      "ĠPar": 1014,
      "ĠÐ¾ÑĤ": 1015,
      "Ġfirst": 1016,
      "Ð¸Ñħ": 1017,
      "Ġeine": 1018,
      "ther": 1019,
      "Ġ196": 1020,
      "Â·": 1021,
      "nd": 1022,
      "ise": 1023,
      "Ġcre": 1024,
      "ĠEr": 1025,
      "ĠFran": 1026,
      "Ġil": 1027,
      "gl": 1028,
      "ĠÑģÑĤ": 1029,
      "ida": 1030,
      "iet": 1031,
      "Ġ15": 1032,
      "ven": 1033,
      "Ð»Ñı": 1034,
      "iÃ¨": 1035,
      "ĠÐļ": 1036,
      "wo": 1037,
      "ĠÐŁ": 1038,
      "Ġpla": 1039,
      "ade": 1040,
      "itu": 1041,
      "âĢĵ": 1042,
      "sp": 1043,
      "Ġesc": 1044,
      "ior": 1045,
      "ld": 1046,
      "Ġcomm": 1047,
      "eh": 1048,
      "En": 1049,
      "ĠDe": 1050,
      "ory": 1051,
      "iques": 1052,
      "Ġesp": 1053,
      "ics": 1054,
      "Ġtheir": 1055,
      "ux": 1056,
      "Ġbut": 1057,
      "Ġ16": 1058,
      "tem": 1059,
      "Ġus": 1060,
      "tre": 1061,
      "Ġcas": 1062,
      "uss": 1063,
      "Ã¯": 1064,
      "Ġ9": 1065,
      "ÐµÐ»ÑĮ": 1066,
      "Ġhavia": 1067,
      "Ġtro": 1068,
      "Ð¾Ðº": 1069,
      "own": 1070,
      "form": 1071,
      "erv": 1072,
      "ogra": 1073,
      "Ġfa": 1074,
      "pl": 1075,
      "uld": 1076,
      "ador": 1077,
      "ence": 1078,
      "ĠÐ¾Ð±": 1079,
      "Ġass": 1080,
      "Ġpe": 1081,
      "acions": 1082,
      "Ġmed": 1083,
      "ona": 1084,
      "ĠRe": 1085,
      "ll": 1086,
      "ath": 1087,
      "Ð»Ð¸": 1088,
      "ident": 1089,
      "ana": 1090,
      "Ġcent": 1091,
      "Ġpub": 1092,
      "ret": 1093,
      "ca": 1094,
      "ance": 1095,
      "Ġsa": 1096,
      "ime": 1097,
      "ze": 1098,
      "mb": 1099,
      "Ġits": 1100,
      "ita": 1101,
      "Ġgro": 1102,
      "ĠSp": 1103,
      "Ġsein": 1104,
      "Ã©n": 1105,
      "ces": 1106,
      "Ġprimer": 1107,
      "ille": 1108,
      "una": 1109,
      "oy": 1110,
      "ight": 1111,
      "Ð½Ð¾Ð¹": 1112,
      "ree": 1113,
      "ke": 1114,
      "rig": 1115,
      "one": 1116,
      "Ġyear": 1117,
      "000": 1118,
      "Ġind": 1119,
      "Ġcan": 1120,
      "uf": 1121,
      "ĠPro": 1122,
      "Ġ10": 1123,
      "Ġoc": 1124,
      ".âĢĭ": 1125,
      "Ð¾Ð·": 1126,
      "Ġ193": 1127,
      "az": 1128,
      "ĠÐ»": 1129,
      "vel": 1130,
      "rie": 1131,
      "Ġaut": 1132,
      "Ġ195": 1133,
      "Ġ12": 1134,
      "ĠDie": 1135,
      "Ġbis": 1136,
      "are": 1137,
      "Ġsec": 1138,
      "ral": 1139,
      "une": 1140,
      "ĠIt": 1141,
      "Ġanys": 1142,
      "incip": 1143,
      "ember": 1144,
      "Ġtot": 1145,
      "Ġfil": 1146,
      "ool": 1147,
      "ĠÐ½Ðµ": 1148,
      "Ð¾Ð»ÑĮ": 1149,
      "Ġret": 1150,
      "Ġdif": 1151,
      "Ġpara": 1152,
      "igen": 1153,
      "Ð¸Ð·": 1154,
      "ava": 1155,
      "ĠVer": 1156,
      "ick": 1157,
      "Ġwho": 1158,
      "Ð³Ð¾": 1159,
      "Ġpobl": 1160,
      "ĠÐ¸Ð·": 1161,
      "Ġint": 1162,
      "ĠÐ¿Ð¾": 1163,
      "Ġsub": 1164,
      "urn": 1165,
      "ton": 1166,
      "Ġone": 1167,
      "ĠÑį": 1168,
      "Ġed": 1169,
      "Ġhave": 1170,
      "arg": 1171,
      "tern": 1172,
      "ista": 1173,
      "vol": 1174,
      "iÃ³n": 1175,
      "ĠÐ³Ð¾Ð´Ð°": 1176,
      "Ġtrans": 1177,
      "Ġprincip": 1178,
      "Ġthis": 1179,
      "Ã¼ber": 1180,
      "ĠrÃ©": 1181,
      "Ġloc": 1182,
      "wn": 1183,
      "Ã¨ncia": 1184,
      "Ġfo": 1185,
      "att": 1186,
      "ĠÐľ": 1187,
      "ete": 1188,
      "Ġaquest": 1189,
      "af": 1190,
      "Ġsc": 1191,
      "Ġmon": 1192,
      "vent": 1193,
      "obre": 1194,
      "ĠBe": 1195,
      "emb": 1196,
      "Ġnach": 1197,
      "Ð½ÑĭÑħ": 1198,
      "ase": 1199,
      "duc": 1200,
      "ĠÐµ": 1201,
      "18": 1202,
      "II": 1203,
      "ales": 1204,
      "tic": 1205,
      "ben": 1206,
      "ĠGr": 1207,
      "hed": 1208,
      "ara": 1209,
      "Ġcor": 1210,
      "Ġwo": 1211,
      "Ġra": 1212,
      "enn": 1213,
      "Ġvers": 1214,
      "Ð¾Ð¶": 1215,
      "ines": 1216,
      "ates": 1217,
      "ĠUnivers": 1218,
      "ohn": 1219,
      "Ġserv": 1220,
      "âĢľ": 1221,
      "Ġenc": 1222,
      "ÐµÐ½Ð¸Ñı": 1223,
      "ars": 1224,
      "Ġwork": 1225,
      "Ġpel": 1226,
      "Ð¸ÑĢ": 1227,
      "ism": 1228,
      "Ġemp": 1229,
      "Ġtwo": 1230,
      "Ġbeen": 1231,
      "ische": 1232,
      "elle": 1233,
      "itt": 1234,
      "20": 1235,
      "ures": 1236,
      "Ġmod": 1237,
      "old": 1238,
      "cess": 1239,
      "fl": 1240,
      "ous": 1241,
      "ĠÑĦ": 1242,
      "Ã¤n": 1243,
      "Ð°Ð»ÑĮ": 1244,
      "ai": 1245,
      "Ġdire": 1246,
      "ron": 1247,
      "ungen": 1248,
      "Ġsie": 1249,
      "ĠQ": 1250,
      "Ð½Ð¾Ð³Ð¾": 1251,
      "ĠCo": 1252,
      "prÃ©s": 1253,
      "Ġprov": 1254,
      "ĠÐ²Ñĭ": 1255,
      "ĠÐĲ": 1256,
      "Ġpartic": 1257,
      "urg": 1258,
      "Ġcomo": 1259,
      "Ġtamb": 1260,
      "ings": 1261,
      "ks": 1262,
      "ÑĤÐ¾": 1263,
      "Ġgener": 1264,
      "ÐĴ": 1265,
      "ilit": 1266,
      "Ð¡": 1267,
      "ante": 1268,
      "tes": 1269,
      "ĠNew": 1270,
      "Ġ14": 1271,
      "ely": 1272,
      "ÐµÑģÐº": 1273,
      "Ġauch": 1274,
      "con": 1275,
      "Ġtemp": 1276,
      "Ġ13": 1277,
      "ÐºÐ°": 1278,
      "Ãª": 1279,
      "ido": 1280,
      "Ġrest": 1281,
      "aft": 1282,
      "Ġprop": 1283,
      "Ġafter": 1284,
      "ird": 1285,
      "ÑĥÑİ": 1286,
      "ros": 1287,
      "och": 1288,
      "Ġout": 1289,
      "Ġdec": 1290,
      "Ġmost": 1291,
      "ĠÃ¼ber": 1292,
      "co": 1293,
      "urop": 1294,
      "Ġdies": 1295,
      "par": 1296,
      "etz": 1297,
      "ives": 1298,
      "ict": 1299,
      "ctor": 1300,
      "ĠAb": 1301,
      "ĠÐ¿ÐµÑĢ": 1302,
      "ĠCar": 1303,
      "ĠSh": 1304,
      "ball": 1305,
      "Ġup": 1306,
      "ĠJahr": 1307,
      "Ġplay": 1308,
      "Ð¾Ð¿": 1309,
      "ĠÐ·Ð°": 1310,
      "overn": 1311,
      "Ġpo": 1312,
      "ÐµÑģÑĤ": 1313,
      "iment": 1314,
      "Ġeren": 1315,
      "Ġhist": 1316,
      "ÐµÐ½Ð¸Ðµ": 1317,
      "ĠâĢŀ": 1318,
      "ÑĢÐµÐ´": 1319,
      "inn": 1320,
      "Ġexp": 1321,
      "aut": 1322,
      "Ġfe": 1323,
      "Ġthey": 1324,
      "Ġpass": 1325,
      "oss": 1326,
      "Ġdist": 1327,
      "gram": 1328,
      "ose": 1329,
      "Ġplus": 1330,
      "ÑģÐ¿": 1331,
      "ited": 1332,
      "ward": 1333,
      "ras": 1334,
      "Ġhom": 1335,
      "bert": 1336,
      "Ð½Ð°": 1337,
      "Ġshe": 1338,
      "Ġprodu": 1339,
      "ios": 1340,
      "Ġbo": 1341,
      "abl": 1342,
      "esch": 1343,
      "ÃŃl": 1344,
      "Ġbei": 1345,
      "Ġinc": 1346,
      "Ġestaven": 1347,
      "iu": 1348,
      "ĠCol": 1349,
      "be": 1350,
      "Ġpersones": 1351,
      "Ġavec": 1352,
      "Ġpod": 1353,
      "Ġbec": 1354,
      "Ġviv": 1355,
      "Ġers": 1356,
      "ett": 1357,
      "ÃŃn": 1358,
      "Ġmol": 1359,
      "Ġnew": 1360,
      "ĠSe": 1361,
      "Ġbl": 1362,
      "Ġport": 1363,
      "red": 1364,
      "Ã¡s": 1365,
      "Ġsobre": 1366,
      "leg": 1367,
      "outh": 1368,
      "Ã¤t": 1369,
      "onn": 1370,
      "Ġbet": 1371,
      "tÃ©": 1372,
      "Ġhabitat": 1373,
      "ando": 1374,
      "ese": 1375,
      "Ġover": 1376,
      "ject": 1377,
      "unc": 1378,
      "Ġmat": 1379,
      "oth": 1380,
      "ĠBar": 1381,
      "Ġdos": 1382,
      "ased": 1383,
      "ĠOr": 1384,
      "ui": 1385,
      "Ġdo": 1386,
      "illa": 1387,
      "rid": 1388,
      "orm": 1389,
      "Ġother": 1390,
      "Ġop": 1391,
      "orth": 1392,
      "Ġdef": 1393,
      "ĠÐĳ": 1394,
      "Ġ2007": 1395,
      "iones": 1396,
      "hip": 1397,
      "ĠÑĢÐµ": 1398,
      "Ġzum": 1399,
      "Ð´Ð°": 1400,
      "ĠIl": 1401,
      "Ġqual": 1402,
      "ĠÐ±ÑĭÐ»": 1403,
      "Ġmus": 1404,
      "Ġfl": 1405,
      "esc": 1406,
      "Ġmet": 1407,
      "Ġmen": 1408,
      "ues": 1409,
      "Ãłn": 1410,
      "oci": 1411,
      "ler": 1412,
      "Ã§a": 1413,
      "Ġgu": 1414,
      "ĠCon": 1415,
      "Ġwe": 1416,
      "ock": 1417,
      "ĠÐ¶": 1418,
      "iste": 1419,
      "Ġinto": 1420,
      "ĠÐ³Ð¾Ð´Ñĥ": 1421,
      "Ġmin": 1422,
      "erc": 1423,
      "lem": 1424,
      "Ġ11": 1425,
      "Al": 1426,
      "Ġeiner": 1427,
      "Ð¸ÑĩÐµÑģÐº": 1428,
      "Ġbu": 1429,
      "itÃ©": 1430,
      "Ġ192": 1431,
      "Ġhim": 1432,
      "ungs": 1433,
      "Ġvol": 1434,
      "pe": 1435,
      "ene": 1436,
      "Ð½ÑĭÐ¹": 1437,
      "ÑĤÐ°": 1438,
      "Ġlo": 1439,
      "Ġfer": 1440,
      "ĠfamÃŃl": 1441,
      "ĠÐĿ": 1442,
      "Ġalt": 1443,
      "eng": 1444,
      "Ġdesc": 1445,
      "ula": 1446,
      "tain": 1447,
      "Ã¶r": 1448,
      "ets": 1449,
      "Ġ2009": 1450,
      "of": 1451,
      "ĠEs": 1452,
      "ba": 1453,
      "ister": 1454,
      "Ġtime": 1455,
      "Ġdurch": 1456,
      "Ð¾Ð²Ð°Ð½": 1457,
      "Ġcr": 1458,
      "ĠÐł": 1459,
      "way": 1460,
      "Ġtre": 1461,
      "ÐµÑģ": 1462,
      "Ã¼n": 1463,
      "Ġzur": 1464,
      "Ġum": 1465,
      "ĠTe": 1466,
      "Ġsign": 1467,
      "ÃŃs": 1468,
      "Ð»ÑĮ": 1469,
      "Ġinst": 1470,
      "Ð½Ð¾ÑģÑĤ": 1471,
      "Ð¸ÑģÑĤ": 1472,
      "reg": 1473,
      "elt": 1474,
      "Ġstud": 1475,
      "Ġinclud": 1476,
      "rough": 1477,
      "Ġge": 1478,
      "ĠpoblaciÃ³": 1479,
      "ife": 1480,
      "Ã©es": 1481,
      "Ġcamp": 1482,
      "Ġpublic": 1483,
      "iana": 1484,
      "ÑĥÑĢ": 1485,
      "Ð½ÑĭÐ¼": 1486,
      "ner": 1487,
      "ense": 1488,
      "ision": 1489,
      "idad": 1490,
      "Ġdi": 1491,
      "ĠAm": 1492,
      "Ġins": 1493,
      "ible": 1494,
      "ĠÑģÐ²": 1495,
      "Ð½Ð¸Ðº": 1496,
      "ÃŃt": 1497,
      "..": 1498,
      "ĠperÃ²": 1499,
      "Ġmov": 1500,
      "ÑĢÐ°Ð½": 1501,
      "Ġpop": 1502,
      "Ð½ÑĭÐµ": 1503,
      "Ġfr": 1504,
      "ute": 1505,
      "iat": 1506,
      "met": 1507,
      "lt": 1508,
      "\".": 1509,
      "ĠPer": 1510,
      "ena": 1511,
      "Ġreal": 1512,
      "Ð°Ñģ": 1513,
      "Ġhat": 1514,
      "ĠÐĶ": 1515,
      "Ð¸ÑĨ": 1516,
      "ider": 1517,
      "ados": 1518,
      "ius": 1519,
      "Ġacc": 1520,
      "ils": 1521,
      "Ġprof": 1522,
      "ument": 1523,
      "Ġcontin": 1524,
      "Ġwould": 1525,
      "ĠâĢĵ": 1526,
      "ola": 1527,
      "ques": 1528,
      "ÐŁ": 1529,
      "Ġfins": 1530,
      "na": 1531,
      "ĠBer": 1532,
      "ĠÐŀ": 1533,
      "ÃŃc": 1534,
      "Ġci": 1535,
      "Ġfue": 1536,
      "ital": 1537,
      "hen": 1538,
      "Ġatt": 1539,
      "urch": 1540,
      "Ġconc": 1541,
      "ves": 1542,
      "Ġ25": 1543,
      "\",": 1544,
      "Ġ-": 1545,
      "let": 1546,
      "Ġfinal": 1547,
      "inal": 1548,
      "chen": 1549,
      "vers": 1550,
      "Ð¸Ð´": 1551,
      "Ġnov": 1552,
      "orld": 1553,
      "elles": 1554,
      "Ġwhen": 1555,
      "ĠTr": 1556,
      "rag": 1557,
      "ĠLes": 1558,
      "ajor": 1559,
      "ino": 1560,
      "Ġprem": 1561,
      "ĠÐĵ": 1562,
      "ua": 1563,
      "eter": 1564,
      "ige": 1565,
      "ette": 1566,
      "ĠtambÃ©": 1567,
      "ones": 1568,
      "gel": 1569,
      "Ġdest": 1570,
      "ake": 1571,
      "arr": 1572,
      "Ġend": 1573,
      "Ġfilm": 1574,
      "ĠCl": 1575,
      "ĠÐ¿Ð¾Ð»": 1576,
      "Ð»Ðµ": 1577,
      "ÑģÐºÐ¾Ð³Ð¾": 1578,
      "Ġyears": 1579,
      "unic": 1580,
      "ha": 1581,
      "ily": 1582,
      "ious": 1583,
      "ĠSant": 1584,
      "iar": 1585,
      "Ġimport": 1586,
      "anz": 1587,
      "ough": 1588,
      "Ġmore": 1589,
      "quip": 1590,
      "Ġdep": 1591,
      "Ġvor": 1592,
      "ÑģÐºÐ¾Ð¹": 1593,
      "Ð¾ÑĤÐ¾ÑĢ": 1594,
      "Ġih": 1595,
      "Ġgovern": 1596,
      "Ġpas": 1597,
      "ĠRo": 1598,
      "ished": 1599,
      "Ġrem": 1600,
      "ĠGe": 1601,
      "Ġresp": 1602,
      "Ġann": 1603,
      "Ġagain": 1604,
      "Ġsim": 1605,
      "ason": 1606,
      "Ġconf": 1607,
      "ĠEst": 1608,
      "Ġ191": 1609,
      "Ġwhere": 1610,
      "ÐµÐ½ÑĤ": 1611,
      "ouse": 1612,
      "ĠAd": 1613,
      ")._": 1614,
      "air": 1615,
      "util": 1616,
      "ÐµÐ·": 1617,
      "ĠBr": 1618,
      "Ð°Ð´": 1619,
      "itats": 1620,
      "Ġsus": 1621,
      "cept": 1622,
      "ĠPl": 1623,
      "Ġclass": 1624,
      "ĠFl": 1625,
      "ium": 1626,
      "ente": 1627,
      "Ġart": 1628,
      "Ġorgan": 1629,
      "Ġseus": 1630,
      "ÑĢÐ°Ð²": 1631,
      "ĠBl": 1632,
      "Ġsuc": 1633,
      "omen": 1634,
      "Ġgran": 1635,
      "uel": 1636,
      "Ġsoc": 1637,
      "Ã¤r": 1638,
      "li": 1639,
      "ural": 1640,
      "gun": 1641,
      "ĠÐ¢": 1642,
      "Ġfran": 1643,
      "Ġunder": 1644,
      "ĠReg": 1645,
      "iert": 1646,
      "Ġfou": 1647,
      "Ġhabitatges": 1648,
      "Ã©t": 1649,
      "Ð°ÑģÑĤ": 1650,
      "ĠIs": 1651,
      "iva": 1652,
      "ĠAs": 1653,
      "Hist": 1654,
      "bum": 1655,
      "Ġeinem": 1656,
      "ĠSa": 1657,
      "ata": 1658,
      "ĠsÃ³n": 1659,
      "Ġlater": 1660,
      "ank": 1661,
      "ograph": 1662,
      "ruct": 1663,
      "ÐµÑģÑĤÐ²": 1664,
      "omm": 1665,
      "embre": 1666,
      "Ã¡n": 1667,
      "ĠPh": 1668,
      "Ġnicht": 1669,
      "lie": 1670,
      "Ã¼ck": 1671,
      "ince": 1672,
      "Ġri": 1673,
      "Ġelect": 1674,
      "ution": 1675,
      "ĠHer": 1676,
      "Ġwer": 1677,
      "Ġkn": 1678,
      "Ġsont": 1679,
      "yn": 1680,
      "Ġsel": 1681,
      "atal": 1682,
      "ĠÐ¿Ð¾Ð´": 1683,
      "Ġpresent": 1684,
      "ÑĥÑĤ": 1685,
      "Ġorig": 1686,
      "ames": 1687,
      "rol": 1688,
      "iter": 1689,
      "Ġear": 1690,
      "lichen": 1691,
      "ĠAmer": 1692,
      "iciÃ³": 1693,
      "ÑıÑĤ": 1694,
      "ico": 1695,
      "cht": 1696,
      "Ð°ÐµÑĤ": 1697,
      "ald": 1698,
      "ican": 1699,
      "lin": 1700,
      "ÑĥÐ´": 1701,
      "Le": 1702,
      "ĠĠĠĠ": 1703,
      "ciÃ³n": 1704,
      "ĠInd": 1705,
      "Ġ24": 1706,
      "Ð¸Ñİ": 1707,
      "Ġgo": 1708,
      "Ġou": 1709,
      "Ã¼hr": 1710,
      "Ġph": 1711,
      "Ġpu": 1712,
      "ark": 1713,
      "ried": 1714,
      "Ð°ÑĤÑĮ": 1715,
      "ÐµÑĢÐ°": 1716,
      "Ġmajor": 1717,
      "Ġband": 1718,
      "acional": 1719,
      "ween": 1720,
      "Ġduring": 1721,
      "terior": 1722,
      "Ã©d": 1723,
      "egen": 1724,
      "Die": 1725,
      "Ġ30": 1726,
      ".\"": 1727,
      "Ġnombre": 1728,
      "Ð¾Ñĩ": 1729,
      "ÑĥÑĩ": 1730,
      "Ġsind": 1731,
      "Ġunt": 1732,
      "Ġpot": 1733,
      "ĠGu": 1734,
      "ĠOn": 1735,
      "mes": 1736,
      "Ġcu": 1737,
      "ÑħÐ¾Ð´": 1738,
      "Â»,": 1739,
      "ÐºÐ¸": 1740,
      "Ġonly": 1741,
      "Ġestabl": 1742,
      "Ġ190": 1743,
      "Ġpa": 1744,
      "Ġunter": 1745,
      "atre": 1746,
      "Ġoff": 1747,
      "Ġwerden": 1748,
      "hi": 1749,
      "ein": 1750,
      "esp": 1751,
      "An": 1752,
      "isc": 1753,
      "resent": 1754,
      "ĠJul": 1755,
      "Ġthere": 1756,
      "Ġnum": 1757,
      "Ġinv": 1758,
      "ora": 1759,
      "ieder": 1760,
      "Ġext": 1761,
      "Ġmill": 1762,
      "ĠÐºÐ¾ÑĤÐ¾ÑĢ": 1763,
      "ĠÑĢÐ°Ð·": 1764,
      "ĠNov": 1765,
      "Ġdisc": 1766,
      "Ġdones": 1767,
      "Ġmade": 1768,
      "enden": 1769,
      "ĠÑĢ": 1770,
      "berg": 1771,
      "Ġsitu": 1772,
      "Ġthen": 1773,
      "ax": 1774,
      "Ġgroup": 1775,
      "ateix": 1776,
      "arb": 1777,
      "geb": 1778,
      "Ð»ÐµÐ½": 1779,
      "ĠJohn": 1780,
      "iÃ¨re": 1781,
      "ĠJan": 1782,
      "Ġmot": 1783,
      "ĠdesprÃ©s": 1784,
      "isme": 1785,
      "Ġlong": 1786,
      "Ġmay": 1787,
      "ollow": 1788,
      "Ġord": 1789,
      "chn": 1790,
      "Ġtrad": 1791,
      "Ġthrough": 1792,
      "Ġ2010": 1793,
      "ĠDer": 1794,
      "ury": 1795,
      "ograf": 1796,
      "velop": 1797,
      "Ġdiv": 1798,
      "lex": 1799,
      "ĠPr": 1800,
      "ĠPol": 1801,
      "ating": 1802,
      "vo": 1803,
      "ĠMan": 1804,
      "ĠÐĺ": 1805,
      "Ġce": 1806,
      "Ð¶Ðµ": 1807,
      "ays": 1808,
      "Ã¨re": 1809,
      "ley": 1810,
      "ries": 1811,
      "arm": 1812,
      "cies": 1813,
      "osa": 1814,
      "ull": 1815,
      "ĠSc": 1816,
      "ode": 1817,
      "ĠÐ¿ÑĢÐ¾": 1818,
      "entre": 1819,
      "ĠGer": 1820,
      "ĠEurop": 1821,
      "ĠUniversity": 1822,
      "km": 1823,
      "Ġabout": 1824,
      "ĠAug": 1825,
      "Ġbetween": 1826,
      "Ġvis": 1827,
      "Ã²ria": 1828,
      "hal": 1829,
      "fr": 1830,
      "Ġfill": 1831,
      "Ġpat": 1832,
      "ÑĢÐµÐ¼": 1833,
      "fore": 1834,
      "Ġsuch": 1835,
      "Ġfound": 1836,
      "Ġwird": 1837,
      "Ġdivers": 1838,
      "Ġsecond": 1839,
      "atz": 1840,
      "Ġproper": 1841,
      "bl": 1842,
      "Ġprogram": 1843,
      "utsch": 1844,
      "Ġeinen": 1845,
      "Ð¸Ð¾Ð½": 1846,
      "ĠmÃ¡s": 1847,
      "amm": 1848,
      "Ġbecame": 1849,
      "over": 1850,
      "enz": 1851,
      "Ġbest": 1852,
      "ĠEls": 1853,
      "ever": 1854,
      "aux": 1855,
      "Ġhigh": 1856,
      "Ġli": 1857,
      "ruc": 1858,
      "Ġthem": 1859,
      "ek": 1860,
      "ĠShe": 1861,
      "10": 1862,
      "Ġparticip": 1863,
      "ei": 1864,
      "round": 1865,
      "Ġthree": 1866,
      "Â».": 1867,
      "Ar": 1868,
      "Ġintern": 1869,
      "Ġbas": 1870,
      "Ãºn": 1871,
      "ĠÐĽ": 1872,
      "ÑİÑĤ": 1873,
      "wer": 1874,
      "ĠThis": 1875,
      "ĠAt": 1876,
      "Un": 1877,
      "Ðļ": 1878,
      "Ġ2011": 1879,
      "ission": 1880,
      "Ġtres": 1881,
      "Ð¸Ð³": 1882,
      "ht": 1883,
      "Ġ2000": 1884,
      "Ã©c": 1885,
      "Ġused": 1886,
      "org": 1887,
      "ores": 1888,
      "erst": 1889,
      "ĠII": 1890,
      "lement": 1891,
      "Ã´": 1892,
      "omb": 1893,
      "son": 1894,
      "Ã¶n": 1895,
      "ĠMit": 1896,
      "ster": 1897,
      "Ġutil": 1898,
      "ours": 1899,
      "ature": 1900,
      "ias": 1901,
      "ĠChr": 1902,
      "Ġaix": 1903,
      "Ð°Ð·": 1904,
      "ya": 1905,
      "ĠFor": 1906,
      "Ġant": 1907,
      "ather": 1908,
      "Ð°Ð¼Ð¸": 1909,
      "Ġteam": 1910,
      "Ġthan": 1911,
      "vert": 1912,
      "enda": 1913,
      "ean": 1914,
      "ÐºÑĤ": 1915,
      "Ġset": 1916,
      "Ġlocal": 1917,
      "17": 1918,
      "Ġ189": 1919,
      "ower": 1920,
      "Ġprincipal": 1921,
      "Ġsome": 1922,
      "ides": 1923,
      "Ã¤h": 1924,
      "omin": 1925,
      "Ġhomes": 1926,
      "Ã¨r": 1927,
      "ative": 1928,
      "Ġdurant": 1929,
      "ĠYork": 1930,
      "adt": 1931,
      "Ġaux": 1932,
      "ystem": 1933,
      "Ġcult": 1934,
      "burg": 1935,
      "ĠWest": 1936,
      "Ġtenien": 1937,
      "Ġcada": 1938,
      "Ġve": 1939,
      "Ġhum": 1940,
      "Ġtotal": 1941,
      "ierte": 1942,
      "Ġzw": 1943,
      "Ð¾Ðµ": 1944,
      "Ġref": 1945,
      "Ġany": 1946,
      "rip": 1947,
      "Ġ2008": 1948,
      "Ġoper": 1949,
      "ĠaÃ±": 1950,
      "Ġ2012": 1951,
      "ĠÐ¿Ð¾Ñģ": 1952,
      "Ġconstru": 1953,
      "ĠQu": 1954,
      "ecial": 1955,
      "istes": 1956,
      "Ġocup": 1957,
      "ĠSte": 1958,
      "ĠÑĩÑĤÐ¾": 1959,
      "omp": 1960,
      "ÑĥÐ±": 1961,
      "oria": 1962,
      "aw": 1963,
      "sel": 1964,
      "ave": 1965,
      "Ġrele": 1966,
      "ash": 1967,
      "ĠBo": 1968,
      "ÑĨÐ¸Ð¸": 1969,
      "Ġrecord": 1970,
      "Ġschool": 1971,
      "mente": 1972,
      "Ð°Ñħ": 1973,
      "ĠNach": 1974,
      "ero": 1975,
      "itar": 1976,
      "Ġcall": 1977,
      "50": 1978,
      "Ġtit": 1979,
      "Ġnou": 1980,
      "Ð½Ðµ": 1981,
      "ike": 1982,
      "ĠIm": 1983,
      "ĠCan": 1984,
      "ĠLand": 1985,
      "ĠÐºÐ¾Ð¼": 1986,
      "aur": 1987,
      "ĠEin": 1988,
      "ĠEx": 1989,
      "200": 1990,
      "ĠÑħ": 1991,
      "ole": 1992,
      "ved": 1993,
      "Ġproduc": 1994,
      "Ġwurden": 1995,
      "Ġgeneral": 1996,
      "Ġconsider": 1997,
      "Ġsi": 1998,
      "Ġmitj": 1999,
      "Ġmateix": 2000,
      "reich": 2001,
      "ĠÑĤÐ°Ðº": 2002,
      "Ġlie": 2003,
      "ĠSan": 2004,
      "rar": 2005,
      "Ġoder": 2006,
      "ield": 2007,
      "Ð½Ð¾Ð¼": 2008,
      "Ã¢": 2009,
      "Ġgre": 2010,
      "irc": 2011,
      "Es": 2012,
      "ator": 2013,
      "iol": 2014,
      "ĠApr": 2015,
      "Ġ2014": 2016,
      "Ġcontra": 2017,
      "Ġcer": 2018,
      "ext": 2019,
      "aquest": 2020,
      "ima": 2021,
      "ota": 2022,
      "Ġrepresent": 2023,
      "Ġdeb": 2024,
      "ĠUS": 2025,
      "Ġja": 2026,
      "Ġ0": 2027,
      "Ġbeing": 2028,
      "Ġposs": 2029,
      "ĠsegÃ¼": 2030,
      "Ð¶Ð´": 2031,
      "Ãºs": 2032,
      "Ġ2013": 2033,
      "ĠÑı": 2034,
      "Ġfut": 2035,
      "Ġpet": 2036,
      "ois": 2037,
      "Ð¸ÑĤÐµÐ»ÑĮ": 2038,
      "ude": 2039,
      "eder": 2040,
      "Ð½Ð°Ñı": 2041,
      "ÐºÐ¾Ð²": 2042,
      "ĠAugust": 2043,
      "Ð°Ð½Ð´": 2044,
      "Ġwell": 2045,
      "uen": 2046,
      "ilt": 2047,
      "Ġdass": 2048,
      "ĠdÃ©c": 2049,
      "rem": 2050,
      "iga": 2051,
      "Ġev": 2052,
      "fe": 2053,
      "liche": 2054,
      "iew": 2055,
      "ĠMon": 2056,
      "uts": 2057,
      "bar": 2058,
      "Ġclub": 2059,
      "orp": 2060,
      "ĠAus": 2061,
      "ĠComm": 2062,
      "áµ": 2063,
      "ĠSep": 2064,
      "ja": 2065,
      "Ġmil": 2066,
      "Ġseason": 2067,
      "Ġchar": 2068,
      "ÑģÐºÐ¸Ð¹": 2069,
      "ople": 2070,
      "Ġjo": 2071,
      "chaft": 2072,
      "Ġgen": 2073,
      "za": 2074,
      "uerra": 2075,
      "fol": 2076,
      "Ġestud": 2077,
      "Ġciut": 2078,
      "iers": 2079,
      "Ġ2015": 2080,
      "Ġeff": 2081,
      "Ġfour": 2082,
      "ahl": 2083,
      "Ġ21": 2084,
      "Ġ22": 2085,
      "ĠÃ©tÃ©": 2086,
      "ĠUnited": 2087,
      "Ġactiv": 2088,
      "pend": 2089,
      "ÑĭÐ²": 2090,
      "Ġ188": 2091,
      "Ġprob": 2092,
      "Ġocc": 2093,
      "Ġcal": 2094,
      "ÑĭÑħ": 2095,
      "hel": 2096,
      "dic": 2097,
      "owever": 2098,
      "ĠÑĪ": 2099,
      "Ġprimera": 2100,
      "Ġagainst": 2101,
      "jo": 2102,
      "iam": 2103,
      "ived": 2104,
      "Ġbar": 2105,
      "ange": 2106,
      "Ġfollow": 2107,
      "lect": 2108,
      "Ġsuper": 2109,
      "ined": 2110,
      "app": 2111,
      "aÃ±": 2112,
      "Ġcontinu": 2113,
      "ĠWar": 2114,
      "Ġsent": 2115,
      "Ġpels": 2116,
      "Ġses": 2117,
      "Ġquals": 2118,
      "Ġ23": 2119,
      "Ġrev": 2120,
      "Ġaf": 2121,
      "Ġdeux": 2122,
      "ĠDes": 2123,
      "16": 2124,
      "ĠCal": 2125,
      "resa": 2126,
      "Ġpolit": 2127,
      "ĠMus": 2128,
      "sen": 2129,
      "Ġmolt": 2130,
      "acter": 2131,
      "Ġgrand": 2132,
      "ĠMin": 2133,
      "antes": 2134,
      "aba": 2135,
      "Ġbel": 2136,
      "ĠÐ¸Ð¼": 2137,
      "ials": 2138,
      "Ãī": 2139,
      "cel": 2140,
      "Ġmain": 2141,
      "ÑĭÐµ": 2142,
      "Ġmany": 2143,
      "tember": 2144,
      "ĠÐ¾Ð½": 2145,
      "ĠMay": 2146,
      "Ġcomme": 2147,
      "ĠPa": 2148,
      "Ġsegle": 2149,
      "auf": 2150,
      "Ġtreball": 2151,
      "ÑĥÐ¿": 2152,
      "ili": 2153,
      "Ġaltres": 2154,
      "15": 2155,
      "Ġincluding": 2156,
      "Ġ2006": 2157,
      "ÐĲ": 2158,
      "Ġhabit": 2159,
      "eiter": 2160,
      "ĠNational": 2161,
      "mar": 2162,
      "ĠPri": 2163,
      "12": 2164,
      "ĠÑĨ": 2165,
      "ells": 2166,
      "Ġsal": 2167,
      "ÑĢÐ¾": 2168,
      "ĠÐ¿ÑĢÐµÐ´": 2169,
      "ĠRom": 2170,
      "Ġbro": 2171,
      "ities": 2172,
      "iver": 2173,
      "ott": 2174,
      "ste": 2175,
      "Ð°Ð¹": 2176,
      "Ġmemb": 2177,
      "minist": 2178,
      "Ðł": 2179,
      "eiten": 2180,
      "rÃł": 2181,
      "Ġdia": 2182,
      "ements": 2183,
      "rab": 2184,
      "ages": 2185,
      "Ġ100": 2186,
      "eben": 2187,
      "Ġalgun": 2188,
      "los": 2189,
      "ule": 2190,
      "ĠAnd": 2191,
      "Ġcaus": 2192,
      "Ġvivien": 2193,
      "Ġ186": 2194,
      "hem": 2195,
      "Ġcel": 2196,
      "Ġbefore": 2197,
      "ama": 2198,
      "ÑĭÐ¹": 2199,
      "Ã²n": 2200,
      "sh": 2201,
      "Ġresult": 2202,
      "Ġlead": 2203,
      "Ġdisp": 2204,
      "Ġprom": 2205,
      "ĠÑįÑĤ": 2206,
      "adas": 2207,
      "ĠSeptember": 2208,
      "Ġwhile": 2209,
      "Ġadd": 2210,
      "aire": 2211,
      "uring": 2212,
      "Ð°Ð»Ð°": 2213,
      "Ġdifer": 2214,
      "ey": 2215,
      "uit": 2216,
      "eer": 2217,
      "ĠsegÃ¼ent": 2218,
      "imes": 2219,
      "ella": 2220,
      "Ġshow": 2221,
      "Ġdevelop": 2222,
      "Ġ187": 2223,
      "Ġoffic": 2224,
      "agn": 2225,
      "ĠBrit": 2226,
      "áµī": 2227,
      "Ð»ÐµÐ´": 2228,
      "ÐµÑĩ": 2229,
      "ĠJanu": 2230,
      "endo": 2231,
      "rei": 2232,
      "Ġsing": 2233,
      "Ġmilit": 2234,
      "ĠÐ¾Ñģ": 2235,
      "Ġprofess": 2236,
      "ĠtÃ©": 2237,
      "Ġown": 2238,
      "yp": 2239,
      "ink": 2240,
      "ano": 2241,
      "Ġleg": 2242,
      "ists": 2243,
      "Ġgrup": 2244,
      "ires": 2245,
      "Ġ2016": 2246,
      "Ġbeg": 2247,
      "St": 2248,
      "ĠÐµÐ³Ð¾": 2249,
      "aix": 2250,
      "Ġfund": 2251,
      "ĠfamÃŃlia": 2252,
      "ĠÐºÐ¾Ð½": 2253,
      "Ġ28": 2254,
      "Â²": 2255,
      "Ġestat": 2256,
      "ison": 2257,
      "Ġ26": 2258,
      "amente": 2259,
      "Ġuntil": 2260,
      "ĠApril": 2261,
      "Ġcomb": 2262,
      "ÑĢÑı": 2263,
      "rer": 2264,
      "ÑĢÐ¾Ð²": 2265,
      "Ġsow": 2266,
      "ĠFil": 2267,
      "Ġda": 2268,
      "Ġdesign": 2269,
      "ĠAust": 2270,
      "Ġot": 2271,
      "Ð¼Ð¸": 2272,
      "Ð½Ð¾Ð²": 2273,
      "aria": 2274,
      "Ġmediana": 2275,
      "go": 2276,
      "Ġihr": 2277,
      "ĠÐ¾Ð´": 2278,
      "ĠAc": 2279,
      "Ð°Ð»Ð¸": 2280,
      "ĠRep": 2281,
      "ĠMal": 2282,
      "ÃŃst": 2283,
      "sk": 2284,
      "ĠJos": 2285,
      "conom": 2286,
      "Ġ27": 2287,
      "Ġdues": 2288,
      "erg": 2289,
      "Ġval": 2290,
      "anta": 2291,
      "inter": 2292,
      "Ġforma": 2293,
      "uk": 2294,
      "ĠAquest": 2295,
      "med": 2296,
      "yl": 2297,
      "ĠNe": 2298,
      "ove": 2299,
      "ĠÐºÐ°Ðº": 2300,
      "ane": 2301,
      "ĠSal": 2302,
      "anya": 2303,
      "ites": 2304,
      "temp": 2305,
      "ahn": 2306,
      "vi": 2307,
      "ĠSchool": 2308,
      "On": 2309,
      "ĠPart": 2310,
      "Ġmais": 2311,
      "Ġboth": 2312,
      "amed": 2313,
      "Ġnord": 2314,
      "Ġrom": 2315,
      "aron": 2316,
      "ĠWill": 2317,
      "Ġappear": 2318,
      "Ð±Ð¾ÑĤ": 2319,
      "ĠÐ´Ð»Ñı": 2320,
      "uciÃ³": 2321,
      "Ġwill": 2322,
      "orf": 2323,
      "ĠMed": 2324,
      "Ġtel": 2325,
      "lege": 2326,
      "ĠWorld": 2327,
      "ross": 2328,
      "Ġknown": 2329,
      "ĠEd": 2330,
      "ĠChar": 2331,
      "ired": 2332,
      "ĠGener": 2333,
      "ĠWh": 2334,
      "ague": 2335,
      "ĠJah": 2336,
      "Ġvo": 2337,
      "ĠIntern": 2338,
      "Ġfet": 2339,
      "iments": 2340,
      "ĠÑģÐ¾": 2341,
      "Ã¤hr": 2342,
      "Ġlife": 2343,
      "Ġrece": 2344,
      "ĠÃī": 2345,
      "Ġtemps": 2346,
      "ood": 2347,
      "ĠVal": 2348,
      "by": 2349,
      "ĠÑģÐ¾ÑģÑĤ": 2350,
      "ĠChrist": 2351,
      "âĤ": 2352,
      "ulation": 2353,
      "unicip": 2354,
      "ĠNovember": 2355,
      "reses": 2356,
      "oca": 2357,
      "ony": 2358,
      "ots": 2359,
      "ischer": 2360,
      "Ġ'": 2361,
      "Ġ2005": 2362,
      "Ġcur": 2363,
      "ĠÑĥÑĩ": 2364,
      "val": 2365,
      "ken": 2366,
      "ival": 2367,
      "abor": 2368,
      "ĠAmerican": 2369,
      "stit": 2370,
      "aff": 2371,
      "ĠAll": 2372,
      "ker": 2373,
      "Ð½Ñı": 2374,
      "ĠNo": 2375,
      "atge": 2376,
      "sten": 2377,
      "Ġwie": 2378,
      "ÑĤÐ¾ÑĢ": 2379,
      "bo": 2380,
      "ede": 2381,
      "Ð¾Ñı": 2382,
      "ĠCent": 2383,
      "ÑĢÐ°Ð·": 2384,
      "ĠÐ²Ð¾": 2385,
      "14": 2386,
      "Ġcount": 2387,
      "Ð¸ÑĤÑĮ": 2388,
      "Ġmal": 2389,
      "Ġplace": 2390,
      "Ġid": 2391,
      "ĠAuf": 2392,
      "13": 2393,
      "Les": 2394,
      "Ġseiner": 2395,
      "ĠSouth": 2396,
      "aris": 2397,
      "cher": 2398,
      "ĠÐ¤": 2399,
      "Ġback": 2400,
      "ript": 2401,
      "gt": 2402,
      "ĠBro": 2403,
      "Ġsig": 2404,
      "Ġ2017": 2405,
      "Ġcour": 2406,
      "ĠZeit": 2407,
      "Ġvari": 2408,
      "Ġpeople": 2409,
      "Ġnational": 2410,
      "Ġma": 2411,
      "Ġgew": 2412,
      "ÑĳÐ½": 2413,
      "eth": 2414,
      "ÃŁen": 2415,
      "Ġcost": 2416,
      "Ġstart": 2417,
      "Ġfac": 2418,
      "Ġgra": 2419,
      "flu": 2420,
      "Ġmes": 2421,
      "ÐµÐµ": 2422,
      "alls": 2423,
      "ĠWe": 2424,
      "ized": 2425,
      "ĠÐ´Ð²": 2426,
      "Ġmort": 2427,
      "off": 2428,
      "Ġsense": 2429,
      "ÑĥÑģ": 2430,
      "ori": 2431,
      "Ð½Ð¾Ðµ": 2432,
      "Ġwrit": 2433,
      "Ġprote": 2434,
      "nen": 2435,
      "Ġbuild": 2436,
      "enÃ§": 2437,
      "Ġserve": 2438,
      "Ġsever": 2439,
      "Ġcontr": 2440,
      "Ġste": 2441,
      "Ġcompany": 2442,
      "ently": 2443,
      "Ġmanera": 2444,
      "ÑĥÐ½": 2445,
      "ĠSie": 2446,
      "Ġdirect": 2447,
      "Ġquan": 2448,
      "ĠâĢĶ": 2449,
      "rim": 2450,
      "ÐĿ": 2451,
      "Ġsuccess": 2452,
      "Ġtant": 2453,
      "Ġreturn": 2454,
      "uis": 2455,
      "ĠMo": 2456,
      "Ġlar": 2457,
      "Ġneg": 2458,
      "Ġeng": 2459,
      "oph": 2460,
      "Ġcomplet": 2461,
      "ules": 2462,
      "ually": 2463,
      "Ġpubl": 2464,
      "iento": 2465,
      "ĠAss": 2466,
      "Ġcompos": 2467,
      "Ġproperes": 2468,
      "uda": 2469,
      "ĠDec": 2470,
      "Ġdev": 2471,
      "iger": 2472,
      "ches": 2473,
      "mann": 2474,
      "ander": 2475,
      "Ð¸ÑģÑĮ": 2476,
      "Ġbr": 2477,
      "Ðŀ": 2478,
      "ĠPal": 2479,
      "eld": 2480,
      "Ġland": 2481,
      "itions": 2482,
      "ÑĢÐ°ÑĤ": 2483,
      "cle": 2484,
      "ÑĥÐ¶": 2485,
      "gest": 2486,
      "ful": 2487,
      "Bi": 2488,
      "ixen": 2489,
      "ĠestÃł": 2490,
      "Ġtenia": 2491,
      "wei": 2492,
      "Ġciutat": 2493,
      "ling": 2494,
      "Ġtod": 2495,
      "Ġsocial": 2496,
      "ĠGro": 2497,
      "Ġaquesta": 2498,
      "ĠHa": 2499,
      "Ġterrit": 2500,
      "pro": 2501,
      "aren": 2502,
      "ĠfamÃŃlies": 2503,
      "Ġbus": 2504,
      "11": 2505,
      "Ã©g": 2506,
      "ÑĢÑĥÐ³": 2507,
      "estig": 2508,
      "__": 2509,
      "ĠÃ©t": 2510,
      "Ġlloc": 2511,
      "Ġdam": 2512,
      "other": 2513,
      "ĠSer": 2514,
      "ĠJo": 2515,
      "Ġpap": 2516,
      "ĠLond": 2517,
      "atur": 2518,
      "ender": 2519,
      "ecte": 2520,
      "Ð¾ÑĢÐ¾Ð´": 2521,
      "ebru": 2522,
      "Ġnumber": 2523,
      "iod": 2524,
      "ced": 2525,
      "ĠSo": 2526,
      "Ã®": 2527,
      "Ġsm": 2528,
      "Ġ$": 2529,
      "Ãłr": 2530,
      "Ġalbum": 2531,
      "Ðĳ": 2532,
      "schaft": 2533,
      "rich": 2534,
      "Ġ29": 2535,
      "Ġcalled": 2536,
      "Ã¼nd": 2537,
      "eny": 2538,
      "Ð¸Ð»ÑĮ": 2539,
      "Ġarea": 2540,
      "iÃ©n": 2541,
      "Ġseves": 2542,
      "uy": 2543,
      "upt": 2544,
      "Ġfem": 2545,
      "ĠÐ¿ÑĢÐ¸": 2546,
      "oles": 2547,
      "ĠDas": 2548,
      "Ġseine": 2549,
      "Ġ2004": 2550,
      "entr": 2551,
      "wa": 2552,
      "Ġmusic": 2553,
      "ĠNorth": 2554,
      "lay": 2555,
      "nes": 2556,
      "uir": 2557,
      "rict": 2558,
      "ments": 2559,
      "empreses": 2560,
      "Ġrad": 2561,
      "ÐºÐ¾": 2562,
      "Ġdesp": 2563,
      "Ġexper": 2564,
      "aciones": 2565,
      "ĠÐ¸Ð½": 2566,
      "ĠNord": 2567,
      "Ġdoc": 2568,
      "Ġnur": 2569,
      "Ġopen": 2570,
      "led": 2571,
      "dem": 2572,
      "ĠMe": 2573,
      "Ġsupport": 2574,
      "orte": 2575,
      "Ġearly": 2576,
      "ĠGre": 2577,
      "ĠMad": 2578,
      "alla": 2579,
      "Ġbegan": 2580,
      "ĠÐ´Ð¾": 2581,
      "aten": 2582,
      "ĠÐ£": 2583,
      "Ġmehr": 2584,
      "Ð»Ð°Ð²": 2585,
      "Ġren": 2586,
      "ĠÑģÐ¿": 2587,
      "Ġsame": 2588,
      "Ġsowie": 2589,
      "ology": 2590,
      "Ġju": 2591,
      "mit": 2592,
      "ober": 2593,
      "Ãłria": 2594,
      "oire": 2595,
      "Ðĺ": 2596,
      "Ġrenda": 2597,
      "arn": 2598,
      "ĠFebru": 2599,
      "Ġ&": 2600,
      "eta": 2601,
      "ĠVa": 2602,
      "aments": 2603,
      "Ġhatte": 2604,
      "ÑģÐµ": 2605,
      "Ġsystem": 2606,
      "Th": 2607,
      "ĠXV": 2608,
      "adors": 2609,
      "Ġcommun": 2610,
      "Ġlang": 2611,
      "Ġfre": 2612,
      "Ġinform": 2613,
      "Ġseveral": 2614,
      "Â°": 2615,
      "Ġquatre": 2616,
      "Ġsud": 2617,
      "30": 2618,
      "my": 2619,
      "Ð½Ð¾ÑģÑĤÑĮ": 2620,
      "ped": 2621,
      "Ġnoch": 2622,
      "ĠStates": 2623,
      "ÑĢÐ¸": 2624,
      "Ġger": 2625,
      "xim": 2626,
      "Ġexpl": 2627,
      "arc": 2628,
      "Ġcast": 2629,
      "Ġpartir": 2630,
      "ief": 2631,
      "ĠSoc": 2632,
      "âĢĿ": 2633,
      "ĠComp": 2634,
      "reu": 2635,
      "Ġbes": 2636,
      "Ġvom": 2637,
      "ĠGeneral": 2638,
      "Ã¼d": 2639,
      "ford": 2640,
      "Ġmo": 2641,
      "Ġarrib": 2642,
      "Ġmor": 2643,
      "Ð½Ð¾ÑģÑĤÐ¸": 2644,
      "Ġthese": 2645,
      "ĠCity": 2646,
      "ĠSaint": 2647,
      "ÃŁe": 2648,
      "Ġveg": 2649,
      "Ġchild": 2650,
      "Ð°Ð½Ð¸Ðµ": 2651,
      "Ġgeh": 2652,
      "Ġname": 2653,
      "Ã©m": 2654,
      "ivil": 2655,
      "urb": 2656,
      "ĠÐ²ÑĢÐµÐ¼": 2657,
      "Ġuse": 2658,
      "Ġ2018": 2659,
      "Ġpopular": 2660,
      "Ġtrav": 2661,
      "Ġjust": 2662,
      "Ġfait": 2663,
      "ices": 2664,
      "Ġgl": 2665,
      "ĠSta": 2666,
      "Ðľ": 2667,
      "ĠStadt": 2668,
      "Ġcareer": 2669,
      ":_": 2670,
      "Ġmuch": 2671,
      "Ġcat": 2672,
      "ourn": 2673,
      "ĠHis": 2674,
      "Der": 2675,
      "Ġdar": 2676,
      "aking": 2677,
      "Ġfamily": 2678,
      "Ġdid": 2679,
      "Ã¨c": 2680,
      "ided": 2681,
      "ume": 2682,
      "ham": 2683,
      "ĠFrance": 2684,
      "utz": 2685,
      "ĠGl": 2686,
      "Ã¼t": 2687,
      "Ġrun": 2688,
      "Ã©l": 2689,
      "199": 2690,
      "ility": 2691,
      "asc": 2692,
      "Ġdr": 2693,
      "ĠPort": 2694,
      "oment": 2695,
      "ially": 2696,
      "resp": 2697,
      "ĠFre": 2698,
      "amer": 2699,
      "Ġmater": 2700,
      "Ġ50": 2701,
      "hab": 2702,
      "ichte": 2703,
      "Ġsong": 2704,
      "uÃ©s": 2705,
      "depend": 2706,
      "Ð¾ÑĢÐ°": 2707,
      "Ġagr": 2708,
      "Ġnear": 2709,
      "Ã¤nd": 2710,
      "ians": 2711,
      "Ã¨ncies": 2712,
      "Ġcos": 2713,
      "ised": 2714,
      "raft": 2715,
      "ĠÐ½Ð°Ñĩ": 2716,
      "apt": 2717,
      "Ġinf": 2718,
      "Ġaber": 2719,
      "ney": 2720,
      "ografia": 2721,
      "Ġca": 2722,
      "ĠLos": 2723,
      "Ġmunicip": 2724,
      "Ġtem": 2725,
      "Ġrelig": 2726,
      "adem": 2727,
      "br": 2728,
      "Ġfills": 2729,
      "ĠKar": 2730,
      "Ġrefer": 2731,
      "ÐµÐ¿": 2732,
      "ĠMart": 2733,
      "piel": 2734,
      "ÑĢÑĭ": 2735,
      "ls": 2736,
      "ativ": 2737,
      "ilar": 2738,
      "ĠJap": 2739,
      "Ġseries": 2740,
      "Ġequip": 2741,
      "ĠJahre": 2742,
      "Ð¸Ð»Ð¸": 2743,
      "Ġtempor": 2744,
      "Ġoriginal": 2745,
      "annt": 2746,
      "ĠStre": 2747,
      "Ġcontrol": 2748,
      "Ġresid": 2749,
      "ĠKir": 2750,
      "He": 2751,
      "han": 2752,
      "ublic": 2753,
      "ĠAfter": 2754,
      "ms": 2755,
      "Ġenv": 2756,
      "uv": 2757,
      "ĠÐ¾Ðº": 2758,
      "Ġjug": 2759,
      "ÐĶ": 2760,
      "ĠPhil": 2761,
      "ĠArt": 2762,
      "Ġimportant": 2763,
      "Ãªme": 2764,
      "ĠEsp": 2765,
      "Ġcompet": 2766,
      "serv": 2767,
      "ience": 2768,
      "endre": 2769,
      "ket": 2770,
      "Ġ1990": 2771,
      "tica": 2772,
      "ÑĥÐ¼": 2773,
      "Ġlle": 2774,
      "Ã¤ch": 2775,
      "ait": 2776,
      "pen": 2777,
      "ps": 2778,
      "keit": 2779,
      "ĠMarch": 2780,
      "Ġcity": 2781,
      "Ġgegen": 2782,
      "Ġ184": 2783,
      "Ġparticular": 2784,
      "Ġpriv": 2785,
      "Ġmodern": 2786,
      "Ð¸Ð½Ð°": 2787,
      "Ã©ri": 2788,
      "itzar": 2789,
      "ols": 2790,
      "Ġhome": 2791,
      "ĠMc": 2792,
      "ĠThey": 2793,
      "orge": 2794,
      "the": 2795,
      "ĠMont": 2796,
      "Ġche": 2797,
      "Ġemb": 2798,
      "ka": 2799,
      "ĠOct": 2800,
      "Ð°ÑĢÑĤ": 2801,
      "ĠâĢľ": 2802,
      "ĠprÃ©s": 2803,
      "Ġx": 2804,
      "ĠcomenÃ§": 2805,
      "ĠÐ¿ÑĢÐµ": 2806,
      "ivid": 2807,
      "Ġprot": 2808,
      "Ġelle": 2809,
      "Ġcrit": 2810,
      "ĠCount": 2811,
      "ĠÑģÐ²Ð¾": 2812,
      "gress": 2813,
      "Ð°Ð½Ð¸Ñı": 2814,
      "itor": 2815,
      "Ð°Ð³": 2816,
      "encia": 2817,
      "ĠTer": 2818,
      "yd": 2819,
      "icial": 2820,
      "sc": 2821,
      "Ġdispos": 2822,
      "Ġconv": 2823,
      "Ġtal": 2824,
      "Ġeduc": 2825,
      "uan": 2826,
      "Ġexist": 2827,
      "Ġplayed": 2828,
      "uper": 2829,
      "Ġreleased": 2830,
      "Ãºlt": 2831,
      "Ð½ÑĥÑİ": 2832,
      "Ġ40": 2833,
      "aster": 2834,
      "Ġfort": 2835,
      "Ġcette": 2836,
      "ĠÐ²Ð¾Ð·": 2837,
      "Ð¾Ð½Ð°": 2838,
      "onst": 2839,
      "ended": 2840,
      "Ġsold": 2841,
      "Ġtorn": 2842,
      "zeit": 2843,
      "ĠCons": 2844,
      "altres": 2845,
      "ĠDav": 2846,
      "ĠÑģÐ»": 2847,
      "quer": 2848,
      "ĠÐ¾Ð¿": 2849,
      "Ġwon": 2850,
      "Ġindust": 2851,
      "ester": 2852,
      "Ġreb": 2853,
      "isation": 2854,
      "Ġeing": 2855,
      "ismo": 2856,
      "da": 2857,
      "Ġ2003": 2858,
      "Ġlim": 2859,
      "osp": 2860,
      "ĠJune": 2861,
      "ĠMor": 2862,
      "iÃł": 2863,
      "rec": 2864,
      "ala": 2865,
      "Ġstand": 2866,
      "Ġide": 2867,
      "...": 2868,
      "Ġcop": 2869,
      "Ġcould": 2870,
      "ersch": 2871,
      "ÑģÑĤÐ²ÐµÐ½": 2872,
      "Ġplan": 2873,
      "ail": 2874,
      "Ġpob": 2875,
      "Ð¾Ð³ÑĢÐ°": 2876,
      "ichn": 2877,
      "ÑİÑī": 2878,
      "ÐµÐ³": 2879,
      "Ġvilla": 2880,
      "Ã¤ter": 2881,
      "Ġ60": 2882,
      "Ġhan": 2883,
      "ĠÃ©ta": 2884,
      "ĠÐĹ": 2885,
      "cep": 2886,
      "wards": 2887,
      "enen": 2888,
      "Ġzwei": 2889,
      "idos": 2890,
      "ĠSeg": 2891,
      "iller": 2892,
      "ards": 2893,
      "Ġspec": 2894,
      "ington": 2895,
      "Ġcens": 2896,
      "Ġbook": 2897,
      "eren": 2898,
      "Ġep": 2899,
      "ĠWilliam": 2900,
      "Ġprim": 2901,
      "ÐµÐ±": 2902,
      "cions": 2903,
      "ÑĥÐ»ÑĮ": 2904,
      "Ġalong": 2905,
      "Ġje": 2906,
      "olf": 2907,
      "Ġ185": 2908,
      "Ġstate": 2909,
      "ĠCap": 2910,
      "ampions": 2911,
      "Ġperiod": 2912,
      "ellen": 2913,
      "ĠSu": 2914,
      "ril": 2915,
      "ĠJuly": 2916,
      "ĠÐŃ": 2917,
      "ĠÐ¥": 2918,
      "Ġ65": 2919,
      "Ġinflu": 2920,
      "Ġpoder": 2921,
      "hor": 2922,
      "Ġcin": 2923,
      "Ġbef": 2924,
      "ÑģÑģ": 2925,
      "anÃ§": 2926,
      "Ġvida": 2927,
      "Ġgovernment": 2928,
      "po": 2929,
      "ĠJun": 2930,
      "Ð¸ÑĢÐ¾Ð²": 2931,
      "Ġpresident": 2932,
      "heit": 2933,
      "Ð´Ðµ": 2934,
      "Ġjun": 2935,
      "Ġhead": 2936,
      "ario": 2937,
      "ĠTor": 2938,
      "Ġfuer": 2939,
      "Ġont": 2940,
      "ÐµÑĤÑģÑı": 2941,
      "Est": 2942,
      "Ð°Ð½Ð¾Ð²": 2943,
      "Ġaff": 2944,
      "ĠJanuary": 2945,
      "Ġlui": 2946,
      "ĠHar": 2947,
      "ty": 2948,
      "ĠStud": 2949,
      "Ã©rie": 2950,
      "Ġgame": 2951,
      "Ġeines": 2952,
      "utes": 2953,
      "oir": 2954,
      "Ġsy": 2955,
      "Ð½Ð¸": 2956,
      "Ġreport": 2957,
      "rain": 2958,
      "ox": 2959,
      "cis": 2960,
      "fÃ¼hr": 2961,
      "aison": 2962,
      "Ġinte": 2963,
      "Ġconstruc": 2964,
      "ĠOctober": 2965,
      ".âĢĭ_": 2966,
      "Ġtard": 2967,
      "Ġava": 2968,
      "Ġpunt": 2969,
      "Ġtook": 2970,
      "ĠÐ°Ð²": 2971,
      "eme": 2972,
      "ĠEng": 2973,
      "Ġcirc": 2974,
      "Ġevent": 2975,
      "Ġsin": 2976,
      "amen": 2977,
      "ĠParis": 2978,
      "get": 2979,
      "Ġpost": 2980,
      "amil": 2981,
      "Ġnec": 2982,
      "lung": 2983,
      "ato": 2984,
      "ĠLl": 2985,
      "Els": 2986,
      "Ã¯t": 2987,
      "Ã¼h": 2988,
      "Ġwaren": 2989,
      "ĠSec": 2990,
      "Ġcorresp": 2991,
      "beit": 2992,
      "uls": 2993,
      "Ġsince": 2994,
      "entes": 2995,
      "ĠAustral": 2996,
      "Ġmenys": 2997,
      "reis": 2998,
      "ĠXI": 2999,
      "uj": 3000,
      "ÑģÑĤÐ°Ð²": 3001,
      "Ġdav": 3002,
      "itect": 3003,
      "Ġ2002": 3004,
      "Ġcla": 3005,
      "bor": 3006,
      "Ġwieder": 3007,
      "ĠDies": 3008,
      "Ġ2001": 3009,
      "Ġmoment": 3010,
      "Ð»Ñİ": 3011,
      "stand": 3012,
      "ÑģÐºÐ¸Ñħ": 3013,
      "ÐµÑĨ": 3014,
      "ĠCast": 3015,
      "Ġmentre": 3016,
      "teur": 3017,
      "aced": 3018,
      "ÑĥÑī": 3019,
      "ĠPres": 3020,
      "Ã¶ff": 3021,
      "Ã²m": 3022,
      "Ġhabitants": 3023,
      "Ġdiffer": 3024,
      "kl": 3025,
      "Ġrig": 3026,
      "Ġhouse": 3027,
      "Ġtown": 3028,
      "ĠBritish": 3029,
      "imm": 3030,
      "prÃ¨s": 3031,
      "ommen": 3032,
      "oung": 3033,
      "Ġhand": 3034,
      "ĠÑĢÐ°Ð±Ð¾ÑĤ": 3035,
      "Ġdecl": 3036,
      "lag": 3037,
      "fica": 3038,
      "ÑģÐºÐ¾Ð¼": 3039,
      "ĠDep": 3040,
      "Ġsmall": 3041,
      "Ġ31": 3042,
      "ÐµÐºÑĤ": 3043,
      "haus": 3044,
      "ministr": 3045,
      "Ġjed": 3046,
      "etzt": 3047,
      "ĠBel": 3048,
      "Ġline": 3049,
      "ĠTamb": 3050,
      "ÐµÐ½Ð°": 3051,
      "Ġbre": 3052,
      "ÐµÑħ": 3053,
      "rest": 3054,
      "ito": 3055,
      "Ch": 3056,
      "Ð°Ð±": 3057,
      "Ġtechn": 3058,
      "Ġever": 3059,
      "Ġgel": 3060,
      "Ġhel": 3061,
      "ĠKing": 3062,
      "Ġrespons": 3063,
      "Ġfun": 3064,
      "ĠCollege": 3065,
      "ammen": 3066,
      "Ġeach": 3067,
      "Ġ1980": 3068,
      "alement": 3069,
      "aces": 3070,
      "rÃ©": 3071,
      "Ġsix": 3072,
      "ĠBarcel": 3073,
      "ÑģÑĤÐ²Ð°": 3074,
      "zen": 3075,
      "Ġexemp": 3076,
      "itzaciÃ³": 3077,
      "Ġunivers": 3078,
      "Ġtip": 3079,
      "ĠHol": 3080,
      "no": 3081,
      "Ġnon": 3082,
      "ĠaÃ±os": 3083,
      "iden": 3084,
      "Ġident": 3085,
      "Ġsl": 3086,
      "wick": 3087,
      "Ġsom": 3088,
      "Ð¾Ð»ÑĮÑĪ": 3089,
      "eten": 3090,
      "ĠÑģÐ¾ÑģÑĤÐ°Ð²": 3091,
      "Ġlarge": 3092,
      "Ġparelles": 3093,
      "Ġproduct": 3094,
      "Ġformer": 3095,
      "Ġnorth": 3096,
      "ĠÐ½Ð°Ð·": 3097,
      "Ġencara": 3098,
      "Ġpal": 3099,
      "ĠAu": 3100,
      "iving": 3101,
      "Ġproject": 3102,
      "Ġnamed": 3103,
      "jet": 3104,
      "Ġke": 3105,
      "Ġsaid": 3106,
      "iven": 3107,
      "Ġpermet": 3108,
      "ĠHowever": 3109,
      "ĠRuss": 3110,
      "Ġbeca": 3111,
      "ĠCamp": 3112,
      "III": 3113,
      "Ġtop": 3114,
      "ĠÐķ": 3115,
      "ĠGeb": 3116,
      "Ġ1999": 3117,
      "gn": 3118,
      "cer": 3119,
      "Ġstation": 3120,
      "row": 3121,
      "ecut": 3122,
      "ez": 3123,
      "ĠpÃº": 3124,
      "iness": 3125,
      "ĠMa": 3126,
      "ĠDecember": 3127,
      "ĠÑĩÐ°ÑģÑĤ": 3128,
      "ielt": 3129,
      "Ġtroba": 3130,
      "oma": 3131,
      "ares": 3132,
      "uest": 3133,
      "fect": 3134,
      "Ã¹": 3135,
      "Ġpoc": 3136,
      "Ġincre": 3137,
      "lieÃŁ": 3138,
      "Ġ[": 3139,
      "Ð¼ÐµÑĢ": 3140,
      "Ġcant": 3141,
      "Ġuns": 3142,
      "ĠCatal": 3143,
      "Ġzwischen": 3144,
      "iens": 3145,
      "adu": 3146,
      ".,": 3147,
      "ĠAp": 3148,
      "ĠPaul": 3149,
      "Ġfact": 3150,
      "ĠPat": 3151,
      "ierung": 3152,
      "Ġâ": 3153,
      "isse": 3154,
      "Ġaround": 3155,
      "Ġpropos": 3156,
      "Ġem": 3157,
      "ĠDiv": 3158,
      "25": 3159,
      "Ġconvert": 3160,
      "si": 3161,
      "ĠÐ¿ÐµÑĢÐ²": 3162,
      "ize": 3163,
      "Ġkm": 3164,
      "Ġabs": 3165,
      "Ġdown": 3166,
      "itud": 3167,
      "Ġintro": 3168,
      "tat": 3169,
      "Ð¸ÑĤÐµÐ»": 3170,
      "Ġvivint": 3171,
      "Ġ1970": 3172,
      "rov": 3173,
      "Pobl": 3174,
      "Ðĵ": 3175,
      "rent": 3176,
      "leich": 3177,
      "glÃ©s": 3178,
      "rieg": 3179,
      "ĠItal": 3180,
      "Ġtri": 3181,
      "Ġmant": 3182,
      "Ġespecial": 3183,
      "ÑĭÐ¼": 3184,
      "Ġfig": 3185,
      "rÃ¤": 3186,
      "Ġsoles": 3187,
      "onseg": 3188,
      "Ð°Ð¿": 3189,
      "Ġreceived": 3190,
      "ĠnomÃ©s": 3191,
      "alth": 3192,
      "Ġnow": 3193,
      "itÃ¤t": 3194,
      "ologia": 3195,
      "Ġworld": 3196,
      "ĠUnter": 3197,
      "ĠJahren": 3198,
      "Ġdieser": 3199,
      "com": 3200,
      "Ð¸Ð»ÑģÑı": 3201,
      "Am": 3202,
      "ira": 3203,
      "urt": 3204,
      "Ġbecause": 3205,
      "onia": 3206,
      "Ġassoci": 3207,
      "Ð°ÑĨ": 3208,
      "igt": 3209,
      "ixer": 3210,
      "Ãłl": 3211,
      "Ġempresa": 3212,
      "ĠDeutsch": 3213,
      "earch": 3214,
      "Ġinternational": 3215,
      "Ġdiss": 3216,
      "ĠDan": 3217,
      "ĠÐ°ÑĢ": 3218,
      "ĠÐ³Ð¾ÑĢÐ¾Ð´": 3219,
      "ĠtÃŃt": 3220,
      "Ġindivid": 3221,
      "Ġdirector": 3222,
      "Ġsous": 3223,
      "Ġservice": 3224,
      "ÑĥÐ·": 3225,
      "ĠÑĢÑĥ": 3226,
      "Ġqued": 3227,
      "ered": 3228,
      "hib": 3229,
      "Ġleft": 3230,
      "ables": 3231,
      "Ġage": 3232,
      "Ġvar": 3233,
      "Ġbase": 3234,
      "gar": 3235,
      "ĠBarcelona": 3236,
      "iente": 3237,
      "ÐºÐµ": 3238,
      "Ġans": 3239,
      "Ġlib": 3240,
      "ini": 3241,
      "Ġfol": 3242,
      "Ġfind": 3243,
      "Ġfollowing": 3244,
      "teil": 3245,
      "anes": 3246,
      "iff": 3247,
      "Ġappro": 3248,
      "nah": 3249,
      "ĠLondon": 3250,
      "Ġaqu": 3251,
      "uck": 3252,
      "Ġvict": 3253,
      "ÐºÑĥ": 3254,
      "Ġheld": 3255,
      "istema": 3256,
      "Ġmembers": 3257,
      "Ġorigin": 3258,
      "endant": 3259,
      "elf": 3260,
      "ĠRoy": 3261,
      "Ġrestaur": 3262,
      "Ġanim": 3263,
      "acc": 3264,
      "Ġens": 3265,
      "umb": 3266,
      "loss": 3267,
      "40": 3268,
      "Ġleur": 3269,
      "Ã³s": 3270,
      "Ġfest": 3271,
      "zeichn": 3272,
      "oint": 3273,
      "ĠÑĤÐ°ÐºÐ¶Ðµ": 3274,
      "Ġsouth": 3275,
      "Ġdue": 3276,
      "ĠtambiÃ©n": 3277,
      "gesch": 3278,
      "ĠBen": 3279,
      "Ġnat": 3280,
      "198": 3281,
      "ances": 3282,
      "ĠState": 3283,
      "unter": 3284,
      "Ġcentre": 3285,
      "ords": 3286,
      "Ġbat": 3287,
      "Ġ45": 3288,
      "Ġborn": 3289,
      "Ġtras": 3290,
      "ÃŃan": 3291,
      "Ġday": 3292,
      "Ð»Ð¾": 3293,
      "Ġpopulation": 3294,
      "ĠÐ±ÑĭÐ»Ð°": 3295,
      "ĠaixÃ²": 3296,
      "though": 3297,
      "Ġadv": 3298,
      "Ġhistor": 3299,
      "urant": 3300,
      "ĠHigh": 3301,
      "Ð¾ÑĢÐ¼": 3302,
      "Ġpers": 3303,
      "ĠÐ±ÑĭÐ»Ð¸": 3304,
      "Ġlaw": 3305,
      "ording": 3306,
      "ĠÑģÐ¾Ð²": 3307,
      "Ġcentury": 3308,
      "Ġmass": 3309,
      "Ġcentral": 3310,
      "$.": 3311,
      "Ġtenir": 3312,
      "raf": 3313,
      "ael": 3314,
      "Dels": 3315,
      "ingen": 3316,
      "Ġsort": 3317,
      "Ġinact": 3318,
      "ĠLeague": 3319,
      "iber": 3320,
      "ĠRes": 3321,
      "ĠLou": 3322,
      "hund": 3323,
      "Ġarch": 3324,
      "isten": 3325,
      "ĠCor": 3326,
      "ville": 3327,
      "Ġdeath": 3328,
      "erk": 3329,
      "Ġbuilt": 3330,
      "ÃŃtica": 3331,
      "emein": 3332,
      "ĠFrank": 3333,
      "Ġdomin": 3334,
      "ored": 3335,
      "Ġprocess": 3336,
      "Ġserved": 3337,
      "ĠSpiel": 3338,
      "Ð½Ð°Ñĩ": 3339,
      "Ġwest": 3340,
      "ĠaixÃŃ": 3341,
      "ops": 3342,
      "ĠgÃ©n": 3343,
      "Ġguerra": 3344,
      "ĠRec": 3345,
      "insi": 3346,
      "heim": 3347,
      "Ð¾ÑģÑĮ": 3348,
      "envol": 3349,
      "Ð¢": 3350,
      "Ġdirig": 3351,
      "ieren": 3352,
      "ris": 3353,
      "Ġrap": 3354,
      "Ġled": 3355,
      "ĠÐ¸ÑģÐ¿": 3356,
      "Ã¤hrend": 3357,
      "orpor": 3358,
      "Ġimm": 3359,
      "unk": 3360,
      "Ġlarg": 3361,
      "ĠAg": 3362,
      "ĠpaÃŃs": 3363,
      "Ġ1998": 3364,
      "Ġsingle": 3365,
      "stell": 3366,
      "ĠAir": 3367,
      "Ġactual": 3368,
      "Des": 3369,
      "ĠMuse": 3370,
      "Ġpero": 3371,
      "Ð¸Ð±": 3372,
      "60": 3373,
      "ĠÃ©l": 3374,
      "uÃ©": 3375,
      "Ġiss": 3376,
      "Ġ1960": 3377,
      "Ġdied": 3378,
      "ĠspÃ¤ter": 3379,
      "Im": 3380,
      "usammen": 3381,
      "Ġlors": 3382,
      "Ġmember": 3383,
      "ĠMich": 3384,
      "ĠAut": 3385,
      "blica": 3386,
      "mi": 3387,
      "omas": 3388,
      "ody": 3389,
      "ĠÐ±ÑĭÐ»Ð¾": 3390,
      "ubl": 3391,
      "ÐµÑĤÐ°": 3392,
      "ically": 3393,
      "Ã¶l": 3394,
      "ray": 3395,
      "arch": 3396,
      "ught": 3397,
      "Ġdocument": 3398,
      "Ġlast": 3399,
      "Ð´ÐµÐ»": 3400,
      "Ġseit": 3401,
      "eres": 3402,
      "Ã²b": 3403,
      "jar": 3404,
      "ĠÐ¿Ð¾ÑģÑĤ": 3405,
      "ĠoÃ¹": 3406,
      "ÑĥÐ»": 3407,
      "ÐµÐ³Ð¾": 3408,
      "ideo": 3409,
      "Ġaconseg": 3410,
      "Il": 3411,
      "Ġben": 3412,
      "ĠÐ²ÑĢÐµÐ¼Ñı": 3413,
      "Ġallow": 3414,
      "esse": 3415,
      "Ġjedoch": 3416,
      "Ð°ÑĤÐµÐ»ÑĮ": 3417,
      "Ġindepend": 3418,
      "ila": 3419,
      "Ġrequ": 3420,
      "mo": 3421,
      "ĠPark": 3422,
      "Ð°ÑĢÐ°": 3423,
      "Ã¨t": 3424,
      "Ġstill": 3425,
      "ÑĢÑĥÐ¿": 3426,
      "ĠRev": 3427,
      "Ð°ÑİÑĤ": 3428,
      "rieb": 3429,
      "Ġdebut": 3430,
      "Ġerh": 3431,
      "ĠÑģÐ°Ð¼": 3432,
      "Ġtrib": 3433,
      "do": 3434,
      "cs": 3435,
      "ĠMag": 3436,
      "Ġstat": 3437,
      "Ġcond": 3438,
      "Ã²g": 3439,
      "ĠÃ©g": 3440,
      "ected": 3441,
      "Ã¤s": 3442,
      "stitu": 3443,
      "Ġhasta": 3444,
      "envolup": 3445,
      "entlich": 3446,
      "glich": 3447,
      "mitt": 3448,
      "Ð¸Ð¿": 3449,
      "Ð»Ð°ÑģÑĤ": 3450,
      "ampionship": 3451,
      "Ġsignific": 3452,
      "ĠVor": 3453,
      "ĠFebruary": 3454,
      "acht": 3455,
      "Ġsepar": 3456,
      "ĠVol": 3457,
      "ĠSw": 3458,
      "ĠCounty": 3459,
      "Ġfus": 3460,
      "Ge": 3461,
      "Ġliter": 3462,
      "ĠRich": 3463,
      "ÑĬ": 3464,
      "enta": 3465,
      "Ġmag": 3466,
      "Ġdonde": 3467,
      "ĠFr": 3468,
      "ĠÐ¿ÑĢÐ°Ð²": 3469,
      "Ġped": 3470,
      "Ġfur": 3471,
      "ÑģÑĤÐ¾ÑĢ": 3472,
      "Ġceleb": 3473,
      "iem": 3474,
      "ager": 3475,
      "ĠmÃªme": 3476,
      "lig": 3477,
      "Ġviol": 3478,
      "ĠGes": 3479,
      "Ġ183": 3480,
      "Ġgest": 3481,
      "Ð°ÐµÑĤÑģÑı": 3482,
      "orts": 3483,
      "Ġmostra": 3484,
      "Ġcomun": 3485,
      "ĠDr": 3486,
      "ouver": 3487,
      "ĠInternational": 3488,
      "Ġtrop": 3489,
      "Ð½ÑĭÐ¼Ð¸": 3490,
      "Ġtelev": 3491,
      "ÐµÐ½ÑĮ": 3492,
      "Ġred": 3493,
      "Ð¸Ð¼Ð¸": 3494,
      "iles": 3495,
      "Ġmult": 3496,
      "Ġsum": 3497,
      "west": 3498,
      "Desc": 3499,
      "ĠFest": 3500,
      "ridge": 3501,
      "Ġterme": 3502,
      "Ġpremier": 3503,
      "ĠEnt": 3504,
      "ĠAls": 3505,
      "ĠHen": 3506,
      "andid": 3507,
      "Ã©v": 3508,
      "Ġbuilding": 3509,
      "ĠDem": 3510,
      "iciÃ³n": 3511,
      "ĠIII": 3512,
      "ipl": 3513,
      "isl": 3514,
      "Ġmatch": 3515,
      "Ġcual": 3516,
      "Ġremain": 3517,
      "Ġfav": 3518,
      "Ġjunt": 3519,
      "Ġfamil": 3520,
      "Ġsistema": 3521,
      "ched": 3522,
      "Ġlleg": 3523,
      "lass": 3524,
      "ĠBerlin": 3525,
      "otball": 3526,
      "ĠrÃ©g": 3527,
      "richt": 3528,
      "ĠFilm": 3529,
      "Ġparte": 3530,
      "Ġlike": 3531,
      "Ġbrit": 3532,
      "Ġeffect": 3533,
      "ĠÐ§": 3534,
      "fin": 3535,
      "neh": 3536,
      "ounc": 3537,
      "ÑĳÑĤ": 3538,
      "Ġcab": 3539,
      "Ġmoved": 3540,
      "iano": 3541,
      "Ġbek": 3542,
      "Ġkonn": 3543,
      "folg": 3544,
      "Ġcinc": 3545,
      "Ġbanda": 3546,
      "Ġersten": 3547,
      "Ġhon": 3548,
      "Ð°Ð½Ð°": 3549,
      "ĠWelt": 3550,
      "osc": 3551,
      "anda": 3552,
      "Ġtransport": 3553,
      "Ġ(*": 3554,
      "poca": 3555,
      "uge": 3556,
      "Ġprev": 3557,
      "loy": 3558,
      "cho": 3559,
      "illes": 3560,
      "Ð¾ÑģÑģ": 3561,
      "Das": 3562,
      "Ġconserv": 3563,
      "ĠFer": 3564,
      "ĠKon": 3565,
      "Ġweiter": 3566,
      "ĠOl": 3567,
      "yle": 3568,
      "ĠDo": 3569,
      "Ġdont": 3570,
      "Ġtest": 3571,
      "ified": 3572,
      "ogen": 3573,
      "Ġfon": 3574,
      "Ġdescrib": 3575,
      "Ġalors": 3576,
      "Ġsegons": 3577,
      "ktion": 3578,
      "ization": 3579,
      "Ġespec": 3580,
      "ams": 3581,
      "Or": 3582,
      "ences": 3583,
      "Ð»Ð°Ð´": 3584,
      "ints": 3585,
      "Ġpoden": 3586,
      "riend": 3587,
      "weise": 3588,
      "Ġfront": 3589,
      "Ġeste": 3590,
      "Pro": 3591,
      "band": 3592,
      "Ġnue": 3593,
      "Ġsimilar": 3594,
      "je": 3595,
      "Ġllarg": 3596,
      "ÑģÑĤÐ²Ð¾": 3597,
      "Ġpower": 3598,
      "hav": 3599,
      "Ð³ÑĢÐ°": 3600,
      "Ġmaterial": 3601,
      "Ġbaix": 3602,
      "ĠÃ©tait": 3603,
      "ining": 3604,
      "agen": 3605,
      "ago": 3606,
      "Ð¸Ð»Ð°": 3607,
      "ĠTeil": 3608,
      "work": 3609,
      "stant": 3610,
      "ÃŁer": 3611,
      "Ġchildren": 3612,
      "Ġnorm": 3613,
      "Ġair": 3614,
      "Ġanother": 3615,
      "Ð¾Ð³ÑĢÐ°ÑĦ": 3616,
      "rench": 3617,
      "ĠÐ¼ÐµÑģÑĤ": 3618,
      "Ġvery": 3619,
      "Ð°ÑģÑĮ": 3620,
      "Ġcasa": 3621,
      "Ġpublished": 3622,
      "ser": 3623,
      "Ġcapital": 3624,
      "ĠaÃ±o": 3625,
      "ĠPe": 3626,
      "HistÃ²ria": 3627,
      "ania": 3628,
      "Ġpint": 3629,
      "Ġinit": 3630,
      "Ġ1996": 3631,
      "Ġdestac": 3632,
      "ĠlÃŃ": 3633,
      "Ġdesenvolup": 3634,
      "Ġincluded": 3635,
      "Ġsota": 3636,
      "ÑĢÐ¸ÑĤ": 3637,
      "ĠTur": 3638,
      "Ġinvol": 3639,
      "ologie": 3640,
      "ĠÐ´ÑĢÑĥÐ³": 3641,
      "ÐµÑĢÐ²": 3642,
      "197": 3643,
      "Ġtor": 3644,
      "inder": 3645,
      "Ġpoint": 3646,
      "ieron": 3647,
      "ĠÐ²Ð¾Ð¹": 3648,
      "Ġstr": 3649,
      "ende": 3650,
      "ĠJean": 3651,
      "ionat": 3652,
      "ured": 3653,
      "thers": 3654,
      "ency": 3655,
      "Ġcondu": 3656,
      "Ġfive": 3657,
      "ĠClub": 3658,
      "ention": 3659,
      "junt": 3660,
      "roll": 3661,
      "ĠÐ½Ð¾": 3662,
      "ÑģÑĤÑĥÐ¿": 3663,
      "De": 3664,
      "bst": 3665,
      "ound": 3666,
      "iant": 3667,
      "Ð¸ÑĢÐ¾Ð²Ð°Ð½": 3668,
      "erein": 3669,
      "Ġtour": 3670,
      "ÑĢÐ¾Ð¼": 3671,
      "attle": 3672,
      "Ġthose": 3673,
      "ĠÃºlt": 3674,
      "Ġwater": 3675,
      "Ġ1997": 3676,
      "ĠThere": 3677,
      "Ġsho": 3678,
      "ande": 3679,
      "Ġchang": 3680,
      "ĠÐ¾ÑĢ": 3681,
      "ĠAnt": 3682,
      "ĠJapan": 3683,
      "ĠĠĠĠĠĠĠĠ": 3684,
      "Ġcapt": 3685,
      "uent": 3686,
      "ĠmitjÃł": 3687,
      "zo": 3688,
      "ĠJosep": 3689,
      "ĠSanta": 3690,
      "Ġpersonal": 3691,
      "Ġif": 3692,
      "\"._": 3693,
      "History": 3694,
      "ises": 3695,
      "Ġgeb": 3696,
      "ĠSol": 3697,
      "ĠÐ¿ÑĢÐ¾ÑĤ": 3698,
      "lein": 3699,
      "ographie": 3700,
      "Ġanomen": 3701,
      "ĠSm": 3702,
      "ift": 3703,
      "Ġcoll": 3704,
      "ieg": 3705,
      "ĠNor": 3706,
      "iety": 3707,
      "ĠconstrucciÃ³": 3708,
      "ipp": 3709,
      "24": 3710,
      "ournal": 3711,
      "pret": 3712,
      "ÃŃcula": 3713,
      "Ġcontrib": 3714,
      "ĠrÃ©s": 3715,
      "Ġaussi": 3716,
      "Ġdiversos": 3717,
      "ÑĥÐ»ÑĮÑĤ": 3718,
      "ims": 3719,
      "Ġ44": 3720,
      "undes": 3721,
      "Ġcases": 3722,
      "Ġperform": 3723,
      "ĠGerman": 3724,
      "Ġwithin": 3725,
      "ĠUr": 3726,
      "ĠFra": 3727,
      "ache": 3728,
      "Hab": 3729,
      "Ġforces": 3730,
      "fahr": 3731,
      "qÃ¼": 3732,
      "ÑĥÑģÑĤ": 3733,
      "Ġecon": 3734,
      "Ġcam": 3735,
      "23": 3736,
      "ĠDel": 3737,
      "ĠSchw": 3738,
      "ĠRad": 3739,
      "ĠÃ©galement": 3740,
      "Ġsex": 3741,
      "ÑģÐºÐ°Ñı": 3742,
      "cit": 3743,
      "itte": 3744,
      "ĠaprÃ¨s": 3745,
      "aller": 3746,
      "Ġplanta": 3747,
      "odes": 3748,
      "Ġsimp": 3749,
      "tains": 3750,
      "ids": 3751,
      "Ġproblem": 3752,
      "alf": 3753,
      "Ġbased": 3754,
      "Ġmake": 3755,
      "ĠÐ¿ÑĢÐ¸Ð½": 3756,
      "ÐºÐ°Ð·": 3757,
      "Ġvillage": 3758,
      "ract": 3759,
      "Ġdedic": 3760,
      "roc": 3761,
      "Ġeven": 3762,
      "Ġperd": 3763,
      "irt": 3764,
      "aften": 3765,
      "Ð²Ð»Ñı": 3766,
      "Per": 3767,
      "Ġainsi": 3768,
      "Ġcamb": 3769,
      "Ġclassific": 3770,
      "Ġfather": 3771,
      "ho": 3772,
      "Ġpropiet": 3773,
      "Ġ1995": 3774,
      "ĠGesch": 3775,
      "Ġdeutsch": 3776,
      "ĠZw": 3777,
      "iene": 3778,
      "Ġlate": 3779,
      "Ġdre": 3780,
      "Ġ180": 3781,
      "iche": 3782,
      "ady": 3783,
      "Ġarg": 3784,
      "ÐµÑĢÐ½": 3785,
      "Ġ35": 3786,
      "Ġautom": 3787,
      "Ġ1994": 3788,
      "Ġ1992": 3789,
      "Ġshort": 3790,
      "80": 3791,
      "ĠBas": 3792,
      "igr": 3793,
      "Ġmur": 3794,
      "Ð¿ÑĢÐ°Ð²": 3795,
      "Ð¾ÑĢÑĤ": 3796,
      "ories": 3797,
      "rach": 3798,
      "Ð°Ð»ÑģÑı": 3799,
      "ĠzurÃ¼ck": 3800,
      "Ġarri": 3801,
      "ĠAf": 3802,
      "glÃ©sia": 3803,
      "Ġtots": 3804,
      "ĠOk": 3805,
      "ĠAct": 3806,
      "Ġseinem": 3807,
      "irk": 3808,
      "ogrÃł": 3809,
      "ĠÐ²ÑģÐµ": 3810,
      "Ġsite": 3811,
      "ienne": 3812,
      "rote": 3813,
      "ĠAlex": 3814,
      "Ġrepl": 3815,
      "Åĵ": 3816,
      "rier": 3817,
      "Ġlocated": 3818,
      "Ġdifferent": 3819,
      "ci": 3820,
      "oni": 3821,
      "Ġinvestig": 3822,
      "udad": 3823,
      "Ġmillion": 3824,
      "Ġpossible": 3825,
      "Ġthough": 3826,
      "Ġannounc": 3827,
      "Ġinic": 3828,
      "rot": 3829,
      "Ġzona": 3830,
      "Ġattack": 3831,
      "ĠEngl": 3832,
      "forman": 3833,
      "Ac": 3834,
      "ĠMet": 3835,
      "ĠÐ¨": 3836,
      "ÑĥÑħ": 3837,
      "irts": 3838,
      "Ġ2019": 3839,
      "ĠmÃºs": 3840,
      "Ð¾Ð»ÑĮÐºÐ¾": 3841,
      "bau": 3842,
      "iron": 3843,
      "ĠfaÃ§": 3844,
      "inning": 3845,
      "ĠJames": 3846,
      "ĠOb": 3847,
      "ÑĳÐ»": 3848,
      "Ġrespect": 3849,
      "22": 3850,
      "ĠJahrhund": 3851,
      "ÐµÑĢÐ¶": 3852,
      "Ġhistory": 3853,
      "emeinde": 3854,
      "Ġvia": 3855,
      "ĠÑģÐ¾Ð±": 3856,
      "Ġtrois": 3857,
      "agne": 3858,
      "bes": 3859,
      "ĠfÃ¼hr": 3860,
      "uncil": 3861,
      "ajo": 3862,
      "Ġmonth": 3863,
      "Ġsoll": 3864,
      "Ġproduction": 3865,
      "Ġpuis": 3866,
      "Ġcame": 3867,
      "Ġcatal": 3868,
      "ellt": 3869,
      "ÐµÐ½Ð¸Ð¸": 3870,
      "ela": 3871,
      "ĠFrench": 3872,
      "Ġinclude": 3873,
      "ĠCong": 3874,
      "ĠRiver": 3875,
      "Ð°Ð½ÑĤ": 3876,
      "ness": 3877,
      "Ġwhat": 3878,
      "ĠBes": 3879,
      "Ġhac": 3880,
      "ÑıÐ½": 3881,
      "oman": 3882,
      "Ġ1950": 3883,
      "Ġapar": 3884,
      "cent": 3885,
      "termin": 3886,
      "Ġ1945": 3887,
      "stitut": 3888,
      "Ġdrei": 3889,
      "Ġpress": 3890,
      "ĠDavid": 3891,
      "Ġ1991": 3892,
      "ĠEurope": 3893,
      "olit": 3894,
      "Ġni": 3895,
      "Ġsug": 3896,
      "andon": 3897,
      "ĠUm": 3898,
      "udi": 3899,
      "Ġarm": 3900,
      "As": 3901,
      "ĠTambÃ©": 3902,
      "rist": 3903,
      "ĠBay": 3904,
      "ĠGran": 3905,
      "rel": 3906,
      "Ġthird": 3907,
      "rad": 3908,
      "ĠNav": 3909,
      "ble": 3910,
      "rea": 3911,
      "mper": 3912,
      "ĠGuerra": 3913,
      "Ġwent": 3914,
      "ĠGeorge": 3915,
      "athol": 3916,
      "lection": 3917,
      "ĠSk": 3918,
      "ĠSen": 3919,
      "idd": 3920,
      "Ġfinanc": 3921,
      "ĠFin": 3922,
      "Ð»Ð¾Ð²": 3923,
      "Ġpen": 3924,
      "ĠÐ¿Ð¾Ð»ÑĥÑĩ": 3925,
      "ubre": 3926,
      "glied": 3927,
      "Ġoften": 3928,
      "ga": 3929,
      "este": 3930,
      "ography": 3931,
      "ĠElle": 3932,
      "Ð¾Ð·Ð´": 3933,
      "Ġllog": 3934,
      "ĠÃľ": 3935,
      "ĠnÃ©": 3936,
      "Ġ179": 3937,
      "eln": 3938,
      "ĠCalif": 3939,
      "isiÃ³": 3940,
      "ospital": 3941,
      "Ġanc": 3942,
      "ĠBau": 3943,
      "21": 3944,
      "Ġseinen": 3945,
      "Ġconne": 3946,
      "Ð¼Ð°": 3947,
      "Ġmodel": 3948,
      "ueix": 3949,
      "Ġposition": 3950,
      "quÃ¨": 3951,
      "Ġdistrib": 3952,
      "Ġturn": 3953,
      "ving": 3954,
      "ÐµÑĢÑģ": 3955,
      "orden": 3956,
      "Ã§ais": 3957,
      "ĠRed": 3958,
      "len": 3959,
      "Ġnav": 3960,
      "Seg": 3961,
      "Ġetwa": 3962,
      "las": 3963,
      "ĠMat": 3964,
      "ĠFrancis": 3965,
      "27": 3966,
      "Ġmiss": 3967,
      "ÐµÐ½Ñĭ": 3968,
      "Ġsk": 3969,
      "imin": 3970,
      "fess": 3971,
      "Ġnecess": 3972,
      "Ġdiverses": 3973,
      "ush": 3974,
      "Ġstarted": 3975,
      "Ġconeg": 3976,
      "Ġside": 3977,
      "aged": 3978,
      "eite": 3979,
      "ĠHouse": 3980,
      "ape": 3981,
      "Ġcivil": 3982,
      "ĠPet": 3983,
      "Ð¾Ð»Ð¶": 3984,
      "alk": 3985,
      "oper": 3986,
      "inz": 3987,
      "ani": 3988,
      "ereits": 3989,
      "Ġcolor": 3990,
      "ema": 3991,
      "ÑĤÐ¸": 3992,
      "Ġdirec": 3993,
      "Ð¸ÐºÐ¸": 3994,
      "Ġ1993": 3995,
      "28": 3996,
      "isiÃ³n": 3997,
      "ĠDist": 3998,
      "Ġdiferents": 3999,
      "irm": 4000,
      "Ġexemple": 4001,
      "Ġpract": 4002,
      "lands": 4003,
      "ÃŃtic": 4004,
      "ij": 4005,
      "Ġsqu": 4006,
      "Ġamong": 4007,
      "ĠAnton": 4008,
      "Ġpoblacions": 4009,
      "Ġfisc": 4010,
      "ĠGal": 4011,
      "ĠMaria": 4012,
      "ĠRobert": 4013,
      "Dist": 4014,
      "26": 4015,
      "rang": 4016,
      "Ð°Ñĩ": 4017,
      "Ġdens": 4018,
      "side": 4019,
      "ÑĮÑİ": 4020,
      "ĠÐºÐ¾ÑĢ": 4021,
      "Ġfab": 4022,
      "des": 4023,
      "hof": 4024,
      "eck": 4025,
      "rera": 4026,
      "ĠArch": 4027,
      "ĠNacional": 4028,
      "ym": 4029,
      "Ġobserv": 4030,
      "ĠBra": 4031,
      "Ġerst": 4032,
      "organ": 4033,
      "hn": 4034,
      "ĠLu": 4035,
      "Ã¶nig": 4036,
      "ows": 4037,
      "ourt": 4038,
      "lant": 4039,
      "Ġabans": 4040,
      "ĠBy": 4041,
      "Ġcontre": 4042,
      "Car": 4043,
      "ĠPresident": 4044,
      "Ġtemporada": 4045,
      "Ġjus": 4046,
      "Ġdefens": 4047,
      "Ġlog": 4048,
      "igne": 4049,
      "ogn": 4050,
      "ĠCas": 4051,
      "Ġtak": 4052,
      "Ġacab": 4053,
      "uals": 4054,
      "frica": 4055,
      "ĠcrÃ©": 4056,
      "bol": 4057,
      "adores": 4058,
      "opt": 4059,
      "It": 4060,
      "Ġepis": 4061,
      "ĠCharles": 4062,
      "ĠFern": 4063,
      "Ġdeix": 4064,
      "Ġposterior": 4065,
      "oz": 4066,
      "Ġunitats": 4067,
      "igua": 4068,
      "iÃ¨cle": 4069,
      "Ã»": 4070,
      "Ġho": 4071,
      "Ġbien": 4072,
      "Ġgradu": 4073,
      "Ġdesde": 4074,
      "iÃ¨me": 4075,
      "Ġproc": 4076,
      "Ġcausa": 4077,
      "ĠtravÃ©s": 4078,
      "uns": 4079,
      "29": 4080,
      "Â»._": 4081,
      "ying": 4082,
      "ums": 4083,
      "asse": 4084,
      "ensch": 4085,
      "ĠPrem": 4086,
      "udes": 4087,
      "ĠLouis": 4088,
      "aqu": 4089,
      "ĠÃ¨": 4090,
      "blic": 4091,
      "Ġyoung": 4092,
      "ĠBet": 4093,
      "ĠEngland": 4094,
      "ele": 4095,
      "ĠcomenÃ§ar": 4096,
      "amt": 4097,
      "ĠFried": 4098,
      "ÑıÐ±": 4099,
      "Ġmas": 4100,
      "Ġold": 4101,
      "Ġobject": 4102,
      "Ġang": 4103,
      "Ġsett": 4104,
      "ĠHi": 4105,
      "igkeit": 4106,
      "Ġassist": 4107,
      "Ġrole": 4108,
      "ared": 4109,
      "BC": 4110,
      "iÃ©": 4111,
      "ÐĽ": 4112,
      "ĠdÃ©b": 4113,
      "Ġlat": 4114,
      "Ġvot": 4115,
      "fang": 4116,
      "Ġfond": 4117,
      "ĠÃ¡": 4118,
      "Ġbusiness": 4119,
      "ĠÃª": 4120,
      "Ex": 4121,
      "aters": 4122,
      "Ã²r": 4123,
      "Ġmusical": 4124,
      "uments": 4125,
      "ĠgehÃ¶r": 4126,
      "ĠHist": 4127,
      "oren": 4128,
      "Ġmach": 4129,
      "artment": 4130,
      "Ġorder": 4131,
      "Ġpil": 4132,
      "uro": 4133,
      "eller": 4134,
      "atura": 4135,
      "acy": 4136,
      "wood": 4137,
      "Ġhuman": 4138,
      "ĠDon": 4139,
      "ĠÃĢ": 4140,
      "Ð½ÐµÐ¹": 4141,
      "ionn": 4142,
      "esa": 4143,
      "ierten": 4144,
      "ÑıÐ·": 4145,
      "raÃŁe": 4146,
      "ĠEnglish": 4147,
      "Ð¾Ð»Ð¾Ð³": 4148,
      "ĠÃ©c": 4149,
      "arly": 4150,
      "Ġesta": 4151,
      "eix": 4152,
      "ĠpremiÃ¨re": 4153,
      "ĠGovern": 4154,
      "Ġdeg": 4155,
      "Ãłncia": 4156,
      "Ġbecome": 4157,
      "iendo": 4158,
      "unden": 4159,
      "Ġrei": 4160,
      "Ġsemb": 4161,
      "Ġihre": 4162,
      "vor": 4163,
      "Ġdefin": 4164,
      "Ġversch": 4165,
      "gew": 4166,
      "ĠÐºÐ¾Ð»": 4167,
      "Ġautor": 4168,
      "ociation": 4169,
      "Ġkill": 4170,
      "ÐµÐ¶": 4171,
      "lar": 4172,
      "Ġoct": 4173,
      "ĠSim": 4174,
      "Ġcomerc": 4175,
      "ĠOt": 4176,
      "Ġdiese": 4177,
      "Ġevery": 4178,
      "ibt": 4179,
      "ĠAngel": 4180,
      "ued": 4181,
      "Ġjoined": 4182,
      "grama": 4183,
      "Ġestablished": 4184,
      "ĠÐ¿Ð¾ÑģÐ»Ðµ": 4185,
      "Ġ1989": 4186,
      "Ð¾Ð³Ð´Ð°": 4187,
      "Ð°ÑĪ": 4188,
      "Ð½Ð°Ðº": 4189,
      "ĠÑĢÐ°ÑģÐ¿": 4190,
      "Ġeurop": 4191,
      "Ð»ÐµÐº": 4192,
      "ĠCup": 4193,
      "Ġindustri": 4194,
      "field": 4195,
      "aquesta": 4196,
      "ĠStreet": 4197,
      "ĠÐ¿ÑĢÐ¾Ð²": 4198,
      "ĠÐ¸Ð»Ð¸": 4199,
      "Ġestava": 4200,
      "Ġreturned": 4201,
      "Ġbeim": 4202,
      "Ġspe": 4203,
      "Ġobra": 4204,
      "ĠMann": 4205,
      "Ð¾Ð»ÑĮÐ·": 4206,
      "Ġocupats": 4207,
      "Ġmayor": 4208,
      "Ġinstit": 4209,
      "ately": 4210,
      "Ġtermin": 4211,
      "ĠÑĢÐ°Ð¹": 4212,
      "itional": 4213,
      "Ġjul": 4214,
      "ĠChurch": 4215,
      "ateur": 4216,
      "ĠÃªtre": 4217,
      "str": 4218,
      "Ġcandid": 4219,
      "ĠÐ¶Ðµ": 4220,
      "Ġevol": 4221,
      "unn": 4222,
      "lymp": 4223,
      "mm": 4224,
      "Ġclos": 4225,
      "Ġchurch": 4226,
      "Ġwomen": 4227,
      "Ġget": 4228,
      "sy": 4229,
      "iembre": 4230,
      "Ġpeu": 4231,
      "Ġavant": 4232,
      "Ġpolic": 4233,
      ");": 4234,
      "Ġnext": 4235,
      "Ġniv": 4236,
      "Ġihm": 4237,
      "Ġworked": 4238,
      "Ġway": 4239,
      "ilitat": 4240,
      "Ġkann": 4241,
      "iri": 4242,
      "Ġannounced": 4243,
      "ĠRoyal": 4244,
      "Ãłct": 4245,
      "Ã¤d": 4246,
      "erb": 4247,
      "Ġir": 4248,
      "aban": 4249,
      "Ġdins": 4250,
      "iner": 4251,
      "Ġmy": 4252,
      "Ġven": 4253,
      "ĠDa": 4254,
      "Ġmarried": 4255,
      "pect": 4256,
      "ĠSud": 4257,
      "ivo": 4258,
      "Åį": 4259,
      "Ġversion": 4260,
      "ÃŃas": 4261,
      "ĠÐºÐ¾Ð¼Ð°Ð½Ð´": 4262,
      "Ġdurante": 4263,
      "ĠMod": 4264,
      "ohann": 4265,
      "ĠHall": 4266,
      "ĠSam": 4267,
      "ĠperquÃ¨": 4268,
      "Ġnovembre": 4269,
      "70": 4270,
      "Ġperforman": 4271,
      "ego": 4272,
      "rÃ³": 4273,
      "Ġfew": 4274,
      "Ã¼b": 4275,
      "Ġcountry": 4276,
      "After": 4277,
      "Ġcharacter": 4278,
      "Ġguer": 4279,
      "ĠperÃŃ": 4280,
      "rael": 4281,
      "ÐµÑĪ": 4282,
      "Ġappoint": 4283,
      "atures": 4284,
      "undial": 4285,
      "Ġviel": 4286,
      "ump": 4287,
      "Ġtrob": 4288,
      "ÐµÐ»Ð¾Ð²": 4289,
      "ĠQue": 4290,
      "ĠÐ¾Ð±ÑĢÐ°Ð·": 4291,
      "Ġcoup": 4292,
      "Ġprincipals": 4293,
      "ĠCompany": 4294,
      "ĠTre": 4295,
      "ype": 4296,
      "ĠgrÃł": 4297,
      "ĠgÃ©nÃ©r": 4298,
      "Ð¸Ð½Ñĭ": 4299,
      "Ġhabitatge": 4300,
      "Ġfoc": 4301,
      "ĠtÃŃtol": 4302,
      "Ġges": 4303,
      "Ġdevelopment": 4304,
      "Ġ.": 4305,
      "ĠTo": 4306,
      "imiento": 4307,
      "ĠXX": 4308,
      "erts": 4309,
      "alis": 4310,
      "line": 4311,
      "Ã¶s": 4312,
      "agement": 4313,
      "Ã¤l": 4314,
      "ĠBa": 4315,
      "Ġobten": 4316,
      "hist": 4317,
      "fÃ©r": 4318,
      "Ġinsp": 4319,
      "ĠAng": 4320,
      "Ġetc": 4321,
      "ĠDire": 4322,
      "35": 4323,
      "gin": 4324,
      "Ġweit": 4325,
      "ental": 4326,
      "apar": 4327,
      "kehr": 4328,
      "Ġship": 4329,
      "ĠMil": 4330,
      "Ð¸ÐºÐ°": 4331,
      "Ġtan": 4332,
      "Ġkam": 4333,
      "Ġdort": 4334,
      "Ġguany": 4335,
      "rew": 4336,
      "ÑĢÐ¾Ð½": 4337,
      "inger": 4338,
      "Ġtake": 4339,
      "Ð»ÑİÑĩ": 4340,
      "ĠMill": 4341,
      "unya": 4342,
      "ĠThomas": 4343,
      "ription": 4344,
      "lage": 4345,
      "ĠBern": 4346,
      "Ð°Ð½Ð¸Ð¸": 4347,
      "ionals": 4348,
      "Ġpartie": 4349,
      "Ġ36": 4350,
      "ÃĢ": 4351,
      "ĠhabÃŃa": 4352,
      "Ġcri": 4353,
      "ohl": 4354,
      "ĠÐ·Ð°Ð²": 4355,
      "At": 4356,
      "riff": 4357,
      "Ð¾ÑĢÐ¾Ð½": 4358,
      "ifici": 4359,
      "ĠIr": 4360,
      "Ġgrans": 4361,
      "iker": 4362,
      "Ġauthor": 4363,
      "ĠOff": 4364,
      "Ġwrote": 4365,
      "ope": 4366,
      "Ġequ": 4367,
      "Nach": 4368,
      "apa": 4369,
      "Ġdro": 4370,
      "'t": 4371,
      "ÑĥÑĪ": 4372,
      "iled": 4373,
      "ĠMadrid": 4374,
      "car": 4375,
      "ripciÃ³": 4376,
      "Ġstudents": 4377,
      "Ġconstruction": 4378,
      "Ġsov": 4379,
      "Ġalguns": 4380,
      "ands": 4381,
      "ieurs": 4382,
      "uten": 4383,
      "ĠEm": 4384,
      "Ġeconom": 4385,
      "Ġgreat": 4386,
      "Ġhowever": 4387,
      "ĠÐ·Ð°Ðº": 4388,
      "Ġmis": 4389,
      "Ġarribar": 4390,
      "ination": 4391,
      "tained": 4392,
      "Ġmer": 4393,
      "ĠkÃ¶n": 4394,
      "Ġfavor": 4395,
      "Distrib": 4396,
      "itÃ©s": 4397,
      "ĠFlor": 4398,
      "Ġutilitz": 4399,
      "Ġverb": 4400,
      "ĠÐ·Ð°Ð¿": 4401,
      "mica": 4402,
      "Ġkonnte": 4403,
      "Ġinterpret": 4404,
      "ĠDar": 4405,
      "Ġ80": 4406,
      "Ġartic": 4407,
      "ĠeconÃ²m": 4408,
      "iors": 4409,
      "icos": 4410,
      "Ġces": 4411,
      "ĠEnde": 4412,
      "Ġneed": 4413,
      "ĠÐ»ÐµÑĤ": 4414,
      "aden": 4415,
      "Ð¾Ð²Ð°Ð»": 4416,
      "Ġcaracter": 4417,
      "Ð»ÐµÐ½Ð¸Ñı": 4418,
      "ror": 4419,
      "ÑĳÐ¼": 4420,
      "ĠÐ½Ð¾Ð²": 4421,
      "Ġdiagrama": 4422,
      "Ġhaving": 4423,
      "mal": 4424,
      "Ġpes": 4425,
      "196": 4426,
      "ÐµÐ¶Ð´": 4427,
      "Ð¸Ð·Ð²": 4428,
      "ĠEast": 4429,
      "ĠFeder": 4430,
      "Ð¾Ð´Ð°": 4431,
      "45": 4432,
      "Ġintegr": 4433,
      "ĠWil": 4434,
      "bahn": 4435,
      "Ġvideo": 4436,
      "ouv": 4437,
      "uses": 4438,
      "ĠDuring": 4439,
      "ĠannÃ©es": 4440,
      "ĠCaliforn": 4441,
      "erd": 4442,
      "Ð¾Ð¼Ñĥ": 4443,
      "Ð¾Ð½Ñĩ": 4444,
      "ĠOne": 4445,
      "icas": 4446,
      "zw": 4447,
      "Ġnatural": 4448,
      "ashington": 4449,
      "ĠquÃ¨": 4450,
      "wend": 4451,
      "ote": 4452,
      "cles": 4453,
      "Ġfeature": 4454,
      "ĠnÃº": 4455,
      "Ġcover": 4456,
      "ĠTrans": 4457,
      "Ð³Ð°Ð½": 4458,
      "Ã©tÃ©": 4459,
      "enk": 4460,
      "Ġ1930": 4461,
      "yr": 4462,
      "Ġsob": 4463,
      "Ġciudad": 4464,
      "uvo": 4465,
      "onne": 4466,
      "Ġtipus": 4467,
      "Ã³r": 4468,
      "Ġfunc": 4469,
      "Ġtract": 4470,
      "Ġstruct": 4471,
      "ĠBill": 4472,
      "uh": 4473,
      "key": 4474,
      "ĠfranÃ§ais": 4475,
      "Ġestabliments": 4476,
      "cha": 4477,
      "Ġvarious": 4478,
      "clus": 4479,
      "cted": 4480,
      "igu": 4481,
      "ĠÑįÐº": 4482,
      "bach": 4483,
      "uÃŁ": 4484,
      "ĠmÃł": 4485,
      "Ġanal": 4486,
      "ĠMac": 4487,
      "Ġcontinued": 4488,
      "atges": 4489,
      "siÃ¨cle": 4490,
      "Ġgames": 4491,
      "ample": 4492,
      "Poblacions": 4493,
      "Ġaccept": 4494,
      "ĠMinister": 4495,
      "ÐµÑģÑĤÐ²ÐµÐ½": 4496,
      "Ġgesch": 4497,
      "ĠProv": 4498,
      "ĠOber": 4499,
      "Ġ1940": 4500,
      "Ġusing": 4501,
      "Ġtreballar": 4502,
      "ĠAmb": 4503,
      "ĠRa": 4504,
      "Ġtyp": 4505,
      "ÑĥÑİÑī": 4506,
      "ĠRos": 4507,
      "Ġregular": 4508,
      "Ġrevol": 4509,
      "Ð¿ÑĢ": 4510,
      "Ð£": 4511,
      "ĠFir": 4512,
      "Ð¾ÑģÐº": 4513,
      "ĠBundes": 4514,
      "tr": 4515,
      "Ġ1988": 4516,
      "adre": 4517,
      "ĠAix": 4518,
      "Ġabandon": 4519,
      "ierre": 4520,
      "Ġprevious": 4521,
      "Ġerste": 4522,
      "gang": 4523,
      "ached": 4524,
      "ieb": 4525,
      "Ġfabric": 4526,
      "tein": 4527,
      "ĠÑıÐ²Ð»Ñı": 4528,
      "raw": 4529,
      "ĠWhen": 4530,
      "yer": 4531,
      "Ġenter": 4532,
      "Ð¤": 4533,
      "Ġsens": 4534,
      "ĠInter": 4535,
      "Ġinterest": 4536,
      "Ġ33": 4537,
      "Ġtrab": 4538,
      "Ġallem": 4539,
      "ilom": 4540,
      "edat": 4541,
      "ÃŃfic": 4542,
      "ĠKn": 4543,
      "ĠÐ±Ð¾Ð»ÑĮÑĪ": 4544,
      "ĠGar": 4545,
      "ĠmÃ³n": 4546,
      "Ġnacional": 4547,
      "Ġfield": 4548,
      "Ġcapac": 4549,
      "Ġfriend": 4550,
      "ĠÑģÑĤÐ°Ð»": 4551,
      "ÑĢÑĥÐ¿Ð¿": 4552,
      "Ġtw": 4553,
      "isen": 4554,
      "ĠÐ¿Ð¾Ðº": 4555,
      "Ð°ÑĤÐµÐ»": 4556,
      "Ġaward": 4557,
      "75": 4558,
      "ĠÑģÐº": 4559,
      "Ð¸Ð¶": 4560,
      "Ġorient": 4561,
      "Re": 4562,
      "Ð¾Ð»ÐµÐµ": 4563,
      "ÑĢÐµÑĤ": 4564,
      "Ġminist": 4565,
      "Ã¤rz": 4566,
      "Ġ1920": 4567,
      "undo": 4568,
      "Ġgiven": 4569,
      "ÑĢÐ°Ð¶": 4570,
      "ĠXIX": 4571,
      "hand": 4572,
      "Ġbi": 4573,
      "Ġess": 4574,
      "Ġjud": 4575,
      "Ã¤lt": 4576,
      "Ð¸Ð°Ð»ÑĮ": 4577,
      "Ġhaver": 4578,
      "ĠSuper": 4579,
      "Ġital": 4580,
      "rik": 4581,
      "ikan": 4582,
      "ĠJack": 4583,
      "Ġmai": 4584,
      "ittle": 4585,
      "ĠÐ¾Ð±Ñī": 4586,
      "ĠCatalunya": 4587,
      "Ġlli": 4588,
      "Ġ32": 4589,
      "Ġterm": 4590,
      "egr": 4591,
      "sequ": 4592,
      "Ð±Ð¾ÑĢ": 4593,
      "iale": 4594,
      "Ġdern": 4595,
      "ĠVir": 4596,
      "Ġrecon": 4597,
      "ĠÐ½Ð°Ñģ": 4598,
      "Sch": 4599,
      "Ġcommunity": 4600,
      "halten": 4601,
      "Ġcompl": 4602,
      "atic": 4603,
      "rada": 4604,
      "Ġ1944": 4605,
      "ĠChampionship": 4606,
      "ĠWashington": 4607,
      "ĠRam": 4608,
      "press": 4609,
      "ocup": 4610,
      "agon": 4611,
      "ĠThese": 4612,
      "ĠÐ¼Ð°ÑĤ": 4613,
      "Ġtitle": 4614,
      "fil": 4615,
      "Ġfeb": 4616,
      "Ġdefe": 4617,
      "uve": 4618,
      "Ġtrack": 4619,
      "allen": 4620,
      "Ġjusqu": 4621,
      "Ġ1986": 4622,
      "Ġpromot": 4623,
      "Ġig": 4624,
      "nis": 4625,
      "ĶĤ": 4626,
      "Ġcreated": 4627,
      "onom": 4628,
      "Ġtext": 4629,
      "Ġcontract": 4630,
      "Ġ70": 4631,
      "ÐµÐ½Ð¸ÐµÐ¼": 4632,
      "ĠdespuÃ©s": 4633,
      "Ġ1987": 4634,
      "ĠPeter": 4635,
      "ici": 4636,
      "alter": 4637,
      "Ġpeut": 4638,
      "ĠsÃ¨": 4639,
      "Ġpolitical": 4640,
      "lor": 4641,
      "istas": 4642,
      "Ġpaper": 4643,
      "ĠSur": 4644,
      "Ġdata": 4645,
      "Ġbal": 4646,
      "Ġresearch": 4647,
      "Ġihn": 4648,
      "ÑģÐ°": 4649,
      "ĠGo": 4650,
      "Ã²p": 4651,
      "Ġpare": 4652,
      "gent": 4653,
      "amiento": 4654,
      "Er": 4655,
      "ĠDen": 4656,
      "Ġoppos": 4657,
      "ĠÃĸ": 4658,
      "Ġej": 4659,
      "Ġapro": 4660,
      "Ġactives": 4661,
      "ki": 4662,
      "ĠDesprÃ©s": 4663,
      "Ġwithout": 4664,
      "Ã©rica": 4665,
      "ĠÐ¸Ñİ": 4666,
      "Ġdetermin": 4667,
      "ĠZe": 4668,
      "Ġblanc": 4669,
      "Ġerw": 4670,
      "ept": 4671,
      "ĠÐºÐ¾Ð¼Ð¿": 4672,
      "Ð¼ÐµÐ½": 4673,
      "ctions": 4674,
      "Ġspecial": 4675,
      "ĠÑģÐµÑĢ": 4676,
      "Se": 4677,
      "gra": 4678,
      "ÐµÐ¼Ð¿": 4679,
      "uz": 4680,
      "unst": 4681,
      "ĠHand": 4682,
      "ĠUnion": 4683,
      "ĠLas": 4684,
      "Ġmem": 4685,
      "Ġpersona": 4686,
      "Ġconstitu": 4687,
      "duced": 4688,
      "Ġplant": 4689,
      "oble": 4690,
      "hin": 4691,
      "Ġta": 4692,
      "etes": 4693,
      "Ġattemp": 4694,
      "Ġfiscals": 4695,
      "ĠSil": 4696,
      "ĠMas": 4697,
      "Com": 4698,
      "Ġcolon": 4699,
      "Ð¸ÑĢÐ°": 4700,
      "Ġcommer": 4701,
      "Ġbot": 4702,
      "ĠMai": 4703,
      "Ġpens": 4704,
      "ĠCalifornia": 4705,
      "ĠÑģÑĢÐµÐ´": 4706,
      "enschaft": 4707,
      "Ġremp": 4708,
      "ĠGerm": 4709,
      "Ġpoints": 4710,
      "stitute": 4711,
      "Ġextens": 4712,
      "ĠBlack": 4713,
      "ĠKÃ¶nig": 4714,
      "idades": 4715,
      "ĠJust": 4716,
      "Ġdann": 4717,
      "Ġcommon": 4718,
      "unts": 4719,
      "ĠTit": 4720,
      "Ġgab": 4721,
      "Ġencuent": 4722,
      "Ġexpos": 4723,
      "ĠBre": 4724,
      "Ġsis": 4725,
      "ights": 4726,
      "ĠsÃ©": 4727,
      "Ġfull": 4728,
      "ĠTod": 4729,
      "Ġserveis": 4730,
      "auer": 4731,
      "Ãłt": 4732,
      "ĠGrand": 4733,
      "unde": 4734,
      "Ġville": 4735,
      "Ġnuc": 4736,
      "aires": 4737,
      "emble": 4738,
      "aug": 4739,
      "Dem": 4740,
      "Ã²l": 4741,
      "Ġcommand": 4742,
      "ÐµÐ½Ð¸": 4743,
      "Ġzusammen": 4744,
      "33": 4745,
      "Ġbesch": 4746,
      "Ġdonar": 4747,
      "Ġexpress": 4748,
      "uff": 4749,
      "orial": 4750,
      "ases": 4751,
      "Ġinactives": 4752,
      "ĠÐ¿ÑĢÐ¾ÑĤÐ¸Ð²": 4753,
      "Ð²ÐµÑĤ": 4754,
      "cording": 4755,
      "Ġhaben": 4756,
      "Ð²ÐµÑĢ": 4757,
      "tement": 4758,
      "inos": 4759,
      "ÑĮÑı": 4760,
      "Ġliegt": 4761,
      "tex": 4762,
      "Act": 4763,
      "afts": 4764,
      "bild": 4765,
      "tera": 4766,
      "Ġpast": 4767,
      "Ġbereits": 4768,
      "ĠÑĩÐµÐ»Ð¾Ð²": 4769,
      "ÐĹ": 4770,
      "ÑģÐºÐ¸Ðµ": 4771,
      "Ġ/": 4772,
      "halb": 4773,
      "AS": 4774,
      ")_": 4775,
      "ĠFe": 4776,
      "Ġphys": 4777,
      "Ãīs": 4778,
      "Ġsecret": 4779,
      "Ġconstit": 4780,
      "Ġelement": 4781,
      "avors": 4782,
      "oms": 4783,
      "ĠDivision": 4784,
      "Ġtie": 4785,
      "Ð¾ÑģÐ»Ðµ": 4786,
      "arqu": 4787,
      "Ġaj": 4788,
      "Ġesde": 4789,
      "ader": 4790,
      "Ġsuff": 4791,
      "ĠVict": 4792,
      "Ab": 4793,
      "Ġdays": 4794,
      "Ġround": 4795,
      "Ġtur": 4796,
      "ĠtrÃ¨s": 4797,
      "fen": 4798,
      "uter": 4799,
      "ĠMitglied": 4800,
      "ĠMiss": 4801,
      "atives": 4802,
      "urz": 4803,
      "Va": 4804,
      "Ġihrer": 4805,
      "ibles": 4806,
      "ĠÐ¿ÑĢÐ¾Ð´": 4807,
      "Ð»Ð¸Ñĩ": 4808,
      "ĠÐ¾ÑģÑĤ": 4809,
      "ĠÐ½Ð°ÑĩÐ°Ð»": 4810,
      "ĠTel": 4811,
      "Ġsw": 4812,
      "Ġcuando": 4813,
      "Ġmembres": 4814,
      "etwork": 4815,
      "tober": 4816,
      "ĠCouncil": 4817,
      "ĠReich": 4818,
      "ĠÐĶÐ¶": 4819,
      "Ġ1985": 4820,
      "ĠFC": 4821,
      ".\"_": 4822,
      "Ġbefind": 4823,
      "Ġsour": 4824,
      "Ġmunicipal": 4825,
      "ĠmÃºsica": 4826,
      "utt": 4827,
      "Ġsac": 4828,
      "ĠestÃ¡": 4829,
      "ĠpolÃŃtica": 4830,
      "ÃŃo": 4831,
      "ĠHaupt": 4832,
      "ĠMichael": 4833,
      "ĠJoan": 4834,
      "Ġintent": 4835,
      "ĠBest": 4836,
      "Ġ34": 4837,
      "ĠRoman": 4838,
      "ĠCop": 4839,
      "irat": 4840,
      "Ġconsist": 4841,
      "cial": 4842,
      "Ġoffer": 4843,
      "ĠGrund": 4844,
      "Ġperm": 4845,
      "Ġ1984": 4846,
      "ĠGra": 4847,
      "cion": 4848,
      "ĠpÃºblic": 4849,
      "ÑĨÐ¸Ð¾Ð½": 4850,
      "ÐµÐ½Ð¸Ð¹": 4851,
      "abei": 4852,
      "ĠTour": 4853,
      "ĠÐ³Ð´Ðµ": 4854,
      "Ġtrat": 4855,
      "Ġmilitary": 4856,
      "ĠTra": 4857,
      "ĠArmy": 4858,
      "Ġdir": 4859,
      "Ġparts": 4860,
      "ĠVers": 4861,
      "Ð·Ð°": 4862,
      "ĠJohann": 4863,
      "Ġsan": 4864,
      "ÑĨÐ°": 4865,
      "Ġfueron": 4866,
      "arse": 4867,
      "ĠÂ": 4868,
      "Ã±o": 4869,
      "ÑĢÐ¾Ð¿": 4870,
      "Ġmolts": 4871,
      "ĠÐ¸Ð³": 4872,
      "Ġworks": 4873,
      "Ġactu": 4874,
      "ception": 4875,
      "Ġnovel": 4876,
      "ova": 4877,
      "Ġya": 4878,
      "ĠHill": 4879,
      "acte": 4880,
      "90": 4881,
      "ively": 4882,
      "ĠMary": 4883,
      "ĠÐ¿Ð»": 4884,
      "ĠMot": 4885,
      "ĠJuan": 4886,
      "Ġsat": 4887,
      "rift": 4888,
      "Ã¨ne": 4889,
      "ĠBor": 4890,
      "self": 4891,
      "ĠMel": 4892,
      "Ã¨rcit": 4893,
      "ĠBal": 4894,
      "used": 4895,
      "aign": 4896,
      "36": 4897,
      "ĠAcadem": 4898,
      "Ad": 4899,
      "Ġtenen": 4900,
      "Ġrealiz": 4901,
      "ological": 4902,
      "Ġlangu": 4903,
      "Ð°ÑİÑī": 4904,
      "Ġconoc": 4905,
      "Ġcosa": 4906,
      "ĠÐµÑĳ": 4907,
      "Ġeducation": 4908,
      "Ð°Ð²ÑĪ": 4909,
      "ĠBur": 4910,
      "Ġlist": 4911,
      "ÑĥÐº": 4912,
      "Ġ90": 4913,
      "uciÃ³n": 4914,
      "ĠCentral": 4915,
      "Ġ1975": 4916,
      "Ġerhielt": 4917,
      "Ġlleng": 4918,
      "ughter": 4919,
      "Ġhost": 4920,
      "Ġcit": 4921,
      "Ð»Ð°Ñģ": 4922,
      "Ġradio": 4923,
      "Ġnomen": 4924,
      "ĠÐ¸Ñħ": 4925,
      "ising": 4926,
      "ked": 4927,
      "Ġespany": 4928,
      "ĠGemeinde": 4929,
      "ĠFestival": 4930,
      "ĠParty": 4931,
      "Ġcomplex": 4932,
      "ĠÐ·Ð°Ð½": 4933,
      "reek": 4934,
      "ĠSy": 4935,
      "ĠBand": 4936,
      "ĠAssociation": 4937,
      "Ġsigned": 4938,
      "ĠÐłÐ¾ÑģÑģ": 4939,
      "ĠJosÃ©": 4940,
      "asser": 4941,
      "Ġrelations": 4942,
      "Ġemploy": 4943,
      "Ġopened": 4944,
      "ĠÃºn": 4945,
      "ĠCanada": 4946,
      "Ġtourn": 4947,
      "Ġllib": 4948,
      "ĠJe": 4949,
      "Ġconjunt": 4950,
      "sche": 4951,
      "ĠÐ°Ð½": 4952,
      "ĠÐ¾Ð±Ð»Ð°ÑģÑĤ": 4953,
      "Ġtimes": 4954,
      "ulo": 4955,
      "Ġmetres": 4956,
      "Ã¨g": 4957,
      "Ġprepar": 4958,
      "Ġ1982": 4959,
      "ĠSport": 4960,
      "Ġstory": 4961,
      "ĠJac": 4962,
      "itants": 4963,
      "inen": 4964,
      "cast": 4965,
      "roy": 4966,
      "Ġvier": 4967,
      "ĠVon": 4968,
      "ither": 4969,
      "Ġtout": 4970,
      "Ã¤chst": 4971,
      "Ġlost": 4972,
      "Ġwel": 4973,
      "gether": 4974,
      "Ġtogether": 4975,
      "ĠRichard": 4976,
      "ending": 4977,
      "Ġmerc": 4978,
      "ĠForm": 4979,
      "Ġhelp": 4980,
      "Ġplusieurs": 4981,
      "ĠÐ´Ðµ": 4982,
      "ĠTom": 4983,
      "Ġproduced": 4984,
      "Ġcav": 4985,
      "ĠplaÃ§a": 4986,
      "Ġfurther": 4987,
      "Ġ1941": 4988,
      "Ġescrit": 4989,
      "Ġwife": 4990,
      "Ãłs": 4991,
      "ĠRepublic": 4992,
      "ĠDev": 4993,
      "ĠÃīs": 4994,
      "Ãłries": 4995,
      "ĠTV": 4996,
      "ning": 4997,
      "Ġzun": 4998,
      "Ġrock": 4999,
      "Ġsuperior": 5000,
      "ĠChristian": 5001,
      "chts": 5002,
      "ĠcÃłr": 5003,
      "Ġ1983": 5004,
      "Ġtransfer": 5005,
      "Ã¶ffentlich": 5006,
      "ĠMy": 5007,
      "ĠSup": 5008,
      "illo": 5009,
      "ĠÑĥÑĩÐ°ÑģÑĤ": 5010,
      "ĠTex": 5011,
      "Ġquant": 5012,
      "ĠEuropa": 5013,
      "ĠÑİ": 5014,
      "Ġservices": 5015,
      "ÑĢÐ°Ñģ": 5016,
      "ÐµÑī": 5017,
      "Ġvie": 5018,
      "uta": 5019,
      "Ġcastell": 5020,
      "iÃ¨res": 5021,
      "Ġview": 5022,
      "asion": 5023,
      "Ġheute": 5024,
      "ĠÐ¿Ð¾Ð¼": 5025,
      "Ġ1979": 5026,
      "geben": 5027,
      "Ġteach": 5028,
      "Ġmont": 5029,
      "Ġdom": 5030,
      "Ð¸ÑĤÑģÑı": 5031,
      "assen": 5032,
      "Ã±a": 5033,
      "Ġaver": 5034,
      "Ġgood": 5035,
      "ection": 5036,
      "ĠwÃ¤hrend": 5037,
      "year": 5038,
      "Ð¸Ð½Ð³": 5039,
      "idence": 5040,
      "ogrÃłfica": 5041,
      "ĠSÃ¼d": 5042,
      "hol": 5043,
      "day": 5044,
      "Ġeran": 5045,
      "Ġ1972": 5046,
      "ĠJuli": 5047,
      "Ð½Ð¸ÐºÐ¾Ð²": 5048,
      "Ġworking": 5049,
      "ĠUnits": 5050,
      "Ġriu": 5051,
      "ĠIV": 5052,
      "ĠLuc": 5053,
      "Ð¾ÑģÑĥÐ´": 5054,
      "licher": 5055,
      "ĠUniversitat": 5056,
      "ways": 5057,
      "ĠEuropean": 5058,
      "Ġwin": 5059,
      "Ġalc": 5060,
      "Ġcours": 5061,
      "ÐµÑģÑģ": 5062,
      "ĠSpr": 5063,
      "ÐµÐ´Ð¸Ð½": 5064,
      "ĠAquesta": 5065,
      "Ġconsid": 5066,
      "ĠKl": 5067,
      "Ġmeet": 5068,
      "dom": 5069,
      "amment": 5070,
      "ĠAmerica": 5071,
      "bour": 5072,
      "Ġhimself": 5073,
      "ĠâĢł": 5074,
      "ĠSl": 5075,
      "195": 5076,
      "Ð¼ÐµÑģÑĤ": 5077,
      "38": 5078,
      "Ã©p": 5079,
      "ĠLeg": 5080,
      "astern": 5081,
      "ĠBeg": 5082,
      "Ġestar": 5083,
      "ged": 5084,
      "Ġacqu": 5085,
      "ĠÐ¾ÑģÐ½Ð¾Ð²": 5086,
      "Ġfar": 5087,
      "Ġappointed": 5088,
      "Ġstre": 5089,
      "venir": 5090,
      "ĠÐĲÐ½": 5091,
      "48": 5092,
      "ordin": 5093,
      "Ġdepuis": 5094,
      "ocal": 5095,
      "Ġ1939": 5096,
      "ĠChe": 5097,
      "ĠChina": 5098,
      "ĠAward": 5099,
      "ĠAustralia": 5100,
      "riÃ¨re": 5101,
      "Ġcostat": 5102,
      "ĠEstats": 5103,
      "ĠHal": 5104,
      "Ġstar": 5105,
      "Ġappeared": 5106,
      "war": 5107,
      "Ð¾Ð²Ð°Ð½Ð¸Ñı": 5108,
      "ĠPac": 5109,
      "Ġoficial": 5110,
      "ĠÐ¡ÑĤ": 5111,
      "Ãºblica": 5112,
      "Ð¼Ñĥ": 5113,
      "ĠOktober": 5114,
      "ĠagrÃŃc": 5115,
      "Ġhier": 5116,
      "ÑĭÑĤ": 5117,
      "Ġ38": 5118,
      "Ġ1974": 5119,
      "Ġphot": 5120,
      "Ġright": 5121,
      "Ã¤ng": 5122,
      "ĠMex": 5123,
      "rick": 5124,
      "Leben": 5125,
      "Ġanderen": 5126,
      "Ġara": 5127,
      "cÃ¨s": 5128,
      "ĠhistÃ²ria": 5129,
      "ĠCont": 5130,
      "Ġfootball": 5131,
      "Ð½Ð¸ÐºÐ°": 5132,
      "jecte": 5133,
      "grund": 5134,
      "ĠSom": 5135,
      "ĠÐ²ÑĭÐ¿": 5136,
      "ĠPf": 5137,
      "Ġsil": 5138,
      "lev": 5139,
      "ishing": 5140,
      "isters": 5141,
      "ĠGeorg": 5142,
      "Ġdin": 5143,
      "unkt": 5144,
      "ĠIndia": 5145,
      "fant": 5146,
      "rir": 5147,
      "Ġhalf": 5148,
      "Ġestan": 5149,
      "Ġrail": 5150,
      "ĠEmp": 5151,
      "Ġber": 5152,
      "Ð¾Ð³ÑĢÐ°ÑĦÐ¸Ñı": 5153,
      "Ġdecid": 5154,
      "ification": 5155,
      "ĠÑĩÐµÐ»Ð¾Ð²ÐµÐº": 5156,
      "Ġjur": 5157,
      "igung": 5158,
      "ĠSel": 5159,
      "Ã´t": 5160,
      "Ġ1976": 5161,
      "Ġengine": 5162,
      "ably": 5163,
      "Ġspiel": 5164,
      "Ġgroupe": 5165,
      "ĠÐ³ÑĢÑĥÐ¿Ð¿": 5166,
      "Ã¨me": 5167,
      "eros": 5168,
      "Ġ1968": 5169,
      "ĠSing": 5170,
      "Ġ1978": 5171,
      "vis": 5172,
      "ĠÐºÐ¾ÑĤÐ¾ÑĢÑĭÐ¹": 5173,
      "ĠFort": 5174,
      "Ġextre": 5175,
      "Ġatac": 5176,
      "Ġcro": 5177,
      "Ġretir": 5178,
      "Ð¾Ð»Ð½": 5179,
      "ĠServ": 5180,
      "ership": 5181,
      "Ġindic": 5182,
      "Ġdecor": 5183,
      "Ġrealitz": 5184,
      "Ġdescribed": 5185,
      "Ã¼tz": 5186,
      "lear": 5187,
      "kn": 5188,
      "Ġroad": 5189,
      "ĠFamil": 5190,
      "Ġconsidered": 5191,
      "oney": 5192,
      "Ġbelie": 5193,
      "39": 5194,
      "Ġsen": 5195,
      "Ġgrow": 5196,
      "Ġnova": 5197,
      "Ġ1973": 5198,
      "Ð°ÑĢÑı": 5199,
      "Ġerfolg": 5200,
      "ĠAlt": 5201,
      "ĠFrancisco": 5202,
      "falls": 5203,
      "âĢ¦": 5204,
      "stadt": 5205,
      "Ã¶ÃŁ": 5206,
      "Ġstyle": 5207,
      "aves": 5208,
      "Ġ1943": 5209,
      "ĠMÃ¤rz": 5210,
      "eden": 5211,
      "ĠDu": 5212,
      "ÑĨÐ¸Ñı": 5213,
      "ĠSociety": 5214,
      "Ġtemper": 5215,
      "Ġoccup": 5216,
      "Ġobres": 5217,
      "ĠSov": 5218,
      "Gesch": 5219,
      "ĠIsland": 5220,
      "ualment": 5221,
      "rian": 5222,
      "Ġadopt": 5223,
      "rÃ¡": 5224,
      "ÑĭÑĪ": 5225,
      "erem": 5226,
      "ÑĢÐ¾Ñģ": 5227,
      "Ġcrist": 5228,
      "Ġ1981": 5229,
      "Ġmorir": 5230,
      "mpre": 5231,
      "Ġfolg": 5232,
      "ĠPos": 5233,
      "Ġinstr": 5234,
      "ittee": 5235,
      "lec": 5236,
      "Ã¶glich": 5237,
      "azine": 5238,
      "Ġaud": 5239,
      "abe": 5240,
      "sych": 5241,
      "Ġestim": 5242,
      "Ġdeclar": 5243,
      "aje": 5244,
      "Ġell": 5245,
      "ĠHo": 5246,
      "xa": 5247,
      "ĠÑģÐµÐ¼": 5248,
      "ĠProfess": 5249,
      "Ġotros": 5250,
      "emeins": 5251,
      "ÐµÑĢÐµÐ²": 5252,
      "ĠlÃŃn": 5253,
      "Ð¾ÑģÑĥÐ´Ð°ÑĢ": 5254,
      "ĠOlymp": 5255,
      "Ġ1942": 5256,
      "Ġ37": 5257,
      "Ġchamp": 5258,
      "arde": 5259,
      "ĠMusic": 5260,
      "ĠÐ¿Ð¾Ð²": 5261,
      "Ġaddition": 5262,
      "rees": 5263,
      "Ġill": 5264,
      "idas": 5265,
      "zeug": 5266,
      "ĠRoad": 5267,
      "Ġclaim": 5268,
      "uppe": 5269,
      "Ð¸ÑģÐº": 5270,
      "Ð¸ÑĪ": 5271,
      "ĠMuseum": 5272,
      "Ġmanten": 5273,
      "ahm": 5274,
      "34": 5275,
      "Ġball": 5276,
      "Ð»ÑĥÐ±": 5277,
      "auc": 5278,
      "Ġbran": 5279,
      "Ġgal": 5280,
      "Ġ1977": 5281,
      "ÑĢÑĥÐ´": 5282,
      "Ġdri": 5283,
      "Ġmismo": 5284,
      "stre": 5285,
      "ÐµÐ¹ÑģÑĤÐ²": 5286,
      "lÃ¤": 5287,
      "Ġspecies": 5288,
      "Ġreported": 5289,
      "ĠHenry": 5290,
      "ĠMartin": 5291,
      "oct": 5292,
      "Ã¨ixer": 5293,
      "ĠJanuar": 5294,
      "Ġcontemp": 5295,
      "Ġaccess": 5296,
      "Ġpis": 5297,
      "ografÃŃa": 5298,
      "Ð¾Ð¶Ð´": 5299,
      "Ġfle": 5300,
      "duction": 5301,
      "Ġced": 5302,
      "Ġelection": 5303,
      "Ġyou": 5304,
      "ionen": 5305,
      "ÑıÐ²": 5306,
      "Ð¾Ð²Ð°": 5307,
      "lot": 5308,
      "Ġpays": 5309,
      "37": 5310,
      "Ġincorpor": 5311,
      "Ġpoble": 5312,
      "Ġdig": 5313,
      "Ġmembre": 5314,
      "Ġservei": 5315,
      "Ġformat": 5316,
      "Ġculture": 5317,
      "Ġurb": 5318,
      "ĠKirche": 5319,
      "ucht": 5320,
      "arden": 5321,
      "Ġvegada": 5322,
      "Ġdavant": 5323,
      "imo": 5324,
      "ĠÐ¸ÑģÐ¿Ð¾Ð»ÑĮÐ·": 5325,
      "ĠJoseph": 5326,
      "Ġapare": 5327,
      "Ġweek": 5328,
      "ÐµÐ½Ð¸Ñİ": 5329,
      "ients": 5330,
      "Ġparty": 5331,
      "ih": 5332,
      "lÃŃcula": 5333,
      "ellow": 5334,
      "Ġaconseguir": 5335,
      "Ã¶t": 5336,
      "Ġnouve": 5337,
      "ĠSon": 5338,
      "ĠÐ²ÑĭÑģ": 5339,
      "Ġopt": 5340,
      "Ġfois": 5341,
      "Ġorganiz": 5342,
      "ground": 5343,
      "Ġeigen": 5344,
      "Ġelev": 5345,
      "Ð¸ÐµÐ¹": 5346,
      ",âĢĭ": 5347,
      "Ġadapt": 5348,
      "Ġ(\"": 5349,
      "Ġdessen": 5350,
      "werk": 5351,
      "itch": 5352,
      "atro": 5353,
      "ĠAv": 5354,
      "Ġcateg": 5355,
      "Ġfounded": 5356,
      "Ġmaking": 5357,
      "ÐµÐ²ÐµÑĢ": 5358,
      "wh": 5359,
      "ĠPo": 5360,
      "icions": 5361,
      "Ġsuport": 5362,
      "ĠJuni": 5363,
      "ĠfaÃ§ana": 5364,
      "ĠCenter": 5365,
      "Ġeinz": 5366,
      "Ġbomb": 5367,
      "ugar": 5368,
      "ĠÐĿÐ°": 5369,
      "ativa": 5370,
      "47": 5371,
      "ĠCla": 5372,
      "ski": 5373,
      "chsel": 5374,
      "uela": 5375,
      "ĠWith": 5376,
      "ĠMic": 5377,
      "ministrat": 5378,
      "imens": 5379,
      "ĠSin": 5380,
      "Ġhous": 5381,
      "Ġtrava": 5382,
      "Ġ1967": 5383,
      "omes": 5384,
      "Ġexc": 5385,
      "Ġoffice": 5386,
      "ĠâĶĤ": 5387,
      "ĠÑģÐ¾Ð·Ð´": 5388,
      "Ġol": 5389,
      "halt": 5390,
      "ĠFol": 5391,
      "mals": 5392,
      "ĠÑĥÑģÑĤ": 5393,
      "Ġareas": 5394,
      "Ġbord": 5395,
      "Ġsans": 5396,
      "icult": 5397,
      "Ġllev": 5398,
      "ĠSaison": 5399,
      "enes": 5400,
      "Ġperman": 5401,
      "AC": 5402,
      "Ġcarrera": 5403,
      "ĠÃ©p": 5404,
      "ĠÑįÑĤÐ¾": 5405,
      "Ġdiesem": 5406,
      "view": 5407,
      "ĠMark": 5408,
      "cm": 5409,
      "Ġelements": 5410,
      "ĠMass": 5411,
      "gebiet": 5412,
      "Ġpur": 5413,
      "olÃ²g": 5414,
      "ĠMitt": 5415,
      "Ġshould": 5416,
      "ĠprÃ©": 5417,
      "Segons": 5418,
      "ordn": 5419,
      "Ġtornar": 5420,
      "ĠArbeit": 5421,
      "Ġcollect": 5422,
      "Ġ1969": 5423,
      "Ð°ÑĨÐ¸Ð¸": 5424,
      "Ġaltre": 5425,
      "Ġsou": 5426,
      "ÑĳÑĢ": 5427,
      "ÐµÐ½Ð¾": 5428,
      "Ġnever": 5429,
      "Ġbeiden": 5430,
      "ÐµÐ½Ð½Ð¾": 5431,
      "osoph": 5432,
      "Ġ178": 5433,
      "ering": 5434,
      "ĠCanad": 5435,
      "Ð¨": 5436,
      "Ġwid": 5437,
      "orsch": 5438,
      "issance": 5439,
      "Ġpassar": 5440,
      "Ġrepart": 5441,
      "ĠkÃ¶nnen": 5442,
      "Ġlevel": 5443,
      "ĠPlatz": 5444,
      "Ð¾ÑĪ": 5445,
      "Ġabsol": 5446,
      "bÃ©": 5447,
      "ĠMer": 5448,
      "Ġprofessional": 5449,
      "ÑģÐºÐ¸Ð¼": 5450,
      "Ġella": 5451,
      "Ġcase": 5452,
      "iÄ": 5453,
      "ĠÐ½Ð°ÑħÐ¾Ð´": 5454,
      "Ġ1971": 5455,
      "Early": 5456,
      "Esp": 5457,
      "Ġfire": 5458,
      "ĠLaw": 5459,
      "ĠUna": 5460,
      "Ġdistrict": 5461,
      "Ġampl": 5462,
      "Ġhold": 5463,
      "ram": 5464,
      "bres": 5465,
      "adament": 5466,
      "Ġdeveloped": 5467,
      "Ġobt": 5468,
      "ĠÐ¾Ð±ÑĬ": 5469,
      "Ġdoes": 5470,
      "oming": 5471,
      "berta": 5472,
      "Ġothers": 5473,
      "ĠÑĢÐ°Ñģ": 5474,
      "ĠTot": 5475,
      "Ġcanc": 5476,
      "ĠÐ²Ð¸Ð´": 5477,
      "mir": 5478,
      "ĠÐ·Ð°Ð¼": 5479,
      "aÃ±a": 5480,
      "Ġformed": 5481,
      "oute": 5482,
      "ĠsÃ¨rie": 5483,
      "ĠDez": 5484,
      "Ġdarr": 5485,
      "ĠBei": 5486,
      "ehn": 5487,
      "Ġsuiv": 5488,
      "Ġfarm": 5489,
      "Ġllind": 5490,
      "eria": 5491,
      "Ġllam": 5492,
      "imp": 5493,
      "Mar": 5494,
      "ĠBut": 5495,
      "Ãłb": 5496,
      "ĠMur": 5497,
      "otel": 5498,
      "ÐºÐ¾Ð»": 5499,
      "Ð°ÑĢÑĮ": 5500,
      "Ġquar": 5501,
      "ĠÐ¿Ð¾Ð¿": 5502,
      "Ġsolo": 5503,
      "isÃ©": 5504,
      "aca": 5505,
      "istic": 5506,
      "Ġhow": 5507,
      "46": 5508,
      "Ġelec": 5509,
      "ĠRock": 5510,
      "Ġoblig": 5511,
      "ĠInstitute": 5512,
      "ĠGroup": 5513,
      "Geschichte": 5514,
      "Ġmiles": 5515,
      "ĠDis": 5516,
      "Ġmillor": 5517,
      "feld": 5518,
      "luss": 5519,
      "ety": 5520,
      "most": 5521,
      "ĠLeb": 5522,
      "Ġground": 5523,
      "Ġvisit": 5524,
      "ienst": 5525,
      "azz": 5526,
      "Ã¶st": 5527,
      "Ġteil": 5528,
      "Ġsols": 5529,
      "aker": 5530,
      "ware": 5531,
      "tant": 5532,
      "Ġsegu": 5533,
      "lam": 5534,
      "ĠÐ¿ÑĢÐµÐ´ÑģÑĤÐ°Ð²": 5535,
      "Ġtrobar": 5536,
      "ĠPop": 5537,
      "ĠLat": 5538,
      "ĠCourt": 5539,
      "uted": 5540,
      "iddle": 5541,
      "bel": 5542,
      "ÑģÐºÐ¾Ðµ": 5543,
      "Ġidea": 5544,
      "ĠIndian": 5545,
      "Ġporta": 5546,
      "Ġaquests": 5547,
      "Ġmother": 5548,
      "Ġavait": 5549,
      "Ġ1936": 5550,
      "Ġmig": 5551,
      "ĠLib": 5552,
      "ĠRod": 5553,
      "iere": 5554,
      "irtschaft": 5555,
      "onde": 5556,
      "ĠRob": 5557,
      "ichts": 5558,
      "argo": 5559,
      "Ġface": 5560,
      "uman": 5561,
      "ĠAk": 5562,
      "Europ": 5563,
      "uble": 5564,
      "Ġenviron": 5565,
      "onz": 5566,
      "ĠÑĤÐµÑĢ": 5567,
      "Ġbegann": 5568,
      "icle": 5569,
      "Ġexample": 5570,
      "liament": 5571,
      "Ã¨l": 5572,
      "Ġselbst": 5573,
      "part": 5574,
      "Ġaltern": 5575,
      "ĠFo": 5576,
      "ĠnÃºmer": 5577,
      "Ġsep": 5578,
      "Ġalthough": 5579,
      "Ġmid": 5580,
      "Ġconse": 5581,
      "angel": 5582,
      "Ġllavors": 5583,
      "iser": 5584,
      "Ġmagn": 5585,
      "Ġanterior": 5586,
      "Ġsegona": 5587,
      "Ð²ÐµÑģÑĤ": 5588,
      "fÃ¼": 5589,
      "Ġmonths": 5590,
      "Ð½Ð°ÐºÐ¾": 5591,
      "ĠHel": 5592,
      "ĠÑĢÐ¾Ð´": 5593,
      "Ġstrong": 5594,
      "fte": 5595,
      "ĠCro": 5596,
      "Ġresist": 5597,
      "Ġregion": 5598,
      "Ġavail": 5599,
      "ÃŃstica": 5600,
      "erve": 5601,
      "Ġsem": 5602,
      "Ġgave": 5603,
      "arios": 5604,
      "ĠDre": 5605,
      "ference": 5606,
      "Ãªte": 5607,
      "Ġhonor": 5608,
      "Ġless": 5609,
      "66": 5610,
      "ĠperÃŃode": 5611,
      "Ġbene": 5612,
      "ĠÐ¼Ð½": 5613,
      "utsche": 5614,
      "Ġquel": 5615,
      "Ð¸ÑĩÐµÑģÐºÐ¾Ð¹": 5616,
      "Ġelected": 5617,
      "Ġmilitar": 5618,
      "Ġgan": 5619,
      "44": 5620,
      "ĠKrieg": 5621,
      "iro": 5622,
      "ae": 5623,
      "ÑıÑī": 5624,
      "ĠDistrict": 5625,
      "ĠDurant": 5626,
      "itive": 5627,
      "Ġcampaign": 5628,
      "Ġrelease": 5629,
      "anted": 5630,
      "ĠChic": 5631,
      "Ġay": 5632,
      "Ġbody": 5633,
      "Ġplayer": 5634,
      "unes": 5635,
      "Ġrac": 5636,
      "amin": 5637,
      "Ġsuccessful": 5638,
      "ĠSar": 5639,
      "Ġlive": 5640,
      "Ġsurv": 5641,
      "chs": 5642,
      "ĠAlf": 5643,
      "ĠdÃ©s": 5644,
      "lagen": 5645,
      "Ġperformance": 5646,
      "ĠMax": 5647,
      "Ġletz": 5648,
      "Ð¾Ð»Ð¾Ð¶": 5649,
      "schlieÃŁ": 5650,
      "Ġlet": 5651,
      "Ġaway": 5652,
      "ĠDezember": 5653,
      "Ġreun": 5654,
      "Ã²s": 5655,
      "Ġweb": 5656,
      "ĠEsc": 5657,
      "Ġpedra": 5658,
      "iction": 5659,
      "ÐºÐ¾Ð¼": 5660,
      "Ãłp": 5661,
      "Ġtiemp": 5662,
      "ĠHaus": 5663,
      "Ð»Ð¸Ð½": 5664,
      "autom": 5665,
      "ĠArts": 5666,
      "Ġpaint": 5667,
      "Ġwritten": 5668,
      "aigua": 5669,
      "Ġrepar": 5670,
      "ĠRail": 5671,
      ".âĢĭâĢĭ": 5672,
      "ÐµÑĢÑĤ": 5673,
      "Ġ39": 5674,
      "Ġ1964": 5675,
      "Ġcross": 5676,
      "ĠVan": 5677,
      "Ġconflic": 5678,
      "osten": 5679,
      "Ġ500": 5680,
      "Ġgerm": 5681,
      "Ġefect": 5682,
      "500": 5683,
      "Ġvez": 5684,
      "Ġrecorded": 5685,
      "estat": 5686,
      "Ġpersonn": 5687,
      "Ġcourt": 5688,
      "Ġsegon": 5689,
      "ĠFranÃ§a": 5690,
      "Ġtiene": 5691,
      "ĠDeutschland": 5692,
      "Ð¾Ñħ": 5693,
      "hold": 5694,
      "Ġfrances": 5695,
      "Con": 5696,
      "ĠTechn": 5697,
      "olars": 5698,
      "face": 5699,
      "ĠOper": 5700,
      "Ġmateixa": 5701,
      "Ġonce": 5702,
      "ĠÐ¼ÐµÐ¶Ð´": 5703,
      "ructura": 5704,
      "31": 5705,
      "Ġcritic": 5706,
      "Ġalem": 5707,
      "ĠUniversitÃ¤t": 5708,
      "Ð¾Ð²Ð°Ð½Ð¸Ðµ": 5709,
      "Ġdaughter": 5710,
      "32": 5711,
      "ducation": 5712,
      "Fran": 5713,
      "Ġalg": 5714,
      "Ð²Ð¾Ð»": 5715,
      "Ġtota": 5716,
      "Ġcart": 5717,
      "ÐºÐ¾Ð¹": 5718,
      "Ġhavien": 5719,
      ".)": 5720,
      "ĠJes": 5721,
      "Ġ1965": 5722,
      "olo": 5723,
      "Ġcorrespond": 5724,
      "adora": 5725,
      "ĠÐ½Ð°Ð·Ð²": 5726,
      "ÑĨÐµÐ²": 5727,
      "Ġmajoria": 5728,
      "sterreich": 5729,
      "ĠCD": 5730,
      "akt": 5731,
      "Ġable": 5732,
      "Ġalle": 5733,
      "ĠÃľber": 5734,
      "Ġveh": 5735,
      "ÑıÐ±ÑĢÑı": 5736,
      "Ġfight": 5737,
      "Ã¯s": 5738,
      "hne": 5739,
      "Ġjournal": 5740,
      "Ġprotest": 5741,
      "Ġveure": 5742,
      "Ð¡Ðł": 5743,
      "Ġapart": 5744,
      "ĠbÃ©": 5745,
      "Ġmonde": 5746,
      "lament": 5747,
      "Ġinn": 5748,
      "ceed": 5749,
      "ĠÐ¯": 5750,
      "Ġdiffic": 5751,
      "ĠMÃ¼n": 5752,
      "ĠSmith": 5753,
      "Ġcomunic": 5754,
      "ĠÐ»Ñİ": 5755,
      "istan": 5756,
      "Ġpolice": 5757,
      "atu": 5758,
      "vention": 5759,
      "Ġmuy": 5760,
      "hind": 5761,
      "edeut": 5762,
      "Ġformar": 5763,
      "ĠJew": 5764,
      "ĠHoch": 5765,
      "ĠNic": 5766,
      "Å¡": 5767,
      "Ġconvertir": 5768,
      "Ġnormal": 5769,
      "Ġacross": 5770,
      "nehmen": 5771,
      "Ġtax": 5772,
      "Ġlow": 5773,
      "ĠÐ¿ÑĢÐ¾Ð¸Ð·Ð²": 5774,
      "zeichnet": 5775,
      "ĠPan": 5776,
      "aving": 5777,
      "opp": 5778,
      "Ð¿Ð¸Ñģ": 5779,
      "Ġrepr": 5780,
      "ĠCe": 5781,
      "Biografia": 5782,
      "ugu": 5783,
      "Ð¸ÑģÑģ": 5784,
      "ĠSpan": 5785,
      "hy": 5786,
      "Ġremained": 5787,
      "ĠMol": 5788,
      "Ġcompar": 5789,
      "Ġtradition": 5790,
      "ĠStra": 5791,
      "Ġ1966": 5792,
      "ablement": 5793,
      "Ġblack": 5794,
      "Ġnens": 5795,
      "Ġlaun": 5796,
      "Ġexecut": 5797,
      "Ð¸Ð²ÑĪ": 5798,
      "Ġpetit": 5799,
      "inat": 5800,
      "ĠDiese": 5801,
      "icament": 5802,
      "action": 5803,
      "mana": 5804,
      "ocrat": 5805,
      "ĠFÃ¼r": 5806,
      "ĠsÃŃ": 5807,
      "Ġfollowed": 5808,
      "ĠÐ¿Ð¾Ð·": 5809,
      "Ð¾Ð±Ñĭ": 5810,
      "issenschaft": 5811,
      "ĠÑĢÐµÐ·": 5812,
      "Ġrecogn": 5813,
      "Ġtransform": 5814,
      "ecciÃ³": 5815,
      "Ġcul": 5816,
      "Ġverschied": 5817,
      "Ġnature": 5818,
      "less": 5819,
      "isions": 5820,
      "ÑĢÐµÐ½": 5821,
      "49": 5822,
      "Ġliving": 5823,
      "enne": 5824,
      "Ġ1946": 5825,
      "weg": 5826,
      "geh": 5827,
      "Ġvert": 5828,
      "Ġplaying": 5829,
      "ifest": 5830,
      "ĠHÃ¶": 5831,
      "orb": 5832,
      "Ġbroad": 5833,
      "Ġindependent": 5834,
      "unda": 5835,
      "ritt": 5836,
      "Ġ1948": 5837,
      "Ġaverage": 5838,
      "Ġquest": 5839,
      "Ð¾Ð½Ð¾Ð¼": 5840,
      "ĠVerein": 5841,
      "iences": 5842,
      "Ġna": 5843,
      "ĠVert": 5844,
      "uth": 5845,
      "dia": 5846,
      "Ġinsc": 5847,
      "walt": 5848,
      "quipe": 5849,
      "Ġersch": 5850,
      "ĠÐ¦": 5851,
      "ĠChicago": 5852,
      "ĠGod": 5853,
      "zer": 5854,
      "ÐµÐ¼Ð¿Ð¸Ð¾Ð½": 5855,
      "Ġrect": 5856,
      "Ġ1962": 5857,
      "Ġcrear": 5858,
      "ÑĥÑīÐµÑģÑĤÐ²": 5859,
      "Ð³Ð¾Ð´": 5860,
      "Ġach": 5861,
      "cul": 5862,
      "Ġcapit": 5863,
      "ĠÑĩÐ¸Ñģ": 5864,
      "Ġmaig": 5865,
      "rac": 5866,
      "Ġsuite": 5867,
      "ĠAngeles": 5868,
      "via": 5869,
      "Ġtom": 5870,
      "obra": 5871,
      "ĠOrt": 5872,
      "ults": 5873,
      "ocs": 5874,
      "ardo": 5875,
      "Ġ1938": 5876,
      "ĠProdu": 5877,
      "ĠIsrael": 5878,
      "Ass": 5879,
      "hod": 5880,
      "Ġinj": 5881,
      "Ġmic": 5882,
      "ierno": 5883,
      "erie": 5884,
      "Ġtaken": 5885,
      "Ã¼ss": 5886,
      "Ġbur": 5887,
      "ĠÐ±Ð¾Ð»ÐµÐµ": 5888,
      "teres": 5889,
      "Ġvic": 5890,
      "ĠYou": 5891,
      "uppen": 5892,
      "Ã¨m": 5893,
      "Ġarbeit": 5894,
      "Ġlight": 5895,
      "ko": 5896,
      "Ġattempt": 5897,
      "ĠEins": 5898,
      "ĠÐ³Ð»Ð°Ð²": 5899,
      "jor": 5900,
      "Ġseny": 5901,
      "DescripciÃ³": 5902,
      "ÑĥÐ±Ð»": 5903,
      "lood": 5904,
      "utions": 5905,
      "ismus": 5906,
      "Ġfot": 5907,
      "Ã¤hn": 5908,
      "ĠSohn": 5909,
      "Ġsuggest": 5910,
      "ĠJud": 5911,
      "anden": 5912,
      "Ã²nia": 5913,
      "velle": 5914,
      "Ġwen": 5915,
      "ĠBat": 5916,
      "Ġbekannt": 5917,
      "Ġrelativ": 5918,
      "Ġfree": 5919,
      "igned": 5920,
      "Ġfeder": 5921,
      "oral": 5922,
      "esglÃ©sia": 5923,
      "Ġtotes": 5924,
      "Ġuno": 5925,
      "Ġgir": 5926,
      "ĠÐ®": 5927,
      "ĠÐ²Ñģ": 5928,
      "ĠÑĥÐ½": 5929,
      "ĠÑĢÐ°Ð·Ð²": 5930,
      "Ġmuss": 5931,
      "Ġcoach": 5932,
      "Ã¨cn": 5933,
      "Ġpartit": 5934,
      "ĠGreen": 5935,
      "ĠMusik": 5936,
      "65": 5937,
      "ee": 5938,
      "Ġsubject": 5939,
      "arbeit": 5940,
      "ĠespÃ¨": 5941,
      "Ã¤nder": 5942,
      "uren": 5943,
      "ĠGen": 5944,
      "itter": 5945,
      "eda": 5946,
      "ilities": 5947,
      "ĠEg": 5948,
      "Ġcompleted": 5949,
      "avant": 5950,
      "AA": 5951,
      "Ġautres": 5952,
      "Ġtelevision": 5953,
      "ifs": 5954,
      "ĠÐ¾ÑĢÐ³Ð°Ð½": 5955,
      "ĠWhite": 5956,
      "isa": 5957,
      "ĠGew": 5958,
      "Ġ1963": 5959,
      "ĠGroÃŁ": 5960,
      ",\"": 5961,
      "Ġdamit": 5962,
      "ĠEntre": 5963,
      "Ġbesteh": 5964,
      "Ġbaixa": 5965,
      "fÃ¼hrt": 5966,
      "Ġprimers": 5967,
      "urar": 5968,
      "Ġcapita": 5969,
      "onstru": 5970,
      "ube": 5971,
      "Ġgar": 5972,
      "ĠMundial": 5973,
      "Ġrace": 5974,
      "ĠJahrhundert": 5975,
      "ĠTown": 5976,
      "ĠzunÃ¤chst": 5977,
      "Ġcombat": 5978,
      "Ġmarket": 5979,
      "Ġaltra": 5980,
      "Ġeast": 5981,
      "78": 5982,
      "Ġtype": 5983,
      "ky": 5984,
      "Ð½Ð¸Ð¼": 5985,
      "ĠÐ´Ð¾Ð¼": 5986,
      "pp": 5987,
      "Ð°ÑĤÐ°": 5988,
      "Ġperformed": 5989,
      "Ġhor": 5990,
      "rieben": 5991,
      "ĠCat": 5992,
      "unque": 5993,
      "ÑģÐ¾Ð²": 5994,
      "ĠLo": 5995,
      "oure": 5996,
      "elling": 5997,
      "ĠÑĤÐ¾": 5998,
      "ĠOs": 5999,
      "aro": 6000,
      "Ġedific": 6001,
      "Ð¸Ð°Ð»": 6002,
      "Ġcert": 6003,
      "Ã¼nf": 6004,
      "Ġtend": 6005,
      "zug": 6006,
      "Ġmedia": 6007,
      "Ġstatt": 6008,
      "Ġgleich": 6009,
      "ĠÐ¸ÑģÑĤÐ¾ÑĢ": 6010,
      "ĠÑĤÐ¾Ð¼": 6011,
      "Ġ150": 6012,
      "Ġjuliol": 6013,
      "evol": 6014,
      "ĠÐ´Ð¾ÑģÑĤ": 6015,
      "âĤ¬": 6016,
      "Ġnotamment": 6017,
      "nement": 6018,
      "jos": 6019,
      "Ġavailable": 6020,
      "reen": 6021,
      "Ġredu": 6022,
      "inst": 6023,
      "Ġforen": 6024,
      "head": 6025,
      "Ġran": 6026,
      "Ġsept": 6027,
      "zie": 6028,
      "gu": 6029,
      "Ġihren": 6030,
      "Ġconcern": 6031,
      "krieg": 6032,
      "Ã¨rica": 6033,
      "inese": 6034,
      "Ġ1918": 6035,
      "ĠPolit": 6036,
      "ĠGold": 6037,
      "Ġgrande": 6038,
      "Ġcultural": 6039,
      "ĠReal": 6040,
      "erÃ§": 6041,
      "Ð¾Ð½Ðµ": 6042,
      "ĠEv": 6043,
      "Ġcha": 6044,
      "essen": 6045,
      "Ã¤nger": 6046,
      "laÃ§": 6047,
      "Ġroute": 6048,
      "ĠFrom": 6049,
      "ĠUnt": 6050,
      "ns": 6051,
      "Ġtraining": 6052,
      "ustr": 6053,
      "Ġrend": 6054,
      "Ġsehr": 6055,
      "55": 6056,
      "Ġeventually": 6057,
      "Ð¾ÑģÑĤÐ¸": 6058,
      "Ð°ÑĢÐ´": 6059,
      "front": 6060,
      "ĠGir": 6061,
      "Ġquien": 6062,
      "ĠNova": 6063,
      "ĠÐ´ÐµÑĢÐµÐ²": 6064,
      "asa": 6065,
      "ĠAcademy": 6066,
      "Econom": 6067,
      "ential": 6068,
      "Ġjuny": 6069,
      "ĠDam": 6070,
      "Ġenerg": 6071,
      "itude": 6072,
      "ĠasÃŃ": 6073,
      "ĠRevol": 6074,
      "ĠGermany": 6075,
      "Ġfinished": 6076,
      "Ġvi": 6077,
      "ĠmÃ©d": 6078,
      "Ġcanvi": 6079,
      "Ġ1933": 6080,
      "Ġleurs": 6081,
      "benfalls": 6082,
      "Ġmission": 6083,
      "Ð¸ÑĩÐµÑģÐºÐ¸Ñħ": 6084,
      "ĠScott": 6085,
      "Ġalgunes": 6086,
      "Ġ1956": 6087,
      "ĠNot": 6088,
      "Ġpert": 6089,
      "igte": 6090,
      "Ġpan": 6091,
      "Ġmunt": 6092,
      "Ġservir": 6093,
      "Ġsab": 6094,
      "Ġvegades": 6095,
      "exp": 6096,
      "Ġseen": 6097,
      "Ġsoci": 6098,
      "mediat": 6099,
      "tats": 6100,
      "ruck": 6101,
      "ierra": 6102,
      "inden": 6103,
      "right": 6104,
      "Ġforce": 6105,
      "Ð³Ð»": 6106,
      "ĠÐºÐ¾Ð½ÑĨ": 6107,
      "Ã¼nst": 6108,
      "estra": 6109,
      "chan": 6110,
      "ĠÐ´ÐµÐ»": 6111,
      "Ġentstand": 6112,
      "Ġreview": 6113,
      "Ġgibt": 6114,
      "Ġbrother": 6115,
      "akes": 6116,
      "ring": 6117,
      "rique": 6118,
      "ienen": 6119,
      "Ġ,": 6120,
      "Ð¸Ð½Ð¸ÑģÑĤ": 6121,
      "baix": 6122,
      "ĠÐ¿ÐµÑĢÐµÐ´": 6123,
      "Ġprograma": 6124,
      "ÑĦÐ¾ÑĢÐ¼": 6125,
      "ÐµÑĢÑĪ": 6126,
      "Ã¤ude": 6127,
      "ĠreprÃ©s": 6128,
      "ĠÐ°ÐºÑĤ": 6129,
      "Ġstudy": 6130,
      "ÐµÑĢÐ±": 6131,
      "ĠMilit": 6132,
      "ÐŃ": 6133,
      "Ġsee": 6134,
      "Ġ1961": 6135,
      "Ġread": 6136,
      "ĠJa": 6137,
      "iny": 6138,
      "Ġlabor": 6139,
      "ĠgrÃ¶ÃŁ": 6140,
      "ĠÐ¼Ð¾Ð¶": 6141,
      "Ġdat": 6142,
      "Ġ1958": 6143,
      "idental": 6144,
      "ĠPed": 6145,
      "Ġavoir": 6146,
      "Ġexhib": 6147,
      "Ġcarrer": 6148,
      "Ġpay": 6149,
      "Ġamer": 6150,
      "Ġleng": 6151,
      "ĠDurch": 6152,
      "pa": 6153,
      "Ġprogress": 6154,
      "oche": 6155,
      "Ġpie": 6156,
      "Ġevoluc": 6157,
      "Ġenf": 6158,
      "ĠCentre": 6159,
      "Ġarchitect": 6160,
      "Ġprofessor": 6161,
      "ĠBerg": 6162,
      "ĠTexas": 6163,
      "ĠSi": 6164,
      "lauf": 6165,
      "ĠgeogrÃłfica": 6166,
      "Ġfall": 6167,
      "Ġze": 6168,
      "Ġfaire": 6169,
      "ĠcÃłrrec": 6170,
      "42": 6171,
      "ĠCarol": 6172,
      "ÑĤÑĮ": 6173,
      "acta": 6174,
      "ĠÐ²ÐµÐº": 6175,
      "ĠKunst": 6176,
      "Ġadministrat": 6177,
      "ĠÑģÐ²ÑıÐ·": 6178,
      "onent": 6179,
      "ĠFebruar": 6180,
      "Ã²bils": 6181,
      "Ġterra": 6182,
      "ĠEar": 6183,
      "Ġinvolved": 6184,
      "ĠÐ¿Ð¾ÑĤ": 6185,
      "Ġmarc": 6186,
      "uite": 6187,
      "ye": 6188,
      "lang": 6189,
      "anos": 6190,
      "Ġregist": 6191,
      "Ġdate": 6192,
      "iliars": 6193,
      "ĠCos": 6194,
      "Ð·Ñĭ": 6195,
      "Ġobstant": 6196,
      "helm": 6197,
      "ingu": 6198,
      "Ġ1947": 6199,
      "ĠMen": 6200,
      "Ġsetembre": 6201,
      "Ġgrav": 6202,
      "SS": 6203,
      "ĠFel": 6204,
      "ĠLandes": 6205,
      "Ġmust": 6206,
      "Ãłnia": 6207,
      "rÃ©s": 6208,
      "Ġ48": 6209,
      "imal": 6210,
      "ĠÑĤÐ¾Ð³Ð¾": 6211,
      "habitat": 6212,
      "ministration": 6213,
      "FA": 6214,
      "Ġreform": 6215,
      "Ġcomand": 6216,
      "99": 6217,
      "Ġagre": 6218,
      "Ġ1959": 6219,
      "xit": 6220,
      "Ġpred": 6221,
      "riz": 6222,
      "rats": 6223,
      "Ġphil": 6224,
      "Ġderen": 6225,
      "ispiel": 6226,
      "ĠDepartment": 6227,
      "Ã©ro": 6228,
      "ĠVen": 6229,
      "Ġprec": 6230,
      "oest": 6231,
      "Ġ=": 6232,
      "ÑĢÐ¾Ð´": 6233,
      "ĠSub": 6234,
      "Ġprivate": 6235,
      "Ġfilms": 6236,
      "Ġplat": 6237,
      "Ġchange": 6238,
      "aul": 6239,
      "ĠFinal": 6240,
      "68": 6241,
      "ĠBurg": 6242,
      "ĠAnn": 6243,
      "ĠJer": 6244,
      "Ġrebre": 6245,
      "ĠCivil": 6246,
      "NA": 6247,
      "ulf": 6248,
      "ircraft": 6249,
      "Ð°Ð»Ð¸ÑģÑĮ": 6250,
      "ĠdÃ©f": 6251,
      "mera": 6252,
      "Ġtradic": 6253,
      "Ð²Ð°": 6254,
      "Ġdevient": 6255,
      "Ġcurs": 6256,
      "ĠBahn": 6257,
      "ban": 6258,
      "Ð»ÐµÐ½Ð¸Ðµ": 6259,
      "Biographie": 6260,
      "anÃ§ant": 6261,
      "ĠUSA": 6262,
      "Ã¤hlt": 6263,
      "aya": 6264,
      "octubre": 6265,
      "Ġtiempo": 6266,
      "Ġthroughout": 6267,
      "ĠÐ²Ð¾Ñģ": 6268,
      "ĠCam": 6269,
      "Ã¨res": 6270,
      "Ġsido": 6271,
      "Ð¸ÑĢÑĥ": 6272,
      "itza": 6273,
      "Äģ": 6274,
      "DistribuciÃ³": 6275,
      "Ġverm": 6276,
      "Ġmix": 6277,
      "ĠPlay": 6278,
      "ĠnÃºmero": 6279,
      "ĠÐ¶ÐµÐ½": 6280,
      "Ġkeine": 6281,
      "ĠPerson": 6282,
      "ĠÐ´Ð¾Ð»Ð¶": 6283,
      "Ġstated": 6284,
      "Ġcad": 6285,
      "ĠPor": 6286,
      "Ġcommune": 6287,
      "Ġtall": 6288,
      "acion": 6289,
      "ship": 6290,
      "ĠRecords": 6291,
      "riure": 6292,
      "mon": 6293,
      "Ġpossib": 6294,
      "Ġindividual": 6295,
      "Ġlugar": 6296,
      "Ã¼rger": 6297,
      "TV": 6298,
      "Ġencore": 6299,
      "Ġsignificant": 6300,
      "hard": 6301,
      "ĠsÃ¼d": 6302,
      "Ġvent": 6303,
      "Ġanual": 6304,
      "ators": 6305,
      "Ġworden": 6306,
      "Ġclassificades": 6307,
      "Is": 6308,
      "Ġescola": 6309,
      "ĠÐ¼ÑĥÐ·": 6310,
      "Ġaug": 6311,
      "icher": 6312,
      "ĠTal": 6313,
      "Ġterritori": 6314,
      "ĠSocial": 6315,
      "Ġdet": 6316,
      "Ġdepart": 6317,
      "ĠGreat": 6318,
      "ĠRepÃºblica": 6319,
      "Ed": 6320,
      "cke": 6321,
      "Ġlanguage": 6322,
      "ĠArm": 6323,
      "illet": 6324,
      "ĠFirst": 6325,
      "ĠÐ°Ð¿": 6326,
      "Ġsiglo": 6327,
      "Ġevents": 6328,
      "Ð¾Ñī": 6329,
      "âĢľ,": 6330,
      "por": 6331,
      "Ġinformation": 6332,
      "rought": 6333,
      "Ġvess": 6334,
      "Ġmuse": 6335,
      "ĠLang": 6336,
      "Ġerreich": 6337,
      "ientras": 6338,
      "ĠOp": 6339,
      "Ġsigu": 6340,
      "estre": 6341,
      "lÃ©": 6342,
      "udd": 6343,
      "ĠÐ³Ð¾ÑģÑĥÐ´Ð°ÑĢ": 6344,
      "Ġ1949": 6345,
      "ĠÑĥÐ´": 6346,
      "Ġdise": 6347,
      "Ġjoue": 6348,
      "ellschaft": 6349,
      "ĠWer": 6350,
      "Ã»t": 6351,
      "Ġ1937": 6352,
      "orig": 6353,
      "Ġ300": 6354,
      "Ġdesigned": 6355,
      "Ġleading": 6356,
      "ÐµÑĢÐ³": 6357,
      "Ġconstruct": 6358,
      "Ã¯da": 6359,
      "erous": 6360,
      "Ġsubsequ": 6361,
      "ĠpolÃŃtic": 6362,
      "ĠRel": 6363,
      "wig": 6364,
      "Ġdestru": 6365,
      "ĠKal": 6366,
      "ĠGi": 6367,
      "tor": 6368,
      "ĠdÃ¨c": 6369,
      "Ġsaw": 6370,
      "Ġpuede": 6371,
      "Ġexperiment": 6372,
      "76": 6373,
      "Ã²bil": 6374,
      "Ġsay": 6375,
      "ĠWestern": 6376,
      "Ġnun": 6377,
      "ĠdÃ©velop": 6378,
      "Ġtas": 6379,
      "cos": 6380,
      "Ġcy": 6381,
      "ummer": 6382,
      "Ã®t": 6383,
      "Ġinstal": 6384,
      "actual": 6385,
      "ĠÐ¼Ð°ÑĢ": 6386,
      "ĠUK": 6387,
      "Ġ1919": 6388,
      "Ġproced": 6389,
      "ĠÐ¿Ð¾ÑģÐ»ÐµÐ´": 6390,
      "Ġbatalla": 6391,
      "asing": 6392,
      "ĠStar": 6393,
      "ĠLin": 6394,
      "Ġfan": 6395,
      "Ġ1957": 6396,
      "oli": 6397,
      "âĢ²": 6398,
      "Ġknow": 6399,
      "eca": 6400,
      "Ġaliment": 6401,
      "arent": 6402,
      "ĠVirgin": 6403,
      "Ãªt": 6404,
      "Ġinternacional": 6405,
      "olle": 6406,
      "Ġsaison": 6407,
      "uras": 6408,
      "ĠÑģÑĭ": 6409,
      "ĠXVIII": 6410,
      "Ġtous": 6411,
      "ĠÑĤÐ¾Ð»ÑĮÐºÐ¾": 6412,
      "ÑĥÑĢÐ³": 6413,
      "stellung": 6414,
      "ĠÐľÐ¾ÑģÐº": 6415,
      "Ġdivision": 6416,
      "Ð¸Ñī": 6417,
      "ÐµÑĢÑħ": 6418,
      "âĢľ.": 6419,
      "ĠParÃŃs": 6420,
      "41": 6421,
      "bers": 6422,
      "Ġpropietaris": 6423,
      "ello": 6424,
      "Ver": 6425,
      "ÑĢÐµÐ±": 6426,
      "Ġextra": 6427,
      "ĠÐ¾ÑĤÐ½Ð¾": 6428,
      "Ġlegal": 6429,
      "ĠKap": 6430,
      "eau": 6431,
      "ĠBank": 6432,
      "Ġresta": 6433,
      "ĠÐ¾Ñĩ": 6434,
      "ĠArgent": 6435,
      "ientes": 6436,
      "clam": 6437,
      "ĠÑĢÐµÑĪ": 6438,
      "95": 6439,
      "Ð¸ÑĦ": 6440,
      "ÐµÑĤÑĭ": 6441,
      "Ġneu": 6442,
      "voir": 6443,
      "ĠmarÃ§": 6444,
      "Ġlearn": 6445,
      "abs": 6446,
      "aga": 6447,
      "oden": 6448,
      "lan": 6449,
      "Ġ120": 6450,
      "Ġnous": 6451,
      "Ġprovided": 6452,
      "Ġput": 6453,
      "Ð»ÐµÐºÑģ": 6454,
      "Ġentire": 6455,
      "ingut": 6456,
      "Ð¸Ð·Ð½": 6457,
      "Ġjap": 6458,
      "ĠWind": 6459,
      "ĠÐ°ÑĢÐ¼": 6460,
      "Ġhealth": 6461,
      "Ġembargo": 6462,
      "Ġ1954": 6463,
      "ÐºÑĢÐ°": 6464,
      "tico": 6465,
      "ĠRoma": 6466,
      "irit": 6467,
      "ĠBus": 6468,
      "ĠRadio": 6469,
      "Ġnouveau": 6470,
      "ĠÐ²ÑĤÐ¾ÑĢ": 6471,
      "Ġfinals": 6472,
      "vier": 6473,
      "Ġenem": 6474,
      "ĠSir": 6475,
      "ÐµÐ»Ð¸": 6476,
      "ĠWhile": 6477,
      "Ġweitere": 6478,
      "Ġpou": 6479,
      "ationen": 6480,
      "ems": 6481,
      "Ġheav": 6482,
      "iÄĩ": 6483,
      "obierno": 6484,
      "obal": 6485,
      "Ġdipl": 6486,
      "Ð¼Ð°Ð½": 6487,
      "Ġschools": 6488,
      "Ġofficial": 6489,
      "Ġfeatured": 6490,
      "ika": 6491,
      "Ġsector": 6492,
      "ĠÐ½ÐµÑģÐº": 6493,
      "egrÃ¼nd": 6494,
      "mos": 6495,
      "Ġutiliz": 6496,
      "ubic": 6497,
      "count": 6498,
      "ÑĢÐµÑģÑĤ": 6499,
      "Ġdecided": 6500,
      "Ġupon": 6501,
      "ÑĨÑĭ": 6502,
      "ĠÐ¼ÐµÑĤ": 6503,
      "fort": 6504,
      "kir": 6505,
      "ĠSeit": 6506,
      "ĠdÃ©but": 6507,
      "Ġcolum": 6508,
      "Ð½Ð¸Ðµ": 6509,
      "Ã¢t": 6510,
      "ÑĥÐ³": 6511,
      "Ġinstall": 6512,
      "equip": 6513,
      "Ġ1952": 6514,
      "Ġgroups": 6515,
      "43": 6516,
      "Ã¯sos": 6517,
      "Ð¸Ð²ÐµÑĢÑģ": 6518,
      "ĠAuch": 6519,
      "road": 6520,
      "Ġlook": 6521,
      "SA": 6522,
      "inte": 6523,
      "ĠHans": 6524,
      "ibl": 6525,
      "Ġdip": 6526,
      "Ã¤nde": 6527,
      "put": 6528,
      "ĠÃģ": 6529,
      "ĠgrÃłfic": 6530,
      "uso": 6531,
      "Ð½ÐµÐµ": 6532,
      "Ġcourse": 6533,
      "ĠTeam": 6534,
      "ĠFriedrich": 6535,
      "well": 6536,
      "ĠcomerÃ§": 6537,
      "Ġelimin": 6538,
      "ĠÑģÑĩ": 6539,
      "Ã¤ÃŁ": 6540,
      "ĠÑĨÐµÐ½ÑĤ": 6541,
      "win": 6542,
      "ÑıÑĤÑĮ": 6543,
      "190": 6544,
      "ĠdiffÃ©r": 6545,
      "Ã´le": 6546,
      "ount": 6547,
      "ĠÐ³ÑĢÐ°": 6548,
      "Ġfamiliars": 6549,
      "atory": 6550,
      "Ġtrabaj": 6551,
      "ĠAfric": 6552,
      "ĠÑĪÐºÐ¾Ð»": 6553,
      "Ġgouver": 6554,
      "Ġprison": 6555,
      "Habitat": 6556,
      "ills": 6557,
      "ĠBild": 6558,
      "Ġ1955": 6559,
      "sur": 6560,
      "ĠÎ": 6561,
      "Ġmob": 6562,
      "ĠÑĩÐµÐ¼Ð¿Ð¸Ð¾Ð½": 6563,
      "asi": 6564,
      "Ġfix": 6565,
      "hts": 6566,
      "ÃŃstiques": 6567,
      "bra": 6568,
      "grat": 6569,
      "Ġdoctor": 6570,
      "Ð¸Ð»Ð°ÑģÑĮ": 6571,
      "Ġdesembre": 6572,
      "time": 6573,
      "Ġlimit": 6574,
      "ĠÐºÐ¾ÑĤÐ¾ÑĢÑĭÐµ": 6575,
      "zas": 6576,
      "Ġsquare": 6577,
      "Ġwind": 6578,
      "Ġbefindet": 6579,
      "ietat": 6580,
      "Ð¾ÑĦ": 6581,
      "ĠDi": 6582,
      "alles": 6583,
      "Ã¼es": 6584,
      "ĠCa": 6585,
      "ubil": 6586,
      "ĠfÃ¼nf": 6587,
      "ĠSand": 6588,
      "ĠÑĤÐµ": 6589,
      "Ġkilled": 6590,
      "BA": 6591,
      "Ġlegisl": 6592,
      "ĠPenn": 6593,
      "Ġinaug": 6594,
      "Ãłrqu": 6595,
      "Ġleague": 6596,
      "ĠPla": 6597,
      "bit": 6598,
      "Ġelectric": 6599,
      "ĠCamb": 6600,
      "Ġattended": 6601,
      "zÃ¶s": 6602,
      "Ð¸ÑĩÐµÑģÐºÐ¾Ð³Ð¾": 6603,
      "Ġnight": 6604,
      "Ġ1953": 6605,
      "ĠLie": 6606,
      "ĠÑģÐµÐ»": 6607,
      "atch": 6608,
      "pf": 6609,
      "emÃ¡s": 6610,
      "oke": 6611,
      "Ġdegree": 6612,
      "ĠFahr": 6613,
      "lbum": 6614,
      "Ġaction": 6615,
      "Ġencuentra": 6616,
      "ÃŃg": 6617,
      "Ġcarre": 6618,
      "Ġconsum": 6619,
      "oto": 6620,
      "ĠSecret": 6621,
      "79": 6622,
      "Ġstructure": 6623,
      "ĠDay": 6624,
      "ĠCi": 6625,
      "abril": 6626,
      "utter": 6627,
      "Ġnahm": 6628,
      "Ġexplot": 6629,
      "uego": 6630,
      "Ġquart": 6631,
      "ĠtÃ¨cn": 6632,
      "Ġtodo": 6633,
      "ĠreparaciÃ³": 6634,
      "ĠÐ³Ð¾Ð»": 6635,
      "ĠÐ´Ð°Ð½": 6636,
      "glise": 6637,
      "fass": 6638,
      "riv": 6639,
      "Ġconeix": 6640,
      "ÑģÐºÑĥÑİ": 6641,
      "ĠLy": 6642,
      "ĠÐ±ÐµÐ·": 6643,
      "ĠKe": 6644,
      "ĠCab": 6645,
      "Ġquad": 6646,
      "Ġehem": 6647,
      "Ġspielte": 6648,
      "Ġ1934": 6649,
      "rait": 6650,
      "ĠOrgan": 6651,
      "ĠTemp": 6652,
      "Ġclose": 6653,
      "Ġgewann": 6654,
      "ĠStand": 6655,
      "Ġnar": 6656,
      "rics": 6657,
      "Ġdisseny": 6658,
      "Ġstage": 6659,
      "ĠNamen": 6660,
      "Ã©ration": 6661,
      "Ġanderem": 6662,
      "Ġscient": 6663,
      "Ð°ÑĤÑĮÑģÑı": 6664,
      "Ê³": 6665,
      "ĠMir": 6666,
      "Ġverd": 6667,
      "ĠÐŀÐ´": 6668,
      "ĠÐ²Ð¾Ð´": 6669,
      "ĠCommission": 6670,
      "ends": 6671,
      "ĠLi": 6672,
      "ichen": 6673,
      "85": 6674,
      "abeth": 6675,
      "Ġcertain": 6676,
      "Ġwhite": 6677,
      "ĠPap": 6678,
      "upe": 6679,
      "ĠregiÃ³": 6680,
      "vey": 6681,
      "ÐµÑĢÐµÐ·": 6682,
      "Ġreplaced": 6683,
      "ÐĺÑģÑĤÐ¾ÑĢ": 6684,
      "acciÃ³": 6685,
      "essin": 6686,
      "ĠBad": 6687,
      "Ġeleg": 6688,
      "Ġnomin": 6689,
      "ĠÑıÐ²Ð»ÑıÐµÑĤÑģÑı": 6690,
      "Ġorden": 6691,
      "ĠStaats": 6692,
      "ĠLondres": 6693,
      "Ġebenfalls": 6694,
      "ĠCarl": 6695,
      "usc": 6696,
      "mas": 6697,
      "ĠAustralian": 6698,
      "ĠLake": 6699,
      "Ð¾ÑĢÐ¾Ð²": 6700,
      "eces": 6701,
      "ĠFrances": 6702,
      "Ġsection": 6703,
      "ÐĳÐ¸": 6704,
      "Ġpresenta": 6705,
      "isi": 6706,
      "agost": 6707,
      "alen": 6708,
      "DesprÃ©s": 6709,
      "Ġnetwork": 6710,
      "ĠOrts": 6711,
      "ĠPre": 6712,
      ".âĢľ": 6713,
      "Ġdiscover": 6714,
      "ĠChinese": 6715,
      "Ġchap": 6716,
      "ĠMr": 6717,
      "ÐµÐ¼Ñĥ": 6718,
      "habitatge": 6719,
      "Ġfit": 6720,
      "rige": 6721,
      "Ġgaire": 6722,
      "ĠBuch": 6723,
      "ĠforÃ§a": 6724,
      "Ġmand": 6725,
      "ÑıÐ»": 6726,
      "rigen": 6727,
      "airs": 6728,
      "lad": 6729,
      "ÑıÐ´": 6730,
      "ĠÐ¾Ð½Ð°": 6731,
      "ĠInt": 6732,
      "ĠvÃŃ": 6733,
      "annte": 6734,
      "Ġdensitat": 6735,
      "erva": 6736,
      "Ġofic": 6737,
      "Ġdesar": 6738,
      "Ġrat": 6739,
      "Ġunes": 6740,
      "Ã¡nd": 6741,
      "ĠCrist": 6742,
      "ĠProfessor": 6743,
      "Ð°ÑĤÐµ": 6744,
      "Ġguerre": 6745,
      "Ġseven": 6746,
      "Ġconstruir": 6747,
      "automÃ²bils": 6748,
      "Ġsond": 6749,
      "Ġmultip": 6750,
      "ĠÐ¾ÑĤÐº": 6751,
      "rary": 6752,
      "nÃ©": 6753,
      "ciones": 6754,
      "fit": 6755,
      "Ġtrip": 6756,
      "Ġretro": 6757,
      "77": 6758,
      "Ġcomercial": 6759,
      "quel": 6760,
      "ĠOst": 6761,
      "Ġwhe": 6762,
      "And": 6763,
      "ega": 6764,
      "metre": 6765,
      "Ġ1914": 6766,
      "Ġantic": 6767,
      "ÑĭÑģ": 6768,
      "ÑĤÐµÑĢ": 6769,
      "SC": 6770,
      "Ġarqu": 6771,
      "Ġcurrent": 6772,
      "esen": 6773,
      "ĠÐ¸ÑģÐº": 6774,
      "Ġ1917": 6775,
      "ĠAth": 6776,
      "Ġadded": 6777,
      "iance": 6778,
      "Ġcause": 6779,
      "occ": 6780,
      "Ġcelebr": 6781,
      "ĠGebiet": 6782,
      "Ġclim": 6783,
      "Ð°ÑĤÐµÐ¼": 6784,
      "reib": 6785,
      "Ġcompr": 6786,
      "Ġmonop": 6787,
      "Ġeither": 6788,
      "Ã©ta": 6789,
      "ÑĮÐµ": 6790,
      "Ġanti": 6791,
      "Activ": 6792,
      "ĠÑģÐ¾ÑģÑĤÐ¾Ñı": 6793,
      "ĠÐ½Ð°Ð´": 6794,
      "Ġpag": 6795,
      "ragen": 6796,
      "Ġcollection": 6797,
      "ĠÐ²ÑĭÑģÑĤÑĥÐ¿": 6798,
      "Ġlongitud": 6799,
      "encial": 6800,
      "Esc": 6801,
      "ÐµÑģÑĤÐ²Ð¾": 6802,
      "Ġgas": 6803,
      "anca": 6804,
      "ĠÐŁÐ¾": 6805,
      "hood": 6806,
      "Ġsongs": 6807,
      "mbol": 6808,
      "Ġeight": 6809,
      "ĠÐ²Ð¿": 6810,
      "ĠÃ¼b": 6811,
      "ĠPere": 6812,
      "oi": 6813,
      "annel": 6814,
      "ĠBol": 6815,
      "Ġbrought": 6816,
      "ĠErn": 6817,
      "ĠÐ¸Ð¼Ðµ": 6818,
      "ĠBrown": 6819,
      "ĠKarl": 6820,
      "ĠbritÃłn": 6821,
      "ĠBrig": 6822,
      "stein": 6823,
      "ufact": 6824,
      "Ð¸Ð»Ð¸ÑģÑĮ": 6825,
      "Ġrecuper": 6826,
      "Ġ1935": 6827,
      "Ġanar": 6828,
      "ĠÅ": 6829,
      "ĠÐ¿Ð¾Ð±": 6830,
      "Ġmars": 6831,
      "edifici": 6832,
      "ĠUp": 6833,
      "Ġepisode": 6834,
      "Ġestudiant": 6835,
      "ĠÐ¾ÑĢÐ³Ð°Ð½Ð¸Ð·": 6836,
      "mark": 6837,
      "ÐµÑģÐ¿": 6838,
      "ĠKr": 6839,
      "teurs": 6840,
      "Ġils": 6841,
      "Ġemer": 6842,
      "ĠÃĦ": 6843,
      "Ġdenomin": 6844,
      "ĠÐ´ÐµÐº": 6845,
      "98": 6846,
      "64": 6847,
      "ĠJug": 6848,
      "Ãªtre": 6849,
      "Ġpendant": 6850,
      "orie": 6851,
      "Ġrecent": 6852,
      "ĠlÃŃnia": 6853,
      "Ġeditor": 6854,
      "inner": 6855,
      "ĠÑįÑĤÐ¾Ð³Ð¾": 6856,
      "riere": 6857,
      "ĠKh": 6858,
      "ishop": 6859,
      "Ġguard": 6860,
      "Ġprior": 6861,
      "Ġrange": 6862,
      "Ġsound": 6863,
      "abel": 6864,
      "During": 6865,
      "idi": 6866,
      "mont": 6867,
      "--": 6868,
      "Los": 6869,
      "Ġcontempor": 6870,
      "Ð´Ð¸": 6871,
      "Ġdifficult": 6872,
      "Ġaquestes": 6873,
      "iding": 6874,
      "Ġintens": 6875,
      "Ġprendre": 6876,
      "Ġawarded": 6877,
      "Ġaircraft": 6878,
      "mond": 6879,
      "ĠSus": 6880,
      "Ġdeutschen": 6881,
      "edy": 6882,
      "ÑĢÐ¾Ðº": 6883,
      "Ġtrasll": 6884,
      "Ġplans": 6885,
      "ewe": 6886,
      "ĠAntonio": 6887,
      "Ġfos": 6888,
      "Ġboard": 6889,
      "rently": 6890,
      "Ġ1929": 6891,
      "ylv": 6892,
      "rand": 6893,
      "ĠgÃ©nÃ©ral": 6894,
      "Ġzones": 6895,
      "Ġgoal": 6896,
      "Ġestaba": 6897,
      "ĠÐĲÑĢ": 6898,
      "Ġparticipar": 6899,
      "rupt": 6900,
      "ÑĤÐ¾ÑĢÐ°": 6901,
      "Ġshows": 6902,
      "zent": 6903,
      "now": 6904,
      "ĠWien": 6905,
      "ĠKomm": 6906,
      "Als": 6907,
      "Ġleb": 6908,
      "Ġpropor": 6909,
      "ĠAle": 6910,
      "Ġobtenir": 6911,
      "tead": 6912,
      "ĠIndust": 6913,
      "Ġregard": 6914,
      "Ġloss": 6915,
      "Ġparents": 6916,
      "Ġprovide": 6917,
      "ĠÑģÐ¼": 6918,
      "punkt": 6919,
      "Ġbehind": 6920,
      "ĠÐ¸Ð·Ð²ÐµÑģÑĤ": 6921,
      "Ġteams": 6922,
      "Ġfi": 6923,
      "Ġviat": 6924,
      "omer": 6925,
      "Ġterritor": 6926,
      "ĠTro": 6927,
      "ĠDÃ©": 6928,
      "Ġjuin": 6929,
      "Ġjunto": 6930,
      "Ð±Ñĭ": 6931,
      "Ġpurch": 6932,
      "Ġdeal": 6933,
      "ÐĳÐ¸Ð¾Ð³ÑĢÐ°ÑĦÐ¸Ñı": 6934,
      "ĠDur": 6935,
      "Ġ75": 6936,
      "Ġfeatures": 6937,
      "Åĵuv": 6938,
      "read": 6939,
      "ned": 6940,
      "Ġoriginally": 6941,
      "Ð¾ÑĤÐ¾Ð²": 6942,
      "Ġconcentr": 6943,
      "ĠSystem": 6944,
      "col": 6945,
      ",_": 6946,
      "ĠRÃ¼ck": 6947,
      "Ġ42": 6948,
      "Cl": 6949,
      "aben": 6950,
      "Ġguanyar": 6951,
      "elte": 6952,
      "ĠBell": 6953,
      "Ġprotagon": 6954,
      "oses": 6955,
      "ĠCathol": 6956,
      "Ġconten": 6957,
      "Ð¥": 6958,
      "Ġrights": 6959,
      "Ġtreat": 6960,
      "autres": 6961,
      "untain": 6962,
      "board": 6963,
      "ĠÐ²Ð¾Ð¹Ð½Ñĭ": 6964,
      "Ġmanifest": 6965,
      "ĠDels": 6966,
      "Ġcarb": 6967,
      "ĠgehÃ¶rte": 6968,
      "enced": 6969,
      "Ġliber": 6970,
      "ÐµÐ»Ð¸Ðº": 6971,
      "Ð°Ð»Ð¾ÑģÑĮ": 6972,
      "Wh": 6973,
      "Ġlieu": 6974,
      "ÑĢÐ¸ÑĤÐ¾ÑĢ": 6975,
      "Ġedat": 6976,
      "ĠÐ¾Ð½Ð¸": 6977,
      "ivament": 6978,
      "Ġrather": 6979,
      "ĠJim": 6980,
      "Ġequipo": 6981,
      "Ã¤sident": 6982,
      "ÑĥÑĢÐ°": 6983,
      "straÃŁe": 6984,
      "portun": 6985,
      "Ġcollabor": 6986,
      "Ã©ra": 6987,
      "ĠPlan": 6988,
      "Ġconcl": 6989,
      "isÃ©e": 6990,
      "Ġban": 6991,
      "Univers": 6992,
      "Ġ1951": 6993,
      "ĠpÃºblica": 6994,
      "venue": 6995,
      "ĠÐºÐ°": 6996,
      "iges": 6997,
      "Sh": 6998,
      "ĠBon": 6999,
      "Ġsyn": 7000,
      "ĠJapanese": 7001,
      "bew": 7002,
      "âĤĤ": 7003,
      "gers": 7004,
      "ÐĺÑģÑĤÐ¾ÑĢÐ¸Ñı": 7005,
      "ĠSong": 7006,
      "Ġsoon": 7007,
      "Ġhospital": 7008,
      "Ġmention": 7009,
      "Ġbatt": 7010,
      "Ð²Ð¾ÑĢ": 7011,
      "ability": 7012,
      "ips": 7013,
      "Ġaugment": 7014,
      "Ġeurope": 7015,
      "rateg": 7016,
      "Ð¸Ð½Ðµ": 7017,
      "Ġmethod": 7018,
      "Ġlargest": 7019,
      "lier": 7020,
      "Ġfast": 7021,
      "Ð¸Ð²ÐµÑĢÑģÐ¸ÑĤ": 7022,
      "ĠLuis": 7023,
      "ĠDesp": 7024,
      "inas": 7025,
      "ĠmitjanÃ§ant": 7026,
      "Ð¡Ð¡Ðł": 7027,
      "rif": 7028,
      "olar": 7029,
      "pir": 7030,
      "Ġchr": 7031,
      "fall": 7032,
      "Ġbon": 7033,
      "Ġnivell": 7034,
      "pre": 7035,
      "Ġsout": 7036,
      "ĠOri": 7037,
      "Ġgratu": 7038,
      "Ġneuen": 7039,
      "ĠWood": 7040,
      "58": 7041,
      "Economia": 7042,
      "Ġreach": 7043,
      "position": 7044,
      "Ġklein": 7045,
      "wan": 7046,
      "asons": 7047,
      "spr": 7048,
      "ĠÐ¾Ð±Ð»Ð°ÑģÑĤÐ¸": 7049,
      "olid": 7050,
      "iera": 7051,
      "âĢŀ": 7052,
      "ruit": 7053,
      "sa": 7054,
      "ÑĥÐµÑĤ": 7055,
      "ĠMah": 7056,
      "Ġpobresa": 7057,
      "Ð¾Ð²Ð¾Ð¹": 7058,
      "ĠAccording": 7059,
      "Ġcommercial": 7060,
      "Ġast": 7061,
      "ronze": 7062,
      "ĠSchul": 7063,
      "Ġcommission": 7064,
      "\")": 7065,
      "Ġplaced": 7066,
      "tembre": 7067,
      "itation": 7068,
      "Ġinterior": 7069,
      "Ġprovoc": 7070,
      "Ġvoltant": 7071,
      "angular": 7072,
      "Ġachie": 7073,
      "Ġbill": 7074,
      "hren": 7075,
      "Ġdisposaven": 7076,
      "Ġtitre": 7077,
      "issiÃ³": 7078,
      "Ġehemal": 7079,
      "udo": 7080,
      "ĠSab": 7081,
      "ĠÑĤÐµÐ»": 7082,
      "ĠColl": 7083,
      "abil": 7084,
      "ĠVic": 7085,
      "Ġarrest": 7086,
      "Ð½Ð¸ÑĨ": 7087,
      "Ġestil": 7088,
      "Durant": 7089,
      "ĠÑĦÐ¸Ð»ÑĮ": 7090,
      "ears": 7091,
      "nahme": 7092,
      "ÑģÑĤÐ¸ÑĤ": 7093,
      "Ġful": 7094,
      "PoblaciÃ³": 7095,
      "72": 7096,
      "Ġcho": 7097,
      "ientos": 7098,
      "ĠVall": 7099,
      "ĠÐºÐ¾Ð½ÑĤ": 7100,
      "ĠVI": 7101,
      "ĠMens": 7102,
      "zy": 7103,
      "ificaciÃ³": 7104,
      "Ġgain": 7105,
      "Ġcountries": 7106,
      "Ġevolucionat": 7107,
      "Ġotras": 7108,
      "Ð½Ð¾Ð¼Ñĥ": 7109,
      "ĠLor": 7110,
      "rans": 7111,
      "back": 7112,
      "ĠSome": 7113,
      "ĠKong": 7114,
      "Ġliv": 7115,
      "Ġnor": 7116,
      "ession": 7117,
      "ĠĠĠ": 7118,
      "ÑİÑĤÑģÑı": 7119,
      "ĠgegrÃ¼nd": 7120,
      "Ġdenen": 7121,
      "Ġsche": 7122,
      "Ġintroduced": 7123,
      "ĠVilla": 7124,
      "Ġstates": 7125,
      "Ã¤us": 7126,
      "ĠTimes": 7127,
      "arca": 7128,
      "Ġcompte": 7129,
      "Ġencont": 7130,
      "ĠpÃ©ri": 7131,
      "antic": 7132,
      "ĠForce": 7133,
      "mus": 7134,
      "ĠHaw": 7135,
      "Ġ1931": 7136,
      "ĠÐ½Ð°ÑģÐµÐ»": 7137,
      "ĠSchwe": 7138,
      "Ġoccur": 7139,
      "ĠÐ¼Ð¾Ð½": 7140,
      "ĠÐ·Ð²": 7141,
      "ĠMerc": 7142,
      "Ġvel": 7143,
      "Ġestado": 7144,
      "ĠÑįÑĤÐ¾Ð¼": 7145,
      "Ð´Ð¸Ð½": 7146,
      "Ġlev": 7147,
      "Sa": 7148,
      "Ð½Ñĥ": 7149,
      "activ": 7150,
      "Ġconcept": 7151,
      "ati": 7152,
      "otes": 7153,
      "ĠverÃ¶ffentlich": 7154,
      "Ġdabei": 7155,
      "ĠFar": 7156,
      "orps": 7157,
      "forma": 7158,
      "Ġsant": 7159,
      "Ġmie": 7160,
      "Ġzahl": 7161,
      "ĠXVI": 7162,
      "ĠAfrican": 7163,
      "Ġguitar": 7164,
      "ĠpoblaciÃ³n": 7165,
      "Ð¾Ð²Ð¾ÑĢ": 7166,
      "ĠÐ¿ÑĢÐ¸Ð²": 7167,
      "Ġaplic": 7168,
      "Ġrepro": 7169,
      "Ġimportants": 7170,
      "ĠVerb": 7171,
      "rief": 7172,
      "Ġreve": 7173,
      "Ð³ÑĥÑģÑĤ": 7174,
      "ĠÐ´ÐµÐ¹ÑģÑĤÐ²": 7175,
      "Ġsoit": 7176,
      "king": 7177,
      "ĠCult": 7178,
      "irth": 7179,
      "ĠRog": 7180,
      "ĠprocÃ©s": 7181,
      "Ġfuncion": 7182,
      "Ġrang": 7183,
      "ueb": 7184,
      "Ġpresid": 7185,
      "ĠÐ¾ÐºÐ¾Ð½Ñĩ": 7186,
      "aps": 7187,
      "Ġreached": 7188,
      "Ġleast": 7189,
      "ĠautomÃ²bil": 7190,
      "Ġusually": 7191,
      "Ġactive": 7192,
      "Ġbra": 7193,
      "ĠÐłÐ¾ÑģÑģÐ¸Ð¸": 7194,
      "keiten": 7195,
      "Ġsang": 7196,
      "Ġalmost": 7197,
      "Ġ1932": 7198,
      "Ġjan": 7199,
      "ĠeconÃ²miques": 7200,
      "uny": 7201,
      "ÑıÑĤÐµÐ»ÑĮ": 7202,
      "Ġinstead": 7203,
      "Ġmotor": 7204,
      "gressos": 7205,
      "Ġese": 7206,
      "ĠWal": 7207,
      "Ġseptembre": 7208,
      "Ġinfer": 7209,
      "ĠBul": 7210,
      "hora": 7211,
      "Ġtemple": 7212,
      "Ġinvest": 7213,
      "Ġplayers": 7214,
      "ÑĤÐ¾Ð¼": 7215,
      "urity": 7216,
      "Ġspecific": 7217,
      "ollowing": 7218,
      "schule": 7219,
      "ĠÑĥÑģ": 7220,
      "shire": 7221,
      "Ġmagazine": 7222,
      "cy": 7223,
      "oten": 7224,
      "ĠRen": 7225,
      "Ġing": 7226,
      "MS": 7227,
      "Ġnuevo": 7228,
      "Ġbajo": 7229,
      "Ã«": 7230,
      "Ġmoviment": 7231,
      "Ġqualif": 7232,
      "icles": 7233,
      "racht": 7234,
      "Ġneue": 7235,
      "ĠJu": 7236,
      "69": 7237,
      "Ġging": 7238,
      "ĠprÃ©c": 7239,
      "estres": 7240,
      "ĠBall": 7241,
      "ĠÐ±ÑĥÐ´": 7242,
      "mÃ©": 7243,
      "ĠÑģÐ»ÑĥÐ¶": 7244,
      "Ġimmer": 7245,
      "ÑĨÐµÐ½": 7246,
      "Demografia": 7247,
      "Ġohne": 7248,
      "Ġexpand": 7249,
      "iperson": 7250,
      "Ġvit": 7251,
      "ĠBere": 7252,
      "Ġdic": 7253,
      "Ġsea": 7254,
      "ministraciÃ³": 7255,
      "anar": 7256,
      "There": 7257,
      "isk": 7258,
      "enso": 7259,
      "Ġigual": 7260,
      "encont": 7261,
      "ĠTitel": 7262,
      "Ġtoo": 7263,
      "rey": 7264,
      "Ġaspect": 7265,
      "ĠPost": 7266,
      "ÑĢÑĥÐ¶": 7267,
      "teau": 7268,
      "Ġlik": 7269,
      "Ġtec": 7270,
      "ĠTri": 7271,
      "ÑĢÐµÑĩ": 7272,
      "Ġexerc": 7273,
      "Ġactivitats": 7274,
      "Ġhard": 7275,
      "lÃł": 7276,
      "ĠpÃłrqu": 7277,
      "ÅĤ": 7278,
      "Ġinstrument": 7279,
      "ech": 7280,
      "arten": 7281,
      "ĠpÃłrquing": 7282,
      "chester": 7283,
      "appen": 7284,
      "orse": 7285,
      "born": 7286,
      "ÐµÑĢÐ°ÑĤ": 7287,
      "rÃ¨s": 7288,
      "riu": 7289,
      "ĠÐ·Ð´": 7290,
      "Ã¤tz": 7291,
      "adi": 7292,
      "Habitatges": 7293,
      "Ġrank": 7294,
      "62": 7295,
      "Ġdavall": 7296,
      "azu": 7297,
      "rez": 7298,
      "Ġincludes": 7299,
      "ĠCette": 7300,
      "Ġdesocup": 7301,
      "ĠDef": 7302,
      "Ġ1928": 7303,
      "Ġchanged": 7304,
      "67": 7305,
      "Ġsimple": 7306,
      "Ġgef": 7307,
      "Ġcensats": 7308,
      "88": 7309,
      "rant": 7310,
      "Ġplann": 7311,
      "Ġjuntament": 7312,
      "Ã¨tres": 7313,
      "Ġdirection": 7314,
      "63": 7315,
      "Ġmoltes": 7316,
      "Ġrema": 7317,
      "Ġcapbaix": 7318,
      "uerto": 7319,
      "ĠÐºÐ»ÑĥÐ±": 7320,
      "fois": 7321,
      "inet": 7322,
      "ĠÐ¿ÑĢÐ¸Ð¼": 7323,
      "ĠWahl": 7324,
      "Ġestable": 7325,
      "aja": 7326,
      "fern": 7327,
      "ĠSqu": 7328,
      "Ġsomet": 7329,
      "Ġfamille": 7330,
      "Ġfont": 7331,
      "Ġrelationship": 7332,
      "ĠDans": 7333,
      "eding": 7334,
      "Ġfebrer": 7335,
      "Ġobert": 7336,
      "Ġuniperson": 7337,
      "ĠKat": 7338,
      "izo": 7339,
      "ĠHamb": 7340,
      "Ġfron": 7341,
      "ĠÐ¢Ð°Ðº": 7342,
      "Ġexiste": 7343,
      "labor": 7344,
      "Aquest": 7345,
      "Ġscored": 7346,
      "Ġedats": 7347,
      "ÃŁerdem": 7348,
      "Ġllogaters": 7349,
      "Ġ400": 7350,
      "teriors": 7351,
      "Ð°Ð»Ð¾": 7352,
      "ĠAst": 7353,
      "Habitants": 7354,
      "spiel": 7355,
      "Ġcompan": 7356,
      "Ġ41": 7357,
      "chte": 7358,
      "Ġmoins": 7359,
      "olas": 7360,
      "Ġlittle": 7361,
      "ĠEstados": 7362,
      "Ġunipersonals": 7363,
      "Ð°Ð»Ð°ÑģÑĮ": 7364,
      "Ġsempre": 7365,
      "ĠLord": 7366,
      "poque": 7367,
      "Ġcelui": 7368,
      "Ġllindar": 7369,
      "ĠCommittee": 7370,
      "Ġjanvier": 7371,
      "add": 7372,
      "Ġabove": 7373,
      "Ġsize": 7374,
      "ÃŃp": 7375,
      "ĠÐ¼Ð¾Ð³": 7376,
      "ĠFamilie": 7377,
      "ĠproducciÃ³": 7378,
      "esh": 7379,
      "ĠÐ²Ð·": 7380,
      "Ġdarauf": 7381,
      "eign": 7382,
      "meister": 7383,
      "Ġallowed": 7384,
      "Ġlic": 7385,
      "Ġsovint": 7386,
      "Ġhumans": 7387,
      "Ġgrupo": 7388,
      "Ġminor": 7389,
      "host": 7390,
      "ĠÑģÐ»ÐµÐ´": 7391,
      "lia": 7392,
      "areer": 7393,
      "Ð»ÐµÑĤ": 7394,
      "ÑĢÐ°Ñī": 7395,
      "iten": 7396,
      "wohn": 7397,
      "Ð¸ÐºÐ°Ð½": 7398,
      "Ġjour": 7399,
      "zog": 7400,
      "ĠÑĤÐµÑħ": 7401,
      "Ġresol": 7402,
      "Ġcorresponia": 7403,
      "ĠDaniel": 7404,
      "ĠCarlos": 7405,
      "Ġdisput": 7406,
      "ruz": 7407,
      "eral": 7408,
      "Ġspr": 7409,
      "Ġschon": 7410,
      "ĠÐ¼ÐµÐ´": 7411,
      "uche": 7412,
      "ÐµÑģÑĤÐ²Ð°": 7413,
      "ĠCorn": 7414,
      "ĠRome": 7415,
      "Ġnatur": 7416,
      "ĠÐŁÐ¾ÑģÐ»Ðµ": 7417,
      "onto": 7418,
      "nam": 7419,
      "rice": 7420,
      "Ġasc": 7421,
      "Ġvir": 7422,
      "Ġ55": 7423,
      "uar": 7424,
      "ĠÐ´ÐµÑĤ": 7425,
      "Ġregional": 7426,
      "Ã¤tig": 7427,
      "Ġwriting": 7428,
      "Ġple": 7429,
      "aled": 7430,
      "Ġacabar": 7431,
      "ĠsinÃ³": 7432,
      "Ġbzw": 7433,
      "rog": 7434,
      "Ġllogats": 7435,
      "ÑĢÐ°Ð±Ð¾ÑĤ": 7436,
      "ĠMittel": 7437,
      "Ġesper": 7438,
      "ĠUniversidad": 7439,
      "mph": 7440,
      "Ġult": 7441,
      "ĠRussian": 7442,
      "oven": 7443,
      "Ġcondic": 7444,
      "Ãłlia": 7445,
      "Ġrecib": 7446,
      "onna": 7447,
      "ĠÐľÐ°ÑĢ": 7448,
      "Ġsei": 7449,
      "ĠAfrica": 7450,
      "verse": 7451,
      "ĠthÃ©": 7452,
      "acing": 7453,
      "riage": 7454,
      "tei": 7455,
      "Ð¾ÑĢÐµ": 7456,
      "icia": 7457,
      "ÑĤÐ¾Ð±Ñĭ": 7458,
      "ĠmÃ©": 7459,
      "Ġu": 7460,
      "Ġartist": 7461,
      "Ġwhose": 7462,
      "alle": 7463,
      "ĠUnidos": 7464,
      "ĠreprÃ©sent": 7465,
      "Ġarbeitete": 7466,
      "pert": 7467,
      "ÑīÑĳ": 7468,
      "itaire": 7469,
      "Ġindustrial": 7470,
      "Ġdonc": 7471,
      "Ġproductes": 7472,
      "Ġtravel": 7473,
      "For": 7474,
      "Ġ49": 7475,
      "Ġseines": 7476,
      "uty": 7477,
      "Ġnomb": 7478,
      "Ġmovement": 7479,
      "ĠLebens": 7480,
      "Ġfirm": 7481,
      "Ġfuture": 7482,
      "ĠFund": 7483,
      "Ġjubil": 7484,
      "yo": 7485,
      "71": 7486,
      "zu": 7487,
      "Ġdiscuss": 7488,
      "Ġcontact": 7489,
      "Ġstudierte": 7490,
      "Ġseua": 7491,
      "Ġconegut": 7492,
      "usion": 7493,
      "Ġru": 7494,
      "Ð´Ð¶": 7495,
      "ĠÑĤÐµÑĢÑĢÐ¸ÑĤÐ¾ÑĢ": 7496,
      "Ġhect": 7497,
      "ensive": 7498,
      "Ġmare": 7499,
      "ĠBob": 7500,
      "ĠPortug": 7501,
      "Ġubic": 7502,
      "iler": 7503,
      "Ġfrag": 7504,
      "ĠMenschen": 7505,
      "Ġbig": 7506,
      "Ġsegones": 7507,
      "Ġpsych": 7508,
      "etzung": 7509,
      "ĠBig": 7510,
      "ĠresidÃ¨ncies": 7511,
      "Ġanomenat": 7512,
      "Ġcust": 7513,
      "Ġocas": 7514,
      "This": 7515,
      "aka": 7516,
      "Ġwhom": 7517,
      "Ġlower": 7518,
      "Ġ1900": 7519,
      "ĠLud": 7520,
      "Ġerstmals": 7521,
      "Ġconn": 7522,
      "Ġterres": 7523,
      "Ġmeas": 7524,
      "igan": 7525,
      "ĠGren": 7526,
      "Ġhousehold": 7527,
      "Ġvalor": 7528,
      "Ġdestin": 7529,
      "zahl": 7530,
      "ateurs": 7531,
      "ĠLong": 7532,
      "Ġcient": 7533,
      "Ã³g": 7534,
      "idel": 7535,
      "esta": 7536,
      "Ð¼Ðµ": 7537,
      "Ã¨poca": 7538,
      "Ġexclus": 7539,
      "Sp": 7540,
      "Ð¸ÐºÐ¾Ð²": 7541,
      "Ġcenter": 7542,
      "Ġfrequ": 7543,
      "ĠÐķÐ²": 7544,
      "âģ": 7545,
      "Ã¶rder": 7546,
      "Ġunits": 7547,
      "Ġspace": 7548,
      "Ġhit": 7549,
      "Ph": 7550,
      "Ġsummer": 7551,
      "Ġquelques": 7552,
      "itÃ¤": 7553,
      "Ġrepartia": 7554,
      "ĠSecond": 7555,
      "igten": 7556,
      "ologÃŃa": 7557,
      "Ġfemale": 7558,
      "ĠÐ³Ð¾ÑĢÐ¾Ð´Ð°": 7559,
      "Ġprovinc": 7560,
      "ĠrelaciÃ³": 7561,
      "Ġoutside": 7562,
      "ĠBru": 7563,
      "change": 7564,
      "ĠrÃ©alis": 7565,
      "Ġ1924": 7566,
      "Ġdistric": 7567,
      "ĠÑıÐ·Ñĭ": 7568,
      "ĠMarÃŃa": 7569,
      "Ġnouvelle": 7570,
      "innen": 7571,
      "Ġwechsel": 7572,
      "Ġgot": 7573,
      "ĠÐ¿Ð°ÑĢÑĤ": 7574,
      "Ġausge": 7575,
      "ĠTar": 7576,
      "Ġitself": 7577,
      "ĠÑģÐµÐ»ÑĮ": 7578,
      "Ġgol": 7579,
      "isches": 7580,
      "ĠHil": 7581,
      "iling": 7582,
      "Ġ(Â«": 7583,
      "Ã±os": 7584,
      "Ġapplic": 7585,
      "Ġestudis": 7586,
      "andre": 7587,
      "rap": 7588,
      "ĠSpanish": 7589,
      "Ġdesenvolupament": 7590,
      "Ġspent": 7591,
      "Ġclasses": 7592,
      "cc": 7593,
      "Ġcultura": 7594,
      "Ð°ÑģÑģ": 7595,
      "Ġjuillet": 7596,
      "ĠEp": 7597,
      "ĠPierre": 7598,
      "Ġnation": 7599,
      "Ġ1910": 7600,
      "ĠdÃ¨cada": 7601,
      "Ãºt": 7602,
      "Ġcome": 7603,
      "Ġespecialment": 7604,
      "ÑĢÑĭÑĤ": 7605,
      "ĠAz": 7606,
      "ĠMajor": 7607,
      "âĢ³": 7608,
      "ĠAlbum": 7609,
      "AT": 7610,
      "Ġfinalment": 7611,
      "Ã¶h": 7612,
      "Ġmoney": 7613,
      "Ġnomenat": 7614,
      "Ð»ÐµÐºÑĤ": 7615,
      "ĠColumb": 7616,
      "oston": 7617,
      "uba": 7618,
      "Ġcasades": 7619,
      "lying": 7620,
      "Ġ1922": 7621,
      "Ġdistin": 7622,
      "ĠfÃŃs": 7623,
      "Ġindustry": 7624,
      "ischof": 7625,
      "umen": 7626,
      "kreis": 7627,
      "ĠÐ¼Ð°ÑĤÑĩ": 7628,
      "Ġrelacion": 7629,
      "oves": 7630,
      "Ġ1921": 7631,
      "Ġbeginning": 7632,
      "Ġcollege": 7633,
      "Ġzug": 7634,
      "ĠLee": 7635,
      "ÑĢÐ°Ð»ÑĮ": 7636,
      "ready": 7637,
      "nas": 7638,
      "ĠÑģÑĤÐ°ÑĢ": 7639,
      "Ġparticul": 7640,
      "rage": 7641,
      "Ġatur": 7642,
      "ĠÐ²Ðº": 7643,
      "Ġ64": 7644,
      "Ġmean": 7645,
      "Ġfederal": 7646,
      "Ġsolteres": 7647,
      "ĠKenn": 7648,
      "ÑĢÐµÐ²": 7649,
      "reland": 7650,
      "Ġarmy": 7651,
      "ĠTop": 7652,
      "Ġcort": 7653,
      "Ġgrandes": 7654,
      "ĠÐ½ÐµÐ¼": 7655,
      "ĠMain": 7656,
      "ĠÐ¿Ð°ÑĢ": 7657,
      "Ġfood": 7658,
      "Ġbooks": 7659,
      "autor": 7660,
      "100": 7661,
      "ĠsÃ©rie": 7662,
      "ĠDeb": 7663,
      "nahm": 7664,
      "erm": 7665,
      "Ġcoron": 7666,
      "Ġtodos": 7667,
      "Ġcorn": 7668,
      "Ġ1926": 7669,
      "Ð¸ÑģÑĤÐµÐ¼": 7670,
      "ificar": 7671,
      "ÐµÑģÑĤÐ²Ðµ": 7672,
      "ĠEspaÃ±a": 7673,
      "ĠÐ½ÐµÐº": 7674,
      "Ġtanc": 7675,
      "Ġmir": 7676,
      "Ġsondern": 7677,
      "ÐºÐ¾Ð²Ð¾Ð´": 7678,
      "Ġimmediat": 7679,
      "ĠCopa": 7680,
      "Ġentwick": 7681,
      "ÐµÐ½Ð½ÑĭÑħ": 7682,
      "Ġmanufact": 7683,
      "Ġmedian": 7684,
      "ĠAlbert": 7685,
      "Ġdesocupats": 7686,
      "ĠMinist": 7687,
      "Ġerricht": 7688,
      "Ġur": 7689,
      "Ġtaking": 7690,
      "74": 7691,
      "Ġintrodu": 7692,
      "Ġsexual": 7693,
      "assa": 7694,
      "Ġ1925": 7695,
      "Ġtrain": 7696,
      "text": 7697,
      "Ð¸ÑĤÐµÐ»ÐµÐ¹": 7698,
      "Ġbast": 7699,
      "ĠManuel": 7700,
      "ÑĥÐ»Ñı": 7701,
      "Ġreligios": 7702,
      "Ġdona": 7703,
      "Ġsubs": 7704,
      "Ġtowards": 7705,
      "Ġ1923": 7706,
      "minister": 7707,
      "reuz": 7708,
      "Ġbuildings": 7709,
      "Ġpra": 7710,
      "quis": 7711,
      "ĠAlexander": 7712,
      "Ã£": 7713,
      "Ð¾ÐµÐ²": 7714,
      "erstand": 7715,
      "59": 7716,
      "spap": 7717,
      "Ġfils": 7718,
      "ĠfÃ¼hrte": 7719,
      "Ġhip": 7720,
      "quia": 7721,
      "ĠSoviet": 7722,
      "ÑĢÐ¾Ð¹": 7723,
      "Ġruss": 7724,
      "uchte": 7725,
      "ÑĥÑģÐº": 7726,
      "ii": 7727,
      "ĠEste": 7728,
      "Una": 7729,
      "ĠWall": 7730,
      "uelle": 7731,
      "ĠprovÃŃn": 7732,
      "Ġespecially": 7733,
      "ourd": 7734,
      "ĠBoard": 7735,
      "ĠÐ¼ÐµÐ¶Ð´Ñĥ": 7736,
      "ĠÃ©v": 7737,
      "lossen": 7738,
      "Ġhacia": 7739,
      "ĠagrÃŃcoles": 7740,
      "ĠcanÃ§": 7741,
      "Ġking": 7742,
      "ĠgratuÃ¯t": 7743,
      "ĠJord": 7744,
      "lau": 7745,
      "ny": 7746,
      "ĠÐºÐ¾Ð³Ð´Ð°": 7747,
      "ĠNap": 7748,
      "61": 7749,
      "Ġdete": 7750,
      "ĠAlb": 7751,
      "Ġ1927": 7752,
      "icans": 7753,
      "Ġmientras": 7754,
      "ĠMarc": 7755,
      "ĠRay": 7756,
      "Ġsurface": 7757,
      "Ġneigh": 7758,
      "Ġstudies": 7759,
      "ĠÐĸ": 7760,
      "ĠTan": 7761,
      "ÑĥÑĢÑĭ": 7762,
      "Ġsiendo": 7763,
      "ockey": 7764,
      "Ġisland": 7765,
      "Ġprojecte": 7766,
      "ĠProgram": 7767,
      "Ġmax": 7768,
      "Ð»ÐµÐ¼": 7769,
      "ĠÑĦÐ¾ÑĢÐ¼": 7770,
      "annten": 7771,
      "Ġeleccions": 7772,
      "ritten": 7773,
      "udem": 7774,
      "Ã©rieur": 7775,
      "can": 7776,
      "ĠFlorida": 7777,
      "ĠSun": 7778,
      "ancia": 7779,
      "ieu": 7780,
      "xe": 7781,
      "ĠCatholic": 7782,
      "áµīÊ³": 7783,
      "Ġcard": 7784,
      "ixement": 7785,
      "Ġriver": 7786,
      "Ġformation": 7787,
      "ĠQuan": 7788,
      "No": 7789,
      "Ð»ÑĮÐ±": 7790,
      "ĠÃītats": 7791,
      "ĠBelg": 7792,
      "AP": 7793,
      "ĠEine": 7794,
      "Ð½Ð¸ÐºÐ¸": 7795,
      "omet": 7796,
      "Description": 7797,
      "Ã¨rent": 7798,
      "atiu": 7799,
      "ĠPen": 7800,
      "Amer": 7801,
      "Ġforest": 7802,
      "Ð§": 7803,
      "Ġrencont": 7804,
      "ĠdÃ©cembre": 7805,
      "Ġinspir": 7806,
      "Ġstudied": 7807,
      "sta": 7808,
      "Ġ+": 7809,
      "ĠEt": 7810,
      "Ġmans": 7811,
      "thur": 7812,
      "prise": 7813,
      "Ġtransl": 7814,
      "fÃŃc": 7815,
      "ĠÐ¿ÑĢÐ¸Ñģ": 7816,
      "Ġconcert": 7817,
      "ĠIll": 7818,
      "igur": 7819,
      "ĠÑģÐ±Ð¾ÑĢ": 7820,
      "ĠRoss": 7821,
      "igo": 7822,
      "osos": 7823,
      "ahmen": 7824,
      "ĠprÃ©sent": 7825,
      "Ġunit": 7826,
      "Ġensuite": 7827,
      "ktur": 7828,
      "Ġrequired": 7829,
      "Ã¶lker": 7830,
      "Ġcare": 7831,
      "ĠÑĨÐµÑĢ": 7832,
      "08": 7833,
      "Ġparticulars": 7834,
      "oring": 7835,
      "aland": 7836,
      "Ġhag": 7837,
      "ÑĢÐµÐ¹": 7838,
      "Ġdemand": 7839,
      "Ġoctobre": 7840,
      "Ġnombros": 7841,
      "ĠÑıÐ½": 7842,
      "Ġconcep": 7843,
      "Career": 7844,
      "ĠÐŀÐ½": 7845,
      "Ġregul": 7846,
      "ĠÑģÐµÐ½ÑĤ": 7847,
      "Ġintegra": 7848,
      "ĠHow": 7849,
      "All": 7850,
      "adel": 7851,
      "ĠWerk": 7852,
      "Ġkomm": 7853,
      "itzat": 7854,
      "Ġdraw": 7855,
      "raum": 7856,
      "rasil": 7857,
      "schn": 7858,
      "Ġcred": 7859,
      "ampf": 7860,
      "ereix": 7861,
      "Ġtanto": 7862,
      "Ġmitt": 7863,
      "oÃ»t": 7864,
      "Ð´ÐµÑĢÐ¶": 7865,
      "gia": 7866,
      "ÑĭÐ¼Ð¸": 7867,
      "ĠPas": 7868,
      "Ġstandard": 7869,
      "enth": 7870,
      "rien": 7871,
      "Ġtracta": 7872,
      "ĠfrÃ¼": 7873,
      "ĠSav": 7874,
      "Ġrob": 7875,
      "Ġissues": 7876,
      "Ġcelle": 7877,
      "Be": 7878,
      "oo": 7879,
      "ĠMos": 7880,
      "ĠSeine": 7881,
      "Ã¡r": 7882,
      "ĠLehr": 7883,
      "volution": 7884,
      "ĠStan": 7885,
      "Ġconfir": 7886,
      "Ð°ÑİÑĤÑģÑı": 7887,
      "Ġimper": 7888,
      "Ġkein": 7889,
      "Ġdemost": 7890,
      "ĠGuer": 7891,
      "Ġstudent": 7892,
      "Ġflo": 7893,
      "ĠÐ¾ÐºÑĤ": 7894,
      "itzen": 7895,
      "Ne": 7896,
      "Histoire": 7897,
      "ĠÐ°Ð²Ð³ÑĥÑģÑĤ": 7898,
      "ĠÐ³Ð¾Ð´Ð°Ñħ": 7899,
      "schluss": 7900,
      "gestellt": 7901,
      "ÑĢÐ°ÐºÑĤ": 7902,
      "ingress": 7903,
      "Ã©qu": 7904,
      "Ð½Ð¸Ð¹": 7905,
      "ifica": 7906,
      "Ġorganization": 7907,
      "ĠLiber": 7908,
      "Ġdefeated": 7909,
      "%)": 7910,
      "ultur": 7911,
      "Ġduc": 7912,
      "ctors": 7913,
      "ondere": 7914,
      "Ġleader": 7915,
      "achsen": 7916,
      "ĠÑģÐµÐ±": 7917,
      "ĠCu": 7918,
      "ĠAixÃ²": 7919,
      "yes": 7920,
      "ĠespaÃ±": 7921,
      "bere": 7922,
      "Ġmaterials": 7923,
      "xic": 7924,
      "ĠÑĩÐ»ÐµÐ½": 7925,
      "bi": 7926,
      "Ġrealitzar": 7927,
      "ĠAlthough": 7928,
      "iza": 7929,
      "ĠÐ²Ð¼ÐµÑģÑĤ": 7930,
      "Ġgrups": 7931,
      "Ã¶rd": 7932,
      "ĠDeutschen": 7933,
      "ĠÐ¾Ð´Ð¸Ð½": 7934,
      "Ġended": 7935,
      "Ð°ÐºÑĤ": 7936,
      "ĠKur": 7937,
      "ennen": 7938,
      "law": 7939,
      "Ġante": 7940,
      "xes": 7941,
      "Ġantes": 7942,
      "ĠInternacional": 7943,
      "Ġconditions": 7944,
      "ĠBoston": 7945,
      "Ġinclo": 7946,
      "ĠCongress": 7947,
      "ĠÑģÑĤÐ¾ÑĢÐ¾Ð½": 7948,
      "ingham": 7949,
      "Ð½Ð¾ÑģÑĤÑĮÑİ": 7950,
      "Ġtoute": 7951,
      "Ġtradicional": 7952,
      "ĠVolks": 7953,
      "Ġaunque": 7954,
      "Ġfourth": 7955,
      "oon": 7956,
      "Ġllibre": 7957,
      "ĠprÃłct": 7958,
      "ĠTim": 7959,
      "Ġ43": 7960,
      "ĠÑĥÐ½Ð¸Ð²ÐµÑĢÑģÐ¸ÑĤ": 7961,
      "ĠGab": 7962,
      "Ġpercent": 7963,
      "like": 7964,
      "Ġinterview": 7965,
      "ĠWilhelm": 7966,
      "Ġanimals": 7967,
      "ueva": 7968,
      "Ġtrasllad": 7969,
      "ĠArab": 7970,
      "ĠÑģÐµÐ·": 7971,
      "Ġ1912": 7972,
      "ĠHon": 7973,
      "exÃ¨rcit": 7974,
      "Ġbed": 7975,
      "ĠÑĥÐ¿": 7976,
      "elled": 7977,
      "iate": 7978,
      "Ġeinige": 7979,
      "inois": 7980,
      "Au": 7981,
      "73": 7982,
      "Ġstop": 7983,
      "ependant": 7984,
      "ĠÑĥÐ±": 7985,
      "Ġcomenz": 7986,
      "ĠLiter": 7987,
      "overs": 7988,
      "minal": 7989,
      "Ġocupades": 7990,
      "Ð¸ÑĩÐµÑģÐºÐ¸Ð¹": 7991,
      "Ã¶m": 7992,
      "uria": 7993,
      "Ġdeixar": 7994,
      "har": 7995,
      "Ġalemany": 7996,
      "lieÃŁlich": 7997,
      "ĠfabricaciÃ³": 7998,
      "chÃ©": 7999,
      "Ð°ÑĨÐ¸Ð¾Ð½": 8000,
      "Person": 8001,
      "isterschaft": 8002,
      "Ġdiu": 8003,
      "orea": 8004,
      "onc": 8005,
      "ĠprÃ²p": 8006,
      "Ġremov": 8007,
      "etzte": 8008,
      "ĠScience": 8009,
      "izaciÃ³n": 8010,
      "irement": 8011,
      "Ġarticle": 8012,
      "ĠÐĲÐ»ÐµÐºÑģ": 8013,
      "alten": 8014,
      "icana": 8015,
      "umin": 8016,
      "Ã³l": 8017,
      "Ġmut": 8018,
      "ĠÐ·ÐµÐ¼": 8019,
      "IS": 8020,
      "unal": 8021,
      "Ãłtica": 8022,
      "ingressos": 8023,
      "Activitats": 8024,
      "retot": 8025,
      "ĠÐ¿Ð¾Ñĩ": 8026,
      "Ġbreak": 8027,
      "Ġfif": 8028,
      "ĠDirector": 8029,
      "ĠÐ·Ð°Ð½Ð¸Ð¼": 8030,
      "Ġbank": 8031,
      "ĠÑĩÑĤÐ¾Ð±Ñĭ": 8032,
      "owers": 8033,
      "Ġquedar": 8034,
      "ĠÑĢÐµÐ·ÑĥÐ»ÑĮÑĤ": 8035,
      "ĠKais": 8036,
      "Par": 8037,
      "Ġlived": 8038,
      "Ġcontro": 8039,
      "Ġcompetition": 8040,
      "Ġpromin": 8041,
      "encias": 8042,
      "Ġtraditional": 8043,
      "dorf": 8044,
      "âĤ¬.": 8045,
      "ĠService": 8046,
      "ĠÐŀÑĤ": 8047,
      "anced": 8048,
      "Ġalready": 8049,
      "ÐºÐ°Ñħ": 8050,
      "Ġqualsevol": 8051,
      "acio": 8052,
      "ĠTa": 8053,
      "uma": 8054,
      "Ġvoc": 8055,
      "Ð¸ÑĩÐµÑģÐºÐ¸Ðµ": 8056,
      "Ġdimens": 8057,
      "Ġdescend": 8058,
      "Ġdeutscher": 8059,
      "yan": 8060,
      "Ġneben": 8061,
      "Ã¸": 8062,
      "rero": 8063,
      "Ġsystems": 8064,
      "jat": 8065,
      "ĠWilliams": 8066,
      "ĠImper": 8067,
      "bern": 8068,
      "Ġretorn": 8069,
      "Ġpolitique": 8070,
      "Ġstaff": 8071,
      "Ġarc": 8072,
      "ĠFound": 8073,
      "based": 8074,
      "Ġmond": 8075,
      "ĠItalian": 8076,
      "yect": 8077,
      "ĠConserv": 8078,
      "ĠVirginia": 8079,
      "olis": 8080,
      "Ġgem": 8081,
      "ĠWeltkrieg": 8082,
      "Ġkeep": 8083,
      "Ġsit": 8084,
      "embly": 8085,
      "ĠCre": 8086,
      "lim": 8087,
      "Ġjob": 8088,
      "genommen": 8089,
      "Ã¶ffn": 8090,
      "amental": 8091,
      "Ġcanal": 8092,
      "Ġoperations": 8093,
      "Ġforme": 8094,
      "ÑıÐ¼": 8095,
      "Ġparc": 8096,
      "ĠRh": 8097,
      "Ġerne": 8098,
      "ypt": 8099,
      "ÐµÐ½ÑĤÐ°": 8100,
      "ĠÐ¼Ð¾Ð»": 8101,
      "vin": 8102,
      "Ġrod": 8103,
      "ĠMosc": 8104,
      "iedad": 8105,
      "bn": 8106,
      "inson": 8107,
      "Ġinfl": 8108,
      "ĠEnd": 8109,
      "Ġdeta": 8110,
      "ĠCanadian": 8111,
      "ulpt": 8112,
      "stitution": 8113,
      "ĠNavy": 8114,
      "Ð°ÑĢÐ¾Ð´": 8115,
      "Ġbattle": 8116,
      "pass": 8117,
      "Ġsource": 8118,
      "Ġthus": 8119,
      "Ġdol": 8120,
      "mat": 8121,
      "Ã¤nge": 8122,
      "ĠÐ´ÐµÐºÐ°Ð±": 8123,
      "Ġfeet": 8124,
      "ĠKo": 8125,
      "ĠOld": 8126,
      "aries": 8127,
      "ndia": 8128,
      "Ġlove": 8129,
      "ĠKinder": 8130,
      "wahl": 8131,
      "bro": 8132,
      "ktor": 8133,
      "Ġpractice": 8134,
      "ĠKol": 8135,
      "Ġinner": 8136,
      "alta": 8137,
      "aging": 8138,
      "Ġmove": 8139,
      "ER": 8140,
      "Ġministre": 8141,
      "Ġange": 8142,
      "Ġllengua": 8143,
      "eto": 8144,
      "ĠXVII": 8145,
      "ĠÐ¡Ð¾Ð²": 8146,
      "Ġaproxim": 8147,
      "ĠVill": 8148,
      "Ġclar": 8149,
      "bildung": 8150,
      "Ġprimary": 8151,
      "Ð»Ð¸Ð²": 8152,
      "Ġserie": 8153,
      "ivos": 8154,
      "Ġminutes": 8155,
      "Ð¼Ð¾Ð¶": 8156,
      "Ġrevista": 8157,
      "aute": 8158,
      "Te": 8159,
      "Ð¾Ð»Ð¾": 8160,
      "Ġihrem": 8161,
      "Ġhigher": 8162,
      "Ġveget": 8163,
      "Ġautre": 8164,
      "Ġlit": 8165,
      "ĠJones": 8166,
      "ĠDorf": 8167,
      "ĠaC": 8168,
      "quier": 8169,
      "ĠPublic": 8170,
      "Ġcontinue": 8171,
      "ĠSev": 8172,
      "ÃŃcia": 8173,
      "actÃ©r": 8174,
      "ĠGol": 8175,
      "Ã¨le": 8176,
      "ĠKind": 8177,
      "Ġstell": 8178,
      "osen": 8179,
      "fach": 8180,
      "ompl": 8181,
      "Ġstudio": 8182,
      "ĠTol": 8183,
      "ĠJahrhunderts": 8184,
      "itzer": 8185,
      "ublik": 8186,
      "ĠdÃŃa": 8187,
      "Ġincreased": 8188,
      "Ð¸ÐµÐ¼": 8189,
      "Ġlength": 8190,
      "ĠmÃ©t": 8191,
      "Ġvirt": 8192,
      "ĠEdward": 8193,
      "ĠZu": 8194,
      "Ġearlier": 8195,
      "ÑĪÐ¸Ñħ": 8196,
      "alo": 8197,
      "ĠFranz": 8198,
      "ĠgairebÃ©": 8199,
      "ĠMÃ©": 8200,
      "Ġschw": 8201,
      "09": 8202,
      "reiche": 8203,
      "jÃ¤h": 8204,
      "nia": 8205,
      "real": 8206,
      "Ġlack": 8207,
      "Ġimportante": 8208,
      "ĠBew": 8209,
      "Ġrejo": 8210,
      "bet": 8211,
      "Ġmec": 8212,
      "elop": 8213,
      "essa": 8214,
      "ĠResearch": 8215,
      "ĠPass": 8216,
      "ĠfranzÃ¶s": 8217,
      "Ġinicial": 8218,
      "ĠÐ¿Ð¾Ð»ÑĥÑĩÐ¸Ð»": 8219,
      "Ġseguir": 8220,
      "ĠCommun": 8221,
      "Ġroy": 8222,
      "ĠHong": 8223,
      "Ã¨de": 8224,
      "Ġthought": 8225,
      "Ġgobierno": 8226,
      "ĠEle": 8227,
      "usch": 8228,
      "egt": 8229,
      "ĠHein": 8230,
      "Ġinactius": 8231,
      "Ġapareix": 8232,
      "anten": 8233,
      "Ġmantenir": 8234,
      "She": 8235,
      "Ġaccording": 8236,
      "ĠNieder": 8237,
      "Ġlanz": 8238,
      "Ġcomte": 8239,
      "Ġdecision": 8240,
      "ĠÐ¡Ð¡Ð¡Ðł": 8241,
      "Ġwoman": 8242,
      "ĠÑĥÐ¶Ðµ": 8243,
      "Ġafect": 8244,
      "Ġconnect": 8245,
      "ĠGeschichte": 8246,
      "dam": 8247,
      "uerte": 8248,
      "Ġseria": 8249,
      "ĠDort": 8250,
      "teen": 8251,
      "Ġpun": 8252,
      "Ġwegen": 8253,
      "ulaire": 8254,
      "Ġ#": 8255,
      "Ġly": 8256,
      "Ġmilions": 8257,
      "rd": 8258,
      "Ð¼Ñĭ": 8259,
      "ĠprÃ©sident": 8260,
      "itaris": 8261,
      "dez": 8262,
      "Ð»Ð¸Ð·": 8263,
      "Ġself": 8264,
      "onces": 8265,
      "ĠGovernment": 8266,
      "ĠdÃ©velopp": 8267,
      "Ġintegraven": 8268,
      "riques": 8269,
      "53": 8270,
      "ĠZusammen": 8271,
      "ĠBu": 8272,
      "Ã¼cke": 8273,
      "AN": 8274,
      "ÐµÑĢÐ¾Ð¼": 8275,
      "ĠKingdom": 8276,
      "89": 8277,
      "ÐµÐ·Ð´": 8278,
      "ibli": 8279,
      "Ġjubilades": 8280,
      "usband": 8281,
      "iation": 8282,
      "eks": 8283,
      "Ġrot": 8284,
      "Ġaquell": 8285,
      "ĠPers": 8286,
      "ĠSem": 8287,
      "ĠTag": 8288,
      "rup": 8289,
      "Ġassum": 8290,
      "Ġnotable": 8291,
      "Ġaturades": 8292,
      "Ð°Ð¶": 8293,
      "ichten": 8294,
      "Ġcurrently": 8295,
      "ĠAixÃŃ": 8296,
      "ĠYoung": 8297,
      "Ġmedic": 8298,
      "taining": 8299,
      "Ġsistem": 8300,
      "pose": 8301,
      "52": 8302,
      "Ingressos": 8303,
      "Ġdestroy": 8304,
      "Ġwinning": 8305,
      "acle": 8306,
      "ĠÐ²Ð½": 8307,
      "ĠJournal": 8308,
      "56": 8309,
      "Ġentrar": 8310,
      "Ġdan": 8311,
      "cken": 8312,
      "Ġexplic": 8313,
      "ĠCard": 8314,
      "lit": 8315,
      "ĠDom": 8316,
      "lle": 8317,
      "Ã¢teau": 8318,
      "Ġcou": 8319,
      "ĠdÃ©m": 8320,
      "ĠrÃłp": 8321,
      "Ġjou": 8322,
      "iote": 8323,
      "Ġavril": 8324,
      "Ġdernier": 8325,
      "Ġgemeins": 8326,
      "Ġtrouve": 8327,
      "ĠÐ·Ð½Ð°Ñĩ": 8328,
      "Ġnewspap": 8329,
      "Ġrectangular": 8330,
      "Ġmonument": 8331,
      "ĠllanÃ§": 8332,
      "urer": 8333,
      "ipe": 8334,
      "ĠÐºÐ°Ñĩ": 8335,
      "ĠÃ¨poca": 8336,
      "Ġdieses": 8337,
      "Ġclosed": 8338,
      "aud": 8339,
      "Ġcompanies": 8340,
      "anal": 8341,
      "ktiv": 8342,
      "Ð½Ð¸ÐºÐ¾Ð¼": 8343,
      "Ġverk": 8344,
      "Ġapproxim": 8345,
      "VD": 8346,
      "Ġcoast": 8347,
      "Ġvac": 8348,
      "Ġsport": 8349,
      "stÃ¤nd": 8350,
      "Ġheut": 8351,
      "Ġestablir": 8352,
      "ĠamÃ©rica": 8353,
      "Ġtroben": 8354,
      "Ġlocation": 8355,
      "ĠÑģÐ¾Ð²ÐµÑĤ": 8356,
      "wicklung": 8357,
      "onic": 8358,
      "aines": 8359,
      "wand": 8360,
      "Ġcerta": 8361,
      "cu": 8362,
      "ĠnÃ©ixer": 8363,
      "ĠÑģÐ¾ÑģÑĤÐ°Ð²Ðµ": 8364,
      "achel": 8365,
      "ĠCorpor": 8366,
      "Ġindividuals": 8367,
      "Ġquestion": 8368,
      "Ġclima": 8369,
      "ĠrÃ©gion": 8370,
      "zial": 8371,
      "ĠRu": 8372,
      "lac": 8373,
      "ĠÑĢÐ°ÑģÐ¿Ð¾Ð»Ð¾Ð¶": 8374,
      "Ġandere": 8375,
      "Ġzweiten": 8376,
      "Ġproperty": 8377,
      "Ġopening": 8378,
      "Ġassass": 8379,
      "Ġcell": 8380,
      "ĠrÃ©c": 8381,
      "Ġderrot": 8382,
      "Ġactivities": 8383,
      "imum": 8384,
      "ĠConc": 8385,
      "ĠFrau": 8386,
      "Ð»Ð°Ð³": 8387,
      "Ġsuperv": 8388,
      "Ġterc": 8389,
      "Ġsollte": 8390,
      "onents": 8391,
      "aterra": 8392,
      "Ġsurround": 8393,
      "ĠIreland": 8394,
      "Ġpreviously": 8395,
      "ĠBow": 8396,
      "Ġselon": 8397,
      "ĠÐ³Ð¾Ð´Ñĭ": 8398,
      "Ġestudi": 8399,
      "arian": 8400,
      "ĠWork": 8401,
      "Ġacomp": 8402,
      "Ġbring": 8403,
      "laus": 8404,
      "onder": 8405,
      "ĠspÃ©c": 8406,
      "ĠHor": 8407,
      "ĠShow": 8408,
      "ĠlÃ©g": 8409,
      "ĠrÃ©p": 8410,
      "ĠÑĢÐ°Ð¹Ð¾Ð½": 8411,
      "omot": 8412,
      "bec": 8413,
      "ĠÑģÐµÐ²ÐµÑĢ": 8414,
      "liga": 8415,
      "guns": 8416,
      "ĠHam": 8417,
      "ĠPortugal": 8418,
      "Ã£o": 8419,
      "ĠCant": 8420,
      "qÃ¼Ã¨ncia": 8421,
      "arreg": 8422,
      "ĠOh": 8423,
      "havia": 8424,
      "ÑģÑģÐ»ÐµÐ´": 8425,
      "Ġhere": 8426,
      "ĠMem": 8427,
      "ÑģÑĤÐ²Ð¾Ð¼": 8428,
      "Ġaer": 8429,
      "Ġobjet": 8430,
      "Ġviu": 8431,
      "Ġimplement": 8432,
      "Ġhatten": 8433,
      "ĠaoÃ»t": 8434,
      "Ġ1915": 8435,
      "ueixen": 8436,
      "kel": 8437,
      "Ġvend": 8438,
      "Ġdent": 8439,
      "Ġruns": 8440,
      "Ġerhalten": 8441,
      "Ġestudiar": 8442,
      "Ġinfluence": 8443,
      "Ð°ÐµÐ¼": 8444,
      "ÑĪÐ¸Ð¹": 8445,
      "di": 8446,
      "Ġcomment": 8447,
      "odi": 8448,
      "Ġjewe": 8449,
      "ÐµÐ½Ð´": 8450,
      "ĠÐ¶ÐµÐ»": 8451,
      "ÑıÐ¼Ð¸": 8452,
      "Ġchef": 8453,
      "issen": 8454,
      "Ġenvironment": 8455,
      "Ġissue": 8456,
      "Ġimpro": 8457,
      "ĠClass": 8458,
      "Ġassol": 8459,
      "erei": 8460,
      "edes": 8461,
      "ĠÐ¿Ð¾Ð»Ð¸ÑĤ": 8462,
      "Ġexplotacions": 8463,
      "Ġentered": 8464,
      "Ġtema": 8465,
      "ĠUnder": 8466,
      "Ġhin": 8467,
      "Ġsenior": 8468,
      "ĠValley": 8469,
      "ÑĢÐ°ÑģÑĤ": 8470,
      "ĠrestauraciÃ³": 8471,
      "Ġaccomp": 8472,
      "Ã¤uf": 8473,
      "Ã§ois": 8474,
      "ogue": 8475,
      "Ġdret": 8476,
      "hein": 8477,
      "ĠÐ¼ÑĥÐ·Ñĭ": 8478,
      "ĠRang": 8479,
      "ĠÐĿÐ¸Ðº": 8480,
      "Ġlink": 8481,
      "erne": 8482,
      "ĠhistÃ²": 8483,
      "ĠSteph": 8484,
      "Ġforced": 8485,
      "ĠFootball": 8486,
      "univers": 8487,
      "ĠÐºÐ¾ÑĤÐ¾ÑĢÑĭÑħ": 8488,
      "ĠÑĢÑĥÐºÐ¾Ð²Ð¾Ð´": 8489,
      "Ð¸Ð½Ñĥ": 8490,
      "irs": 8491,
      "Ġkilom": 8492,
      "Ðķ": 8493,
      "urger": 8494,
      "ĠtÃ¤tig": 8495,
      "lers": 8496,
      "Ġpeix": 8497,
      "ĠÐ¼Ð½Ð¾Ð³": 8498,
      "ĠLim": 8499,
      "ĠÐ´Ð²Ð°": 8500,
      "Ġcasos": 8501,
      "Äį": 8502,
      "ÐµÐ½Ð½Ð¾Ð¹": 8503,
      "van": 8504,
      "Ġsobretot": 8505,
      "die": 8506,
      "ĠOx": 8507,
      "ÑĦÐ¸ÑĨ": 8508,
      "ef": 8509,
      "Ġconvers": 8510,
      "ĠpaÃ¯sos": 8511,
      "ĠhÃ¶": 8512,
      "ÑĥÑĢÐ½": 8513,
      "Ð·Ð¸Ð´": 8514,
      "exist": 8515,
      "Ġfigures": 8516,
      "Ġnoted": 8517,
      "ĠÐºÐ¾ÑĤ": 8518,
      "ĠWohn": 8519,
      "ÐµÑĢÐµ": 8520,
      "uros": 8521,
      "glaterra": 8522,
      "regist": 8523,
      "anst": 8524,
      "ĠÐµÑīÑĳ": 8525,
      "54": 8526,
      "ĠPerÃ²": 8527,
      "Ġtuvo": 8528,
      "Ð¾ÑģÑĤÑĮ": 8529,
      "jÃł": 8530,
      "Ġrul": 8531,
      "Ð°Ð»ÑĮÐ½Ð¾Ð¹": 8532,
      "issement": 8533,
      "ĠHerr": 8534,
      "ĠGel": 8535,
      "ĠCes": 8536,
      "lah": 8537,
      "grad": 8538,
      "ĠPedro": 8539,
      "ĠgroÃŁen": 8540,
      "ĠThat": 8541,
      "Ġgoing": 8542,
      "Ġmeans": 8543,
      "Ġtorre": 8544,
      "Ġscience": 8545,
      "Ġafin": 8546,
      "Ġlaunched": 8547,
      "Ġroi": 8548,
      "DR": 8549,
      "Ġcommunic": 8550,
      "Ġappel": 8551,
      "Ġcle": 8552,
      "ĠTwo": 8553,
      "ĠLove": 8554,
      "Ġnationale": 8555,
      "rÃŃa": 8556,
      "Ġpassed": 8557,
      "Ġ46": 8558,
      "ension": 8559,
      "ÐĿÐ°": 8560,
      "formation": 8561,
      "alem": 8562,
      "Ġkey": 8563,
      "Ġcharge": 8564,
      "ielle": 8565,
      "ĠÑģÐ¸ÑģÑĤÐµÐ¼": 8566,
      "ĠCer": 8567,
      "reb": 8568,
      "Ġhistoria": 8569,
      "Ob": 8570,
      "Ã¨ria": 8571,
      "ĠrÃ¨g": 8572,
      "Ġllu": 8573,
      "Ġdrop": 8574,
      "ĠMatt": 8575,
      "tage": 8576,
      "Ġtercer": 8577,
      "Ġmatrim": 8578,
      "wald": 8579,
      "Ð°Ð½Ñĭ": 8580,
      "ÑĢÐ°Ð»": 8581,
      "onen": 8582,
      "ĠreÃ§": 8583,
      "Ġimpress": 8584,
      "ĠPenns": 8585,
      "ni": 8586,
      "Ġhid": 8587,
      "Ġcosta": 8588,
      "Ġrund": 8589,
      "Ġcorre": 8590,
      "Ġrapid": 8591,
      "Ġ1911": 8592,
      "ĠFac": 8593,
      "ĠNik": 8594,
      "Ġbetter": 8595,
      "Man": 8596,
      "Ġcreu": 8597,
      "erschied": 8598,
      "esto": 8599,
      "ĠJugend": 8600,
      "gesamt": 8601,
      "Institut": 8602,
      "osl": 8603,
      "utch": 8604,
      "ĠÑĢÐµÐ³": 8605,
      "Ġvaria": 8606,
      "Ġexped": 8607,
      "Ġpublicar": 8608,
      "ĠÐ²Ð¾Ð¹ÑģÐº": 8609,
      "Unis": 8610,
      "mitted": 8611,
      "ylvania": 8612,
      "Ġadqu": 8613,
      "Ġ52": 8614,
      "Ġ1913": 8615,
      "ĠÑģÑĤÑĢÐ¾": 8616,
      "ĠÐ°Ð¿ÑĢÐµ": 8617,
      "aco": 8618,
      "Ġclasse": 8619,
      "ĠÑĢÑĥÑģ": 8620,
      "Ð¸ÑĤÐµÐ»ÑĮÐ½Ð¾": 8621,
      "adium": 8622,
      "Ð½Ð¸Ð³": 8623,
      "Ġdram": 8624,
      "Ġtropes": 8625,
      "Ġpeque": 8626,
      "Ġmehrere": 8627,
      "Ġquick": 8628,
      "ĠHistor": 8629,
      "auspiel": 8630,
      "Ġdivid": 8631,
      "Ġbarri": 8632,
      "Ġtarg": 8633,
      "uchs": 8634,
      "Ġmois": 8635,
      "house": 8636,
      "ohen": 8637,
      "Ġsav": 8638,
      "Ġportar": 8639,
      "Ġsituada": 8640,
      "affen": 8641,
      "Ġligne": 8642,
      "hÃ¤lt": 8643,
      "ĠcÃ´": 8644,
      "erdings": 8645,
      "Ð¸Ð»Ð¾": 8646,
      "Ġ1916": 8647,
      "ÐµÐ½ÐµÑĢÐ°": 8648,
      "Ġsupp": 8649,
      "Ġrenov": 8650,
      "ĠPhilip": 8651,
      "Ġnorthern": 8652,
      "92": 8653,
      "ĠÐ´Ð¾Ðº": 8654,
      "Ġtecn": 8655,
      "ĠAnfang": 8656,
      "Ġentonces": 8657,
      "FC": 8658,
      "Ġwenn": 8659,
      "ĠScot": 8660,
      "Ġvest": 8661,
      "Ġapproach": 8662,
      "ĠLab": 8663,
      "rak": 8664,
      "Ġmanager": 8665,
      "Ġnumerous": 8666,
      "ĠdÃ©cl": 8667,
      "Ãłbitat": 8668,
      "Ġdial": 8669,
      "utlich": 8670,
      "ĠInv": 8671,
      "Ð¸ÐºÐµ": 8672,
      "Ġmesos": 8673,
      "Ġmm": 8674,
      "Ġprincipis": 8675,
      "Ġour": 8676,
      "known": 8677,
      "Ġphilosoph": 8678,
      "ĠCr": 8679,
      "ĠÑĤÐµÐ¼": 8680,
      "Ġdesapar": 8681,
      "ĠInc": 8682,
      "ĠMarie": 8683,
      "Ġmiemb": 8684,
      "Ġcreate": 8685,
      "Estat": 8686,
      "range": 8687,
      "Ġdiesen": 8688,
      "iy": 8689,
      "Ġhusband": 8690,
      "Ġtex": 8691,
      "Ġprohib": 8692,
      "Ġdigital": 8693,
      "Ġgouvernement": 8694,
      "Ġpersonas": 8695,
      "quet": 8696,
      "Ġflu": 8697,
      "schlieÃŁend": 8698,
      "Ġmitjana": 8699,
      "Ġcaused": 8700,
      "51": 8701,
      "ĠTrain": 8702,
      "Ġpont": 8703,
      "ĠVater": 8704,
      "ĠsuperfÃŃc": 8705,
      "Ġsor": 8706,
      "PS": 8707,
      "Ð´ÐµÐ¼": 8708,
      "Ġformal": 8709,
      "ĠÑģÐ¿ÐµÑĨ": 8710,
      "lis": 8711,
      "eteil": 8712,
      "lemanya": 8713,
      "Ġfamilies": 8714,
      "ĠposiciÃ³": 8715,
      "ĠHay": 8716,
      "Ġpertany": 8717,
      "Ã©vrier": 8718,
      "Ġacadem": 8719,
      "ĠSchweiz": 8720,
      "igues": 8721,
      "ĠBBC": 8722,
      "Ġ1905": 8723,
      "ÃŃm": 8724,
      "inar": 8725,
      "Ġnombreux": 8726,
      "imon": 8727,
      "rica": 8728,
      "Ġverwend": 8729,
      "ĠOpen": 8730,
      "ĠÐ¿Ð¾ÑĢ": 8731,
      "Ð²ÐµÐ´": 8732,
      "Ġestablish": 8733,
      "Ġtrade": 8734,
      "ĠÐ¼ÑĥÐ¶": 8735,
      "ĠProt": 8736,
      "hausen": 8737,
      "Ġ47": 8738,
      "Ġdouble": 8739,
      "ĠVil": 8740,
      "Ð¨ÐĲ": 8741,
      "Ã¤ft": 8742,
      "Col": 8743,
      "Entre": 8744,
      "ĠÑĩÐµÑĢÐµÐ·": 8745,
      "Ġthre": 8746,
      "Ġaccident": 8747,
      "etts": 8748,
      "ĠJohnson": 8749,
      "Ġbecoming": 8750,
      "Ġcontinuar": 8751,
      "klÃ¤r": 8752,
      "Ġsyst": 8753,
      "ĠCastell": 8754,
      "ji": 8755,
      "ĠCel": 8756,
      "ÐµÑĤÐµ": 8757,
      "leit": 8758,
      "onda": 8759,
      "Ã©ment": 8760,
      "ĠHeim": 8761,
      "atique": 8762,
      "mittel": 8763,
      "Ġevidence": 8764,
      "Ã©quipe": 8765,
      "rons": 8766,
      "ĠÐ½ÐµÑģÐºÐ¾Ð»ÑĮÐºÐ¾": 8767,
      "fahren": 8768,
      "ĠPhilipp": 8769,
      "Ġclaimed": 8770,
      "ĠBroad": 8771,
      "ĠÐ¿ÐµÑĢÐ¸": 8772,
      "ynam": 8773,
      "Ġstark": 8774,
      "Ġescriure": 8775,
      "Ġsouthern": 8776,
      "Ġstay": 8777,
      "Ġfestival": 8778,
      "Ġgent": 8779,
      "Ġpetita": 8780,
      "Ġrunning": 8781,
      "Ġolder": 8782,
      "Ġnit": 8783,
      "long": 8784,
      "ĠKam": 8785,
      "Ġappearance": 8786,
      "ĠQueen": 8787,
      "Ð¾ÑıÐ±": 8788,
      "Ġagricult": 8789,
      "Ãłss": 8790,
      "ĠÑģÑĥÐ´": 8791,
      "Ġgive": 8792,
      "Ġgelang": 8793,
      "Ġpetits": 8794,
      "ĠÐ¸Ð¼Ð¿": 8795,
      "ĠMost": 8796,
      "ĠHof": 8797,
      "Ã¤che": 8798,
      "Ġroman": 8799,
      "Ġwicht": 8800,
      "Ġmonoparent": 8801,
      "edo": 8802,
      "ĠRechts": 8803,
      "Ð¾ÑĤÐ°": 8804,
      "ÑįÑĤ": 8805,
      "Ð¾Ñİ": 8806,
      "ĠSein": 8807,
      "igue": 8808,
      "Ġmodels": 8809,
      "ĠdirecciÃ³": 8810,
      "ÑĨÐ¸Ñİ": 8811,
      "Ġmonoparentals": 8812,
      "Ġvall": 8813,
      "Ġgenerally": 8814,
      "eff": 8815,
      "Ġsometimes": 8816,
      "ĠFuÃŁ": 8817,
      "Reg": 8818,
      "Ġdot": 8819,
      "Ð¾ÑģÐ¾Ð±": 8820,
      "Ġallerdings": 8821,
      "ĠGil": 8822,
      "AD": 8823,
      "96": 8824,
      "ĠTest": 8825,
      "eur": 8826,
      "ĠGraf": 8827,
      "Ð¸ÑĢÐµ": 8828,
      "fert": 8829,
      "Ġarr": 8830,
      "Ġpoet": 8831,
      "ĠLater": 8832,
      "Ġcoal": 8833,
      "Ġkurz": 8834,
      "hemat": 8835,
      "acs": 8836,
      "ether": 8837,
      "ĠXIII": 8838,
      "ĠTw": 8839,
      "ĠWald": 8840,
      "ĠfrancÃ¨s": 8841,
      "John": 8842,
      "Ġchampionship": 8843,
      "ieux": 8844,
      "ĠMexico": 8845,
      "ĠBuen": 8846,
      "Ġdefinit": 8847,
      "Ãºst": 8848,
      "folge": 8849,
      "ĠJahres": 8850,
      "Ġcinema": 8851,
      "ĠTheatre": 8852,
      "ĠÐ½Ð¾ÑıÐ±": 8853,
      "administraciÃ³": 8854,
      "ĠTurn": 8855,
      "Ð°ÑĢÐ¸": 8856,
      "zt": 8857,
      "OS": 8858,
      "Ġdirected": 8859,
      "Ġcot": 8860,
      "Ġplantes": 8861,
      "Ġprend": 8862,
      "ĠgermÃł": 8863,
      "ĠStein": 8864,
      "Ġwechselte": 8865,
      "alc": 8866,
      "Ġmel": 8867,
      "ĠÐ²ÑĭÑĪ": 8868,
      "ĠBan": 8869,
      "Ġsupported": 8870,
      "ĠÂ£": 8871,
      "Ġveloc": 8872,
      "Ġchief": 8873,
      "Ð¿Ð¾Ð´": 8874,
      "Ð¾Ð·Ñı": 8875,
      "Ġeconomic": 8876,
      "ĠWasser": 8877,
      "Ġraised": 8878,
      "eds": 8879,
      "ĠÃ©crit": 8880,
      "Ġcontest": 8881,
      "ducciÃ³": 8882,
      "chafts": 8883,
      "ĠBattle": 8884,
      "Mit": 8885,
      "ĠpÃ¨re": 8886,
      "Ġchez": 8887,
      "Ġmuj": 8888,
      "ector": 8889,
      "jan": 8890,
      "Art": 8891,
      "icio": 8892,
      "ĠKreis": 8893,
      "ĠIg": 8894,
      "unds": 8895,
      "ehen": 8896,
      "ogrÃ¡": 8897,
      "FL": 8898,
      "ĠBook": 8899,
      "esser": 8900,
      "97": 8901,
      "ĠWomen": 8902,
      "Ã¨te": 8903,
      "mateix": 8904,
      "equ": 8905,
      "ĠIts": 8906,
      "selves": 8907,
      "Ġfand": 8908,
      "ontin": 8909,
      "emper": 8910,
      "ĠStation": 8911,
      "Ġinitially": 8912,
      "ĠBÃ¼rger": 8913,
      "Ġimmob": 8914,
      "ĠÐ²ÑģÑĤ": 8915,
      "Ġadj": 8916,
      "ĠRoll": 8917,
      "Ġverl": 8918,
      "Ġhelped": 8919,
      "Ġrestes": 8920,
      "Ġchem": 8921,
      "ĠSche": 8922,
      "origen": 8923,
      "Ġclubs": 8924,
      "erin": 8925,
      "ĠÑģÑĤÑĢÐ°": 8926,
      "57": 8927,
      "ĠMaur": 8928,
      "ĠGebÃ¤ude": 8929,
      "bury": 8930,
      "ÑĢÐµÐ´ÐµÐ»": 8931,
      "ĠPak": 8932,
      "Her": 8933,
      "eno": 8934,
      "Ð¾Ð³Ð»Ð°Ñģ": 8935,
      "renn": 8936,
      "posa": 8937,
      "ĠÐĺÐ½": 8938,
      "Ð¾Ð±Ñī": 8939,
      "ĠOther": 8940,
      "ĠÐ¿ÑĢÐ¾ÑĦ": 8941,
      "Ġthemselves": 8942,
      "Ã¤mp": 8943,
      "Chr": 8944,
      "Ġbelieved": 8945,
      "Ã²nica": 8946,
      "ĠWales": 8947,
      "Ġowned": 8948,
      "Ġpark": 8949,
      "ÃŃcules": 8950,
      "Ġterren": 8951,
      "Ġjove": 8952,
      "ĠRei": 8953,
      "ÑģÑĤÐ¾Ñı": 8954,
      "Ġgoals": 8955,
      "ÑħÐ¾Ð´Ð¸ÑĤ": 8956,
      "ĠBis": 8957,
      "ÐµÑĢÐ¾Ð²": 8958,
      "ilitÃ©": 8959,
      "ĠÐ¿ÑĢÐ¾Ð¸Ð·Ð²Ð¾Ð´": 8960,
      "Ġsituation": 8961,
      "mpt": 8962,
      "ĠGreg": 8963,
      "ĠWÃ¤hrend": 8964,
      "erca": 8965,
      "Ġvictory": 8966,
      "Ġsera": 8967,
      "rado": 8968,
      "illeurs": 8969,
      "lungen": 8970,
      "kes": 8971,
      "ĠversiÃ³": 8972,
      "Ġversions": 8973,
      "ĠTheater": 8974,
      "Ġurban": 8975,
      "ĠHan": 8976,
      "ourg": 8977,
      "Ġells": 8978,
      "AM": 8979,
      "Ãłtic": 8980,
      "86": 8981,
      "ĠHeinrich": 8982,
      "var": 8983,
      "ĠÐºÐ¾ÑĤÐ¾ÑĢÐ¾Ð¹": 8984,
      "ĠÐļÐ¾Ð½": 8985,
      "ĠÐĺÐ·": 8986,
      "Ġmeeting": 8987,
      "Ð²Ðµ": 8988,
      "Ġwide": 8989,
      "Ġbroadcast": 8990,
      "enÃ§a": 8991,
      "ÑģÑĤÐ²Ðµ": 8992,
      "ĠAh": 8993,
      "Ġshot": 8994,
      "Ġjugar": 8995,
      "ĠRegion": 8996,
      "ĠfÃ©vrier": 8997,
      "Ã¤ll": 8998,
      "Ġerfolgte": 8999,
      "Ġarticles": 9000,
      "Ġtransm": 9001,
      "ĠÐ¿ÑĢÐ¾Ð´Ð¾Ð»Ð¶": 9002,
      "Ġmad": 9003,
      "ĠHit": 9004,
      "ionar": 9005,
      "ĠTrib": 9006,
      "Ġparticularly": 9007,
      "onte": 9008,
      "Ġprimeres": 9009,
      "ersey": 9010,
      "itzada": 9011,
      "Ð»Ð¾Ð¶": 9012,
      "Ġroom": 9013,
      "Ã©rÃ©": 9014,
      "ĠÐ°ÑĢÑħ": 9015,
      "recht": 9016,
      "altra": 9017,
      "ĠÑĩÐ°ÑģÑĤÐ¸": 9018,
      "Ġinvent": 9019,
      "Ġvarios": 9020,
      "ftware": 9021,
      "partement": 9022,
      "ĠChamp": 9023,
      "Ġcm": 9024,
      "ĠgroÃŁe": 9025,
      "elli": 9026,
      "Ġmanagement": 9027,
      "Ġlect": 9028,
      "Ġadditional": 9029,
      "ĠÐ¡Ð¨ÐĲ": 9030,
      "Ġfamous": 9031,
      "ĠSÃ¼": 9032,
      "ĠcarÃłct": 9033,
      "Ġposteriorment": 9034,
      "ali": 9035,
      "ĠÐµÐ¼Ñĥ": 9036,
      "Ġreligious": 9037,
      "Ġalgunos": 9038,
      "ĠZealand": 9039,
      "Ġmoy": 9040,
      "ĠCreek": 9041,
      "Ġern": 9042,
      "ochter": 9043,
      "ĠÃ©taient": 9044,
      "Ġproduir": 9045,
      "iesen": 9046,
      "Ġremains": 9047,
      "order": 9048,
      "BS": 9049,
      "ecciÃ³n": 9050,
      "Ġoffered": 9051,
      "acters": 9052,
      "Ð±Ð°": 9053,
      "burgh": 9054,
      "ĠWolf": 9055,
      "uder": 9056,
      "ĠChief": 9057,
      "Ġtoday": 9058,
      "idor": 9059,
      "ietnam": 9060,
      "Ġhol": 9061,
      "Ġhours": 9062,
      "Ġmenor": 9063,
      "Ġinfant": 9064,
      "ĠLiga": 9065,
      "Ġimpos": 9066,
      "ĠÐ²ÐºÐ»ÑİÑĩ": 9067,
      "ĠFront": 9068,
      "aver": 9069,
      "ÐµÑĢÐ¼": 9070,
      "lied": 9071,
      "Ġproduce": 9072,
      "ansas": 9073,
      "uft": 9074,
      "ĠÃ¨xit": 9075,
      "eman": 9076,
      "Ġmusul": 9077,
      "ĠLeon": 9078,
      "aquests": 9079,
      "Ġprobablement": 9080,
      "annÃ©e": 9081,
      "Ġassociated": 9082,
      "othe": 9083,
      "Ġdiplom": 9084,
      "film": 9085,
      "Ð°ÑĨÐ¸Ñı": 9086,
      "ĠÐ¿ÐµÑĢÐµ": 9087,
      "uez": 9088,
      "ĠÑģÐ¸Ð»": 9089,
      "hre": 9090,
      "ÐµÐ½Ð½ÑĭÐ¹": 9091,
      "Ġartists": 9092,
      "orsitz": 9093,
      "was": 9094,
      "Ġbezeichnet": 9095,
      "Ġcoberta": 9096,
      "Ġsubsequently": 9097,
      "Ġfres": 9098,
      "ĠMonte": 9099,
      "Ġchanges": 9100,
      "ĠÐ½Ð°Ð·Ð½Ð°Ñĩ": 9101,
      "Ġdecidir": 9102,
      "Ġ160": 9103,
      "ging": 9104,
      "berto": 9105,
      "Ġfamilia": 9106,
      "Ġincrease": 9107,
      "ĠCur": 9108,
      "ĠÑĦÐ¸Ð½": 9109,
      "hang": 9110,
      "ĠIrish": 9111,
      "ĠÐ´Ð²ÑĥÑħ": 9112,
      "bat": 9113,
      "Ã¨ct": 9114,
      "Ġaccount": 9115,
      "Ġcedits": 9116,
      "Ġanunc": 9117,
      "Ġgold": 9118,
      "ĠEmpire": 9119,
      "Ġarquitect": 9120,
      "ician": 9121,
      "ĠGreek": 9122,
      "atri": 9123,
      "ĠBret": 9124,
      "Ð¼Ð¾ÑĤ": 9125,
      "adÃ¨m": 9126,
      "ĠInstitut": 9127,
      "furt": 9128,
      "ĠDub": 9129,
      "Ġprefer": 9130,
      "Ġ170": 9131,
      "ĠSalv": 9132,
      "Ġleaving": 9133,
      "ĠÐ·Ð°ÑĤÐµÐ¼": 9134,
      "Ġactor": 9135,
      "ĠNews": 9136,
      "ĠÑĦÐµÐ²": 9137,
      "Ġerschien": 9138,
      "ÑĥÐ´Ð¾Ð¶": 9139,
      "Ġrival": 9140,
      "ĠEnter": 9141,
      "aum": 9142,
      "Ġvoll": 9143,
      "ĠHospital": 9144,
      "ĠHu": 9145,
      "Ð°Ð»Ðµ": 9146,
      "Ġrelated": 9147,
      "Dans": 9148,
      "Ġtroops": 9149,
      "ĠGeg": 9150,
      "Ã¼nstler": 9151,
      "tainment": 9152,
      "ocratic": 9153,
      "kirche": 9154,
      "gleich": 9155,
      "Ð²Ð¸": 9156,
      "ĠNatur": 9157,
      "ĠannÃ©e": 9158,
      "Ġangl": 9159,
      "nea": 9160,
      "Ãºnic": 9161,
      "ĠZweiten": 9162,
      "ĠPacific": 9163,
      "ĠÐ²ÐµÐºÐ°": 9164,
      "Ġlonger": 9165,
      "ĠNou": 9166,
      "erstÃ¼tz": 9167,
      "oid": 9168,
      "ĠÑģÐ²Ð¾ÐµÐ¹": 9169,
      "Ġrailway": 9170,
      "94": 9171,
      "Ġsecund": 9172,
      "Ġletzten": 9173,
      "Ġpiano": 9174,
      "Ġfocus": 9175,
      "Ġcharg": 9176,
      "ĠÑģÐ¾ÑģÑĤÐ°Ð²Ð»Ñı": 9177,
      "ĠHier": 9178,
      "Ġprograms": 9179,
      "Ġcomplete": 9180,
      "ĠfÃł": 9181,
      "utenant": 9182,
      "ÑĢÐ¸ÑģÑĤ": 9183,
      "laub": 9184,
      "Ġprevent": 9185,
      "zieh": 9186,
      "ĠRot": 9187,
      "Ġllum": 9188,
      "Ġlabel": 9189,
      "Ġbirth": 9190,
      "ports": 9191,
      "Ã©rit": 9192,
      "Ġprofes": 9193,
      "ancy": 9194,
      "Ġreserv": 9195,
      "ĠYear": 9196,
      "Ġhund": 9197,
      "Ġinitial": 9198,
      "ordre": 9199,
      "fa": 9200,
      "Ġincluy": 9201,
      "more": 9202,
      "Ġextrem": 9203,
      "ĠCE": 9204,
      "Ð¸Ð²Ð¸Ð·": 9205,
      "Ġdispers": 9206,
      "Ġvote": 9207,
      "Ġpartido": 9208,
      "Ġcerc": 9209,
      "ÑıÐ¶": 9210,
      "Personal": 9211,
      "Ġrus": 9212,
      "Ã®tre": 9213,
      "osto": 9214,
      "agu": 9215,
      "ilometer": 9216,
      "ÑĢÐ°Ð¼": 9217,
      "ĠÐ¿ÑĥÑĤ": 9218,
      "incl": 9219,
      "Ġfu": 9220,
      "Ġprincipalment": 9221,
      "Ð¾ÑĢÐ°Ñı": 9222,
      "ĠItaly": 9223,
      "Ġattract": 9224,
      "ĠCarolina": 9225,
      "His": 9226,
      "ĠAnna": 9227,
      "ĠBoy": 9228,
      "ĠBrook": 9229,
      "ags": 9230,
      "ĠConsell": 9231,
      "ugen": 9232,
      "ĠÐ¾Ð³": 9233,
      "ple": 9234,
      "Ġmajority": 9235,
      "ĠsituaciÃ³": 9236,
      "nat": 9237,
      "Ġlines": 9238,
      "Pl": 9239,
      "ĠdÃ³n": 9240,
      "orter": 9241,
      "Ġinteress": 9242,
      "hÃ¤ng": 9243,
      "Ġfailed": 9244,
      "ĠHann": 9245,
      "Ġspect": 9246,
      "cat": 9247,
      "Ġbesteht": 9248,
      "Ġarts": 9249,
      "ĠÐ¼ÐµÑģÑĤÐ¾": 9250,
      "Ġsquad": 9251,
      "ĠJewish": 9252,
      "Ġblieb": 9253,
      "ĠprÃ¨s": 9254,
      "Ġ51": 9255,
      "Ġnuev": 9256,
      "uri": 9257,
      "ĠImp": 9258,
      "ÃŃmp": 9259,
      "Ġajud": 9260,
      "ĠParliament": 9261,
      "ĠÐ³Ð¾ÑģÑĥÐ´Ð°ÑĢÑģÑĤÐ²ÐµÐ½": 9262,
      "Ġpresentar": 9263,
      "93": 9264,
      "worth": 9265,
      "Ġregions": 9266,
      "Ġciv": 9267,
      "Ġconvent": 9268,
      "ĠÐ½ÐµÐ´": 9269,
      "ĠJackson": 9270,
      "illon": 9271,
      "ÑįÐ½": 9272,
      "ĠEspanya": 9273,
      "ĠÃ¼bernahm": 9274,
      "Ġbild": 9275,
      "ĠAwards": 9276,
      "ÐµÑģÑĮ": 9277,
      "Ġmusste": 9278,
      "onie": 9279,
      "Ġplata": 9280,
      "ĠschlieÃŁlich": 9281,
      "ĠÐ½ÐµÐºÐ¾ÑĤÐ¾ÑĢ": 9282,
      "ellig": 9283,
      "Ġwestern": 9284,
      "ienn": 9285,
      "Ð½Ð¸Ñħ": 9286,
      "Ġpetites": 9287,
      "term": 9288,
      "Ġdepend": 9289,
      "Ġcambra": 9290,
      "ĠPartit": 9291,
      "Ġmejor": 9292,
      "à¤": 9293,
      "Ġmark": 9294,
      "ĠBi": 9295,
      "Ġ1908": 9296,
      "Ġweeks": 9297,
      "Ġhighest": 9298,
      "amento": 9299,
      "ĠVictoria": 9300,
      "ĠLew": 9301,
      "ĠXII": 9302,
      "Ġcru": 9303,
      "ĠFab": 9304,
      "Ġnews": 9305,
      "ĠIls": 9306,
      "Ġsteht": 9307,
      "pera": 9308,
      "Ġlimited": 9309,
      "ĠWei": 9310,
      "Ġoctubre": 9311,
      "Ġearned": 9312,
      "Å«": 9313,
      "ĠÐ¸Ð³ÑĢÐ°": 9314,
      "Ġmetal": 9315,
      "ĠEducation": 9316,
      "Ġcomport": 9317,
      "Ġactualment": 9318,
      "ĠÐĲÐ»ÐµÐºÑģÐ°Ð½Ð´": 9319,
      "Ġllocs": 9320,
      "istischen": 9321,
      "ĠRailway": 9322,
      "izabeth": 9323,
      "ÑĢÐ¾ÑģÑĤ": 9324,
      "eph": 9325,
      "Ġformes": 9326,
      "ivement": 9327,
      "ĠPrince": 9328,
      "ĠNorm": 9329,
      "Ġdit": 9330,
      "Ġfilla": 9331,
      "Ġpolicy": 9332,
      "Ġtarde": 9333,
      "Ġchair": 9334,
      "ĠArgentina": 9335,
      "obles": 9336,
      "Ã¯des": 9337,
      "Ġsusp": 9338,
      "ibliote": 9339,
      "Ġsigui": 9340,
      "lywood": 9341,
      "Ġexperience": 9342,
      "Ġ1907": 9343,
      "ĠMcC": 9344,
      "asst": 9345,
      "amerikan": 9346,
      "Ġpartits": 9347,
      "Ġterms": 9348,
      "Ġjoc": 9349,
      "Ġalta": 9350,
      "ĠFa": 9351,
      "ĠdeuxiÃ¨me": 9352,
      "Ġgraduated": 9353,
      "zig": 9354,
      "ĠPennsylvania": 9355,
      "itable": 9356,
      "Ð»Ð°ÑģÑģ": 9357,
      "ĠLle": 9358,
      "ĠDor": 9359,
      "platz": 9360,
      "indung": 9361,
      "deck": 9362,
      "%,": 9363,
      "ÐµÑĢÑĭ": 9364,
      "AF": 9365,
      "Ġotro": 9366,
      "ĠTambiÃ©n": 9367,
      "jas": 9368,
      "Ã§os": 9369,
      "ĠÑĦÐµÐ²ÑĢÐ°": 9370,
      "Ġavui": 9371,
      "Ġcanv": 9372,
      "indre": 9373,
      "Ġmundo": 9374,
      "Ġluego": 9375,
      "Ġselected": 9376,
      "ĠÐ¿Ð¾Ð¼Ð¾Ñī": 9377,
      "Ġfons": 9378,
      "ĠBetrieb": 9379,
      "Bl": 9380,
      "Ġposar": 9381,
      "ĠÐ½Ð°Ð·Ð²Ð°Ð½Ð¸Ðµ": 9382,
      "Ġpossess": 9383,
      "roit": 9384,
      "ĠLine": 9385,
      "ĠPot": 9386,
      "Ġwelche": 9387,
      "breit": 9388,
      "ÑĢÐµÐ¿": 9389,
      "Ġcharacters": 9390,
      "Ġentra": 9391,
      "ĠOut": 9392,
      "Ġheraus": 9393,
      "ĠÐ¶Ð¸Ð²": 9394,
      "ĠFederal": 9395,
      "Ġblock": 9396,
      "Ġmedie": 9397,
      "oul": 9398,
      "obei": 9399,
      "Ġviele": 9400,
      "ĠÐºÐ¾ÑĤÐ¾ÑĢÐ°Ñı": 9401,
      "Ġhizo": 9402,
      "Ġbronze": 9403,
      "ĠConf": 9404,
      "ĠKan": 9405,
      "Ġtransc": 9406,
      "Ð°Ð´Ð°": 9407,
      "ĠSyd": 9408,
      "Ġvaix": 9409,
      "ĠGuard": 9410,
      "Ġprovince": 9411,
      "Ġjard": 9412,
      "Ġbew": 9413,
      "ĠSpe": 9414,
      "91": 9415,
      "Ġreste": 9416,
      "ĠÐ´Ð¾Ð»": 9417,
      "ĠAprÃ¨s": 9418,
      "Ġresponse": 9419,
      "ĠUne": 9420,
      "Ġretour": 9421,
      "ÐµÐ²Ð¸Ñĩ": 9422,
      "Ġlarger": 9423,
      "ration": 9424,
      "ĠâĢĺ": 9425,
      "reng": 9426,
      "amor": 9427,
      "ĠFoundation": 9428,
      "Ġhistori": 9429,
      "ĠÑįÐºÑģÐ¿": 9430,
      "Ġdispon": 9431,
      "Ġexpans": 9432,
      "ĠÑĥÑģÑĤÐ°Ð½Ð¾Ð²": 9433,
      "Ġpermit": 9434,
      "Ġvoy": 9435,
      "ÐµÐ½Ð½Ð¾Ð³Ð¾": 9436,
      "Ġfinancial": 9437,
      "Ġcarried": 9438,
      "Ġtold": 9439,
      "Ġfinally": 9440,
      "ĠMov": 9441,
      "ĠHarr": 9442,
      "atus": 9443,
      "Ġdoit": 9444,
      "84": 9445,
      "Ġdib": 9446,
      "Ġespect": 9447,
      "onders": 9448,
      "ĠTay": 9449,
      "Ġorganis": 9450,
      "Ġdocuments": 9451,
      "zi": 9452,
      "Ġtir": 9453,
      "ĠRest": 9454,
      "ĠColumbia": 9455,
      "Ġdebido": 9456,
      "ĠPremier": 9457,
      "don": 9458,
      "Ġbad": 9459,
      "ĠÐ¸Ð·Ð´": 9460,
      "iÃ¨rement": 9461,
      "Ġarrived": 9462,
      "Ġ1906": 9463,
      "neur": 9464,
      "ilson": 9465,
      "kin": 9466,
      "Ġasked": 9467,
      "ĠTochter": 9468,
      "ĠÃ©lect": 9469,
      "Ġresidents": 9470,
      "Ð¸ÑĨÐ¸Ð¸": 9471,
      "aure": 9472,
      "onal": 9473,
      "neo": 9474,
      "teilung": 9475,
      "Ġmedical": 9476,
      "Ãītat": 9477,
      "ĠÐ½Ð¸Ñħ": 9478,
      "interior": 9479,
      "Ġpoor": 9480,
      "Ġsouvent": 9481,
      "Ġalways": 9482,
      "ĠÐ°Ð´": 9483,
      "ĠPrimera": 9484,
      "Mus": 9485,
      "ĠFolge": 9486,
      "entral": 9487,
      "antas": 9488,
      "evÃ¶lker": 9489,
      "Ħĸ": 9490,
      "ufen": 9491,
      "Ġ1890": 9492,
      "ulada": 9493,
      "jekt": 9494,
      "ĠLife": 9495,
      "ĠSouthern": 9496,
      "ĠLeben": 9497,
      "ĠgÃ¨n": 9498,
      "azi": 9499,
      "Ð¾ÑĢÐ³": 9500,
      "ÑıÑģ": 9501,
      "Ġmight": 9502,
      "ĠFrauen": 9503,
      "ĠPriv": 9504,
      "Ã©rc": 9505,
      "Ġinclou": 9506,
      "ĠAqu": 9507,
[...]
